<brk> 0
p 29367
> 28054
</ 14683
▁< 14164
. 9656
, 8828
it 8060
they 6626
▁the 5399
' 4002
▁to 3743
▁and 2982
▁I 2946
▁a 2400
>' 2177
s 1996
▁you 1972
t 1885
▁of 1872
< 1742
▁that 1719
▁in 1654
... 1441
▁is 1419
? 1406
re 1251
hon 1251
hoff 1230
>< 1224
▁was 1049
▁have 1006
▁but 973
▁be 955
▁are 922
▁know 879
▁for 839
▁me 825
▁on 816
▁And 775
▁if 754
▁when 730
▁what 728
▁this 711
▁can 694
▁The 676
▁not 658
▁as 655
▁my 636
▁so 624
▁will 621
▁out 612
▁your 599
▁it 592
▁do 586
▁them 585
▁were 584
▁don 582
▁But 581
▁like 581
▁their 555
▁all 526
▁- 516
ll 502
▁just 495
▁up 494
▁we 482
▁They 469
▁You 467
▁at 439
▁If 430
▁there 426
▁think 425
▁from 422
▁because 417
▁want 408
▁get 407
▁would 393
▁us 387
▁It 384
▁where 371
▁see 369
▁with 366
▁how 360
▁had 358
▁has 349
- 348
▁people 340
▁or 335
! 323
▁go 321
▁one 320
ve 319
▁here 309
▁" 300
▁about 298
▁an 292
▁w 288
▁back 278
▁got 278
▁could 277
d 270
m 267
▁come 266
▁Well 266
▁way 263
▁into 260
▁time 258
▁no 257
▁by 256
▁now 253
h 250
▁then 247
▁' 246
▁before 245
▁When 241
▁did 239
▁right 239
▁What 238
▁his 237
▁ 235
▁more 234
▁only 234
▁make 234
▁things 233
▁didn 226
▁We 222
▁been 220
▁say 220
▁So 220
▁even 218
▁he 217
▁never 216
▁going 215
▁him 215
▁our 214
▁off 212
▁down 204
▁than 199
▁other 197
▁these 197
▁doesn 196
▁take 191
▁over 189
▁good 185
▁still 183
▁who 180
▁really 180
▁her 170
▁some 168
▁tell 167
▁gonna 166
▁look 166
▁always 163
▁much 163
▁mean 163
▁too 162
▁women 161
▁life 160
▁girls 160
▁does 160
▁That 160
▁very 159
>, 156
▁work 155
▁should 152
▁This 149
y 148
▁No 148
▁through 148
▁said 145
▁why 143
▁find 143
▁any 142
▁came 140
▁those 139
▁away 135
▁thing 135
▁may 135
▁something 133
▁He 132
▁might 132
▁money 129
▁How 129
▁Yeah 129
▁put 127
▁Then 125
▁must 124
▁sure 122
▁two 121
▁Oh 121
▁Now 120
▁won 120
▁years 118
▁until 118
▁give 118
>. 117
▁made 117
▁which 117
▁long 116
▁thought 114
▁place 114
▁went 112
▁need 111
▁love 110
▁well 105
." 104
▁Because 102
▁man 100
▁world 98
>? 98
▁after 98
▁themselves 98
▁In 98
▁men 97
▁day 96
▁doing 95
▁body 95
▁around 95
▁own 94
▁used 94
▁found 94
▁better 94
▁keep 93
▁Yes 92
▁My 92
▁let 92
▁anything 91
▁told 91
▁everything 90
▁A 90
▁feel 90
▁wouldn 89
▁live 89
▁l 89
e 89
▁old 89
▁again 87
▁All 87
▁great 87
▁There 87
▁enough 87
▁also 84
▁they 84
▁every 84
▁same 83
▁knew 83
▁Why 83
▁car 83
▁As 83
▁kind 83
tle 82
▁first 82
▁goes 82
▁took 81
▁Maybe 81
▁comes 81
▁water 81
▁ever 81
▁believe 81
▁kill 80
▁new 80
▁left 80
▁says 79
▁Where 79
▁Do 79
▁wanted 78
▁each 78
▁last 78
▁many 78
▁night 78
▁These 77
▁die 77
▁isn 76
▁she 76
▁leave 75
▁lot 74
▁end 74
▁big 74
▁little 72
▁coming 71
▁while 71
▁once 70
▁together 70
▁friends 69
▁room 69
▁started 69
▁course 69
▁house 68
▁help 68
▁few 68
▁being 68
▁three 68
▁heart 67
▁Are 67
▁saw 66
▁bad 66
▁actually 66
▁light 66
▁lives 65
▁means 65
▁dead 65
▁care 65
▁hard 64
▁gets 64
▁call 64
▁beautiful 64
▁run 64
the 64
▁wants 63
▁stay 63
▁another 63
▁Your 63
▁under 63
▁real 62
▁most 61
-- 61
▁ago 60
▁hands 60
▁head 60
▁stop 60
▁longer 59
▁guys 59
▁matter 59
▁wrong 59
▁mind 59
▁nothing 59
▁though 59
▁, 59
▁Let 58
▁use 58
▁power 58
▁today 57
▁since 57
▁hear 57
▁show 57
▁maybe 57
▁trying 57
▁seem 57
▁name 56
▁hope 56
▁Look 56
▁turn 55
▁home 55
▁wasn 55
▁open 55
▁yet 55
▁understand 55
▁inside 54
▁soon 54
▁move 54
▁whatever 54
▁such 54
▁ask 54
▁talk 54
▁looks 53
▁already 53
▁true 53
▁She 52
▁fall 52
▁alive 52
▁idea 52
▁heard 52
▁human 52
▁pretty 52
▁next 51
▁knows 51
▁gave 51
▁Or 51
▁whole 51
▁year 51
▁aren 51
▁four 50
▁died 50
cause 50
▁needs 50
▁door 49
▁h 49
▁s 49
▁couldn 49
▁face 49
self 49
▁saying 49
▁bring 49
: 49
▁days 49
▁getting 49
▁different 48
▁killed 48
▁... 48
▁eat 48
▁start 48
▁Did 48
▁system 48
▁works 48
▁become 47
▁Is 47
▁Of 47
▁People 47
▁far 47
▁God 47
▁Even 47
▁living 47
▁death 47
▁lost 46
▁someone 46
▁sometimes 46
▁Don 46
▁For 45
▁change 45
▁remember 45
▁takes 45
▁mother 45
▁Once 45
▁working 45
▁able 44
▁yours 44
▁case 44
▁cut 44
▁making 44
▁done 44
▁seen 44
▁gone 44
▁nice 44
▁sort 43
▁part 43
▁moment 43
▁happen 43
▁control 43
▁One 43
▁called 43
▁weren 42
▁try 42
▁truth 42
▁uh 42
▁makes 42
▁behind 42
▁else 42
▁farm 42
▁story 41
▁important 41
▁children 41
▁morning 41
▁fact 41
" 41
▁reason 40
▁between 40
▁mine 40
▁exactly 40
▁machine 40
▁times 40
▁point 40
▁best 39
▁close 39
▁small 39
▁cold 39
▁blood 39
▁guy 39
▁hand 39
▁Not 38
▁looking 38
▁Sometimes 38
▁safe 38
▁along 38
▁play 38
6 38
▁somewhere 38
em 38
▁sun 38
▁woman 37
▁1 37
▁air 37
▁father 37
▁against 37
▁unless 37
▁guess 37
▁late 37
▁pay 37
▁without 37
▁boys 37
▁i 37
▁am 36
▁looked 36
▁less 36
▁Some 36
▁Just 36
▁realize 36
▁brought 36
▁town 36
▁ground 35
hout 35
9 35
▁half 35
▁war 35
▁set 35
▁hours 35
▁grow 35
▁kids 35
ion 35
▁hot 35
▁side 35
▁family 35
▁seems 35
▁free 35
▁eyes 35
▁Like 35
▁Those 35
▁whether 34
▁Does 34
▁both 34
▁parents 34
▁anymore 34
▁job 34
▁send 34
▁probably 34
▁figure 34
▁high 34
▁brain 34
▁Only 34
▁eye 34
▁baby 33
▁easy 33
▁happy 33
▁worth 33
▁government 33
▁ready 33
▁turned 33
▁Before 33
▁tried 33
▁drive 33
▁fell 33
▁hate 33
▁b 33
▁break 32
▁missing 32
▁building 32
I 32
▁ain 32
▁Can 32
▁least 32
▁country 32
▁full 32
▁young 32
▁hold 32
▁To 32
▁victim 32
▁exist 32
# 32
; 31
▁thinking 31
▁wa 31
▁afraid 31
▁kept 31
▁line 31
▁word 31
▁Here 31
▁sound 31
▁taken 31
▁read 31
▁strong 30
▁c 30
▁happened 30
▁running 30
▁cannot 30
▁stopped 30
▁wife 30
▁dark 30
▁certain 30
▁order 30
▁given 30
▁everyone 30
▁victims 30
▁? 30
▁shall 30
They 30
▁attack 30
▁follow 30
▁bet 30
▁Our 29
▁till 29
▁starts 29
▁Mr 29
▁sees 29
▁happens 29
▁listen 29
▁earth 29
▁poor 29
▁hell 29
▁f 29
▁wear 29
▁Will 28
▁designed 28
▁walk 28
▁school 28
$ 28
▁neck 28
▁alone 28
▁appear 28
▁crazy 28
▁On 28
▁draw 28
▁front 28
▁supposed 28
▁speak 28
▁fly 28
▁becomes 27
▁wish 27
▁empty 27
▁watch 27
▁At 27
▁worked 27
▁months 27
▁See 27
▁Earth 27
▁problem 27
▁terror 27
▁anyone 27
▁bank 27
▁forever 27
▁law 27
▁completely 26
▁dangerous 26
▁mouth 26
▁hurt 26
▁fine 26
▁stuff 26
▁soul 26
▁Okay 26
▁wherever 26
▁ship 26
▁person 26
▁taking 26
▁became 26
▁buy 26
▁acts 26
▁fight 26
>... 26
▁asked 26
▁later 26
▁having 26
▁road 26
▁doors 25
▁cost 25
▁belongs 25
▁telling 25
▁smell 25
▁phone 25
▁sir 25
▁somebody 25
▁fire 25
▁dog 25
▁act 25
▁bought 25
▁passed 25
▁stand 25
▁wanna 25
▁meet 25
▁although 25
▁led 25
▁needed 24
▁feet 24
▁company 24
▁almost 24
▁worse 24
▁moving 24
▁detect 24
▁chance 24
▁Women 24
▁words 24
▁. 24
▁deal 24
▁fucking 24
▁drink 24
▁okay 24
▁belong 24
▁music 23
▁t 23
▁girl 23
▁sell 23
▁turns 23
▁quickly 23
▁sense 23
▁ran 23
▁shouldn 23
▁number 23
7 23
▁known 23
▁rest 23
▁food 23
▁check 23
▁Was 23
▁waiting 23
▁ones 23
▁skin 23
▁playing 23
▁leaves 23
▁haven 23
▁meant 23
▁throw 23
▁plan 22
▁forget 22
▁outside 22
ing 22
▁future 22
▁fast 22
▁green 22
▁save 22
▁paper 22
▁gives 22
▁state 22
▁sex 22
▁black 22
▁space 22
▁clear 22
▁wondering 22
people 22
▁talking 22
▁office 21
▁planet 21
▁window 21
▁bus 21
▁.. 21
▁weeks 21
▁five 21
▁main 21
▁return 21
▁qu 21
▁remain 21
▁pick 21
▁perfect 21
▁lead 21
▁friend 21
▁floor 21
▁Things 21
,... 21
▁hide 21
▁gas 21
▁information 21
▁funny 21
▁After 21
▁burn 21
▁hearts 21
▁summer 21
▁fish 21
▁dear 21
▁expect 20
▁evidence 20
▁create 20
▁destroy 20
▁changed 20
▁apart 20
▁pos 20
▁minutes 20
▁prove 20
▁memory 20
▁broke 20
▁double 20
▁trouble 20
▁shot 20
▁enemy 20
▁often 20
▁marry 20
▁anyway 20
▁during 20
▁fear 20
▁white 20
▁sea 20
▁thousand 20
▁above 20
▁learn 20
▁support 20
▁race 20
▁usually 20
▁problems 20
▁clothes 20
▁key 19
▁lies 19
▁imagine 19
▁energy 19
▁closed 19
▁destroyed 19
▁New 19
▁extra 19
▁seemed 19
▁Perhaps 19
▁runs 19
Cause 19
▁six 19
▁e 19
her 19
▁tree 19
▁pain 19
▁created 19
▁sent 19
▁piece 19
▁foot 19
▁built 19
▁gun 19
▁Right 19
▁myself 19
▁Their 19
▁sat 19
▁touch 19
▁stars 19
▁ladies 19
▁blue 19
▁strength 19
▁reaches 19
▁near 19
▁Most 19
▁cause 19
▁land 19
▁picture 19
▁pictures 19
▁Since 19
a 19
,< 19
▁50 18
▁protect 18
▁Uh 18
▁disappeared 18
▁dies 18
▁special 18
▁finds 18
▁trust 18
▁answer 18
▁computer 18
▁sign 18
▁legs 18
▁possible 18
▁accept 18
0 18
▁bomb 18
▁film 18
▁upon 18
▁yeah 18
▁gotta 18
▁bigger 18
▁murder 18
▁peace 18
▁past 18
▁form 18
▁hit 18
▁ice 18
▁held 18
▁secret 18
▁meeting 18
hin 18
▁stays 18
▁American 18
▁hasn 18
▁impossible 18
▁belonged 18
▁red 18
▁wonder 18
▁son 18
é 18
▁hadn 18
▁Huseby 18
▁lose 17
▁stands 17
," 17
▁exists 17
▁rich 17
▁First 17
▁others 17
▁report 17
▁evil 17
▁notice 17
▁nuclear 17
▁shut 17
▁lying 17
▁appears 17
▁lived 17
▁yes 17
▁showed 17
▁finally 17
▁opened 17
▁middle 17
▁ways 17
8 17
▁rule 17
▁simply 17
▁Every 17
▁survive 17
Q 17
▁By 17
▁married 17
▁serve 17
▁market 17
▁millions 17
▁pull 17
▁worry 17
▁rather 17
▁shoot 17
▁daughter 17
▁week 17
▁respect 17
▁force 17
▁carry 17
▁entire 17
▁mad 17
▁burned 17
▁tension 17
▁stronger 17
▁avoid 17
▁age 17
▁bullet 17
▁nine 17
▁closer 17
women 17
▁-- 16
▁pass 16
▁perhaps 16
▁stolen 16
▁falls 16
▁public 16
▁ball 16
▁second 16
▁seeing 16
▁thinks 16
▁explode 16
▁daily 16
▁strange 16
▁train 16
▁instead 16
▁weight 16
▁message 16
▁further 16
▁keeps 16
▁His 16
▁self 16
▁reach 16
▁arrest 16
▁Whatever 16
▁deep 16
▁caught 16
▁powerful 16
▁across 16
ed 16
▁clean 16
▁police 16
▁animal 16
▁sit 16
▁minute 16
▁position 16
▁forward 16
▁met 16
▁killing 16
▁box 16
▁stone 16
▁game 16
▁low 16
▁sky 16
▁brother 16
▁creep 16
▁shit 16
▁win 16
▁began 16
▁quite 16
▁stops 16
▁letter 16
▁murderer 16
that 16
men 16
▁desires 15
▁especially 15
▁soft 15
▁ring 15
▁kills 15
but 15
▁signal 15
▁certainly 15
▁beat 15
▁wall 15
▁yesterday 15
▁program 15
▁song 15
▁area 15
▁ended 15
▁greatest 15
▁darling 15
▁bodies 15
▁street 15
▁ends 15
▁stupid 15
And 15
▁hair 15
▁cells 15
▁everywhere 15
▁seven 15
▁plant 15
The 15
▁voice 15
▁cool 15
▁sleep 15
▁straight 15
▁Hey 15
▁wait 15
▁Tell 15
▁path 15
▁hour 15
▁vote 15
▁broken 15
▁build 15
▁lock 15
▁names 15
▁mothers 15
▁tomorrow 15
▁feed 15
.. 15
▁turtle 15
▁glove 15
▁discovered 14
▁thousands 14
▁leaving 14
▁steal 14
▁tonight 14
▁catch 14
▁decided 14
▁cry 14
▁moved 14
▁suspected 14
▁realized 14
▁ass 14
▁agree 14
▁stuck 14
▁device 14
▁um 14
▁wearing 14
▁spread 14
▁knowledge 14
▁loved 14
▁covered 14
▁Today 14
▁yourself 14
▁Everything 14
▁wr 14
▁older 14
▁wind 14
?" 14
Z 14
▁TV 14
▁soldiers 14
▁dry 14
▁business 14
▁nose 14
▁anybody 14
▁Howard 14
▁scared 14
▁dance 14
▁Who 14
▁everybody 14
▁doubt 14
▁cover 14
▁news 14
▁party 14
▁eventually 14
▁oil 14
▁exchange 14
♪ 14
▁crime 14
▁growing 14
▁earn 14
▁wives 14
▁complete 14
▁among 14
he 14
▁disease 13
▁DNA 13
▁decide 13
▁onto 13
▁sister 13
▁treat 13
▁shooting 13
ting 13
▁attention 13
▁nervous 13
▁breaks 13
▁gold 13
▁noticed 13
▁horse 13
▁question 13
▁history 13
▁smoke 13
▁drop 13
▁whose 13
▁su 13
▁terrible 13
▁2 13
▁helped 13
▁spent 13
▁felt 13
▁watching 13
▁cops 13
▁cars 13
▁feelings 13
▁tired 13
▁Everybody 13
▁ours 13
▁bit 13
▁nature 13
▁perfectly 13
▁table 13
▁begin 13
▁trapped 13
▁laws 13
▁except 13
in 13
▁bear 13
▁caused 13
▁stick 13
▁checked 13
▁million 13
▁strike 13
▁mistake 13
▁hoping 13
▁arrive 13
▁damn 13
▁normal 13
▁river 13
▁its 13
▁Two 13
▁paid 13
▁blow 13
▁rules 13
▁either 13
▁stories 13
▁shape 13
▁followed 13
▁lie 13
▁demands 13
▁leading 13
▁suicide 13
▁preferred 13
ch 12
▁handle 12
▁rate 12
▁shows 12
▁available 12
▁cross 12
▁mom 12
▁bed 12
▁contact 12
▁explain 12
▁thus 12
▁virus 12
▁cat 12
▁child 12
▁shoes 12
▁immediately 12
▁whenever 12
▁color 12
▁private 12
▁Last 12
▁value 12
▁killer 12
▁bright 12
▁glass 12
▁helps 12
▁travel 12
▁sold 12
▁honest 12
▁heavy 12
[ 12
] 12
▁direction 12
▁knowing 12
▁city 12
▁liked 12
▁grows 12
▁dirty 12
▁offer 12
▁teach 12
▁please 12
▁fat 12
▁However 12
▁star 12
▁ride 12
▁creature 12
▁eight 12
▁brothers 12
▁court 12
▁sons 12
▁chose 12
▁station 12
▁places 12
▁store 12
▁smaller 12
▁families 12
▁arrived 12
▁single 12
▁involved 12
girls 12
▁spend 12
▁couple 12
▁smart 12
▁Aren 12
▁scene 12
▁dress 12
▁folks 12
▁calling 12
▁field 12
▁willing 12
% 12
▁match 12
▁appreciate 12
▁Isn 12
▁putting 12
▁Christ 12
▁theory 12
▁wash 12
▁weapons 12
▁judge 12
▁dream 12
▁humans 12
▁pretend 12
▁quiet 12
▁difficult 12
▁interest 12
▁guns 12
▁sing 12
▁America 12
▁boy 12
▁wake 12
▁vampire 12
▁chief 12
▁type 12
▁bottom 12
▁tense 12
▁rough 12
ho 12
▁Government 12
▁reads 12
▁conflict 12
▁islands 12
▁whiter 12
Hang 12
▁hind 12
▁bag 11
▁bottle 11
▁metal 11
▁faster 11
▁damage 11
▁W 11
▁common 11
▁miss 11
▁moves 11
▁3 11
▁weird 11
▁cell 11
A 11
▁un 11
!" 11
▁sudden 11
▁10 11
▁miles 11
▁basically 11
▁dad 11
▁remind 11
▁hole 11
▁Get 11
▁feels 11
▁simple 11
▁charge 11
▁ourselves 11
▁trees 11
▁several 11
▁fun 11
▁animals 11
▁pieces 11
▁luck 11
▁fill 11
▁Whether 11
▁tiny 11
▁slow 11
▁sounds 11
▁society 11
▁movie 11
▁flowers 11
▁contain 11
▁sweet 11
▁threw 11
▁Instead 11
". 11
▁escape 11
▁Come 11
to 11
▁fires 11
▁heads 11
▁100 11
▁locked 11
▁figured 11
▁York 11
▁driving 11
▁effect 11
▁minds 11
▁hidden 11
▁doctor 11
▁towards 11
▁moon 11
▁rock 11
▁absolutely 11
▁fuck 11
▁relationship 11
▁busy 11
▁Which 11
▁plastic 11
▁Yet 11
▁band 11
▁filled 11
▁personal 11
▁feeling 11
▁lovely 11
▁weapon 11
▁easily 11
▁wh 11
▁listening 11
▁nation 11
▁choose 11
▁flesh 11
▁college 11
▁seeks 11
▁sisters 11
▁published 11
▁happening 11
▁wild 11
▁associates 11
▁gained 11
hof 11
▁cinch 11
▁occupy 11
00- 11
page 11
▁volumes 11
▁caf 11
▁blaze 11
▁tortures 11
▁swam 11
▁pray 10
▁properly 10
▁An 10
▁existed 10
▁arrives 10
▁noise 10
▁adm 10
▁amount 10
▁20 10
or 10
▁spir 10
▁disappear 10
▁heading 10
▁records 10
▁rains 10
( 10
D 10
▁test 10
▁innocent 10
▁serious 10
▁sorry 10
▁12 10
▁expected 10
▁sweat 10
▁tissue 10
▁crashed 10
▁shop 10
▁15 10
▁May 10
▁boat 10
▁considering 10
▁below 10
▁dogs 10
▁rid 10
▁brings 10
▁stayed 10
▁share 10
▁From 10
▁enter 10
▁arm 10
▁allow 10
▁films 10
▁fit 10
▁prison 10
▁begins 10
▁sitting 10
▁heaven 10
▁Except 10
up 10
▁knock 10
▁Americans 10
▁anywhere 10
▁necessary 10
▁provide 10
▁fresh 10
▁marriage 10
▁blew 10
▁lt 10
▁nobody 10
▁book 10
▁otherwise 10
▁Anyway 10
▁tells 10
▁companies 10
▁buried 10
▁Sure 10
▁following 10
▁due 10
▁desire 10
▁species 10
▁changes 10
▁sale 10
▁property 10
▁treatment 10
▁price 10
▁extremely 10
▁awful 10
▁shots 10
things 10
▁slowly 10
▁suddenly 10
▁storm 10
▁leads 10
▁o 10
▁banks 10
▁ten 10
▁present 10
▁soil 10
▁monograph 10
▁autumn 10
▁delivering 10
▁Evil 10
▁Beneath 10
▁exteriors 10
▁platinum 10
▁tide 10
▁unchristian 10
▁Peggotty 10
▁frost 10
▁lighted 10
▁generals 10
Would 10
▁interested 9
▁affects 9
▁Girls 9
▁danger 9
▁process 9
▁threatened 9
▁army 9
ies 9
▁address 9
▁giving 9
▁solved 9
▁according 9
▁cure 9
▁rain 9
▁wine 9
▁hiding 9
▁engine 9
▁gotten 9
▁leg 9
▁board 9
▁monster 9
▁returned 9
▁sick 9
▁model 9
▁loss 9
▁fix 9
▁milk 9
▁apartment 9
▁raise 9
▁closes 9
▁experience 9
▁lines 9
▁flight 9
▁grab 9
▁Mm 9
▁hang 9
▁hundreds 9
▁art 9
▁powers 9
▁size 9
▁brave 9
▁facil 9
▁fired 9
▁collapsed 9
▁affected 9
▁fail 9
▁beauty 9
▁holding 9
▁bother 9
▁believed 9
▁finding 9
▁visit 9
▁24 9
▁French 9
▁continue 9
▁source 9
▁freedom 9
▁movies 9
▁laugh 9
▁justice 9
▁cancer 9
▁While 9
▁project 9
▁nowhere 9
▁taste 9
▁honey 9
▁talked 9
▁somehow 9
▁population 9
▁trade 9
▁Actually 9
▁understanding 9
▁example 9
▁manage 9
▁badly 9
▁walking 9
▁angry 9
▁Many 9
▁centuries 9
▁top 9
▁specific 9
▁birth 9
▁heat 9
▁worst 9
▁guard 9
▁forest 9
n 9
▁admit 9
▁card 9
▁cute 9
▁suffer 9
▁tend 9
▁clue 9
▁strikes 9
▁north 9
▁sand 9
▁lots 9
▁safety 9
▁souls 9
▁interesting 9
▁melt 9
▁aware 9
▁answers 9
You 9
▁interests 9
▁afford 9
▁starting 9
▁within 9
▁quick 9
▁wet 9
▁keeping 9
▁battle 9
▁spot 9
▁church 9
▁social 9
▁mountain 9
▁parts 9
▁Unless 9
▁radio 9
▁early 9
▁trip 9
▁pulled 9
▁claims 9
▁Depression 9
▁Napoleon 9
▁upset 8
▁language 8
▁code 8
▁accident 8
▁arms 8
▁coffee 8
▁Would 8
▁camera 8
▁cow 8
▁threat 8
▁painting 8
▁jobs 8
▁contains 8
▁clearly 8
▁Could 8
▁Her 8
▁spell 8
▁carrying 8
▁k 8
▁30 8
) 8
▁criminal 8
▁torn 8
▁contract 8
▁4 8
▁jail 8
▁burns 8
▁drugs 8
al 8
▁sets 8
▁study 8
▁shine 8
▁Over 8
▁cases 8
▁roll 8
▁Mom 8
▁importance 8
▁crack 8
▁file 8
He 8
▁systems 8
▁ideas 8
▁decision 8
▁remains 8
▁chain 8
▁biggest 8
It 8
▁begun 8
▁write 8
▁turning 8
▁failed 8
▁brand 8
▁hearing 8
▁exploded 8
▁succeed 8
▁career 8
▁kiss 8
▁explosion 8
▁sexual 8
▁crimes 8
▁dick 8
▁drove 8
▁totally 8
▁staring 8
▁warm 8
▁surface 8
▁oh 8
▁Father 8
▁jump 8
▁Besides 8
▁picked 8
▁snow 8
▁round 8
▁bullets 8
▁produce 8
▁breaking 8
▁aliens 8
▁shown 8
▁sample 8
▁tear 8
▁drug 8
▁whom 8
▁wondered 8
▁existence 8
▁group 8
▁tie 8
▁learned 8
▁bloody 8
▁using 8
▁ordinary 8
and 8
▁B 8
▁tears 8
▁huge 8
▁Listen 8
▁Have 8
▁unfortunately 8
▁magic 8
▁convinced 8
▁eats 8
▁insurance 8
▁blame 8
▁flew 8
▁murdered 8
▁short 8
▁creatures 8
▁beginning 8
▁fans 8
▁thank 8
▁responsibil 8
▁selling 8
▁equipment 8
▁weak 8
▁nor 8
▁flower 8
▁team 8
▁balls 8
▁armed 8
▁risk 8
▁remote 8
▁flat 8
▁orders 8
ive 8
▁hundred 8
▁tongue 8
▁particular 8
▁pregnant 8
▁fixed 8
▁deserve 8
▁nearly 8
▁bug 8
▁commun 8
▁Were 8
▁lake 8
▁drinking 8
▁authorities 8
▁easier 8
▁brush 8
▁creates 8
▁push 8
▁teeth 8
▁wound 8
▁plans 8
▁concerned 8
▁tape 8
▁hanging 8
▁blind 8
▁quit 8
▁England 8
▁beer 8
▁paint 8
▁relationships 8
▁religion 8
▁bird 8
▁daughters 8
▁seeds 8
▁burning 8
▁island 8
▁cards 8
▁natural 8
▁suggest 8
▁falling 8
▁science 8
▁purpose 8
▁About 8
▁suppose 8
* 8
▁lab 7
▁Lord 7
▁intended 7
▁roof 7
▁naked 7
▁pool 7
▁cash 7
▁likes 7
▁spl 7
▁department 7
▁affect 7
▁client 7
▁bread 7
▁neighborhood 7
▁assure 7
▁search 7
▁alarm 7
▁hoped 7
▁plane 7
▁incredible 7
▁D 7
▁swear 7
▁signed 7
▁capable 7
▁camp 7
▁dying 7
▁bedroom 7
▁useful 7
▁Mrs 7
▁South 7
▁pushed 7
▁horrible 7
▁beyond 7
▁television 7
▁landed 7
▁express 7
▁destruction 7
▁flames 7
▁husband 7
▁technically 7
▁truck 7
She 7
▁god 7
▁sacrifice 7
▁helping 7
▁sad 7
▁holds 7
▁Take 7
▁glad 7
1 7
▁ordered 7
▁responsible 7
▁yellow 7
▁hungry 7
▁recognize 7
▁countries 7
▁With 7
▁questions 7
▁receive 7
▁spoke 7
▁anger 7
▁pressure 7
▁jealous 7
▁aboard 7
▁allowed 7
▁complex 7
▁played 7
▁German 7
▁journey 7
▁prisoners 7
▁chemical 7
▁brains 7
▁parties 7
▁freeze 7
▁France 7
▁himself 7
▁Italy 7
▁managed 7
▁note 7
▁floating 7
▁lasted 7
▁impression 7
▁OK 7
▁buying 7
▁opinion 7
▁fake 7
▁represent 7
▁approach 7
▁lf 7
>! 7
▁extraordinary 7
▁beach 7
▁creating 7
▁standing 7
▁tragedy 7
▁obviously 7
▁Go 7
▁Mother 7
▁Dr 7
▁surprised 7
▁stones 7
▁songs 7
▁considered 7
▁boxes 7
▁officers 7
▁forces 7
▁legend 7
▁entered 7
▁Although 7
▁fighting 7
▁guide 7
▁unique 7
▁asking 7
▁waste 7
▁statue 7
▁Dad 7
▁image 7
▁slave 7
▁culture 7
▁parking 7
▁protects 7
▁ears 7
▁dare 7
X 7
▁S 7
▁C 7
▁general 7
▁tight 7
▁burst 7
▁dollars 7
▁hunt 7
▁sleeping 7
▁crushed 7
▁served 7
▁deeper 7
▁provided 7
▁English 7
▁comfortable 7
▁uses 7
▁defense 7
▁follows 7
▁ill 7
▁Um 7
▁restaurant 7
▁born 7
▁lim 7
▁pride 7
▁miserable 7
▁union 7
▁T 7
▁wedding 7
f 7
▁careful 7
▁health 7
▁crash 7
▁re 7
▁numbers 7
▁thoughts 7
▁moral 7
▁border 7
▁degrees 7
▁goddamn 7
▁prefer 7
▁expensive 7
▁200 7
▁calls 7
▁United 7
▁gods 7
▁Keep 7
▁meaning 7
▁desert 7
▁patients 7
▁solution 7
▁gay 7
▁babies 7
▁press 7
▁decides 7
▁ink 7
▁States 7
▁former 7
▁hook 7
uation 7
▁map 7
▁reasons 7
▁beast 7
▁thin 7
▁consider 7
▁Better 7
▁darkness 7
▁reached 7
▁supply 7
she 7
▁bar 7
you 7
▁wishes 7
▁ought 7
▁Until 7
▁Japanese 7
▁crosses 7
▁<< 7
▁hoff 7
my 7
road 7
▁th 7
▁large 6
▁rooms 6
▁fa 6
▁ahead 6
▁Miss 6
▁drunk 6
▁owner 6
▁style 6
▁equal 6
▁proof 6
▁financial 6
▁ancient 6
▁speech 6
▁welcome 6
▁n 6
▁mission 6
▁fuel 6
▁firing 6
▁movement 6
▁fade 6
▁invisible 6
▁knife 6
on 6
▁battery 6
▁medical 6
▁reverse 6
▁stood 6
▁cond 6
▁route 6
▁hardly 6
▁prevent 6
▁L 6
▁deadly 6
▁showing 6
▁healthy 6
▁mostly 6
▁sticks 6
▁choice 6
▁loving 6
▁costs 6
▁month 6
▁successful 6
▁traveling 6
▁causes 6
▁papers 6
"? 6
▁Peter 6
▁tests 6
▁harder 6
▁Ah 6
▁butt 6
▁claim 6
▁distance 6
▁elsewhere 6
▁unknown 6
▁teams 6
▁security 6
▁stable 6
▁discover 6
▁wave 6
▁Rome 6
` 6
▁cheap 6
▁ugly 6
▁hers 6
▁mention 6
▁frightened 6
▁estate 6
▁tickets 6
▁students 6
▁destroying 6
▁village 6
▁solid 6
▁presence 6
▁nations 6
▁breasts 6
▁Sorry 6
...< 6
▁forms 6
▁embrace 6
▁fought 6
▁wide 6
ten 6
▁spreads 6
▁noble 6
▁Make 6
▁hotel 6
▁lucky 6
▁rocket 6
How 6
▁Something 6
▁flag 6
▁mate 6
▁games 6
▁universe 6
▁oxygen 6
▁shelter 6
▁democracy 6
▁west 6
▁scream 6
▁base 6
▁cos 6
▁John 6
▁invasion 6
▁attached 6
▁toward 6
▁imagination 6
▁reset 6
▁letters 6
▁husbands 6
▁effort 6
▁pure 6
▁track 6
▁destroys 6
▁release 6
▁sh 6
▁kick 6
▁lay 6
▁mirror 6
▁5 6
▁direct 6
▁mail 6
▁Good 6
▁causing 6
▁cr 6
▁tastes 6
▁precious 6
▁Remember 6
▁joy 6
▁wrote 6
▁tea 6
▁faces 6
▁alien 6
▁continued 6
▁view 6
▁chase 6
▁escaped 6
▁deny 6
▁losing 6
▁zone 6
▁bone 6
▁Black 6
▁pipe 6
▁twenty 6
▁forced 6
▁lift 6
▁glasses 6
▁beings 6
▁achieve 6
▁terrorist 6
▁favor 6
▁evening 6
▁list 6
▁gate 6
▁sucks 6
▁speaks 6
▁separate 6
▁billion 6
▁article 6
..." 6
▁afterwards 6
▁mile 6
▁alley 6
▁swallow 6
▁impact 6
▁scheme 6
▁smells 6
▁Believe 6
▁suffering 6
▁stomach 6
▁represents 6
., 6
When 6
▁sin 6
▁cock 6
▁smooth 6
▁spray 6
▁higher 6
▁washed 6
▁economy 6
▁photos 6
▁forth 6
▁consume 6
▁factory 6
▁dam 6
▁remove 6
▁taught 6
▁access 6
▁controlling 6
▁shadow 6
▁bunch 6
▁truly 6
▁hurts 6
▁staying 6
▁lack 6
▁ex 6
▁generation 6
▁fields 6
▁kid 6
▁grew 6
▁corpse 6
▁girlfriends 6
▁magazine 6
▁dated 6
▁40 6
▁shame 6
▁cared 6
▁frozen 6
▁environment 6
▁methods 6
▁wonderful 6
▁becoming 6
▁underneath 6
▁major 6
▁winter 6
▁satell 6
▁invite 6
▁potential 6
▁services 6
▁usual 6
▁third 6
▁Paul 6
▁fully 6
▁immune 6
▁grown 6
▁Wouldn 6
▁rise 6
▁spirit 6
▁cave 6
▁holes 6
▁Unfortunately 6
▁period 6
▁carried 6
▁Jesus 6
▁reveal 6
▁enemies 6
▁attempt 6
▁connections 6
▁arrow 6
▁stir 6
▁patient 6
▁eggs 6
▁tries 6
▁Should 6
▁twice 6
▁US 6
▁colonies 6
▁dropped 6
▁asleep 6
▁fallen 6
▁material 6
▁cooked 6
▁sink 6
▁communicate 6
▁location 6
▁class 6
▁happiness 6
▁loose 6
▁exact 6
l 6
parents 6
friends 6
.< 6
▁refused 6
▁sw 5
▁behave 5
▁opens 5
▁vehicle 5
▁function 5
▁reading 5
▁throat 5
▁goal 5
▁paying 5
▁...< 5
▁palace 5
▁laid 5
▁negative 5
▁president 5
▁slip 5
▁launch 5
▁mystery 5
▁entirely 5
▁add 5
▁gifts 5
.' 5
▁tremendous 5
▁predict 5
▁involve 5
▁Any 5
▁demon 5
▁Didn 5
▁pop 5
▁famous 5
▁dissolve 5
▁lands 5
▁Somehow 5
▁According 5
▁garage 5
▁Saint 5
▁tricks 5
▁attacks 5
▁Big 5
▁automatically 5
▁fellow 5
▁trunk 5
▁trauma 5
▁element 5
▁root 5
▁legal 5
▁surprise 5
▁Ma 5
▁brief 5
▁shock 5
▁actual 5
▁south 5
▁mankind 5
▁discuss 5
▁womb 5
▁event 5
▁divorce 5
▁trigger 5
▁walks 5
▁seconds 5
▁threatens 5
▁comm 5
▁feeds 5
▁opportun 5
▁link 5
▁collapse 5
▁breathing 5
▁crush 5
▁bounced 5
2 5
▁flying 5
▁snowing 5
▁symbol 5
▁success 5
▁ne 5
▁wore 5
▁respond 5
▁beasts 5
▁nerve 5
▁wormhole 5
▁beliefs 5
▁Army 5
▁waters 5
▁500 5
▁suspects 5
▁pounds 5
▁trace 5
▁daddy 5
▁houses 5
▁sealed 5
▁Especially 5
▁practice 5
▁trail 5
▁raised 5
▁heal 5
▁Wherever 5
▁media 5
▁appropriate 5
▁customers 5
▁spreading 5
▁ripped 5
▁therefore 5
4 5
▁missed 5
▁technology 5
▁formed 5
▁ya 5
Well 5
▁workers 5
▁however 5
'. 5
▁realise 5
▁dish 5
▁oppos 5
▁organisms 5
▁larger 5
▁network 5
▁loves 5
▁vast 5
▁gift 5
▁bloom 5
▁rocks 5
▁corporate 5
▁invent 5
▁structure 5
.... 5
▁lethal 5
▁shoe 5
▁date 5
▁Doesn 5
▁hears 5
▁Europe 5
▁Christmas 5
▁Half 5
▁refuse 5
▁interview 5
▁ate 5
▁V 5
▁Without 5
▁separated 5
▁percent 5
▁penis 5
▁suggested 5
▁hab 5
▁promised 5
▁vampires 5
▁bored 5
▁diamond 5
▁tested 5
▁State 5
▁Internet 5
▁meal 5
▁Hope 5
▁demand 5
hmm 5
▁Apparently 5
▁vulnerable 5
▁effective 5
▁float 5
▁confirm 5
▁chip 5
▁vanished 5
▁machines 5
▁dealing 5
▁indeed 5
But 5
▁blast 5
▁Federal 5
▁North 5
▁hills 5
▁Mike 5
▁senses 5
▁sight 5
▁prints 5
▁fading 5
▁sooner 5
▁surprising 5
▁eaten 5
▁personnel 5
▁expecting 5
▁Captain 5
▁sends 5
▁prepared 5
▁cleared 5
▁hire 5
▁advanced 5
▁faith 5
▁King 5
▁St 5
▁mess 5
▁removed 5
chen 5
▁Jews 5
▁shiny 5
▁ticket 5
▁waited 5
▁seek 5
▁controls 5
▁popular 5
▁doctors 5
▁silly 5
▁Four 5
▁carbon 5
▁cargo 5
▁finger 5
▁dude 5
▁colour 5
▁Chinese 5
▁Soon 5
▁guilty 5
▁total 5
▁states 5
▁scientists 5
▁theirs 5
▁count 5
▁treated 5
▁failure 5
▁seriously 5
▁shirts 5
▁assume 5
▁Sam 5
▁saved 5
▁staff 5
▁eh 5
▁plants 5
▁apparently 5
▁roads 5
▁meat 5
▁makeup 5
▁invented 5
▁airport 5
▁achieved 5
▁freezing 5
▁object 5
▁square 5
▁giant 5
▁driver 5
▁cook 5
▁U 5
– 5
▁crew 5
▁vision 5
▁react 5
▁situation 5
▁facts 5
▁enjoy 5
▁bones 5
▁nuts 5
▁drawing 5
for 5
▁deserves 5
▁status 5
▁worship 5
▁declare 5
▁isolated 5
▁secretly 5
▁amounts 5
Your 5
▁affection 5
▁park 5
▁ghost 5
▁worn 5
▁General 5
▁chicken 5
▁placed 5
▁repair 5
▁painful 5
▁service 5
▁snake 5
▁intelligent 5
▁stock 5
▁Put 5
▁originated 5
▁resistance 5
▁M 5
we 5
▁abuse 5
▁hideous 5
of 5
▁gates 5
▁local 5
▁streets 5
▁dreamed 5
▁Soviet 5
▁ls 5
▁struggle 5
▁blade 5
▁record 5
▁spark 5
▁fairly 5
▁detonate 5
▁electrical 5
▁ashamed 5
▁lights 5
▁document 5
▁pans 5
▁surgery 5
▁research 5
▁galaxy 5
▁proper 5
▁clothing 5
▁ships 5
▁behavior 5
▁leak 5
▁knocked 5
▁cows 5
▁attractive 5
▁carefully 5
▁ants 5
▁passage 5
▁warning 5
▁returns 5
▁powder 5
"... 5
▁plenty 5
▁torment 5
▁shirt 5
▁India 5
▁flow 5
▁glands 5
▁pair 5
▁cattle 5
▁perform 5
▁arrested 5
▁barely 5
▁worlds 5
▁target 5
▁puts 5
▁audience 5
▁fantastic 5
▁thick 5
▁Africa 5
▁suns 5
o 5
▁confused 5
▁correct 5
▁religious 5
▁threats 5
▁transm 5
▁current 5
▁forgotten 5
▁safer 5
▁Still 5
▁range 5
▁loans 5
▁sheet 5
▁internet 5
▁violence 5
▁various 5
▁memories 5
▁drops 5
▁serves 5
▁wax 5
▁familiar 5
▁remarkable 5
▁zero 5
es 5
▁warehouse 5
▁lasts 5
▁club 5
▁deserved 5
▁requires 5
▁attorney 5
▁active 5
▁video 5
▁hammer 5
▁female 5
▁stage 5
▁lays 5
▁foreign 5
▁massive 5
▁pet 5
▁valuable 5
▁suspect 5
▁trash 5
▁possibly 5
▁hatch 5
▁particularly 5
▁claimed 5
▁disaster 5
▁emotion 5
▁swimming 5
▁windows 5
▁detailed 5
▁involving 5
▁promise 5
▁infected 5
▁blows 5
▁visible 5
▁Turns 5
▁fancy 5
▁emotions 5
▁cream 5
▁data 5
▁opening 5
▁upper 5
▁doll 5
Why 5
▁studio 5
— 5
▁ignore 5
▁print 5
▁merely 5
▁p 5
▁poison 5
{\ 5
▁button 5
▁Man 5
▁Imagine 5
▁harm 5
} 5
▁sugar 5
▁organic 5
▁Tomorrow 5
▁sheep 5
▁monkey 5
▁mer 5
hey 5
these 5
▁term 4
▁chemicals 4
▁split 4
▁dates 4
▁chair 4
▁climb 4
▁background 4
▁author 4
▁curtain 4
▁obvious 4
▁cup 4
▁accurate 4
▁Charlie 4
▁midnight 4
▁Mama 4
▁bill 4
▁Daddy 4
▁app 4
▁federal 4
▁lied 4
▁heals 4
▁Tom 4
▁jacket 4
▁listened 4
▁pursue 4
▁surely 4
▁shatter 4
▁outcome 4
▁core 4
▁likely 4
▁experienced 4
▁reminds 4
▁decent 4
▁fluid 4
▁Master 4
▁faint 4
▁denied 4
▁r 4
▁occurred 4
▁significant 4
▁pin 4
▁nail 4
▁properties 4
▁apple 4
▁Department 4
▁central 4
▁blocked 4
▁ringing 4
▁cycle 4
▁compromise 4
▁agent 4
▁matches 4
▁binding 4
▁jumped 4
▁schedule 4
▁fan 4
▁slide 4
▁latest 4
▁activ 4
▁belief 4
▁virtually 4
▁version 4
▁O 4
▁command 4
▁touched 4
▁Old 4
▁World 4
▁defin 4
▁subtle 4
▁efforts 4
▁secure 4
▁surrounding 4
▁finance 4
▁bless 4
▁hero 4
▁amazing 4
▁breach 4
▁connection 4
▁blank 4
▁tag 4
▁statement 4
▁angle 4
▁commercial 4
▁traffic 4
▁testify 4
▁step 4
▁flies 4
▁wealth 4
▁Hell 4
▁thriving 4
▁planned 4
▁focus 4
▁allows 4
▁Thought 4
▁pockets 4
▁Empire 4
▁Together 4
▁cruel 4
▁aggressive 4
▁intestines 4
▁captured 4
▁mountains 4
▁mysteriously 4
▁joined 4
▁applaud 4
▁checking 4
▁hated 4
▁rotting 4
▁fantasy 4
▁bankrupt 4
▁pot 4
▁speed 4
▁accepted 4
▁involves 4
▁enters 4
new 4
▁thrown 4
▁sector 4
▁anytime 4
▁holy 4
▁closely 4
▁complicated 4
▁pulls 4
▁uncle 4
▁contained 4
▁Hollywood 4
▁imagined 4
▁Ben 4
▁guards 4
▁fate 4
▁navigation 4
ball 4
▁wounds 4
▁starve 4
▁queen 4
▁royal 4
▁season 4
▁king 4
▁gain 4
▁Has 4
▁dreams 4
▁unstable 4
▁capture 4
▁rat 4
▁R 4
▁insist 4
▁revolution 4
▁woke 4
▁reaction 4
▁Castle 4
▁applies 4
▁generations 4
▁bury 4
▁egg 4
▁teaches 4
▁fruit 4
▁Each 4
▁Stargate 4
▁mistakes 4
▁sounded 4
▁movements 4
▁online 4
▁museum 4
▁tomb 4
▁childhood 4
▁prosecution 4
▁clients 4
▁strengthen 4
▁introduced 4
▁Dominion 4
▁final 4
▁breath 4
▁whores 4
▁belt 4
▁desperate 4
▁progress 4
▁Everyone 4
▁scratch 4
▁individuals 4
▁finish 4
▁unlike 4
▁defend 4
▁regular 4
▁stare 4
ation 4
▁agreement 4
▁F 4
Oh 4
▁decay 4
▁Ever 4
▁library 4
▁swept 4
▁beating 4
▁loneliness 4
▁gentlemen 4
▁Other 4
▁dump 4
▁abandoned 4
▁pulling 4
▁located 4
▁tattoo 4
", 4
▁rained 4
▁net 4
▁Try 4
▁borrow 4
▁Wait 4
We 4
▁equivalent 4
▁shopping 4
▁threaten 4
▁operation 4
▁flame 4
▁lifted 4
▁dating 4
▁plate 4
▁members 4
▁strangers 4
▁Otherwise 4
▁sacrificed 4
▁Agent 4
▁emotional 4
▁Honor 4
▁jury 4
▁ideals 4
▁tasted 4
▁cinema 4
▁member 4
▁inches 4
▁drivers 4
▁backs 4
▁greater 4
▁buys 4
▁! 4
▁actors 4
▁scan 4
▁More 4
▁aside 4
▁mentioned 4
▁chaos 4
▁London 4
▁Little 4
▁Sea 4
▁swim 4
▁strip 4
▁underwear 4
▁temperature 4
▁nicer 4
▁saving 4
▁0 4
▁stinks 4
▁shared 4
▁mutated 4
▁row 4
▁filed 4
▁watched 4
▁developing 4
▁apply 4
▁books 4
▁dig 4
▁wood 4
▁roots 4
▁revealing 4
▁programmed 4
▁switch 4
▁columns 4
▁corners 4
▁professional 4
▁lit 4
▁grabs 4
▁elaborate 4
▁Hill 4
▁pants 4
▁kicks 4
▁false 4
▁David 4
▁cake 4
▁dust 4
▁choices 4
▁persuaded 4
▁planning 4
▁peaceful 4
▁Paris 4
▁nursery 4
▁practically 4
▁appeal 4
▁Hmm 4
▁tits 4
▁functioning 4
/ 4
▁occur 4
▁priests 4
▁evolve 4
▁FBI 4
▁feds 4
▁letting 4
▁rage 4
▁stole 4
▁juice 4
▁loyalty 4
▁suggests 4
▁grateful 4
▁shuttle 4
▁justified 4
▁consequences 4
▁crying 4
▁bail 4
▁established 4
▁silence 4
▁identical 4
▁Technically 4
▁Wow 4
▁orange 4
▁celebrities 4
▁holiday 4
▁bust 4
▁block 4
▁named 4
▁loaded 4
▁Thus 4
▁finished 4
▁mask 4
▁swore 4
▁fool 4
▁grandmother 4
▁struck 4
▁earlier 4
▁naturally 4
▁Very 4
▁occasionally 4
▁civilization 4
▁spirits 4
▁Monday 4
▁basis 4
▁files 4
▁diseases 4
▁convince 4
...? 4
▁Out 4
▁bastards 4
▁dirt 4
▁images 4
▁wheel 4
▁Usually 4
▁Find 4
▁drinks 4
▁survived 4
▁El 4
▁productive 4
▁citizens 4
▁Al 4
▁walked 4
▁descendants 4
▁civil 4
▁basement 4
▁sp 4
▁worthy 4
▁fault 4
▁received 4
', 4
▁temporary 4
▁clouds 4
▁drift 4
▁blossom 4
▁ceremony 4
▁Dead 4
▁bleeding 4
▁advantage 4
▁pinch 4
If 4
▁skinny 4
▁starving 4
▁pocket 4
▁illegal 4
▁remembered 4
▁feeding 4
▁recently 4
▁sells 4
off 4
▁Think 4
▁ancestors 4
▁grass 4
▁ok 4
▁tall 4
▁senior 4
▁ruined 4
▁Meanwhile 4
▁masks 4
▁Whenever 4
▁demons 4
▁concert 4
▁Probably 4
ted 4
▁stopping 4
▁Seems 4
▁obey 4
▁revealed 4
▁floods 4
▁authentic 4
▁closet 4
▁recover 4
▁immoral 4
▁stem 4
▁Its 4
▁physical 4
▁reacted 4
▁useless 4
▁lady 4
▁iris 4
▁Me 4
▁bee 4
▁fabulous 4
▁rub 4
▁cop 4
▁points 4
▁hotter 4
▁subject 4
▁mill 4
th 4
▁bitches 4
▁Through 4
▁alike 4
▁excited 4
▁Looks 4
▁depressed 4
▁crisis 4
▁pays 4
▁center 4
▁locker 4
▁mouths 4
▁antibodies 4
▁warriors 4
▁Red 4
▁master 4
▁stretch 4
Are 4
▁Them 4
▁rusty 4
▁hunters 4
00 4
/< 4
▁stairs 4
▁photographs 4
▁Friday 4
▁underground 4
▁jumps 4
▁ear 4
▁connect 4
▁China 4
▁loan 4
▁wire 4
▁tail 4
▁touches 4
▁suspicion 4
▁countless 4
▁agency 4
▁believes 4
▁frequency 4
▁frame 4
▁witches 4
▁tough 4
▁emergency 4
▁sucked 4
▁banking 4
▁War 4
▁officer 4
▁pages 4
▁jungle 4
▁prettier 4
▁whence 4
▁medium 4
▁suck 4
▁comfort 4
▁neat 4
▁sending 4
▁generous 4
▁Check 4
▁crawl 4
▁neighbor 4
▁Wa 4
▁none 4
▁glow 4
▁sanctuary 4
▁"... 4
▁dryer 4
▁electric 4
ude 4
▁checks 4
▁someday 4
▁original 4
▁attacked 4
▁Therefore 4
▁rises 4
▁outer 4
▁seed 4
▁values 4
▁pack 4
▁prayed 4
▁relate 4
▁inspire 4
▁ribs 4
▁homes 4
▁rising 4
▁slap 4
▁tyranny 4
ical 4
▁Thanks 4
▁action 4
▁wings 4
▁possession 4
▁pour 4
▁Yesterday 4
▁Papa 4
u 4
▁sunlight 4
▁boots 4
▁income 4
▁pills 4
▁branch 4
▁rope 4
▁remained 4
▁solve 4
▁charming 4
▁Japan 4
▁drag 4
▁picking 4
▁gorgeous 4
cHFFFFFF 4
▁generate 4
r 4
▁grav 4
▁page 4
Men 4
boys 4
▁Suppose 4
▁wing 4
▁pattern 4
This 4
▁cooking 4
▁salt 4
▁fathers 4
▁beside 4
▁essential 4
▁shaking 4
▁developed 4
▁Roman 4
▁huh 4
▁shield 4
▁orb 4
one 4
▁tax 4
▁environmental 4
▁borough 4
▁ff 4
▁prize 3
▁activate 3
▁slam 3
▁fascinating 3
▁costume 3
▁log 3
▁downstairs 3
▁birds 3
▁cuddle 3
▁bolt 3
▁transformed 3
▁Colonel 3
bye 3
▁abroad 3
▁fails 3
▁frankly 3
▁liver 3
▁overheating 3
▁wheels 3
▁mayor 3
▁charges 3
▁Kevin 3
▁damaged 3
▁mon 3
~ 3
▁unto 3
▁resting 3
▁character 3
▁baker 3
▁mopped 3
▁culpr 3
▁difference 3
▁spring 3
▁cousin 3
▁sub 3
▁Anton 3
▁pulse 3
▁nasty 3
▁hack 3
▁component 3
▁sail 3
▁clogged 3
▁rose 3
▁continues 3
▁recession 3
>-- 3
▁motor 3
▁steps 3
▁decrease 3
▁stressed 3
▁objects 3
▁Boy 3
▁blunt 3
▁Had 3
▁issue 3
▁medication 3
▁lunch 3
▁flawed 3
▁slipped 3
▁breathe 3
▁sucking 3
▁airborne 3
▁Dean 3
▁flush 3
▁details 3
▁laughter 3
▁expanding 3
▁reign 3
▁inev 3
able 3
▁unusual 3
▁recent 3
▁impressed 3
▁confirmed 3
▁absorbed 3
▁Manhattan 3
▁helpful 3
▁Sister 3
▁prof 3
▁eyebrows 3
▁contrary 3
▁swollen 3
▁cap 3
T 3
▁seat 3
▁radiation 3
▁grandson 3
▁nut 3
ness 3
▁Island 3
▁50, 3
▁Anything 3
▁smack 3
▁groom 3
▁angel 3
▁commands 3
▁operating 3
▁coin 3
▁locate 3
▁logic 3
▁10, 3
▁matched 3
▁rabb 3
▁hurry 3
▁released 3
▁tiger 3
▁circumstances 3
▁Underneath 3
love 3
▁afternoon 3
▁tore 3
▁pretended 3
▁questioned 3
▁existing 3
▁Riker 3
▁stink 3
▁sensitive 3
▁experiment 3
▁cunning 3
▁sang 3
▁pink 3
▁Surely 3
time 3
▁pity 3
▁chest 3
▁repeating 3
▁appeared 3
5 3
▁suits 3
▁Brand 3
▁colors 3
▁wipe 3
▁slammed 3
▁surrender 3
▁vou 3
▁defeated 3
▁overnight 3
▁measures 3
▁picks 3
▁reflected 3
▁changing 3
▁punishment 3
▁creativ 3
▁gangster 3
▁proven 3
▁billions 3
▁lawyer 3
▁Street 3
▁unbearable 3
▁smile 3
▁hospital 3
▁producer 3
▁facing 3
▁murders 3
▁neighbors 3
▁silent 3
▁grave 3
▁champagne 3
▁invade 3
▁areas 3
▁Scotch 3
▁plus 3
▁deer 3
▁drip 3
▁granted 3
▁nonetheless 3
ual 3
▁shooter 3
pound 3
▁immediate 3
▁fed 3
▁rapidly 3
▁imposed 3
▁stretches 3
▁wisdom 3
▁Money 3
▁loyal 3
▁sperm 3
▁armor 3
▁foreigners 3
▁whale 3
▁stranded 3
▁Ray 3
▁blowing 3
▁noses 3
▁aid 3
▁mysterious 3
▁fleet 3
▁lonely 3
Yeah 3
▁demonstrate 3
▁patience 3
▁steel 3
▁indicate 3
▁ties 3
▁crawling 3
▁explodes 3
uadrant 3
▁targets 3
▁secur 3
▁internal 3
▁pleasure 3
▁hover 3
▁medicine 3
▁dignity 3
▁fork 3
▁worried 3
▁kinda 3
▁Raj 3
▁confident 3
▁heavier 3
▁trained 3
▁swelling 3
▁blessing 3
▁meters 3
▁detonated 3
▁atmosphere 3
▁Project 3
▁screw 3
▁telephone 3
▁determine 3
▁tends 3
be 3
▁growth 3
▁centre 3
▁divisions 3
▁siege 3
Never 3
▁slept 3
▁reckon 3
▁tricked 3
▁swallows 3
▁screen 3
▁troops 3
▁originally 3
▁skull 3
▁univers 3
▁Anytime 3
▁packing 3
▁rip 3
▁evacuate 3
▁Tony 3
ary 3
▁prey 3
▁guarantee 3
▁Prophets 3
▁directions 3
▁bringing 3
▁bacteria 3
▁abil 3
▁ver 3
▁Berlin 3
▁handed 3
▁incredibly 3
▁nailed 3
▁happier 3
▁software 3
▁wars 3
▁photograph 3
▁ign 3
▁bitch 3
50 3
Do 3
▁forefathers 3
▁barracks 3
▁repairs 3
▁tasty 3
́ 3
▁co 3
▁sentence 3
▁Give 3
▁echo 3
▁scientific 3
▁cabin 3
▁promote 3
▁duty 3
▁stabbed 3
▁task 3
▁rewarded 3
▁awe 3
▁execute 3
▁preparing 3
▁partner 3
▁gang 3
▁resist 3
▁evaporates 3
▁solar 3
▁correctly 3
▁obsolete 3
▁nights 3
▁convictions 3
▁agenda 3
▁goin 3
▁embarrass 3
▁sheets 3
▁beds 3
▁toilet 3
▁tour 3
▁permanent 3
▁chopped 3
▁hats 3
▁silk 3
▁honor 3
▁besides 3
▁poles 3
▁Three 3
▁per 3
▁elevators 3
▁metres 3
▁Sun 3
▁hung 3
▁ammun 3
▁whatnot 3
▁cab 3
▁wasting 3
▁corrupt 3
▁bled 3
▁leader 3
▁rockets 3
▁proves 3
▁peel 3
▁civilisation 3
▁Jonathan 3
▁mates 3
▁Richard 3
▁transport 3
▁Assuming 3
▁flash 3
▁refugees 3
▁Never 3
▁Honey 3
▁proud 3
▁betray 3
▁excellent 3
Hey 3
▁roaches 3
▁Mary 3
▁crashing 3
▁careers 3
▁knocking 3
▁plunge 3
▁added 3
▁fears 3
▁Pretty 3
▁analysis 3
▁..< 3
▁testimony 3
▁desk 3
▁concentration 3
▁enforced 3
▁sought 3
▁punish 3
▁relieve 3
▁anxiety 3
▁quicker 3
▁fingerprints 3
▁brown 3
▁National 3
▁Martians 3
▁swing 3
▁hopes 3
▁divide 3
▁maintain 3
▁fellows 3
▁generally 3
▁awfully 3
▁expert 3
▁passion 3
▁seduce 3
▁happily 3
▁swell 3
▁shrimp 3
▁pancake 3
So 3
▁robbery 3
▁employees 3
▁situations 3
▁stain 3
▁laughed 3
▁experiences 3
▁repeat 3
▁symptoms 3
▁tools 3
▁fishing 3
▁grade 3
▁threatening 3
▁gap 3
▁sway 3
▁skirt 3
▁grey 3
▁qualities 3
▁lasting 3
▁primary 3
▁soup 3
▁privacy 3
▁Police 3
▁bowling 3
▁quarter 3
▁funeral 3
▁Union 3
▁shattered 3
▁flourish 3
▁flashed 3
▁bare 3
▁feeble 3
▁taxis 3
▁dull 3
▁printed 3
▁Silver 3
▁thirst 3
▁writing 3
▁artificial 3
▁offered 3
▁production 3
99 3
3 3
▁affair 3
▁farmers 3
▁courage 3
▁liquid 3
▁includes 3
▁dancing 3
▁risks 3
▁sorted 3
▁nest 3
▁indicates 3
▁popped 3
▁chasing 3
▁searching 3
▁muscles 3
▁review 3
▁Thanksgiving 3
▁valhalla 3
▁warn 3
▁tooth 3
guys 3
▁torch 3
▁severe 3
▁tables 3
▁Lex 3
▁mercy 3
▁extends 3
▁broom 3
▁friendship 3
▁barrel 3
▁sophisticated 3
▁characters 3
▁pause 3
▁thumb 3
▁replaced 3
▁Act 3
▁postage 3
▁whip 3
class 3
▁grant 3
▁venue 3
▁porch 3
▁elevator 3
▁Animals 3
▁sake 3
▁Indians 3
▁Spanish 3
▁whoever 3
▁reward 3
▁series 3
▁signals 3
▁Nations 3
▁odd 3
▁improves 3
,000 3
▁cried 3
▁excuse 3
▁wealthy 3
▁Water 3
▁entertainment 3
▁rings 3
▁karma 3
▁including 3
▁breast 3
▁cocaine 3
▁Christian 3
▁sentenced 3
▁depends 3
▁corporations 3
▁sorts 3
▁role 3
▁taxes 3
▁policy 3
▁governments 3
▁compared 3
▁possibil 3
▁slightly 3
▁instantly 3
▁proved 3
▁horror 3
▁military 3
▁rush 3
▁meetings 3
▁canister 3
▁passes 3
▁intelligence 3
▁subm 3
▁wicked 3
▁rare 3
▁ultimate 3
▁election 3
▁digest 3
▁commitment 3
▁slides 3
▁fence 3
▁microwave 3
▁gray 3
▁casino 3
being 3
▁backwards 3
▁detail 3
▁roses 3
▁weaker 3
▁Greek 3
▁divine 3
▁candle 3
▁Back 3
▁organisation 3
▁Iraq 3
▁committed 3
▁deeply 3
▁development 3
▁spoken 3
▁Feel 3
▁beats 3
▁Dude 3
erally 3
▁sole 3
▁harmless 3
▁gobble 3
▁math 3
▁friendly 3
▁Frankly 3
▁Egypt 3
▁unfair 3
▁instructions 3
▁post 3
▁menace 3
▁Sunday 3
▁lower 3
▁decaying 3
£ 3
▁prostitutes 3
▁plain 3
That 3
▁embarrassed 3
▁Lucas 3
▁wires 3
▁genetically 3
▁Obviously 3
▁burden 3
▁chopper 3
▁strippers 3
▁strangely 3
▁imported 3
▁coast 3
▁copy 3
▁alcohol 3
▁widows 3
▁petals 3
▁bow 3
▁Br 3
▁ignores 3
▁Un 3
▁divorced 3
▁competing 3
▁victory 3
▁closing 3
▁strangle 3
ate 3
▁ba 3
▁unhappy 3
▁motion 3
▁colder 3
▁Hear 3
▁edge 3
▁ent 3
▁psychological 3
▁product 3
▁stroke 3
▁marble 3
▁cigarette 3
▁supermarket 3
▁en 3
▁join 3
▁farmer 3
▁appearance 3
▁bargain 3
▁pol 3
▁bleed 3
▁lips 3
▁reputation 3
▁perfected 3
▁tracking 3
▁nourish 3
▁Michael 3
▁intercepted 3
▁bars 3
▁twist 3
▁isolate 3
▁describe 3
▁worthless 3
▁lung 3
▁operate 3
▁drives 3
▁filthy 3
▁colored 3
▁hmm 3
▁Washington 3
▁mo 3
▁fuse 3
▁recorded 3
▁possess 3
▁ghosts 3
▁handy 3
▁copper 3
▁flap 3
▁Middle 3
▁aged 3
▁Jack 3
▁ignorant 3
▁Please 3
▁stripped 3
▁systematically 3
▁inst 3
▁Long 3
▁mixed 3
▁E 3
▁annoy 3
▁14 3
▁garden 3
▁coat 3
▁Life 3
▁cans 3
▁investigation 3
▁trick 3
▁codes 3
▁chances 3
am 3
i 3
▁dragged 3
▁rotten 3
▁forgot 3
▁boom 3
▁develop 3
▁gum 3
▁average 3
▁previous 3
▁approve 3
▁transferred 3
▁site 3
▁woods 3
▁mid 3
▁att 3
▁fifty 3
▁rests 3
▁pressing 3
▁cutting 3
▁reminded 3
▁suffered 3
▁counterfe 3
clock 3
▁meets 3
▁wrap 3
▁enormous 3
▁disappears 3
▁flows 3
▁tube 3
▁fraudulent 3
▁weighs 3
▁ratings 3
▁bombs 3
▁mint 3
▁coins 3
▁mood 3
▁flu 3
▁Mick 3
▁Might 3
▁reform 3
▁clinic 3
▁poop 3
▁spin 3
▁Belgium 3
▁predator 3
▁reject 3
▁ventures 3
▁melts 3
▁protest 3
▁macho 3
▁sue 3
▁shore 3
▁cage 3
▁wise 3
▁crews 3
▁choosing 3
▁climbs 3
▁chickens 3
▁session 3
▁figures 3
▁photographed 3
▁settle 3
▁sunshine 3
▁lizard 3
▁minimum 3
▁determined 3
▁dissolves 3
▁betting 3
▁shell 3
▁drawn 3
▁healed 3
▁attend 3
▁wins 3
▁trading 3
▁frequencies 3
▁smashed 3
▁crowd 3
▁jam 3
hers 3
when 3
▁spots 3
▁bonus 3
▁genuine 3
▁plugged 3
▁mutate 3
▁golden 3
▁upstairs 3
▁backward 3
▁bore 3
▁servants 3
▁spilling 3
▁jokes 3
▁disappointed 3
▁fingers 3
▁Lucy 3
▁Indian 3
▁clavicle 3
▁froze 3
▁marks 3
▁apologize 3
▁Being 3
▁international 3
▁stretched 3
▁devil 3
▁Obama 3
▁protection 3
▁tunnels 3
▁During 3
▁drown 3
▁thieves 3
▁em 3
▁dawn 3
▁option 3
▁molester 3
▁hydrogen 3
▁basic 3
▁breakfast 3
▁kicked 3
▁Special 3
▁smarter 3
▁wolf 3
▁reliable 3
▁Say 3
▁tremble 3
▁shipped 3
▁slice 3
▁squeeze 3
▁eternal 3
▁revive 3
▁crawled 3
▁Add 3
▁traced 3
P 3
▁clings 3
▁desperately 3
▁Someone 3
▁"' 3
▁eating 3
▁Majesty 3
▁succeeded 3
▁wished 3
▁teapot 3
▁golf 3
▁Eve 3
▁Justice 3
▁charged 3
▁vain 3
▁appreciation 3
▁appointment 3
▁fairies 3
▁d 3
▁feather 3
▁er 3
▁kingdom 3
▁handsome 3
▁Got 3
▁relatives 3
▁extinct 3
▁poker 3
▁lust 3
▁disregard 3
▁connected 3
▁Indeed 3
▁ripe 3
▁conduct 3
▁repaired 3
▁Henry 3
▁planted 3
▁morgue 3
▁grand 3
▁passport 3
▁bottles 3
▁resembled 3
▁performance 3
▁ending 3
▁chilling 3
▁gale 3
▁spiritual 3
▁thanks 3
▁mature 3
▁unfortunate 3
▁presume 3
▁goods 3
▁chooses 3
▁curse 3
▁G 3
▁11:00. 3
▁heels 3
▁confession 3
▁21 3
▁modest 3
▁ident 3
war 3
▁pleases 3
▁neither 3
▁stake 3
▁youth 3
▁ruin 3
▁mining 3
▁spoil 3
▁builders 3
▁sunk 3
▁jewelry 3
ff 3
▁lamp 3
▁Another 3
No 3
hands 3
▁heed 3
his 3
▁Pa 3
▁fortunate 3
▁interpret 3
▁guests 3
▁weather 3
▁difficulties 3
▁seeking 3
▁Sergeant 3
▁hoist 3
▁horses 3
day 3
where 3
▁genie 3
▁counts 3
..< 3
▁survivors 3
▁bid 3
▁cotton 3
▁revolutionary 3
▁conscience 3
▁Men 3
▁Fortunately 3
▁increasing 3
▁smoking 3
▁aqueduct 3
People 3
about 3
▁dinner 3
▁Drink 3
▁adore 3
▁masses 3
▁Nowadays 3
▁Mexico 3
▁capsule 3
▁stores 3
▁itself 3
▁molecules 3
▁admire 3
ter 3
▁hostages 3
▁Australia 3
▁Certainly 3
▁Doctor 3
▁poured 3
▁inch 3
▁House 3
▁defeat 3
▁clock 3
▁winds 3
▁pots 3
>> 3
▁navy 3
▁iron 3
this 3
▁reclaim 2
▁filter 2
▁Norman 2
▁relay 2
▁override 2
▁poisons 2
▁evenly 2
▁recipients 2
▁aspects 2
▁maple 2
▁sodium 2
▁Euros 2
▁nieces 2
▁couch 2
▁focused 2
▁Though 2
▁recovered 2
▁rebel 2
▁guides 2
▁harmlessly 2
▁Gonna 2
▁similar 2
▁handwr 2
▁capac 2
▁boundary 2
▁grandma 2
▁Tuesday 2
▁amphibious 2
▁exploring 2
▁circu 2
▁delicate 2
▁regenerate 2
▁independently 2
▁shuts 2
▁accepting 2
▁grease 2
▁identify 2
▁synthetic 2
▁District 2
▁Attorney 2
ional 2
▁dropping 2
▁settlement 2
▁wrist 2
▁stress 2
▁mutates 2
▁cleaves 2
▁controlled 2
▁cats 2
▁detonates 2
rate 2
▁compare 2
▁stung 2
▁symbols 2
powered 2
▁profile 2
▁cellphone 2
>-< 2
▁fetus 2
▁followers 2
▁hacked 2
▁icon 2
▁effectively 2
▁airstrip 2
▁baked 2
▁email 2
▁unemployment 2
▁registered 2
▁Defense 2
▁Valentine 2
▁Day 2
▁slippery 2
▁alloy 2
▁vacuum 2
▁Gets 2
▁prom 2
▁Golden 2
N 2
force 2
▁mighty 2
▁messes 2
▁drains 2
▁load 2
▁Lang 2
G 2
▁router 2
▁terribly 2
▁extended 2
▁hyper 2
▁Luke 2
▁patterns 2
▁bathroom 2
▁ye 2
▁cooling 2
▁collected 2
▁microbes 2
▁gut 2
▁shelf 2
▁laptop 2
improvement 2
▁nearby 2
▁hosp 2
▁delivers 2
▁calculated 2
▁arts 2
▁Orient 2
▁Knowing 2
▁Blood 2
▁tricking 2
▁radar 2
▁interm 2
tent 2
▁east 2
10,000 2
▁outdoors 2
▁Janet 2
▁nicely 2
▁perceived 2
▁visions 2
▁referred 2
▁stating 2
▁expires 2
▁rang 2
ely 2
▁Hamilton 2
▁pardon 2
▁slips 2
▁slipping 2
▁protecting 2
tee 2
▁views 2
▁sire 2
▁signature 2
▁thereby 2
-2 2
▁permanently 2
▁California 2
▁Also 2
▁coughing 2
▁probation 2
▁botched 2
▁Russian 2
▁tougher 2
▁relevant 2
▁Eastern 2
▁rancid 2
▁Based 2
▁boobs 2
▁servers 2
▁recovery 2
▁roar 2
▁spotted 2
▁voter 2
engineer 2
▁undetected 2
▁interrupt 2
▁Sue 2
▁Hands 2
▁Across 2
▁measured 2
▁Be 2
▁Webster 2
dark 2
▁lieutenant 2
▁defies 2
▁ballistics 2
▁Betty 2
▁Dewey 2
▁squeals 2
▁brokers 2
▁Problem 2
▁toxin 2
▁clarify 2
▁videos 2
▁quietly 2
▁shrunk 2
▁Senate 2
▁voted 2
▁pushing 2
▁inspires 2
▁Bajoran 2
▁scum 2
▁shift 2
▁relays 2
▁Klingon 2
▁vile 2
▁response 2
▁oak 2
▁cloth 2
▁cleans 2
▁Harold 2
▁dishes 2
▁shade 2
▁Throw 2
▁yen 2
▁escapes 2
▁disturbing 2
▁seas 2
▁kisses 2
▁tar 2
▁Stay 2
▁turf 2
▁beehive 2
▁ham 2
▁hen 2
▁freely 2
▁input 2
▁mistook 2
▁Dick 2
▁eyesight 2
▁principle 2
▁consciousness 2
▁bottoms 2
▁launched 2
▁vour 2
▁cloud 2
▁Hosp 2
▁pharmacy 2
▁council 2
▁pizza 2
▁sofa 2
▁oath 2
▁ore 2
▁Cardassia 2
▁acids 2
▁jazz 2
▁endless 2
▁variations 2
▁masters 2
▁receiving 2
▁phrase 2
▁occupation 2
▁Part 2
▁dangers 2
▁designer 2
▁humanity 2
▁aggressively 2
▁frequently 2
▁erotic 2
▁fantasies 2
▁needles 2
▁script 2
▁assholes 2
▁offensive 2
God 2
▁satellite 2
▁links 2
▁replicates 2
▁eyeballs 2
▁reported 2
▁cozy 2
▁chambers 2
▁dressed 2
▁climate 2
▁liberty 2
▁spikes 2
▁angels 2
▁Son 2
▁restored 2
▁embraced 2
▁flood 2
▁ocean 2
▁lap 2
▁yacht 2
▁amongst 2
▁folded 2
▁altered 2
▁Wade 2
▁identified 2
R 2
▁definite 2
▁quarters 2
▁Cardassians 2
▁accessed 2
▁blight 2
▁dismiss 2
▁Shinji 2
▁roa 2
▁invincible 2
▁constantly 2
▁roofs 2
▁stream 2
▁bridge 2
▁piss 2
▁blasts 2
▁destiny 2
▁performed 2
▁Moro 2
▁Fifteen 2
▁Luckily 2
▁lawyers 2
▁hustlers 2
▁Brazil 2
▁riot 2
▁reptilian 2
▁Communists 2
▁veterans 2
▁relatively 2
▁30,000 2
▁sharp 2
▁display 2
▁sweater 2
▁crate 2
▁Raja 2
▁pellets 2
▁warned 2
▁opposition 2
▁plates 2
▁cloudy 2
▁Britain 2
▁origin 2
▁ultimately 2
▁secretes 2
▁skeleton 2
▁tower 2
▁guarding 2
▁Daniel 2
▁haunt 2
▁colony 2
▁Babylon 2
▁10,000- 2
▁mistaken 2
▁vessel 2
▁operational 2
▁ideal 2
▁embarrassing 2
▁Declaration 2
▁Wayne 2
▁despite 2
▁secrets 2
▁bind 2
▁grabbing 2
▁clawing 2
▁slacking 2
▁Alpha 2
▁probe 2
▁intense 2
▁rigged 2
▁console 2
▁sensors 2
▁Seven 2
▁selected 2
▁bond 2
▁encounter 2
▁grim 2
▁outsiders 2
▁mini 2
▁asteroid 2
▁lobby 2
▁kicking 2
▁restore 2
▁anatomy 2
▁procedure 2
▁prior 2
▁exquisite 2
▁scatter 2
▁proposed 2
▁Iranians 2
▁rooted 2
▁preserved 2
▁acceptance 2
▁binds 2
▁Machine 2
▁risked 2
▁burrow 2
▁depth 2
▁deflect 2
▁bounce 2
▁waving 2
▁hunting 2
▁Hurry 2
▁survives 2
▁Fighting 2
▁bravery 2
▁desperation 2
▁rumor 2
▁distress 2
▁constant 2
▁attacking 2
▁emotionally 2
▁Job 2
▁carpet 2
▁peasants 2
C 2
▁manpower 2
▁Gentlemen 2
▁capital 2
▁unbelievable 2
▁urban 2
▁swallowed 2
▁admitted 2
▁formula 2
▁Germany 2
▁sources 2
▁crucial 2
▁admired 2
▁Occasionally 2
▁snap 2
▁mil 2
▁landing 2
▁bravely 2
▁Lately 2
▁behaved 2
▁manner 2
▁cities 2
▁odors 2
▁campaign 2
▁grid 2
▁empire 2
▁reinforcements 2
▁Bajorans 2
▁British 2
▁Poland 2
▁poster 2
▁student 2
▁virginity 2
▁sever 2
▁Earlier 2
▁swerved 2
▁barbecue 2
▁pan 2
▁sharks 2
▁sip 2
▁economic 2
▁beautifully 2
▁compound 2
Did 2
▁Germans 2
▁rabbits 2
▁genetic 2
▁appreciated 2
▁injection 2
▁politicians 2
▁palm 2
0' 2
▁kidnapped 2
▁hides 2
▁antidote 2
▁tucked 2
▁sexually 2
▁artificially 2
▁publication 2
▁challenge 2
▁y 2
know 2
billion 2
▁dollar 2
▁shake 2
▁chuck 2
▁dicks 2
ray 2
▁Brother 2
>- 2
▁incompetent 2
▁regardless 2
▁purple 2
▁defines 2
▁providing 2
▁Wild 2
▁Marklars 2
▁favour 2
▁trajectory 2
▁washing 2
▁whirlpool 2
▁dire 2
▁endure 2
▁paradise 2
▁realised 2
▁hyperspace 2
▁Mmm 2
▁qual 2
▁ignorance 2
▁motive 2
▁Sir 2
▁losers 2
▁salvation 2
▁noticing 2
▁shores 2
▁junk 2
▁heap 2
▁missiles 2
▁Cuba 2
▁rolled 2
▁nightmare 2
▁trial 2
▁supported 2
▁enjoying 2
▁oppose 2
▁crossed 2
▁boyfriend 2
▁mere 2
▁supposedly 2
▁limited 2
▁inevitably 2
▁equals 2
▁peanut 2
looking 2
▁stiff 2
▁cheeks 2
▁creative 2
▁alter 2
▁Margaret 2
▁Ronald 2
▁campaigns 2
▁Told 2
▁forgive 2
▁pissing 2
▁Mexican 2
▁owe 2
▁communication 2
▁rubber 2
▁Thirteen 2
searched 2
▁globe 2
▁perm 2
▁degree 2
▁freezes 2
F 2
▁Guess 2
▁restless 2
▁truce 2
▁gratitude 2
▁freeing 2
0- 2
▁Stop 2
▁disconnected 2
▁sneeze 2
▁insect 2
▁inclined 2
▁meals 2
▁unimaginable 2
▁William 2
▁legacy 2
▁independent 2
▁sheltered 2
▁discovery 2
▁laser 2
▁conscious 2
▁Commonwealth 2
▁Andromeda 2
▁brilliant 2
is 2
▁highway 2
▁sprouts 2
▁Theoretically 2
▁unlikely 2
▁pertinent 2
▁aunt 2
▁simulation 2
▁pilot 2
▁briefly 2
▁manipulate 2
▁believing 2
▁powerless 2
▁advances 2
▁Normally 2
▁Taliban 2
▁Nathan 2
▁nuns 2
▁finishing 2
▁encourages 2
▁dedication 2
▁organization 2
▁adorable 2
▁versus 2
▁adults 2
▁sustain 2
▁decomposed 2
▁revenge 2
▁exposed 2
▁oppressed 2
▁strengthened 2
▁bound 2
▁explanation 2
▁county 2
▁Nor 2
▁stuffed 2
▁sewn 2
▁terms 2
▁judgement 2
▁intervention 2
▁announced 2
▁Jerusalem 2
car 2
▁birthday 2
▁glimpse 2
▁Love 2
▁abilities 2
▁crossword 2
old 2
▁replicate 2
▁punching 2
▁trinkets 2
▁tinkle 2
▁moments 2
▁reacts 2
▁mum 2
▁carats 2
▁agents 2
▁satisfaction 2
▁granddaughter 2
▁yearn 2
▁exceptional 2
▁unanimous 2
▁borrowed 2
▁Use 2
▁bay 2
▁Gypsies 2
▁miracle 2
▁Fair 2
▁abducted 2
▁dolphins 2
▁pissed 2
▁treasures 2
▁quotes 2
▁tightly 2
▁soaking 2
▁Ally 2
▁cheerleader 2
▁refer 2
▁tribes 2
▁mend 2
▁nets 2
▁experimental 2
▁effects 2
M 2
S 2
▁releases 2
▁serotonin 2
▁region 2
▁West 2
▁storing 2
law 2
▁infin 2
▁fin 2
▁baseball 2
▁literally 2
▁Bad 2
▁whistle 2
▁bloomed 2
▁spoon 2
▁Trophy 2
▁execution 2
▁Andrew 2
▁fucked 2
▁eluded 2
▁intrigued 2
▁Texas 2
▁photo 2
▁alongside 2
made 2
▁Green 2
▁recording 2
▁barn 2
▁Mo 2
▁parked 2
▁rice 2
▁chopsticks 2
▁locks 2
▁Canada 2
▁Years 2
▁feast 2
▁non 2
▁establish 2
▁professionals 2
Her 2
▁braves 2
▁venture 2
▁battlefield 2
▁romance 2
▁knocks 2
▁basket 2
▁dumped 2
▁crap 2
▁Young 2
▁Grand 2
▁Folks 2
▁Heaven 2
▁herself 2
▁inhale 2
▁particles 2
▁manager 2
▁traded 2
â 2
▁level 2
▁drowned 2
▁projects 2
▁construction 2
▁remaining 2
▁Langley 2
▁heating 2
▁Bobby 2
▁Boys 2
▁boiler 2
▁shortly 2
▁Iceland 2
▁attracted 2
▁gloves 2
▁1,000 2
▁transmission 2
▁traveled 2
▁caliber 2
▁Elders 2
▁bold 2
▁Frank 2
▁cords 2
▁Patients 2
uiet 2
▁contamination 2
▁drafted 2
▁uniform 2
▁forcing 2
▁pie 2
▁bodily 2
▁traps 2
▁cheese 2
▁biological 2
▁warfare 2
▁u 2
▁burners 2
▁asses 2
hour 2
▁plea 2
▁Almighty 2
▁models 2
▁unpredictable 2
▁shadows 2
▁Lana 2
▁tender 2
▁butts 2
▁solves 2
▁salvage 2
▁replicators 2
▁android 2
▁watches 2
▁budget 2
▁ladder 2
▁timing 2
▁Lab 2
96 2
▁highly 2
▁collided 2
▁robes 2
▁fraction 2
▁infect 2
▁susceptible 2
▁guilt 2
▁required 2
▁perfection 2
▁contacted 2
▁vinegar 2
▁Twenty 2
five 2
▁elegant 2
▁definitely 2
▁worms 2
▁fingernails 2
▁forefinger 2
▁spectator 2
▁buyers 2
▁Mercedes 2
▁Intel 2
▁LAPD 2
20, 2
▁calf 2
order 2
▁bulk 2
▁squashed 2
▁payments 2
▁favourite 2
▁sigh 2
▁taxi 2
▁cable 2
▁Simon 2
▁Strangers 2
▁Six 2
▁education 2
Hi 2
▁booked 2
▁grandfather 2
▁infection 2
▁predictable 2
▁vanish 2
▁christened 2
ero 2
One 2
▁presented 2
▁Said 2
▁ditch 2
▁turkey 2
▁bouncing 2
▁Round 2
Not 2
▁shy 2
▁competitive 2
▁Jesse 2
▁arranged 2
▁plead 2
▁selfish 2
▁prime 2
▁1000 2
▁Communist 2
▁ironed 2
▁weep 2
▁promises 2
▁approximately 2
▁messages 2
▁Poor 2
▁bailing 2
▁snows 2
▁Damn 2
▁difficulty 2
▁adapting 2
▁eliminate 2
▁leaking 2
so 2
▁detainees 2
▁interrogate 2
▁trucks 2
▁assassins 2
▁semi 2
▁wages 2
▁employment 2
▁increases 2
▁lowering 2
▁CD 2
▁retaliation 2
▁participate 2
▁global 2
▁accountable 2
▁disdain 2
▁returning 2
▁insects 2
▁Nevertheless 2
▁gentleman 2
▁fuckers 2
▁alight 2
▁raw 2
▁bang 2
▁Office 2
▁tracked 2
secur 2
▁Mountains 2
▁multiple 2
▁identifying 2
▁surveillance 2
▁leapt 2
▁priest 2
▁chapters 2
▁affecting 2
▁seal 2
▁gravity 2
▁underage 2
▁bagged 2
▁tech 2
▁pillow 2
▁blocking 2
▁Bronze 2
▁insurgents 2
▁tv 2
▁magazines 2
▁rats 2
▁extraterrest 2
▁illness 2
▁bubble 2
▁vis 2
▁yelling 2
▁historical 2
year 2
▁cleaning 2
▁credit 2
▁liberal 2
▁levels 2
▁physician 2
▁Nowhere 2
▁crystal 2
▁oneself 2
▁lifting 2
▁treats 2
▁weekend 2
▁stove 2
▁reek 2
▁acting 2
▁wounded 2
▁Homosexual 2
▁violets 2
▁withered 2
▁cheer 2
▁cellar 2
▁respects 2
▁investigative 2
▁journalism 2
▁toes 2
▁downloaded 2
▁superiors 2
▁confront 2
▁emerge 2
▁lousy 2
▁Thirty 2
▁circling 2
▁responsibility 2
▁bombing 2
▁Both 2
▁societies 2
▁engage 2
▁beneath 2
▁keen 2
▁encourage 2
▁hounds 2
▁interference 2
▁failing 2
▁kneel 2
▁beans 2
imate 2
▁pregnancy 2
▁bile 2
_ 2
▁Using 2
▁scarf 2
▁Civil 2
▁wig 2
▁mobile 2
▁Vision 2
▁30. 2
▁neighbourhood 2
▁Vince 2
▁delicious 2
▁campus 2
▁melted 2
▁cuts 2
▁saves 2
▁porn 2
▁blush 2
▁bucks 2
▁aired 2
▁younger 2
▁antenna 2
line 2
▁webs 2
▁argue 2
▁expression 2
▁biology 2
▁modified 2
▁mustard 2
▁weigh 2
▁hollow 2
▁krypton 2
▁heated 2
▁Kelvin 2
▁fru 2
ably 2
▁Goa 2
▁Answer 2
▁outgoing 2
▁wormholes 2
▁RPG 2
▁violently 2
▁Iran 2
▁leeches 2
▁leech 2
▁competent 2
▁disappointing 2
▁Mount 2
▁metals 2
Where 2
▁polished 2
▁arse 2
▁ratio 2
▁conversation 2
▁Catholic 2
▁hip 2
▁vegetation 2
▁winters 2
▁Havana 2
▁gene 2
▁Trust 2
▁abstract 2
▁asset 2
▁balance 2
▁tale 2
2, 2
▁prizes 2
▁Avenue 2
▁integration 2
▁arbitrary 2
▁hes 2
diving 2
▁blown 2
▁shark 2
▁tips 2
uincy 2
▁forgery 2
▁inspector 2
▁disrupt 2
▁continuing 2
▁sampled 2
▁Fuck 2
▁smoothly 2
▁tattoos 2
▁pierce 2
▁meek 2
▁eliminated 2
▁sausages 2
▁cram 2
▁wealthiest 2
▁melody 2
▁rivers 2
▁transforms 2
▁Left 2
▁poems 2
▁stall 2
▁spider 2
▁voices 2
▁curtains 2
▁swung 2
▁triples 2
▁exercise 2
▁humiliation 2
▁softer 2
▁digested 2
▁Technology 2
▁Fred 2
▁wither 2
▁Mine 2
▁congregation 2
heel 2
▁normally 2
▁engaged 2
▁Time 2
▁wandering 2
▁retarded 2
▁clandestine 2
▁Jackson 2
▁sentimental 2
▁carved 2
▁pelvis 2
▁moo 2
▁muscle 2
▁lure 2
▁giraffe 2
▁stocks 2
30 2
▁bracelets 2
▁pole 2
▁knees 2
▁defective 2
▁database 2
▁section 2
▁McGee 2
▁bugs 2
▁kissed 2
▁allergies 2
▁mental 2
▁logs 2
▁spam 2
▁filters 2
▁probabil 2
uh 2
▁Hopefully 2
▁wildfire 2
▁overload 2
▁300 2
▁twelve 2
▁33 2
▁speakers 2
▁rewr 2
▁wears 2
▁bell 2
▁blended 2
▁fair 2
▁Ages 2
▁testicles 2
▁Lisa 2
▁Bang 2
▁Saturday 2
▁horned 2
▁accidentally 2
ution 2
ton 2
▁possum 2
▁hatred 2
▁jar 2
▁fart 2
▁loses 2
▁disgust 2
▁ed 2
▁barren 2
▁batteries 2
▁umbrella 2
▁hardships 2
▁cartel 2
▁overall 2
▁frog 2
▁boil 2
▁san 2
▁resides 2
▁instrument 2
▁specifically 2
▁someplace 2
▁firm 2
▁physically 2
▁clot 2
▁bend 2
▁aircraft 2
▁carrier 2
▁counting 2
▁related 2
▁Dear 2
▁blessed 2
▁deliver 2
▁laughing 2
▁lest 2
▁sailing 2
▁formidable 2
▁intentionally 2
▁Families 2
▁terrified 2
▁layers 2
▁chewing 2
▁garbage 2
▁fees 2
▁removing 2
▁Fine 2
▁earrings 2
▁taut 2
▁smug 2
▁Francisco 2
▁tons 2
▁Often 2
erion 2
▁factor 2
▁pale 2
▁obstacle 2
▁rail 2
▁sustained 2
▁duck 2
level 2
hole 2
▁currently 2
▁Really 2
▁label 2
▁Church 2
▁impress 2
▁learning 2
▁deviant 2
▁personalities 2
▁collide 2
▁confess 2
▁suppress 2
▁kilometers 2
▁intercept 2
▁celebration 2
▁Either 2
▁favorite 2
▁robber 2
▁bomber 2
▁Ok 2
▁slams 2
▁rear 2
▁bogus 2
▁timer 2
▁mult 2
▁'" 2
▁distant 2
▁candy 2
▁Ice 2
▁accelerate 2
▁bedrock 2
▁reaching 2
▁moisture 2
▁numerous 2
▁H 2
▁materials 2
▁Nazi 2
▁awesome 2
▁cope 2
▁independence 2
▁Ford 2
▁guineas 2
▁ton 2
▁trembling 2
▁Finally 2
▁limp 2
▁statues 2
▁Caesar 2
▁bullshit 2
▁jerking 2
▁cracked 2
▁sarin 2
▁male 2
▁motivated 2
▁options 2
▁narrow 2
▁surprises 2
▁buggies 2
▁castle 2
▁abomination 2
▁Fathers 2
▁embedded 2
▁sides 2
▁tumble 2
▁pretending 2
$6 2
▁cents 2
è 2
▁convey 2
▁palate 2
▁broad 2
▁kinds 2
▁drawings 2
▁rhythm 2
▁contrast 2
▁Bryan 2
▁snapping 2
▁translate 2
▁Fort 2
▁Thing 2
▁Great 2
yes 2
▁rift 2
▁opium 2
▁graves 2
▁rob 2
▁broads 2
▁faced 2
▁messy 2
▁Whose 2
▁labor 2
▁Next 2
▁Book 2
▁pee 2
▁builds 2
ates 2
▁suspension 2
▁reeks 2
▁resolved 2
▁unlock 2
▁pathways 2
▁precision 2
▁fluffy 2
▁dormant 2
▁Joe 2
▁loud 2
▁venom 2
▁Cut 2
▁risky 2
▁Sean 2
▁idle 2
▁chamber 2
man 2
▁Ask 2
▁award 2
▁lookin 2
▁wrapped 2
▁Second 2
▁Thompson 2
▁winchester 2
▁Funny 2
▁flexible 2
▁unaware 2
▁bladder 2
▁partial 2
▁hey 2
▁covering 2
door 2
▁discharge 2
▁rotate 2
▁Eli 2
▁Jim 2
▁hog 2
▁Robin 2
▁products 2
▁opposite 2
▁Considering 2
▁scoop 2
▁civilized 2
▁Chloe 2
▁crippled 2
▁neighbours 2
▁splendid 2
▁crown 2
▁wander 2
▁lightning 2
▁snakes 2
▁elastic 2
▁engulf 2
▁smelled 2
▁digestive 2
▁drank 2
▁eminent 2
▁detects 2
▁venomous 2
▁popping 2
z 2
▁lend 2
▁foolish 2
▁bent 2
▁tune 2
sided 2
▁diamonds 2
▁blues 2
▁safely 2
▁subspace 2
▁overwhelming 2
▁concerns 2
ions 2
▁cabinet 2
which 2
▁Die 2
▁dances 2
▁arteries 2
▁guts 2
▁pointed 2
▁tripped 2
▁calm 2
▁goldfish 2
▁tactics 2
▁regulation 2
▁fund 2
▁Lauren 2
▁dealt 2
▁Council 2
▁chicks 2
look 2
▁focal 2
▁policeman 2
▁penetrate 2
▁director 2
▁pig 2
▁penetrates 2
▁implement 2
▁Iranian 2
▁benefit 2
▁meaningless 2
▁Reserve 2
▁web 2
▁policies 2
▁governed 2
▁mortgage 2
▁cred 2
▁infrastructure 2
▁preventing 2
▁terrorism 2
▁annually 2
▁toxic 2
▁enterprise 2
▁: 2
▁cooler 2
▁sunspots 2
▁approaching 2
▁delete 2
▁ruins 2
▁bully 2
▁casual 2
▁rumors 2
▁glorious 2
▁sexy 2
▁magnetic 2
▁collect 2
▁utilizing 2
▁shines 2
▁blanket 2
▁Suffice 2
▁res 2
what 2
▁Order 2
▁testing 2
▁flatter 2
▁vicious 2
▁3:00 2
▁surviving 2
▁11 2
▁undetectable 2
▁install 2
▁unmarked 2
▁digital 2
▁theme 2
▁foul 2
▁irrelevant 2
▁fleas 2
▁obligations 2
▁sugars 2
▁mineral 2
▁recognized 2
▁floated 2
▁peak 2
▁positive 2
at 2
▁bags 2
▁antiques 2
▁random 2
▁vultures 2
wearing 2
▁organ 2
▁Remove 2
▁Five 2
▁horny 2
▁succeeds 2
▁truths 2
ish 2
▁torture 2
▁Barack 2
▁jet 2
▁offers 2
▁adult 2
▁females 2
▁dioxide 2
▁rations 2
▁nectar 2
▁produces 2
▁hummingbird 2
▁stray 2
▁Lodge 2
▁signatures 2
▁sank 2
▁cleaned 2
▁Guard 2
▁pen 2
▁beeping 2
▁microwaves 2
▁guest 2
▁Jersey 2
▁weddings 2
▁suspicious 2
▁retired 2
▁beetles 2
▁nickname 2
▁methane 2
▁resilient 2
▁darker 2
▁mirrors 2
▁pounding 2
hm 2
▁examine 2
▁crops 2
▁Ooh 2
▁blinding 2
▁thinner 2
▁downfall 2
▁wallet 2
▁primitive 2
▁Jessica 2
▁Down 2
▁drainers 2
▁drain 2
▁10- 2
▁excess 2
▁Death 2
▁mackerel 2
▁infecting 2
▁Ireland 2
▁Coast 2
mile 2
▁psychic 2
▁satisfying 2
▁blocks 2
▁sliced 2
▁spy 2
pos 2
▁airs 2
▁ruining 2
▁yielded 2
▁confirms 2
▁Home 2
▁cupboard 2
▁judged 2
▁misery 2
▁cheerleaders 2
▁slut 2
▁virgin 2
▁punch 2
▁footage 2
▁tire 2
▁sore 2
▁click 2
▁violent 2
▁attach 2
▁Violent 2
▁dock 2
▁President 2
▁handbag 2
▁goodbye 2
H 2
E 2
L 2
▁Anna 2
▁genius 2
▁Bill 2
▁lids 2
▁grilled 2
▁questioning 2
▁toll 2
▁untouchable 2
▁YouTube 2
▁stepped 2
▁ceiling 2
▁proceed 2
▁gathering 2
▁applied 2
▁Minister 2
▁kindness 2
▁suit 2
▁decades 2
▁yer 2
▁Jamie 2
▁pies 2
▁viewers 2
▁Call 2
▁pill 2
▁Wednesday 2
▁unsub 2
▁super 2
▁alligator 2
▁dried 2
▁proceedings 2
▁lease 2
▁dancers 2
▁accused 2
▁sack 2
▁swims 2
▁intact 2
▁Winston 2
▁dagger 2
▁nanites 2
▁Jenna 2
▁rejected 2
him 2
▁voluntarily 2
▁plague 2
▁importantly 2
▁scrape 2
▁feasible 2
▁shoulder 2
▁pedophile 2
▁authority 2
▁collar 2
▁upriver 2
▁freezer 2
▁mating 2
▁wagon 2
▁acquire 2
▁Tim 2
▁straps 2
▁ensure 2
▁researched 2
▁Nature 2
▁motorcycle 2
▁port 2
▁sheds 2
▁modern 2
▁incomplete 2
▁leaf 2
▁Olympic 2
▁swimmers 2
▁gear 2
▁Emperor 2
check 2
▁trad 2
▁landfall 2
▁wider 2
▁twin 2
▁Pedro 2
end 2
▁approval 2
ü 2
▁actions 2
got 2
▁examination 2
▁weakness 2
▁tighter 2
▁migrated 2
▁badass 2
▁Rio 2
▁penny 2
▁Wives 2
▁nod 2
▁noon 2
▁Amy 2
▁harmony 2
▁claw 2
▁cm 2
▁cartridge 2
▁Woe 2
▁tripled 2
▁alliance 2
▁thrive 2
▁paralyzes 2
▁Destiny 2
▁dorky 2
▁lecture 2
▁Beautiful 2
▁wilt 2
▁Ms 2
▁bonuses 2
▁provides 2
▁riots 2
O 2
▁45 2
▁liquor 2
▁Oil 2
▁maid 2
▁lean 2
▁Milan 2
Things 2
▁fester 2
▁radius 2
▁Mostly 2
▁Reid 2
▁ray 2
▁deals 2
▁newspaper 2
▁cult 2
ba 2
▁Timmy 2
▁legally 2
▁needle 2
▁Negro 2
▁Playboy 2
▁mmm 2
▁fortune 2
▁necklace 2
▁annex 2
▁2, 2
▁bizarre 2
▁honestly 2
▁dangerously 2
▁burnt 2
▁fades 2
▁screwed 2
▁tormented 2
▁hunger 2
▁brightness 2
▁weighing 2
▁charm 2
▁surgeon 2
▁reinforced 2
▁ceased 2
room 2
▁trembled 2
▁persons 2
▁cheating 2
▁Robert 2
▁Eleven 2
▁altar 2
▁gather 2
▁communists 2
▁fascists 2
▁answered 2
▁century 2
▁sparkle 2
▁steam 2
▁boot 2
Government 2
▁complain 2
▁throwing 2
folks 2
▁Moscow 2
▁knives 2
▁electronic 2
▁weekly 2
▁Mayor 2
▁satisfied 2
cats 2
▁bothers 2
▁intend 2
B 2
▁Couldn 2
▁nowadays 2
▁ammunition 2
▁surrounded 2
house 2
▁cast 2
huh 2
▁se 2
▁contribute 2
▁Apache 2
▁depending 2
▁laborers 2
▁queens 2
▁Doc 2
▁pollen 2
▁captain 2
▁tailor 2
▁attract 2
▁ruling 2
▁Hank 2
brothers 2
▁dumb 2
▁anguish 2
▁thou 2
▁delayed 2
▁gathered 2
▁shoulders 2
▁significance 2
▁description 2
▁shower 2
▁fame 2
▁approached 2
▁absence 2
▁stifle 2
▁affairs 2
w 2
▁stated 2
▁players 2
▁Francis 2
▁Rocky 2
▁turkeys 2
▁cussing 2
▁Air 2
▁Force 2
▁planes 2
radio 2
▁whomps 2
My 2
▁witnesses 2
▁Th 2
▁hull 2
weapons 2
▁settling 2
▁catches 2
▁condition 2
demon 2
▁Satan 2
▁begat 2
▁damp 2
▁Someday 2
world 2
▁concept 2
▁Gay 2
▁whichever 2
▁True 2
▁Gold 2
▁nobility 2
▁resisted 2
▁beaten 2
▁american 2
▁Grandma 2
▁Greece 2
▁throughout 2
▁accomplish 2
▁Nobody 2
▁trains 2
away 2
▁opportunity 2
▁rally 2
▁enlarge 2
Sicilians 2
▁marvellous 2
▁shocked 2
▁majority 2
▁virtue 2
▁Tombstone 2
▁circle 2
▁heavily 2
▁breeze 2
▁cages 2
▁illusion 2
▁thee 2
▁respected 2
▁warmth 2
▁resemble 2
▁sweeter 2
▁sol 2
Is 2
▁starter 2
▁mustn 2
▁walls 2
▁pound 2
▁shaved 2
▁raining 2
▁hurricane 2
▁assets 2
▁Sire 2
▁ambassadors 2
▁rival 2
▁spare 2
▁owners 2
those 2
▁barbecues 2
▁noose 2
▁heavenly 2
▁Jonah 2
an 2
▁thrust 2
▁Regarding 2
▁costumes 2
thing 2
▁understood 2
▁gladly 2
>'< 2
▁select 2
▁Perfectly 2
▁sordid 2
▁Brazilians 2
▁diseased 2
▁inhibited 2
▁silver 2
▁takin 2
▁caper 2
▁Coury 2
▁coffin 2
▁Cinema 2
▁cubic 2
▁disappearance 2
▁germinate 2
▁engines 2
▁waking 2
▁Strange 2
▁lapdog 2
▁whales 2
▁hypocritical 2
▁phase 2
▁Golf 2
er 2
▁nova 2
▁southern 2
▁squawk 2
▁Arctic 2
▁George 2
▁virtuous 2
▁richest 2
▁erupt 2
▁stings 2
▁barefoot 2
▁urged 2
▁personality 2
▁lava 2
▁v 2
▁Maria 2
What 2
▁charging 2
▁trips 2
▁ongoing 2
their 2
▁soldier 2
▁Demons 2
▁killings 2
▁ranks 2
▁belly 2
▁pail 2
▁sketch 2
▁humming 2
▁Charley 2
▁adopt 2
▁fever 2
▁trusted 2
▁paras 2
▁Hungary 2
▁Goodness 2
▁governor 2
▁Took 2
▁senators 2
▁wolves 2
▁orbit 2
paper 2
▁tumor 2
▁narratives 2
▁Biography 2
▁assistance 2
▁Granny 2
▁circles 2
▁additional 2
▁leaps 2
▁clueless 2
▁Yo 2
▁icy 2
▁stripes 2
▁trap 2
▁deed 2
▁convert 2
▁Suddenly 2
▁replied 2
▁Off 2
▁collects 2
▁dwell 2
▁Reggae 2
▁sensed 2
▁Masked 2
▁Avenger 2
▁prepare 2
▁consort 2
▁delight 2
▁begged 2
▁dared 2
▁humiliated 2
▁feared 2
▁groceries 2
▁Sometime 2
▁nigger 2
▁bosses 2
▁tank 2
▁Section 2
▁cling 2
▁Buddha 2
▁admirable 2
▁oven 2
▁sighing 2
▁moustache 2
Let 2
▁intricate 2
▁dressing 2
▁pretentious 2
▁leather 2
▁begging 2
▁evolved 2
▁caribou 2
▁machetes 2
▁performing 2
▁ease 2
▁hamburger 2
▁Small 2
▁Smurfs 2
▁Eventually 2
▁instance 2
▁Trying 2
▁unfold 2
▁colleagues 2
▁im 2
▁increase 2
▁pleasurable 2
▁Muslims 2
▁racism 2
▁practiced 2
▁Missouri 2
▁results 2
▁worthwhile 2
▁increased 2
▁survival 2
▁heartless 2
▁Child 2
▁laying 2
fashioned 2
▁slough 2
▁corned 2
▁beef 2
▁desired 2
down 2
▁Show 2
▁anyplace 2
▁shoving 2
▁kimono 2
▁> 2
▁reopening 2
▁plastered 2
▁m 2
▁predicted 2
▁sauce 2
▁poodles 2
▁lowest 2
▁cries 2
▁terrorized 2
▁hostel 2
▁convenience 2
uercus 2
▁Lanning 2
▁amputated 2
no 2
eee 2
▁Ananka 2
▁Jackals 2
▁exped 2
foot 2
▁mass 2
▁squeezing 2
▁sieve 2
▁unfolds 2
▁unbreakable 2
▁determination 2
▁hopelessly 2
▁entangled 2
▁utter 2
▁bu 2
▁overdone 2
▁12:45. 2
▁docile 2
▁egomaniacs 2
▁chatty 2
▁sweethearts 2
▁overshadows 2
▁seats 2
▁Marine 2
▁Corps 2
shores 2
▁Tripoli 2
▁vacation 2
▁Fear 2
▁enslaving 2
▁equator 2
▁earned 2
▁resulted 2
▁stamped 2
▁theat 2
▁Laurie 2
ly 2
Luminol 2
▁compo 2
und 2
▁interacts 2
▁hemoglobin 2
▁rig 2
▁ro 2
your 2
▁sm 2
▁J 2
▁remarkably 2
▁leans 2
▁fifth 2
ugh 2
▁beak 2
▁cheek 2
▁storage 2
▁ca 2
These 2
▁host 2
▁decline 2
kind 2
▁goggles 1
▁aura 1
▁rooftop 1
▁transcends 1
▁unsure 1
▁uncertain 1
▁terrain 1
▁infectious 1
▁ethics 1
▁punched 1
▁choicelessness 1
▁triggering 1
▁costing 1
▁Test 1
▁Jewish 1
▁insight 1
▁perspective 1
▁MSG 1
ifl 1
▁Crown 1
▁Placed 1
▁Rosalie 1
▁inconspicuous 1
▁Killian 1
▁distributes 1
▁typing 1
31. 1
▁networks 1
▁airwaves 1
▁stipulation 1
▁eloquence 1
▁Wave 1
▁bye 1
▁pasture 1
▁Dream 1
▁Sundance 1
▁Film 1
▁Festival 1
Partner 1
▁Gravely 1
▁firebug 1
▁manipulated 1
▁veto 1
▁50,000 1
▁Food 1
▁undeniable 1
▁creaks 1
▁groans 1
▁Fellow 1
▁Yorkers 1
▁Brannis 1
▁Bureau 1
▁birdie 1
▁Song 1
▁Matt 1
▁Davina 1
▁imaginary 1
▁homicide 1
▁landmark 1
▁besmirched 1
▁morbid 1
▁hallucinogenic 1
▁vigorously 1
circumstances 1
▁Carter 1
▁Nix 1
▁toothpick 1
▁behaving 1
▁25 1
Jasmine 1
▁rearrange 1
▁macromolecules 1
▁triggered 1
▁Diviner 1
▁stabilizer 1
Whatever 1
▁lets 1
▁caps 1
▁Kilgrave 1
▁psychotic 1
▁resists 1
▁extraction 1
▁defending 1
▁hissing 1
▁pipes 1
▁allergic 1
▁reliably 1
▁ammonium 1
▁freshly 1
▁hallways 1
▁exclusive 1
▁wines 1
▁flooding 1
▁hypothalamus 1
▁hydrogel 1
▁mimics 1
▁cerebrospinal 1
▁flawlessly 1
▁Karen 1
▁jog 1
▁toe 1
▁helm 1
▁volume 1
▁illustrations 1
▁username 1
▁spyware 1
▁detection 1
▁mucus 1
▁excretes 1
▁replenishes 1
▁traveler 1
▁buzzes 1
▁exhib 1
▁ecchymosis 1
▁roofing 1
▁Annapolis 1
▁Royal 1
▁Nova 1
▁Scotia 1
▁Chekura 1
▁Shelburne 1
▁pierogies 1
▁Wore 1
▁blends 1
▁ATC 1
▁fort 1
▁fabrication 1
▁scratched 1
▁Vehicle 1
▁massacre 1
▁buzzed 1
▁hafnium 1
▁tungsten 1
▁tubes 1
▁kilos 1
INHALES 1
▁SHARPLY 1
Every 1
▁Generation 1
▁Superhero 1
▁Deserves 1
▁debating 1
▁Hazard 1
▁mislead 1
▁recalls 1
▁layout 1
▁placement 1
▁furn 1
ure 1
▁maneuvers 1
plated 1
▁exorcise 1
ively 1
▁Paloma 1
▁swab 1
▁Neighbor 1
▁Mississippi 1
▁Pattern 1
▁brutal 1
▁informative 1
▁Alyssa 1
▁laptops 1
▁ping 1
▁addressed 1
▁seizures 1
▁inconvenience 1
▁Jacob 1
▁Wilkerman 1
▁inher 1
▁thermostat 1
▁junior 1
▁backpack 1
▁Megan 1
Sofia 1
▁Davenport 1
▁Daylight 1
▁Hasn 1
▁graduates 1
▁diploma 1
▁Python 1
▁Sis 1
Headquarters 1
▁Year 1
▁Barbary 1
▁recursive 1
▁recalibrating 1
▁spawning 1
▁blip 1
▁conclusion 1
prescribe 1
▁alerts 1
▁cardiac 1
tlewood 1
▁theorem 1
▁primes 1
▁fashionable 1
▁pip 1
▁Monomoy 1
▁Point 1
▁redeemed 1
▁recoil 1
▁shunned 1
▁billboard 1
▁spending 1
▁slows 1
▁untraceable 1
▁Kirkland 1
▁effaced 1
▁Mullucks 1
▁thinning 1
▁Monica 1
▁Joan 1
▁Gypsy 1
▁Cream 1
▁saucer 1
▁Vermont 1
▁mistrial 1
▁jeopardy 1
J 1
▁Safehold 1
▁codex 1
▁Wilderun 1
▁drawer 1
▁Schweikart 1
▁Cokely 1
▁Maida 1
▁frank 1
▁adjustment 1
▁Davis 1
▁Main 1
▁oversell 1
▁Paf 1
▁desp 1
▁tendon 1
▁richer 1
▁raps 1
▁impartial 1
▁expresses 1
▁contradictions 1
alism 1
▁enlisted 1
▁overqualified 1
▁ringside 1
▁imprisoned 1
▁Mokichi 1
▁dripping 1
▁surge 1
▁immense 1
▁theoretically 1
▁Connaver 1
▁Arkyn 1
▁horizon 1
▁shutting 1
scattered 1
▁necrosis 1
▁slate 1
▁Eco 1
▁Village 1
▁Chuckie 1
▁eject 1
▁wiped 1
▁sleeve 1
▁oligarch 1
▁contingent 1
▁European 1
▁eyew 1
▁Shepherd 1
▁Baltimore 1
▁ADA 1
▁Levy 1
▁pudding 1
▁cups 1
▁commissary 1
▁height 1
▁loft 1
sniffing 1
▁Tampa 1
▁Florida 1
▁Providence 1
▁Rhode 1
▁Flight 1
▁Deny 1
▁Ophelia 1
▁Necronomicon 1
▁cracks 1
▁bef 1
▁Dennis 1
▁Hopper 1
▁looped 1
▁encuincumbent 1
mbent 1
▁premises 1
▁acronym 1
▁Wanted 1
Boys 1
▁bulgy 1
▁Orson 1
▁High 1
▁ginormous 1
▁inspiration 1
▁counseling 1
▁assaulted 1
▁downstage 1
▁backdrop 1
▁Cyrus 1
▁unfairly 1
▁prosecuted 1
▁reply 1
▁accounting 1
▁regional 1
▁variance 1
▁betrayal 1
▁apprehended 1
ment 1
▁cluttered 1
▁jeez 1
▁Dreadful 1
▁Halo 1
▁widely 1
▁slug 1
▁Crowe 1
▁Beth 1
▁snared 1
▁seep 1
▁vents 1
▁cappuccino 1
▁Florrick 1
▁signify 1
▁providence 1
▁takedown 1
▁Companies 1
▁weaknesses 1
▁hacking 1
▁cursive 1
▁Compactor 1
▁jammed 1
▁athlete 1
▁snob 1
dresser 1
▁Schmidt 1
▁briefcase 1
▁recited 1
▁Major 1
▁locations 1
▁Cardassian 1
▁oppressive 1
▁challenging 1
▁justify 1
▁incapacitated 1
▁mercenaries 1
▁stealing 1
▁artefacts 1
▁magma 1
▁layer 1
▁corroded 1
▁immerse 1
▁Kahless 1
▁Cmdr 1
▁Lt 1
▁excavation 1
▁mindlessly 1
▁slagging 1
▁gratifies 1
▁Gosh 1
▁camels 1
▁hardier 1
▁Liberation 1
▁goose 1
▁deafness 1
▁shoots 1
▁chirping 1
▁Sign 1
▁merchandise 1
liars 1
▁Provided 1
▁packet 1
▁shouting 1
▁Carabinieri 1
▁tongues 1
▁tigers 1
▁caresses 1
▁wets 1
▁celebrate 1
▁leash 1
▁leap 1
▁qualified 1
▁roadblock 1
▁Humans 1
▁softhearted 1
▁anomaly 1
▁Marussya 1
▁geese 1
▁cackle 1
▁birch 1
▁mortgages 1
▁Dodge 1
▁hauled 1
▁Yang 1
▁Gao 1
▁rescue 1
▁bashed 1
▁steamed 1
▁stewed 1
▁broth 1
▁toldl 1
▁Students 1
▁professors 1
▁hermetically 1
▁obtrusive 1
▁Tromaville 1
▁Leh 1
▁Ladakh 1
▁pilgrimage 1
▁prostrations 1
▁Buddhist 1
▁ferrying 1
▁accompanied 1
▁repne 1
▁Bardos 1
▁abstracted 1
▁Buddhism 1
▁flourished 1
don 1
▁polluting 1
▁Pol 1
uat 1
▁Indonesian 1
▁Consortium 1
▁affluent 1
▁benefits 1
▁Elsewhere 1
breaking 1
▁flving 1
▁monitors 1
▁judgment 1
▁destrov 1
▁storv 1
▁Darkness 1
▁scattered 1
▁calculus 1
▁puppet 1
Gosh 1
▁mysteries 1
▁bigots 1
▁sexist 1
▁Goodrich 1
▁Thursday 1
▁deified 1
▁smoothes 1
▁learners 1
▁steaming 1
▁honour 1
▁Dukat 1
▁lifts 1
▁transporters 1
▁subroutines 1
▁processor 1
▁Enterprise 1
▁residue 1
▁analysed 1
because 1
▁corticosteroids 1
▁amino 1
▁increasingly 1
▁perverse 1
▁obscured 1
▁inspirational 1
▁prestigious 1
▁blase 1
Scorsese 1
film 1
▁noir 1
▁coined 1
▁productions 1
▁3, 1
▁wholesome 1
▁genres 1
▁vehicles 1
▁hinted 1
▁inherent 1
▁conforming 1
▁conventions 1
▁genre 1
▁versatile 1
▁avant 1
garde 1
▁nullify 1
▁interior 1
▁rap 1
▁theater 1
▁panicked 1
▁pandemonium 1
▁acknowledge 1
▁diversity 1
▁overt 1
▁Messala 1
Hur 1
▁Aggressive 1
▁pursuit 1
▁concentrating 1
▁primarily 1
▁deviants 1
▁noticeable 1
▁external 1
▁asexual 1
▁coincides 1
▁steady 1
▁masturbation 1
▁motorbikes 1
▁Marge 1
▁somethin 1
▁sympathy 1
▁fucker 1
▁whisk 1
▁likelihood 1
▁sew 1
▁sewed 1
▁cameraman 1
▁supervisor 1
▁chef 1
▁Plants 1
▁Antonio 1
▁hump 1
▁cocktail 1
▁rely 1
▁overloads 1
▁banquet 1
▁hemorrhages 1
▁score 1
▁lifetime 1
▁grasp 1
▁possessed 1
▁scented 1
▁blooms 1
▁hothouse 1
▁commoners 1
▁Waving 1
▁loaves 1
▁jest 1
▁apprentice 1
▁spits 1
▁cerulean 1
▁resent 1
▁Joseph 1
▁unchanged 1
▁betrayed 1
▁Under 1
▁mound 1
▁bamboo 1
▁sheik 1
▁debris 1
▁machinery 1
▁Gerald 1
▁pentagram 1
▁instills 1
polar 1
▁gunsIingers 1
▁gunslingers 1
▁razors 1
▁whiskey 1
▁detective 1
Gomez 1
▁molecular 1
▁fluctuating 1
hello 1
▁turbolift 1
▁ODN 1
▁futile 1
▁50. 1
▁essence 1
▁K 1
▁horlicks 1
▁Wake 1
▁Rei 1
kun 1
▁smothered 1
▁vodka 1
▁clan 1
▁expiration 1
▁piercing 1
▁floppy 1
▁creaming 1
▁flavor 1
▁gangsta 1
▁curious 1
▁Nikki 1
▁Willy 1
▁harmonica 1
▁winkle 1
▁mourning 1
▁grooming 1
Clears 1
▁Throat 1
▁hardware 1
▁tunnel 1
▁Iron 1
▁Curtain 1
▁descend 1
▁Asia 1
▁Russia 1
▁establishes 1
▁steak 1
▁mix 1
▁overboard 1
▁employee 1
enzera 1
▁tribe 1
▁hormonal 1
▁evolving 1
▁rebels 1
▁uniting 1
▁persecuting 1
▁stability 1
▁standards 1
▁evolution 1
fuck 1
▁Critical 1
▁notify 1
▁Geraldo 1
▁ifyou 1
▁quadrant 1
68 1
▁zubrium 1
▁gadjos 1
▁elephants 1
▁herd 1
▁proposition 1
▁edges 1
▁irritate 1
▁buildings 1
▁Saheb 1
▁cannto 1
▁Shankar 1
▁forcibly 1
▁essentials 1
▁factories 1
▁scandal 1
▁rehearsing 1
▁executions 1
▁Lo 1
▁restraints 1
▁THREAT 1
▁partly 1
▁frolic 1
▁Loyalists 1
▁Independence 1
▁banished 1
▁slaves 1
▁conch 1
▁dive 1
▁ballast 1
▁balances 1
▁association 1
▁polyp 1
▁calcareous 1
▁custodian 1
▁reconstruct 1
whatever 1
were 1
▁retreated 1
▁unburied 1
▁pretends 1
▁homeworld 1
▁transcend 1
▁telepaths 1
▁5. 1
▁Psi 1
▁Cops 1
▁outnumbered 1
-1. 1
▁gravely 1
▁Shadow 1
▁signing 1
▁Ericsson 1
▁Shadows 1
▁customary 1
miserable 1
▁scampered 1
15,000 1
Don 1
Right 1
▁sacrificing 1
▁Honour 1
▁leaked 1
▁convoy 1
▁executioner 1
▁Public 1
▁deciphered 1
▁ticked 1
▁bypass 1
▁Park 1
▁runabout 1
▁humanoid 1
▁assigned 1
▁deepest 1
▁Tuvok 1
▁aimed 1
▁Delta 1
▁hypospray 1
▁frees 1
▁solutions 1
▁Worse 1
▁pursuing 1
▁criminals 1
▁enslave 1
▁creator 1
▁unpopulated 1
▁possesses 1
▁invisibil 1
▁Hephaestus 1
▁savages 1
▁crudely 1
▁fashioned 1
▁Hidalgo 1
▁homegrown 1
▁jailer 1
▁Scar 1
▁childlike 1
▁Somebody 1
sub 1
▁Rogue 1
▁comet 1
▁shrapnel 1
▁mule 1
▁buffalo 1
▁plantation 1
▁refusing 1
▁toxicology 1
▁mortician 1
▁experimenting 1
wet 1
▁Grey 1
▁gastric 1
bypass 1
▁stretching 1
▁disseminate 1
▁enzyme 1
▁Originated 1
▁proxies 1
▁obscuring 1
▁regroup 1
▁furthest 1
▁Burski 1
▁subjecting 1
▁spur 1
▁potty 1
▁trachea 1
▁Clara 1
▁bookstore 1
▁retard 1
▁anonymous 1
▁alerted 1
▁cleansed 1
▁whereabouts 1
▁chokes 1
▁strangles 1
▁drilling 1
▁comets 1
▁razor 1
sharp 1
▁yo 1
▁diabetic 1
▁reefer 1
▁WWII 1
▁paws 1
▁expedition 1
ha 1
dum 1
▁verify 1
▁vehemently 1
▁Minbari 1
▁cruiser 1
dead 1
▁cannabis 1
▁arsenal 1
▁Starting 1
▁Technicolor 1
▁surrenders 1
▁fossils 1
storm 1
▁bombed 1
▁Saved 1
▁Toys 1
▁toy 1
▁Vietnamese 1
-52 1
▁squares 1
▁huang 1
▁phi 1
▁vacated 1
▁Vann 1
▁Marines 1
▁Vietcong 1
▁rehabil 1
▁directory 1
▁Wang 1
▁patron 1
▁Grandfather 1
▁earthquake 1
▁crouched 1
▁swaying 1
▁grisly 1
▁exaggerated 1
▁liberate 1
▁Sainte 1
▁Claire 1
▁assault 1
▁mobilizing 1
▁defenseless 1
▁grazed 1
▁thrilled 1
show 1
▁outfit 1
▁coordinate 1
▁philosophy 1
▁Watch 1
▁slayer 1
▁centimeters 1
▁fellas 1
▁messing 1
▁bra 1
▁filth 1
▁squirrels 1
▁cremated 1
▁Iraqis 1
▁Republican 1
▁Guards 1
▁inevitability 1
▁snapped 1
▁midair 1
▁fussy 1
▁Freddy 1
▁Maude 1
▁tad 1
▁touchy 1
▁sensor 1
▁gaps 1
▁idly 1
▁chaotic 1
▁distinct 1
▁attempts 1
▁Benjamin 1
▁Sisko 1
▁Federation 1
▁Vulcan 1
▁glimpses 1
▁written 1
▁succeeding 1
▁Starfleet 1
▁inhab 1
ants 1
▁25,000 1
▁Radiometric 1
▁ratios 1
▁100, 1
▁000 1
▁enlivenments 1
▁arrhythmia 1
▁ambassador 1
▁withdraw 1
▁passenger 1
▁propaganda 1
▁promoting 1
icized 1
▁denomination 1
righteous 1
▁Burger 1
▁Bensonhurst 1
▁Poughkeepsie 1
▁Leningrad 1
▁Peterburg 1
▁nevertheless 1
▁inc 1
ontrovertible 1
▁Angel 1
▁corona 1
▁Commander 1
▁Deveraux 1
▁Letting 1
▁insider 1
▁lnstead 1
▁Keeled 1
▁Loss 1
▁relief 1
Naomi 1
▁00 1
▁hamburgers 1
▁frying 1
▁travelling 1
▁sheer 1
▁digits 1
▁Nazis 1
▁flair 1
▁account 1
▁Angels 1
▁birthdays 1
Forgive 1
▁delay 1
▁geeks 1
▁pervs 1
▁cyberspace 1
▁ultra 1
special 1
▁associating 1
▁greasy 1
▁cakes 1
▁counted 1
▁jerked 1
▁shameless 1
▁lottery 1
▁integrated 1
▁enmeshed 1
▁Southern 1
▁collaborated 1
▁spiky 1
▁bunny 1
▁Crucifixion 1
Er 1
woof 1
▁redecorated 1
▁moldy 1
▁chalk 1
▁sublimate 1
▁Whywould 1
▁reunification 1
▁compromising 1
▁bandits 1
▁traders 1
▁porno 1
▁permissive 1
▁marijuana 1
▁minor 1
▁offence 1
▁mall 1
operate 1
▁suppresses 1
▁emanates 1
▁breats 1
▁tummies 1
▁enhanced 1
▁reflexes 1
▁warlocks 1
£­ 1
▁enriching 1
▁safari 1
▁Arms 1
▁inability 1
▁negate 1
▁jazzed 1
▁Santiago 1
▁deliberate 1
▁Admiral 1
▁Spencer 1
▁certainty 1
▁default 1
▁minors 1
▁multi 1
▁monoxide 1
▁genuinely 1
▁Recognise 1
▁dinosaurs 1
▁lords 1
▁hits 1
▁Yucat 1
á 1
▁peninsula 1
▁grandpa 1
▁slid 1
fever 1
▁Minnesota 1
▁blowin 1
▁killin 1
▁snowed 1
▁rank 1
▁Pennsylvania 1
▁Charlotte 1
▁string 1
lightening 1
▁workload 1
▁Wacky 1
▁Action 1
▁Bike 1
▁steer 1
▁glows 1
▁changelings 1
▁restoration 1
▁Bajor 1
▁willingly 1
▁Promenade 1
▁Deliver 1
▁torments 1
▁Search 1
▁gliders 1
▁overdrawn 1
▁Thousands 1
muffins 1
▁folklore 1
▁imbued 1
▁mythic 1
▁Petries 1
▁Pee 1
trees 1
▁residents 1
▁Mulder 1
▁allegation 1
▁demise 1
▁Gogolak 1
▁claiming 1
▁travels 1
▁Dumpster 1
▁attorneys 1
▁acquittal 1
▁Holman 1
chicken 1
▁backwoods 1
▁podium 1
▁proclaim 1
▁freaks 1
▁Several 1
▁hitchhiking 1
▁heroes 1
▁doggedly 1
▁Boris 1
▁Badenov 1
▁sinister 1
▁snare 1
▁elements 1
▁supernovas 1
▁scrumptious 1
earth 1
orin 1
▁Turkey 1
▁pairs 1
▁obscurely 1
▁tangibly 1
▁suspend 1
▁statements 1
▁defendants 1
▁perjury 1
▁refuted 1
▁indictment 1
▁Within 1
▁Hooligans 1
▁slaughtered 1
▁fragile 1
▁chastity 1
▁vows 1
▁strict 1
▁Duc 1
▁de 1
▁Blangis 1
▁avowed 1
▁monarchist 1
▁flaccid 1
▁bobbin 1
▁inflamed 1
▁towered 1
▁dope 1
▁Ridley 1
▁sober 1
▁dandy 1
▁sculpture 1
▁bonaroo 1
▁chump 1
▁lorries 1
▁Antwerp 1
▁pikeys 1
▁fringe 1
▁muster 1
▁causal 1
story 1
▁inserts 1
▁frames 1
▁verdict 1
▁imagines 1
▁politically 1
▁savvy 1
▁Box 1
▁Malomars 1
▁anointed 1
▁Malloy 1
▁Thatcher 1
▁Reagan 1
▁Virginia 1
▁investigate 1
▁Runyon 1
▁busboy 1
▁Lotto 1
▁creme 1
▁brulee 1
▁Europeans 1
▁backyard 1
▁greenhouse 1
▁killers 1
then 1
▁Total 1
000 1
▁Cab 1
▁summoned 1
▁Kosher 1
▁packaging 1
▁described 1
angelic 1
▁Cuthbert 1
▁mystic 1
▁thirteen 1
▁cums 1
▁Caspian 1
▁sturgeon 1
▁Dolls 1
▁godawful 1
▁offunny 1
▁Sid 1
▁notoriety 1
▁languages 1
really 1
▁reggae 1
▁Vianne 1
▁rust 1
▁Away 1
▁Wearing 1
▁fur 1
▁threaded 1
▁displays 1
fast 1
▁strides 1
▁Chungju 1
▁Hwawol 1
▁faggots 1
▁gleaning 1
▁scram 1
▁dozen 1
▁gleaners 1
▁pickers 1
▁yards 1
▁pad 1
▁beckons 1
▁beckoned 1
▁Uncle 1
▁Gyuri 1
▁draughts 1
Hanks 1
▁liberators 1
▁coltish 1
▁Amazingly 1
▁uneasy 1
▁prevented 1
▁Hitler 1
Bornet 1
▁ecstatic 1
▁bunting 1
Babcock 1
▁creeping 1
▁foxholes 1
▁squirming 1
▁fates 1
▁orphans 1
▁ep 1
omized 1
▁concussion 1
millimeter 1
▁breed 1
▁bloodbath 1
▁defends 1
▁posses 1
▁fags 1
▁posing 1
▁Mothers 1
▁organized 1
▁capability 1
▁raptures 1
▁Vee 1
▁Residents 1
▁redone 1
▁relaxed 1
▁Falkirk 1
▁Wallace 1
▁fights 1
▁inspired 1
▁paintings 1
▁Metcalfe 1
▁villages 1
▁colonial 1
▁missionnaries 1
▁ecological 1
▁innovations 1
▁sworn 1
▁spoilt 1
▁Ishmael 1
▁packaged 1
support 1
▁ofcheek 1
▁implants 1
▁Elaine 1
▁omission 1
▁isa 1
▁deletion 1
▁gush 1
▁starship 1
▁slipstream 1
▁prognosis 1
▁fiends 1
▁reverts 1
cross 1
▁Phoebe 1
▁defenceless 1
▁Charmed 1
▁Ones 1
▁Meaning 1
▁cameras 1
▁bedrooms 1
▁dermat 1
▁surgeons 1
▁ER 1
▁currents 1
▁Crais 1
▁Rhumann 1
▁actively 1
▁frelling 1
▁Kathy 1
▁testified 1
▁steadily 1
▁mist 1
▁chanting 1
▁Wicca 1
▁suggestible 1
▁zoom 1
▁sticker 1
▁Catalogue 1
▁digitally 1
▁pimp 1
▁smiled 1
▁virtual 1
▁apartments 1
▁demonizing 1
▁schizophrenics 1
▁nurse 1
▁editor 1
▁movers 1
▁shakers 1
▁Devlin 1
▁overcoat 1
▁Hospital 1
▁Roswell 1
▁northwest 1
▁reviews 1
▁Won 1
▁sweaty 1
▁headboard 1
▁Prozac 1
ane 1
▁petitioning 1
▁radicals 1
sexual 1
▁hangers 1
▁racist 1
▁diminish 1
▁Martin 1
▁compensate 1
▁insignificance 1
▁compelled 1
▁vapour 1
▁shooters 1
50,000 1
▁bills 1
:30. 1
▁quotas 1
▁qualify 1
▁refugee 1
▁Pilgrims 1
▁gooseberry 1
▁mollify 1
▁hotshots 1
▁coroner 1
▁undo 1
▁entitiled 1
ls 1
▁Fuel 1
▁subjects 1
▁Dalia 1
▁temptations 1
▁prophets 1
▁Ignoring 1
▁warnings 1
▁Israelis 1
▁Palestinian 1
▁Author 1
▁East 1
▁Palestine 1
▁frat 1
▁candles 1
▁reemerge 1
▁distract 1
▁Shining 1
▁Canyon 1
covered 1
▁sanitary 1
▁napkins 1
▁assassin 1
▁rags 1
▁crushing 1
▁Valois 1
▁trustworthy 1
▁enable 1
▁technological 1
▁achievements 1
▁monitored 1
▁puzzles 1
▁relation 1
▁scores 1
▁dramatically 1
▁honoring 1
▁ability 1
▁consumerism 1
▁commodity 1
▁participating 1
▁Demonstrate 1
▁Affirmation 1
▁reckless 1
▁denial 1
▁confluent 1
▁monolayer 1
▁conk 1
▁inhibition 1
▁whatsoever 1
▁pile 1
▁Thoroughness 1
▁const 1
itutionally 1
▁averse 1
▁painstaking 1
▁ovaries 1
oneal 1
▁cav 1
▁perversion 1
▁perk 1
▁sights 1
▁donkeys 1
▁gator 1
▁altruism 1
>." 1
▁awaked 1
▁whisky 1
▁offerings 1
▁sufficient 1
▁assert 1
▁exert 1
▁Nicole 1
▁drips 1
▁Latino 1
▁punks 1
thwock 1
▁Light 1
artha 1
▁Kay 1
▁calendars 1
▁furthermore 1
▁foundation 1
▁administered 1
▁precisely 1
▁Dunne 1
▁apology 1
▁contr 1
▁Seminoles 1
▁inspiring 1
▁orchid 1
▁phantom 1
▁bew 1
ching 1
▁bowler 1
▁Klan 1
sex 1
▁blond 1
izen 1
▁capisce 1
▁mounted 1
▁universal 1
▁infame 1
▁fried 1
▁industry 1
▁flashing 1
▁pod 1
controlled 1
▁detonators 1
▁grenades 1
▁armory 1
▁bothering 1
▁Holy 1
▁wary 1
▁Pope 1
▁include 1
understand 1
▁overpowers 1
▁parishes 1
▁bishops 1
▁accomodate 1
▁Vanity 1
▁digests 1
▁Shady 1
▁Rest 1
▁biopsy 1
▁liars 1
▁Untladhavns 1
▁Jeffrey 1
▁epileptic 1
▁discovering 1
▁meticulously 1
buggy 1
▁judging 1
▁micrograpplers 1
▁deploy 1
▁bunching 1
▁leery 1
▁Lecter 1
▁lore 1
▁revelations 1
▁adapt 1
▁revolutionize 1
▁Jacques 1
▁Cousteau 1
▁ridiculous 1
▁yourselves 1
▁implications 1
▁Pakistanis 1
▁dreadful 1
▁Spain 1
▁Accept 1
Red 1
▁Wednesdays 1
▁Fridays 1
▁reunions 1
▁dresses 1
▁scenes 1
▁drill 1
▁sizes 1
%% 1
▁hornier 1
▁Stanley 1
▁Jaffe 1
▁dign 1
▁dangling 1
▁thickness 1
▁fragment 1
▁ilium 1
▁retire 1
▁Aur 1
lie 1
▁graces 1
▁assigns 1
▁appearances 1
▁bullying 1
Unlucky 1
▁Tucky 1
▁Perri 1
▁gallery 1
destruct 1
▁Hold 1
▁Algernon 1
▁Sidney 1
▁voir 1
▁enables 1
▁jurors 1
▁messier 1
▁progresses 1
▁tampons 1
▁native 1
▁P 1
▁oxytocin 1
▁relive 1
▁Appalachian 1
▁Western 1
▁Massachusetts 1
was 1
▁fourth 1
▁Joey 1
▁DeLoy 1
▁wiener 1
▁conceived 1
▁intimidating 1
▁quant 1
▁volunteer 1
▁technique 1
▁misplaced 1
▁nourished 1
▁Salted 1
▁Caramel 1
▁Creme 1
▁Brulee 1
▁Wife 1
▁cub 1
▁concern 1
▁Philadelphia 1
▁PD 1
▁Pryce 1
▁Walter 1
▁Longmire 1
▁Granddad 1
▁Segregation 1
▁thatched 1
▁barry 1
▁gleam 1
▁uploaded 1
▁tradition 1
▁flick 1
▁superficial 1
▁alluring 1
▁interrogation 1
▁declassified 1
▁sects 1
▁seating 1
▁arrangement 1
▁cabriolet 1
▁luv 1
▁Bullets 1
▁buffering 1
painted 1
▁Kajava 1
▁alias 1
▁Lorelei 1
▁Neil 1
▁minivan 1
▁puzzled 1
▁Seoul 1
▁assuming 1
▁Robbers 1
▁AFRIKA 1
ials 1
▁experiencing 1
▁layup 1
▁hoop 1
▁scuffed 1
▁creases 1
▁enslaved 1
▁revolt 1
▁merciless 1
▁Run 1
▁fleeing 1
▁suburbs 1
▁alarms 1
▁neighbourhoods 1
▁snug 1
▁conditioned 1
▁communities 1
▁Canadians 1
Toronto 1
▁ventured 1
▁Ivy 1
▁League 1
▁schools 1
defence 1
▁Denver 1
▁Regens 1
▁Hall 1
▁Langebro 1
▁1100 1
▁unwittingly 1
▁consulted 1
▁subjected 1
Give 1
▁Klara 1
▁Khariton 1
▁Shavuot 1
▁gunshots 1
feathered 1
▁bipeds 1
▁primates 1
▁dot 1
▁fuelled 1
▁argument 1
▁playtime 1
▁regrow 1
▁telomeres 1
▁limit 1
▁division 1
▁educated 1
▁350 1
▁unaccounted 1
remember 1
▁kindest 1
'..." 1
Know 1
▁deserted 1
Unless 1
India 1
▁degenerate 1
▁confidential 1
▁efficient 1
▁Julien 1
▁eternity 1
▁flyers 1
▁absentees 1
▁excused 1
▁Moroccan 1
▁Nourredine 1
▁Flemish 1
▁classmates 1
▁envy 1
▁Inventors 1
▁Prix 1
▁quenches 1
▁Hong 1
▁Kong 1
▁daren 1
▁elders 1
▁rummage 1
▁bouquets 1
▁20,000 1
▁yuan 1
▁enregistr 1
▁defic 1
5. 1
▁squeaks 1
▁resettled 1
500 1
▁familes 1
▁constructing 1
▁replace 1
▁decreased 1
▁Gods 1
▁Governments 1
▁engineering 1
▁prosperous 1
▁industrialists 1
▁Sardar 1
▁Sarovar 1
▁letyou 1
▁container 1
▁undernourished 1
▁operates 1
▁shutdown 1
▁generator 1
▁ventilation 1
▁wrinkle 1
▁Smaller 1
▁Gotham 1
▁Dinah 1
▁encyclopedias 1
▁bath 1
▁Wales 1
▁immigration 1
▁Deirdre 1
▁sensational 1
▁liners 1
▁Exactly 1
▁Fighters 1
▁psych 1
uestion 1
▁Molina 1
▁mercury 1
▁renters 1
▁Nonsexual 1
▁Tail 1
▁Hag 1
▁pica 1
▁font 1
▁mermaids 1
▁blooded 1
▁baubles 1
▁chanteys 1
▁adoption 1
▁Leo 1
--< 1
▁transgenic 1
▁Shh 1
▁lingered 1
▁announcing 1
▁warp 1
capable 1
▁acceptable 1
▁infatuated 1
▁directive 1
▁respiratory 1
▁deck 1
▁brace 1
▁uncomfortable 1
▁posture 1
▁curriculum 1
▁hula 1
hoops 1
▁odds 1
fifth 1
▁fluids 1
▁humor 1
▁housekeeper 1
▁festive 1
▁Nope 1
▁volunteers 1
▁bible 1
▁Pick 1
▁reserved 1
▁delhi 1
ass 1
▁conspiracy 1
▁Ricky 1
▁Westchester 1
979 1
▁insan 1
▁ofhis 1
▁phony 1
▁Himself 1
▁nudging 1
▁merciful 1
▁intentions 1
▁bat 1
▁cosmetic 1
▁girlfriend 1
▁Gonorrhea 1
▁asymptomatic 1
▁untreated 1
▁exciting 1
▁Smallville 1
▁hoof 1
▁goat 1
▁fortitude 1
▁tretonin 1
▁lord 1
▁detected 1
▁cloaked 1
▁Svarog 1
▁beg 1
▁invaluable 1
▁nimble 1
▁filling 1
▁soybean 1
▁potato 1
▁congressman 1
▁Democrats 1
▁nominated 1
▁Seventeen 1
▁Pittsburgh 1
Surely 1
▁farther 1
▁rubbings 1
▁paralysed 1
▁estimates 1
4, 1
▁classified 1
▁Jacarutu 1
▁Cast 1
▁sietch 1
▁Arakeen 1
▁Spice 1
▁CNP 1
▁Cylon 1
▁excuses 1
▁intersect 1
▁pipelines 1
▁prophecy 1
▁lesser 1
▁parameters 1
▁deleted 1
▁researching 1
▁result 1
▁shiploads 1
▁cadavers 1
▁kissing 1
breed 1
▁groveling 1
▁abyss 1
▁intensity 1
▁resonate 1
▁talkative 1
▁outlasts 1
▁Iiquefies 1
▁deftly 1
▁violates 1
▁zoning 1
▁restrictions 1
▁Historical 1
▁Preservation 1
966 1
▁hurdles 1
▁rows 1
▁relayed 1
▁stamp 1
▁projectionist 1
▁AMG 1
▁slob 1
▁Jaguar 1
type 1
▁Essentially 1
▁Microsoft 1
▁Oracle 1
▁Feds 1
▁crooked 1
20 1
▁request 1
▁medically 1
▁vindictive 1
▁nerves 1
▁babes 1
▁guacamole 1
▁advise 1
▁unfondled 1
▁mermaid 1
Gone 1
▁Wind 1
▁furniture 1
▁labels 1
▁brands 1
▁cartanyway 1
▁Building 1
▁Mermaid 1
▁5:15 1
▁precise 1
▁hospitals 1
▁shrines 1
▁trot 1
▁bands 1
▁Chino 1
▁guerrillas 1
▁bankroll 1
1000 1
▁Georges 1
▁minorities 1
▁Around 1
▁undecided 1
▁voting 1
just 1
▁Gilliam 1
▁convicts 1
▁deceives 1
▁cement 1
▁hockey 1
▁Dave 1
▁stalled 1
▁Passed 1
▁poly 1
▁Marseilles 1
mafia 1
▁Capone 1
▁Aha 1
▁wisely 1
▁imminent 1
▁ETI 1
▁Gato 1
with 1
▁Relax 1
▁naughty 1
▁counselors 1
▁Atlanta 1
▁detectors 1
▁Plexiglas 1
▁carryon 1
▁luggage 1
▁taxidermist 1
▁dining 1
▁bouncers 1
▁Saddle 1
▁Anshu 1
▁papa 1
▁flashes 1
▁irrational 1
▁grazing 1
▁Somewhere 1
▁Nassau 1
▁County 1
▁McMartin 1
▁Arnold 1
▁frightening 1
▁earshot 1
▁eavesdropping 1
▁evidently 1
▁stormed 1
▁Denis 1
▁Dillon 1
▁discussing 1
Daddy 1
naknak 1
▁Iast 1
▁rotation 1
▁Meet 1
>?" 1
▁Kammo 1
▁specially 1
▁blaming 1
▁regret 1
▁relinquishing 1
▁coded 1
▁glances 1
▁clarity 1
Beastie 1
▁groups 1
▁guidebook 1
▁continent 1
▁tourism 1
▁district 1
▁Cheju 1
▁pond 1
▁lazily 1
▁sushi 1
▁Whichever 1
▁lice 1
▁depilatory 1
▁uncontrolled 1
▁outbreaks 1
▁pubescent 1
▁radicles 1
▁eliminating 1
▁recourse 1
▁scissors 1
▁towels 1
▁crowds 1
▁leafless 1
▁unplug 1
▁denounced 1
▁endured 1
▁inflict 1
fed 1
▁indoctrinate 1
21, 1
▁interrogators 1
▁caress 1
▁buttocks 1
▁Choung 1
▁Ek 1
▁refrigerator 1
▁fleecing 1
▁improving 1
▁Playing 1
▁rugby 1
▁outlasted 1
▁Giscard 1
terrand 1
▁Ohirac 1
▁Congratulations 1
▁twins 1
▁unrecognizable 1
▁banquets 1
▁inevitable 1
▁welcomed 1
▁operations 1
▁shook 1
▁revolver 1
▁Proletariat 1
▁Democratic 1
▁Party 1
▁regime 1
▁kidnappers 1
▁penalty 1
freedom 1
▁Experts 1
▁Aldo 1
▁teachings 1
▁edgy 1
▁spies 1
▁periods 1
▁maximize 1
▁profit 1
▁namely 1
▁domination 1
▁punished 1
▁marketplace 1
▁Baron 1
▁Thurlow 1
▁incarcerate 1
▁enclaves 1
▁incentives 1
▁denationalized 1
▁widgets 1
▁reconfiguring 1
▁passing 1
▁headphones 1
Wow 1
!". 1
▁retaliate 1
▁gals 1
▁transcendental 1
▁meditation 1
▁morality 1
▁decisions 1
▁comic 1
▁entertain 1
▁exaggerates 1
▁mobilize 1
▁doughboys 1
▁humorously 1
▁absurd 1
▁trench 1
▁harass 1
▁theirjob 1
sjust 1
▁gullet 1
▁comeuppance 1
▁amber 1
▁monitor 1
▁lizards 1
▁northern 1
▁Pong 1
▁Found 1
▁Takian 1
▁Sherry 1
▁Roger 1
▁Santa 1
▁Fe 1
▁Springs 1
▁July 1
▁mathematician 1
▁sens 1
▁patent 1
▁polytechnics 1
▁vault 1
destructs 1
▁transfer 1
▁instantaneous 1
▁Reconnaissance 1
▁maximum 1
▁Ural 1
▁deploying 1
▁outposts 1
▁guarantees 1
▁grabbed 1
▁squeezed 1
▁hungers 1
▁Protective 1
▁amulets 1
▁Angelus 1
▁Hildebrand 1
▁trig 1
▁exam 1
▁covers 1
▁Shut 1
▁undertaking 1
▁Been 1
▁Hitchcock 1
▁Retrospective 1
▁Warrick 1
▁Storm 1
▁rolls 1
▁inspectors 1
▁valves 1
▁Collect 1
▁checkered 1
▁Aidment 1
▁advertised 1
▁quantity 1
▁stubborn 1
▁picturing 1
▁citation 1
▁Fisher 1
▁Star 1
▁raid 1
▁Viet 1
Cong 1
▁cache 1
▁owls 1
▁predators 1
▁mammals 1
▁mice 1
▁spit 1
▁Pottery 1
▁Barn 1
▁catalogue 1
▁ducks 1
▁plaid 1
▁pineapples 1
▁Am 1
▁accuse 1
▁scrip 1
▁Easy 1
▁dispo 1
Pol 1
▁crude 1
▁enlightening 1
▁behaviour 1
▁habit 1
indi 1
▁kemocite 1
▁urge 1
▁quarantine 1
▁ascertained 1
▁Recall 1
rials 1
▁behold 1
▁expands 1
▁outward 1
▁catered 1
▁Siberia 1
olds 1
Lucky 1
▁projector 1
▁acquisitions 1
▁Peach 1
▁Shell 1
▁ther 1
▁Rabb 1
▁Singer 1
▁diverse 1
▁butchering 1
▁mimes 1
▁Chicago 1
▁Monaco 1
300. 1
▁disappoint 1
▁loosely 1
▁Complaining 1
▁senator 1
▁boost 1
▁depression 1
▁licensed 1
▁prescription 1
▁meds 1
▁memo 1
▁lawsuits 1
▁enforcement 1
▁Aptril 1
mailing 1
▁furnace 1
▁Paula 1
▁Feels 1
▁Frannie 1
▁tarot 1
▁probable 1
▁barbell 1
▁windpipe 1
▁subhuman 1
▁bouquet 1
▁swamp 1
▁endangered 1
▁Uzbekistan 1
▁condo 1
▁Guys 1
▁Donnie 1
▁Personally 1
▁blistering 1
▁Kareem 1
nized 1
▁electroshock 1
▁therapy 1
▁waiter 1
▁Knicks 1
comedy 1
▁homosexuals 1
▁disobedient 1
▁counter 1
▁procreate 1
▁preview 1
▁performances 1
▁flickered 1
▁rustled 1
▁analyzed 1
▁treads 1
▁vengeful 1
▁moons 1
▁monthly 1
Who 1
▁heck 1
▁suffaces 1
▁Disrupt 1
▁coordinates 1
▁dialled 1
▁neighbouring 1
▁tumour 1
▁virgins 1
▁Political 1
▁Affairs 1
▁mayonnaise 1
▁biscuit 1
thirds 1
▁coverage 1
▁disposed 1
▁contraband 1
▁businessman 1
▁Starbucks 1
▁estimator 1
▁chronological 1
four 1
▁swingers 1
▁Amtrak 1
▁getaway 1
▁thigh 1
▁lodge 1
▁fascia 1
▁connective 1
▁Iraqi 1
▁devices 1
▁concluded 1
▁ineffectual 1
▁prosecute 1
▁radical 1
▁nationalists 1
▁Islamist 1
▁plotted 1
▁activity 1
/11. 1
▁Islamists 1
▁imaginations 1
▁reality 1
▁previously 1
aeda 1
▁Saddam 1
▁Hussein 1
▁detained 1
security 1
▁prisons 1
▁commit 1
▁atrocity 1
pol 1
icians 1
▁newfound 1
▁disillusioned 1
▁spic 1
span 1
▁overseas 1
▁investment 1
▁expansion 1
▁regulated 1
▁saboteurs 1
▁controling 1
▁gona 1
▁railroad 1
▁Turn 1
▁apathetic 1
▁cherished 1
▁pancreas 1
▁wreck 1
▁appetite 1
▁Kulok 1
Ryan 1
▁HIV 1
▁personally 1
▁bark 1
▁Cats 1
▁Cheap 1
▁labour 1
▁Paso 1
▁Se 1
ñ 1
▁abortion 1
▁wrecked 1
▁conditional 1
▁Punsters 1
▁twists 1
▁Ahem 1
▁grate 1
▁coal 1
▁arguments 1
▁forbids 1
▁omnipresent 1
▁neverrtheless 1
▁Ultra 1
Orrthodox 1
▁leftovers 1
▁400 1
▁millennium 1
▁Towards 1
twelve 1
month 1
▁silvertip 1
▁territorial 1
▁gulflike 1
▁watchdogs 1
▁audio 1
▁dumps 1
▁Bolshoi 1
▁Egyptian 1
▁ballerina 1
ice 1
▁headquarter 1
ering 1
▁chosen 1
▁arch 1
ect 1
▁Ramy 1
▁Yussef 1
▁Ady 1
▁adds 1
▁issued 1
▁collapses 1
▁occurand 1
▁torrential 1
▁conceive 1
▁temple 1
▁waves 1
▁Baker 1
▁Wet 1
▁returnee 1
▁Covenant 1
▁documents 1
▁orphanage 1
▁Santermo 1
▁finest 1
▁flatlined 1
▁sneaky 1
▁occupied 1
▁guardian 1
uest 1
▁Herman 1
▁airtight 1
▁Reggie 1
▁holidays 1
▁sunny 1
▁overslept 1
▁andy 1
▁sour 1
▁creek 1
▁nannies 1
▁daycare 1
▁shaving 1
▁cc 1
▁disc 1
▁schematics 1
▁Vosk 1
▁Lee 1
▁Stan 1
▁Drinking 1
▁programme 1
▁bridged 1
Aah 1
Ooh 1
▁retreating 1
▁slowed 1
▁disuse 1
▁advent 1
▁technologies 1
▁warped 1
▁IUDs 1
▁Laser 1
▁cauterizes 1
▁uncut 1
250,000. 1
▁Corporations 1
▁gouging 1
▁prescriptions 1
▁legit 1
▁prescribed 1
▁knockouts 1
▁tonsil 1
▁inspection 1
▁meter 1
32.50, 1
▁driven 1
▁sued 1
▁fee 1
▁drape 1
▁kicky 1
gain 1
▁maintenance 1
▁Martha 1
▁Garden 1
▁florist 1
▁BOTO 1
▁Summer 1
▁murkier 1
▁Splenectomies 1
▁recommended 1
▁herbal 1
▁legitimate 1
▁outrage 1
▁victimized 1
▁passionate 1
▁uncompromising 1
▁bunk 1
▁guanaco 1
▁chews 1
▁cud 1
▁motivation 1
▁bacterium 1
▁Brucellosis 1
▁landmine 1
▁Bucky 1
▁flatten 1
▁bounces 1
▁chairs 1
▁skimpy 1
▁upsetting 1
▁releasing 1
▁gaz 1
▁Presumably 1
▁Emily 1
▁serum 1
▁clears 1
▁canned 1
called 1
▁automated 1
▁scenarios 1
▁SG 1
▁Krystovski 1
uld 1
▁mechanism 1
▁Karris 1
▁energized 1
▁arrival 1
▁incoming 1
▁medevac 1
▁Place 1
▁chapped 1
▁clingy 1
▁reception 1
▁depress 1
▁tiara 1
▁Iot 1
▁fertilizer 1
▁shrub 1
▁crafted 1
▁asserts 1
▁completes 1
▁enrichment 1
▁knee 1
▁Limoges 1
▁maim 1
▁cookiecutter 1
▁standard 1
Nuk 1
▁attain 1
▁unnecessary 1
▁befriended 1
▁rocky 1
▁crumbles 1
▁floats 1
▁Skinners 1
▁Hallelujah 1
▁hallelujah 1
▁matters 1
▁Pelion 1
▁rejuvenate 1
▁boiled 1
▁cauldron 1
▁Age 1
▁Lemnos 1
▁earliest 1
▁Colchis 1
▁Fleece 1
▁Arthur 1
▁Merlin 1
known 1
▁Brittany 1
▁sparked 1
▁grail 1
▁serving 1
▁Grail 1
▁Supper 1
▁lapwing 1
▁Solomon 1
▁shimmered 1
▁relies 1
point 1
▁compute 1
▁airbent 1
▁soda 1
▁bothered 1
▁witty 1
▁Ravenous 1
▁serpents 1
▁schoolgirls 1
▁Hail 1
▁Marys 1
▁fintasize 1
▁Ifa 1
▁mosqu 1
▁crater 1
▁werewolf 1
▁Maidens 1
▁implanted 1
▁spilled 1
▁pollinate 1
▁showmanship 1
▁almighty 1
▁tool 1
▁moan 1
▁uncharted 1
▁Carrie 1
▁untainted 1
▁thorns 1
▁corporeal 1
▁GAAP 1
▁liabil 1
▁anthemic 1
▁114 1
▁Dogg 1
▁Lowered 1
▁nickel 1
▁Lmagine 1
▁thicker 1
ain 1
▁maddened 1
▁blunders 1
▁buckets 1
▁bitter 1
▁alcoholics 1
▁Toulon 1
▁blanks 1
▁victories 1
▁vagina 1
▁Businesses 1
▁Wasson 1
▁Nanny 1
▁onerous 1
▁Solve 1
▁Coagula 1
▁synthesis 1
▁disassembled 1
▁efficiently 1
▁Checked 1
▁dictionary 1
▁revelation 1
did 1
▁Larry 1
▁Parrish 1
▁corrupted 1
▁addict 1
▁deleterious 1
▁fetal 1
▁Vallois 1
▁pilots 1
▁gesture 1
▁tabu 1
▁Notice 1
better 1
▁absorb 1
▁grandkids 1
▁propane 1
▁chow 1
▁verified 1
▁deranged 1
▁resigned 1
▁gab 1
▁Animos 1
▁watermelon 1
▁awash 1
▁wafts 1
▁captivating 1
▁ugliness 1
▁rt 1
▁batch 1
▁Rolex 1
▁quieter 1
▁depicted 1
▁emerged 1
▁30, 1
▁regulator 1
▁reducing 1
▁Consuming 1
▁aw 1
▁ay 1
▁compassion 1
▁Yavin 1
▁mercenary 1
▁assembling 1
▁Sitting 1
▁bench 1
▁province 1
▁flipped 1
▁valleys 1
▁hum 1
▁tunes 1
▁curves 1
▁petticoats 1
▁goddesses 1
▁honesty 1
▁dodge 1
ician 1
▁rubbish 1
▁exposes 1
▁touching 1
▁sleepwalker 1
▁weaves 1
▁Audrey 1
▁Raines 1
▁Logan 1
▁CTU 1
▁humongous 1
▁scope 1
▁brighter 1
▁offline 1
lab 1
▁freakish 1
▁mutant 1
▁offertil 1
▁progun 1
▁spokesman 1
▁N 1
▁waterbenders 1
▁wearin 1
▁stumble 1
▁permits 1
▁exemplaryjob 1
▁conducting 1
▁establishing 1
▁safeguards 1
▁outbreak 1
▁disprove 1
▁axe 1
▁denigrate 1
▁dimethyldith 1
iophosphate 1
mulz 1
▁aromatic 1
▁piston 1
▁gem 1
▁Odorscreen 1
▁commercially 1
▁Bayliss 1
▁adjust 1
▁Source 1
ankou 1
▁Appropriate 1
▁funerals 1
▁evenings 1
▁Jeanine 1
▁Myers 1
▁mutt 1
▁buggin 1
▁comin 1
▁trailer 1
▁migrants 1
▁grains 1
▁boss 1
▁telegraph 1
▁sympathetic 1
▁skirts 1
▁Perfect 1
▁decomposes 1
Can 1
▁headache 1
▁mentally 1
▁cherubs 1
▁contacts 1
▁Blackhole 1
▁inactive 1
98 1
▁Rambaldi 1
▁lancers 1
▁burial 1
▁Adopting 1
▁strategies 1
▁creepier 1
▁champion 1
▁spinal 1
▁column 1
▁amnesia 1
▁semen 1
▁pumped 1
▁unleaded 1
▁Converted 1
▁diesel 1
▁incubi 1
▁Tidal 1
▁tsunami 1
▁anxious 1
bright 1
▁thunder 1
▁storms 1
▁isolette 1
▁Junlie 1
▁metastasized 1
▁Olive 1
▁immunoglobulin 1
▁replacement 1
▁remnants 1
▁infections 1
▁Dogs 1
▁cytokines 1
▁potassium 1
▁vaccine 1
▁stored 1
▁synthesized 1
▁physics 1
▁immutable 1
▁sneak 1
▁mornings 1
▁yucky 1
▁massages 1
▁replenish 1
▁clothe 1
▁Romantic 1
▁Holly 1
▁molested 1
▁badgered 1
▁Different 1
▁signaling 1
▁theories 1
▁inventions 1
▁billboards 1
▁scrubbing 1
til 1
▁shined 1
▁creeped 1
▁albino 1
▁refund 1
At 1
▁hospitalized 1
▁Devalos 1
▁Earl 1
▁Narrating 1
▁strawberry 1
▁starburst 1
▁Potomac 1
▁SUV 1
▁lamps 1
▁restocked 1
▁Bull 1
▁resorts 1
▁surgeries 1
▁recreate 1
▁racing 1
▁deterioration 1
▁abbreviations 1
▁notified 1
▁Bayesian 1
▁calculate 1
mail 1
refinance 1
stocks 1
Viagra 1
▁refereed 1
▁journal 1
▁designing 1
-4 1
▁legions 1
▁homesick 1
▁surly 1
▁eagle 1
▁positively 1
▁mutinous 1
▁reports 1
▁lickin 1
▁handiwipe 1
▁Metropolis 1
▁BC 1
▁sentries 1
▁violated 1
▁proxim 1
▁cull 1
▁Ancients 1
▁failsafes 1
▁deployed 1
▁proximity 1
▁shafting 1
▁stains 1
▁users 1
▁dj 1
▁dna 1
▁reprogram 1
▁incubation 1
▁tomatoes 1
▁bogeyman 1
▁thingamajig 1
▁pimped 1
▁Sherri 1
▁desirable 1
▁deafening 1
▁wishing 1
▁Enjoy 1
▁margarita 1
▁Makeba 1
▁overcompensate 1
▁beaver 1
▁chassed 1
▁fridge 1
▁yield 1
▁addition 1
▁actress 1
▁Ghost 1
▁malfunctions 1
▁Sophie 1
▁corridors 1
▁gateaux 1
▁laughs 1
▁settles 1
▁chalice 1
▁bloodline 1
▁glance 1
▁inexperienced 1
▁jerk 1
▁Calm 1
▁diaper 1
▁Ladies 1
▁Flush 1
▁ames 1
▁expire 1
▁impotent 1
▁neurotic 1
▁mourned 1
▁masculinity 1
▁mammoth 1
nigger 1
▁foreheads 1
▁pours 1
▁mists 1
nt 1
▁dames 1
▁anette 1
▁Excalibur 1
▁Lake 1
▁Tsagai 1
▁Vivienne 1
▁accidents 1
▁Edward 1
▁amuse 1
▁signifying 1
▁Thereby 1
▁symbolizing 1
▁formerly 1
▁beloved 1
▁Marie 1
▁feature 1
▁paratroopers 1
▁unattractive 1
▁fundamentals 1
▁installed 1
▁Humus 1
▁rectum 1
▁grill 1
▁monumental 1
▁mailbox 1
▁bracelet 1
▁panties 1
▁fluffed 1
▁Carry 1
▁arreglartelas 1
▁Rumor 1
▁swallowing 1
▁Given 1
▁1,20 1
▁sincerely 1
▁dependance 1
▁political 1
▁reborn 1
enact 1
▁nepotistic 1
▁classmate 1
▁sixth 1
▁trend 1
▁uninterrupted 1
▁intensifying 1
▁boiling 1
▁lukewarm 1
▁vessels 1
▁overlaid 1
▁coding 1
▁sections 1
▁cipher 1
▁oaf 1
▁decorating 1
▁prosthesis 1
▁40. 1
nose 1
▁Jeffries 1
▁ecstasy 1
▁Lynette 1
▁nearing 1
▁arraign 1
▁Austin 1
▁attempted 1
▁commission 1
▁burglary 1
▁Crime 1
▁thereafter 1
▁persists 1
>,< 1
▁spine 1
▁cripple 1
▁lesbian 1
▁goth 1
..., 1
▁spelling 1
▁Klausner 1
▁angiomas 1
▁slim 1
▁shipping 1
▁punishing 1
▁probability 1
▁grids 1
low 1
▁shootings 1
▁Rhimes 1
▁Related 1
overs 1
▁dramatic 1
▁meaningful 1
▁entreat 1
▁Satars 1
▁progeny 1
▁PLA 1
▁invasive 1
▁secretary 1
Then 1
▁Tyolus 1
▁plains 1
▁wickedness 1
▁purchase 1
East 1
▁Stripping 1
▁voucher 1
▁sunday 1
▁Rusty 1
▁Ranch 1
▁deplete 1
▁resentment 1
▁blueberry 1
▁pops 1
uko 1
▁warrior 1
▁tenfold 1
▁pentagon 1
▁info 1
delivered 1
▁newsworthy 1
▁prosecutor 1
▁IRS 1
▁statute 1
▁telepathic 1
▁Kira 1
▁meteors 1
▁Hit 1
▁pose 1
▁brink 1
▁extinction 1
▁distracts 1
▁neverforget 1
▁robe 1
▁advance 1
▁Sotheby 1
▁lifeline 1
▁fusing 1
▁San 1
▁Made 1
▁vent 1
▁FDA 1
approved 1
▁Race 1
▁estimating 1
▁disquieting 1
▁orientation 1
▁Boston 1
▁cueball 1
▁heroin 1
▁troglodytes 1
▁Thailand 1
▁specialised 1
▁waterfalls 1
▁External 1
▁gills 1
▁punishes 1
▁guessing 1
▁sabbatical 1
hunting 1
▁powerhouse 1
▁bicarbonates 1
udes 1
▁raceway 1
▁analyzes 1
▁matrix 1
risk 1
▁overlooks 1
est 1
hop 1
▁buddy 1
buddy 1
▁Cylons 1
▁responding 1
▁McKay 1
▁determining 1
▁boosted 1
▁bunker 1
▁cerebral 1
▁relaxant 1
▁Law 1
▁ruthless 1
▁mocks 1
▁spills 1
▁clubbing 1
does 1
▁Haven 1
▁unstoppable 1
Say 1
▁chirps 1
▁asymmetrical 1
▁shady 1
study 1
▁journalistic 1
▁francisco 1
▁apparitions 1
▁marketing 1
▁gag 1
american 1
▁Hunting 1
▁MILF 1
letter 1
▁supernote 1
▁Fargo 1
▁Theologi 1
▁andietrich 1
▁bonhoeffer 1
▁Desk 1
▁creaking 1
▁Papers 1
▁grip 1
▁psyche 1
▁converge 1
▁skills 1
▁efficiency 1
▁teenage 1
▁stoned 1
▁mushrooms 1
▁headstone 1
▁Figure 1
▁Follow 1
▁Cod 1
▁doorstep 1
▁Copenhagen 1
▁Leaving 1
▁Standards 1
▁CHUM 1
▁Research 1
▁Centre 1
▁Director 1
▁medications 1
▁wherewithal 1
▁watered 1
▁APB 1
▁contacting 1
▁references 1
▁Rushlight 1
▁application 1
imillionaire 1
Peace 1
▁Misses 1
▁Tompkinson 1
▁metrol 1
▁Jem 1
▁Hearne 1
▁dependents 1
▁memorable 1
▁devastating 1
▁avalanches 1
▁reshaping 1
▁reveals 1
▁amplify 1
▁moulins 1
▁Konnie 1
▁glacier 1
▁lubricate 1
▁moulin 1
▁glaciers 1
▁Antarctica 1
▁driest 1
▁civilizations 1
▁personified 1
▁myths 1
▁Sadly 1
ler 1
▁laundering 1
▁vaults 1
▁godless 1
▁woe 1
▁currency 1
▁consistent 1
▁declared 1
▁Revolutionary 1
▁thrills 1
▁chills 1
▁brightly 1
▁Valley 1
▁Grapes 1
▁Wrath 1
▁Darling 1
▁Clementine 1
▁Katie 1
▁leaks 1
▁Forty 1
▁paroles 1
▁Larks 1
▁captive 1
▁conspire 1
ueen 1
▁placeholder 1
▁envelops 1
▁immaculate 1
▁cousins 1
▁mutual 1
▁marked 1
▁pentangle 1
▁gaze 1
▁pathway 1
species 1
▁runway 1
▁Gucci 1
▁Dolce 1
▁seeps 1
▁Liberty 1
▁Bell 1
Cos 1
▁reporter 1
▁trickery 1
▁fleshy 1
▁dries 1
uated 1
▁easiness 1
▁Sadie 1
▁approved 1
▁metallic 1
▁compasses 1
▁historically 1
▁hallway 1
▁melodic 1
▁catchy 1
▁Drunken 1
▁mama 1
▁budgets 1
100 1
▁fronts 1
▁transponder 1
▁Armand 1
▁freak 1
▁Kids 1
▁futures 1
▁sleepy 1
▁vertical 1
▁horizontal 1
▁synesthetic 1
▁poet 1
▁Founding 1
▁fins 1
▁recognizing 1
▁Pakistani 1
▁gust 1
▁francs 1
▁weighed 1
▁Ph 1
dre 1
▁Honestly 1
▁knickers 1
▁24. 1
▁Helvetica 1
▁typeface 1
▁singer 1
▁Ferry 1
▁boring 1
▁japanese 1
▁attuned 1
▁nuance 1
▁Baiano 1
▁worldcup 1
term 1
▁Greely 1
occurred 1
▁collectively 1
▁Concerning 1
▁Tokyo 1
▁Bombay 1
▁Guethary 1
▁Beyond 1
▁smut 1
▁publishing 1
▁venal 1
▁sensation 1
▁locksm 1
hs 1
▁demo 1
▁refinement 1
▁doreen 1
▁pointing 1
▁nano 1
fiber 1
▁trellis 1
▁axons 1
▁rot 1
▁inhib 1
▁seclusion 1
▁linen 1
▁repressurize 1
fell 1
▁dealer 1
▁eases 1
▁planets 1
▁conversations 1
▁update 1
▁dennis 1
▁tellin 1
▁Maxim 1
▁Dokey 1
▁Alma 1
▁Hodge 1
▁Jagger 1
▁velvet 1
▁empathize 1
▁shiver 1
shirt 1
says 1
awesome 1
▁cheeseburgers 1
▁debate 1
▁counsel 1
▁knowingly 1
▁gunshot 1
▁creators 1
▁distinguish 1
▁foe 1
▁unfit 1
▁smog 1
▁WhatI 1
▁meanis 1
▁thatmaybe 1
▁floss 1
▁corrupting 1
▁influence 1
▁inducing 1
▁pouch 1
▁fraks 1
▁Raptor 1
▁Lucille 1
▁Clarke 1
▁generators 1
▁gutsy 1
concierge 1
▁hooker 1
▁methadone 1
▁Mowgli 1
▁Jungle 1
▁Focus 1
▁kilometres 1
▁communicates 1
▁Bianca 1
eyed 1
▁signs 1
▁hardest 1
▁reagent 1
▁centrifuge 1
▁precip 1
▁scrapyard 1
▁Camaro 1
▁dash 1
▁newsreader 1
flight 1
▁brake 1
▁Depending 1
▁penetrated 1
▁medullary 1
▁pyramids 1
▁beveling 1
▁entry 1
▁vom 1
▁Duncan 1
▁treatments 1
▁Jones 1
▁allowing 1
▁incubus 1
▁fertile 1
▁sustaining 1
▁secured 1
▁utterly 1
▁evaluate 1
▁trails 1
▁fiber 1
▁etc 1
▁Carrionite 1
▁phrases 1
▁contentment 1
▁gestates 1
▁lungs 1
▁pulmonary 1
▁anthrax 1
▁specializes 1
▁synthesizing 1
▁Explains 1
▁Tyson 1
▁Shaw 1
▁Corrine 1
▁hurting 1
▁Aricept 1
▁agrees 1
▁Excuse 1
▁canada 1
▁bobbed 1
▁Increase 1
▁dosage 1
▁organs 1
▁onboard 1
▁mold 1
On 1
▁afloat 1
▁Holiness 1
▁chewy 1
▁presentation 1
▁impun 1
▁Governor 1
▁Schwarzenegger 1
▁AB 1
41 1
▁tragedies 1
▁travesties 1
▁Bee 1
▁Stella 1
▁ancestral 1
▁portal 1
▁swiftly 1
▁tox 1
▁hemolytic 1
▁Mind 1
▁Amsterdam 1
▁wraps 1
▁syllables 1
▁Harmon 1
▁Testament 1
▁cherries 1
▁exterior 1
land 1
▁Sara 1
▁5- 1
▁budge 1
▁Radha 1
▁Balls 1
▁fractal 1
▁converter 1
onal 1
▁squirrel 1
▁mast 1
▁mischief 1
▁envelope 1
▁hurtful 1
▁Margene 1
▁rightfully 1
▁closets 1
▁spacious 1
▁escalate 1
▁toast 1
well 1
▁katherine 1
▁mayfair 1
▁bikinis 1
▁mud 1
▁Tru 1
▁bodyguard 1
▁vamp 1
▁frisky 1
les 1
▁throne 1
▁kroner 1
▁notion 1
▁summarily 1
▁hello 1
▁bedlam 1
▁mayhem 1
▁mustache 1
▁praise 1
▁Ganesh 1
▁unharmed 1
▁classy 1
▁necks 1
▁diagnose 1
▁urine 1
▁Patricia 1
▁Foster 1
▁Liz 1
▁directly 1
▁dean 1
▁natives 1
▁mag 1
▁laps 1
▁Between 1
▁understandable 1
▁picnic 1
▁addictive 1
affirming 1
▁jangly 1
▁MPs 1
▁CID 1
▁circular 1
▁Open 1
▁Wear 1
▁crabs 1
▁crab 1
▁bio 1
diesel 1
▁routef 1
▁packets 1
▁crumbs 1
▁astroboi 1
▁fingernail 1
▁jewel 1
▁Radley 1
▁Hannah 1
▁SWAT 1
▁Maddox 1
▁forcefully 1
▁fuselage 1
▁retains 1
▁pur 1
▁sporty 1
▁tow 1
▁elude 1
▁0,000. 1
hill 1
▁Rowley 1
▁contaminated 1
▁Pat 1
▁Sound 1
▁influenza 1
▁contagious 1
▁bruise 1
▁plums 1
▁largest 1
▁heparin 1
busy 1
▁Celia 1
▁Jake 1
▁1:10 1
▁attracts 1
▁galvanises 1
▁pressed 1
▁Myra 1
▁courtroom 1
▁selection 1
▁unlatched 1
▁surgical 1
▁remedy 1
▁sensibly 1
▁regal 1
▁armadillo 1
▁Whilst 1
▁striking 1
▁processes 1
▁ligaments 1
▁connecting 1
▁jaw 1
▁deers 1
300 1
bearing 1
▁exercised 1
▁domain 1
▁designated 1
▁Terrace 1
▁feminists 1
▁obligated 1
▁candidate 1
mandatory 1
womandatory 1
▁anomalies 1
▁negotiation 1
▁arent 1
▁defenders 1
▁retreats 1
▁doesnt 1
▁altogether 1
▁smiling 1
▁bobo 1
▁mocking 1
▁Boyd 1
▁Grace 1
▁Inez 1
▁Johanna 1
▁Wheeler 1
▁spinnaker 1
▁fr 1
▁Ypres 1
▁Baxter 1
▁Leisure 1
▁Palace 1
▁sting 1
▁resurfaced 1
▁donation 1
▁philanthropist 1
▁silliest 1
▁yank 1
▁entails 1
▁avows 1
▁dice 1
▁misguided 1
▁eardrum 1
▁copies 1
▁Spirit 1
▁Social 1
▁conquer 1
▁Group 1
▁Bob 1
product 1
▁incense 1
▁minus 1
▁keys 1
▁encryption 1
▁ozone 1
toxic 1
▁Miguel 1
▁AI 1
▁Anyone 1
▁accusing 1
▁Ian 1
▁leisure 1
▁horrifies 1
▁Intrepus 1
▁pummeled 1
▁analysts 1
23 1
▁disrupts 1
▁Wra 1
▁activated 1
▁virulent 1
like 1
▁weakening 1
▁paramount 1
▁outweighed 1
▁factional 1
▁amb 1
▁oblige 1
▁respecting 1
▁pamphlet 1
▁electors 1
▁intends 1
▁freaked 1
▁shpritz 1
▁undress 1
▁Broke 1
▁lateral 1
▁etches 1
▁Proved 1
defense 1
▁pucker 1
▁outfits 1
▁Koslovs 1
▁snores 1
ric 1
▁oxide 1
▁bodys 1
opens 1
▁tissues 1
▁Heads 1
▁tile 1
▁discriminated 1
▁overweight 1
▁defined 1
▁manual 1
Okay 1
▁askin 1
▁gerbil 1
▁insidious 1
▁profits 1
▁cigarettes 1
▁asbestos 1
▁cockroach 1
▁Crane 1
▁bailouts 1
▁taxpayers 1
▁Addario 1
▁elected 1
▁patio 1
▁redhead 1
▁overthink 1
▁Nationals 1
▁Inv 1
▁bass 1
▁soundwaves 1
▁Fischer 1
▁reverb 1
▁bro 1
▁Marcus 1
▁english 1
▁streng 1
▁embryonic 1
▁samba 1
▁lacking 1
▁vocals 1
▁cools 1
▁hangs 1
▁intimate 1
▁confusion 1
▁Sweets 1
▁storeys 1
▁wobbled 1
▁Jedi 1
▁Plo 1
▁Koon 1
▁mr 1
▁carrot 1
▁potion 1
▁toad 1
VOCALI 1
ING 1
▁cane 1
▁ammucchiata 1
▁abundance 1
▁autograph 1
▁manly 1
▁goodness 1
▁Philip 1
▁Hawkin 1
▁Forward 1
▁creeps 1
▁homeland 1
▁guinea 1
▁institution 1
▁monetary 1
▁critical 1
▁uphold 1
▁institutons 1
▁necessities 1
utionalized 1
▁creation 1
▁utilized 1
▁supports 1
▁unregistered 1
▁requests 1
▁illeg 1
▁consideration 1
▁54 1
66 1
▁dumping 1
▁monopoly 1
▁downsizing 1
▁workforce 1
▁harvested 1
▁Americas 1
▁expose 1
▁distributed 1
▁depot 1
▁Texans 1
▁exc 1
▁backyards 1
▁Des 1
▁Moines 1
▁livingrooms 1
▁Concord 1
▁porches 1
▁Charleston 1
▁strained 1
▁bonds 1
▁revered 1
▁photographic 1
▁irrefutable 1
sunrise 1
▁opener 1
▁awakens 1
▁elephant 1
▁Bolivia 1
▁sweep 1
▁newscast 1
▁bees 1
▁elderberry 1
▁weld 1
▁purely 1
▁Everytime 1
▁reflects 1
▁symbolizes 1
▁Diego 1
▁peek 1
▁thong 1
▁heavens 1
▁Episcopals 1
▁horn 1
▁gl 1
▁Emma 1
▁accidental 1
Teach 1
▁unexpected 1
▁inconvenient 1
▁ABA 1
▁merging 1
▁NBA 1
▁revival 1
▁tolerated 1
▁sed 1
▁destabilizes 1
▁mailed 1
▁notepad 1
▁recyclable 1
▁unsightly 1
▁Photographs 1
▁decorative 1
▁beads 1
▁corseted 1
▁Ancient 1
▁intersects 1
▁flare 1
▁rents 1
▁recruit 1
▁Beware 1
▁Jan 1
▁Thomas 1
▁Hansen 1
▁spheres 1
In 1
▁cornerstone 1
▁representative 1
▁Corporation 1
▁unexpectedly 1
▁choking 1
▁rifling 1
▁ah 1
▁autonomous 1
▁absolute 1
▁ban 1
▁immeasurable 1
▁sovereign 1
Stable 1
▁conclude 1
▁stares 1
▁referring 1
▁Executive 1
▁112, 1
▁proposes 1
▁provisional 1
▁behalf 1
▁openly 1
▁pines 1
▁Milorad 1
▁wand 1
▁x 1
▁legends 1
▁disect 1
▁amends 1
▁amenable 1
▁femi 1
sisters 1
▁pooped 1
▁103. 1
▁easiest 1
▁Nearly 1
▁password 1
▁keyboard 1
▁doses 1
▁roughly 1
▁jammer 1
▁broadcasts 1
▁compete 1
▁Ethernet 1
▁wired 1
▁casualty 1
▁Galvez 1
▁perimeter 1
▁pinged 1
▁Malestrazza 1
▁van 1
▁driveway 1
▁nurtured 1
▁cultivated 1
blown 1
▁stockroom 1
▁irreparable 1
▁Enterprises 1
▁blockers 1
▁teammates 1
▁ethnic 1
▁hostility 1
▁befuddled 1
▁dashing 1
▁Thai 1
▁mafia 1
▁reappearto 1
▁photographers 1
▁CF 1
▁JPEG 1
▁compressed 1
▁uncompressed 1
▁sheriff 1
▁waffles 1
▁flickering 1
▁motherfucker 1
▁perms 1
▁hairstylist 1
▁ponytails 1
▁Trimming 1
▁rent 1
▁enhance 1
▁temptation 1
▁newly 1
▁stalk 1
▁Kindon 1
▁marshes 1
▁purified 1
▁Ritual 1
▁Waters 1
▁underworld 1
2,000 1
▁Low 1
▁Johnson 1
ance 1
▁Mashed 1
▁seagulls 1
▁trawler 1
▁sardines 1
▁secrete 1
▁pump 1
▁wastes 1
▁soluablize 1
▁nutrients 1
▁parent 1
▁10,000 1
▁Soil 1
▁Lucky 1
▁battalions 1
▁anterior 1
▁surmise 1
▁metaphorical 1
▁vet 1
▁Joy 1
▁Oliver 1
▁catheters 1
▁bras 1
▁defenses 1
▁Nik 1
horse 1
▁ads 1
▁struggling 1
▁Jane 1
blond 1
▁workspace 1
▁ganja 1
▁Grab 1
▁pledges 1
▁vintage 1
▁handled 1
▁pecking 1
▁Ducky 1
▁attacker 1
although 1
▁encounters 1
▁oxidizes 1
▁Jessie 1
▁Robertson 1
▁DoD 1
▁substation 1
▁SID 1
▁smudged 1
▁shaky 1
more 1
▁heater 1
▁accomplishment 1
▁orchids 1
▁droopy 1
▁adapted 1
▁claire 1
▁meade 1
fur 1
▁staten 1
▁exceeded 1
vom 1
>". 1
▁Too 1
▁Magnetic 1
▁porous 1
▁surfaces 1
▁smear 1
▁necrotic 1
▁modify 1
▁Matty 1
▁awkward 1
flushed 1
▁Rabid 1
▁bats 1
▁lane 1
▁differentiate 1
▁cartilage 1
▁Dictatorship 1
▁mild 1
▁Connor 1
▁nutrient 1
▁static 1
▁reroutes 1
▁Phone 1
▁Bahrain 1
▁Cellular 1
▁Sully 1
heartbreaking 1
▁retracts 1
▁reload 1
▁unsuspecting 1
▁latitude 1
▁linger 1
▁tracks 1
▁dismantle 1
▁Glass 1
Steagall 1
▁banksters 1
▁hoarding 1
▁TARP 1
▁elite 1
▁charisma 1
▁Bush 1
▁administration 1
▁ordering 1
▁documented 1
▁propulsion 1
▁Moving 1
▁confuse 1
▁lions 1
▁tricky 1
▁emerging 1
▁burrowing 1
▁hatched 1
▁pulsing 1
▁asphyxiate 1
▁diversified 1
▁colonised 1
▁habitat 1
▁caterpillar 1
▁jaws 1
▁glued 1
▁cleverly 1
▁heliconia 1
▁hookers 1
▁Spring 1
▁Hotel 1
▁stingy 1
▁superconductor 1
▁lev 1
▁experiments 1
▁ofVikings 1
▁possibilities 1
▁exploration 1
▁improve 1
▁quality 1
▁tampered 1
▁Professor 1
▁Slughorn 1
▁wee 1
▁detachable 1
▁disconnect 1
▁11:00, 1
▁12:00. 1
▁Into 1
▁energies 1
▁Swiss 1
▁explosive 1
▁Illumination 1
▁concieve 1
▁haveJune 1
▁Plaza 1
case 1
▁persevered 1
▁refuge 1
▁backwater 1
▁farms 1
▁harvest 1
▁manure 1
▁fermentation 1
▁byproduct 1
▁alienated 1
▁catalyst 1
examination 1
▁realization 1
▁bankruptcy 1
0... 1
▁Prince 1
▁Charming 1
▁Colleen 1
▁Shirley 1
▁ledge 1
▁spacesu 1
▁pH 1
▁algor 1
▁ions 1
▁acidic 1
▁realising 1
▁recommend 1
▁lemon 1
▁dragging 1
▁terrace 1
▁Spanx 1
▁Standing 1
▁heartstrings 1
▁Kim 1
▁pickle 1
▁Volstead 1
▁medals 1
▁visual 1
▁excellence 1
▁natter 1
▁protected 1
▁veal 1
▁calves 1
▁crates 1
▁ramp 1
▁slaughter 1
▁Weapons 1
▁sixty 1
▁Machinists 1
▁Rita 1
▁Monty 1
Secondly 1
▁Brief 1
▁rife 1
▁misspellings 1
▁fundamental 1
▁Married 1
▁samurai 1
▁length 1
▁strangest 1
▁intent 1
▁stewardess 1
▁paraffin 1
▁parakeet 1
▁Eloisa 1
▁rebuild 1
▁informed 1
▁discussion 1
mill 1
▁exceed 1
▁peach 1
▁prune 1
minute 1
▁Ricard 1
▁hormones 1
▁commotions 1
▁kitchen 1
▁scrub 1
▁impeccable 1
▁aptly 1
▁illustrates 1
▁hoard 1
▁entrepreneur 1
▁flooded 1
▁thinness 1
▁absent 1
▁madness 1
▁incompatible 1
▁5000 1
▁rpm 1
▁engaging 1
▁disks 1
▁overwhelmed 1
▁Voila 1
▁salamanders 1
chuckles 1
▁Stool 1
▁pigeon 1
▁soles 1
▁rifle 1
▁realm 1
▁Bones 1
▁insulting 1
▁colloquialism 1
▁Colby 1
▁suited 1
Man 1
▁Senator 1
▁Merrik 1
▁unhealthy 1
▁compass 1
▁ingested 1
▁expel 1
▁ankle 1
▁cart 1
▁HELIUM 1
▁Prostitutes 1
▁disposable 1
▁accessories 1
▁tendency 1
▁slashing 1
▁Ideas 1
▁comedy 1
▁squat 1
▁Craig 1
▁vaginas 1
▁notes 1
▁Thierry 1
▁Andy 1
▁Warhol 1
▁icons 1
▁iconic 1
2,240 1
)} 1
▁porcupine 1
▁poking 1
▁desolate 1
hope 1
▁evils 1
▁prolongs 1
▁supermodels 1
▁lesbians 1
Mommy 1
▁wobbles 1
▁wobble 1
▁brass 1
▁etched 1
▁chlorine 1
▁exothermic 1
▁Keeper 1
▁Palmer 1
▁mortuaries 1
▁Having 1
▁reproductive 1
▁Albert 1
▁imports 1
▁warranty 1
▁burkas 1
▁Badgley 1
▁Mischka 1
▁Pandorica 1
▁Dalek 1
▁trample 1
▁injuring 1
▁variety 1
▁behaviors 1
▁chronic 1
▁masturbator 1
▁Blair 1
▁Witch 1
▁thingie 1
▁rituals 1
▁slaying 1
▁distractions 1
▁redlines 1
,500 1
rpm 1
▁horsepower 1
▁entrances 1
▁caves 1
▁underwater 1
▁CT 1
▁regenerating 1
▁retirement 1
▁Harvey 1
▁Specter 1
▁vanilla 1
▁Blye 1
▁starvation 1
▁jacked 1
virgin 1
▁forehead 1
▁lipstick 1
▁Merry 1
▁Jordan 1
▁custody 1
▁downloads 1
▁Picked 1
▁RWA 1
▁messed 1
▁Hartley 1
▁Sudan 1
▁consuming 1
▁abs 1
▁gelled 1
▁Scaring 1
▁Locked 1
▁gowns 1
▁Dyson 1
▁Valhalla 1
▁Bo 1
▁Pam 1
▁Stefan 1
▁Mara 1
▁sighting 1
▁nefarious 1
▁attempting 1
▁cruisers 1
▁hesitate 1
▁Surf 1
▁metabolism 1
▁arcadia 1
▁joint 1
▁Wi 1
Fi 1
▁maker 1
secret 1
▁understands 1
▁management 1
▁Lockhart 1
Gardner 1
▁paywall 1
▁vanquished 1
▁orient 1
▁Pride 1
▁schemes 1
▁presses 1
▁vines 1
▁varrick 1
▁baatar 1
▁Jr 1
vines 1
▁deprived 1
▁insecure 1
▁skint 1
▁pros 1
▁Bray 1
▁Korea 1
▁sleeplessness 1
▁23 1
▁carburettor 1
▁scarier 1
▁iPhone 1
▁Saz 1
▁talented 1
.'" 1
▁buddies 1
▁Town 1
▁kindly 1
▁sinking 1
▁respectful 1
▁Brad 1
▁AAA 1
▁hedge 1
▁apocalypse 1
▁runnin 1
best 1
▁conviction 1
▁bon 1
▁voyage 1
▁knight 1
▁fortress 1
▁trifle 1
cart 1
▁Human 1
▁customer 1
▁Chief 1
▁retroactively 1
▁complicate 1
▁relations 1
▁Tobes 1
▁charted 1
▁drained 1
▁bribe 1
▁Gizzard 1
▁Apologize 1
▁turbot 1
centered 1
▁deposit 1
▁tapestry 1
▁Stallings 1
▁slags 1
▁Salima 1
▁disagree 1
▁Stasi 1
▁FSB 1
▁archive 1
▁Kent 1
▁associate 1
▁incident 1
▁computers 1
▁monsters 1
▁arcade 1
neath 1
▁plucked 1
▁branches 1
▁lashes 1
▁Suicide 1
▁gravest 1
▁despair 1
▁"< 1
▁sweetie 1
▁chop 1
▁Rachel 1
▁corvette 1
▁Fortune 1
▁Oslo 1
▁commence 1
▁wool 1
▁Halloween 1
▁moonshot 1
▁ulna 1
▁premium 1
▁spelunking 1
▁duper 1
▁chat 1
▁blog 1
▁Twitter 1
▁Pinterest 1
▁Facebook 1
ched 1
▁seagull 1
▁boa 1
▁chafing 1
▁tents 1
▁adding 1
▁vans 1
▁Course 1
▁Prohib 1
▁hail 1
▁Rhyl 1
▁jeep 1
▁sidecar 1
▁exposing 1
▁ultraviolet 1
▁betrays 1
▁transpired 1
▁flakes 1
▁Nolan 1
▁Modern 1
▁typically 1
jacketed 1
▁explaining 1
▁unconventional 1
freak 1
▁JUDGE 1
▁tenant 1
▁Sarah 1
▁Daisy 1
▁Parker 1
▁Derek 1
▁harassment 1
▁practicing 1
▁loading 1
▁cannon 1
▁Brick 1
▁swears 1
▁suitors 1
▁rightful 1
▁honors 1
▁Ithaca 1
▁Pheacia 1
▁endgame 1
▁viable 1
▁offing 1
▁cuddly 1
▁terrify 1
hearted 1
▁battles 1
▁socks 1
▁studies 1
▁Temeraire 1
▁ochre 1
▁wha 1
▁Smart 1
whores 1
▁cord 1
▁insides 1
▁clasp 1
▁cellular 1
▁reconnect 1
▁stepping 1
▁impurities 1
standing 1
loaded 1
▁mordor 1
Whispers 1
▁Pawnee 1
▁horseback 1
▁riding 1
▁sidesaddle 1
▁pathetic 1
sabotagable 1
▁trials 1
▁purifying 1
▁scarce 1
▁Warlow 1
▁migrates 1
▁Burbank 1
▁foster 1
▁chores 1
▁Agata 1
▁potatoes 1
▁alibi 1
▁marginal 1
▁abrasions 1
▁dismissal 1
▁pronounced 1
▁pedophilia 1
▁unconst 1
utionnal 1
▁provider 1
▁priori 1
▁contents 1
▁Classic 1
▁Margot 1
▁Start 1
▁payphone 1
▁falsely 1
▁damning 1
▁Mia 1
▁archetypal 1
▁Strokes 1
▁10:00 1
▁Navy 1
▁SEAL 1
▁slash 1
▁oceanographer 1
-11 1
▁advice 1
▁Jen 1
▁Aud 1
▁dipping 1
▁chips 1
▁salsa 1
▁defrosted 1
learned 1
▁sayings 1
▁mouse 1
▁injected 1
▁attire 1
▁rotary 1
▁degenerates 1
▁Donny 1
Thats 1
▁thatl 1
Owen 1
▁Stamm 1
5, 1
▁cruise 1
▁paddy 1
▁cuban 1
▁notifying 1
▁massage 1
▁stra 1
jacket 1
▁Adams 1
▁bulletproof 1
▁injured 1
▁walternate 1
▁overshooting 1
▁shorts 1
▁bootstraps 1
▁Rebecca 1
▁Nurturing 1
▁watering 1
▁investigator 1
▁seizes 1
▁alters 1
▁perceptions 1
▁translucent 1
▁upsets 1
▁cleanly 1
▁plaster 1
▁Local 1
▁fugitive 1
▁operative 1
▁crowded 1
▁Went 1
▁algerian 1
▁Onto 1
▁Opa 1
Locka 1
▁Ideally 1
▁Wasn 1
▁Ohio 1
▁polluted 1
▁oozed 1
▁Delaware 1
▁autopsy 1
▁haunting 1
▁harsh 1
▁Wr 1
industry 1
▁lobbyists 1
▁banned 1
▁derivatives 1
▁Cos 1
▁rediscovered 1
▁Christopher 1
▁Dunn 1
▁theorizing 1
▁resonating 1
▁galleries 1
▁pyramid 1
▁shafts 1
▁lighter 1
▁Easter 1
▁beneficially 1
▁impacted 1
▁acknowledging 1
▁repet 1
▁notjust 1
▁communicating 1
▁kilowatts 1
▁Macy 1
▁Poetry 1
▁unseat 1
▁consciences 1
▁splintered 1
▁resolve 1
▁artisans 1
▁beau 1
▁iful 1
▁receives 1
▁converts 1
▁hydrocarbons 1
▁renewable 1
▁resources 1
▁Ministry 1
▁heartbeat 1
▁grassroots 1
▁innovation 1
▁TARDIS 1
▁mouldy 1
▁tarp 1
▁crafty 1
▁buries 1
▁AIDS 1
▁painfully 1
▁recipe 1
▁meteor 1
▁servos 1
▁doom 1
▁helicopter 1
Papa 1
Leave 1
:" 1
▁rehearsal 1
▁threads 1
▁pubic 1
▁remembers 1
▁colleague 1
▁IP 1
▁user 1
▁Kang 1
professional 1
▁kit 1
▁shag 1
▁faeces 1
▁projected 1
▁fallout 1
▁primal 1
▁GNB 1
▁logo 1
▁manufacturer 1
▁Aggression 1
▁motivator 1
▁percep 1
▁redid 1
▁Mered 1
▁refilled 1
▁strictly 1
▁Brenda 1
▁envied 1
▁cues 1
▁tackled 1
▁Craphead 1
▁bucket 1
▁rewire 1
circu 1
▁Colour 1
▁Winter 1
▁stomped 1
▁moms 1
▁snide 1
▁comment 1
Here 1
▁boobies 1
▁Manny 1
▁Albion 1
▁Brett 1
▁grandad 1
▁rethought 1
▁Storks 1
▁monogamous 1
▁faithful 1
▁nests 1
▁partners 1
▁throws 1
▁spotlight 1
▁mudflats 1
▁Juist 1
nster 1
▁historic 1
▁Peace 1
▁Westphalia 1
wonder 1
▁Bilius 1
▁Weasley 1
▁Deluminator 1
▁Scrimgeour 1
▁hurtin 1
▁helpin 1
▁hopefully 1
▁improved 1
▁orifice 1
▁Micky 1
▁Cowen 1
▁'40 1
▁cunt 1
▁doggy 1
▁nearest 1
>'. 1
▁microscopic 1
▁electromagnetic 1
▁Burj 1
▁Khalifa 1
▁tallest 1
▁convincing 1
Just 1
sometimes 1
▁pussy 1
▁accelerating 1
▁tablecloth 1
Nice 1
▁instrumental 1
▁league 1
▁tolerate 1
▁peaced 1
▁Ignatius 1
▁mark 1
▁entertains 1
▁harnessed 1
▁syrup 1
▁vibrating 1
▁clanks 1
▁35 1
▁Wheeling 1
▁Martinsville 1
▁simulates 1
▁5,000 1
▁stirred 1
▁promotable 1
▁rating 1
go 1
▁functional 1
▁Brooklyn 1
▁occurs 1
▁consultation 1
▁2:00. 1
▁Jason 1
▁repaid 1
▁Camryn 1
▁Sydney 1
▁chart 1
▁curve 1
▁yella 1
▁salmonella 1
▁chartreuse 1
▁deuce 1
▁Aunt 1
▁rash 1
▁bacon 1
▁feces 1
▁lame 1
▁ripen 1
▁Milton 1
▁misbehavior 1
▁strictness 1
▁Aeroflex 1
art 1
▁SV 1
-54 1
▁diffusion 1
▁Supplied 1
▁separately 1
▁complexion 1
▁Aria 1
▁karat 1
▁concealed 1
▁peers 1
▁betide 1
▁acted 1
▁nxiously 1
▁curios 1
▁realizing 1
▁Lebanon 1
▁Delinquency 1
▁throbbing 1
▁trousers 1
▁accumulate 1
▁Swamp 1
▁Gut 1
▁slime 1
▁fisherman 1
▁danced 1
▁chatted 1
▁Canadian 1
War 1
admitting 1
▁faculties 1
are 1
than 1
▁updates 1
▁dials 1
▁kidney 1
▁stalking 1
▁ambush 1
▁terr 1
ory 1
▁extreme 1
▁caution 1
▁repairing 1
▁nurturing 1
▁compassionate 1
▁lively 1
▁plot 1
▁drama 1
▁somewhat 1
▁entertaining 1
▁insane 1
▁Fannie 1
▁Mae 1
▁Freddie 1
▁Mac 1
▁disastrous 1
▁Chris 1
▁insanely 1
▁Winters 1
▁license 1
date 1
bought 1
▁infantry 1
orial 1
▁operated 1
▁gruesome 1
▁broker 1
▁400,000 1
▁GDP 1
▁producing 1
▁essentially 1
▁Machines 1
▁vacations 1
▁pensions 1
▁everyday 1
ics 1
▁ego 1
▁accepts 1
intensive 1
▁issues 1
▁complications 1
▁Deadly 1
▁defaulting 1
▁debt 1
▁owned 1
Y 1
▁convenient 1
▁malt 1
▁coexistence 1
▁contribution 1
▁ubiqu 1
ous 1
▁Nonetheless 1
▁Rob 1
▁pickings 1
▁Cherokee 1
▁grieving 1
▁exposure 1
▁Keeps 1
▁Westerners 1
▁bleep 1
▁Rodney 1
▁consent 1
▁impressive 1
▁52 1
▁sips 1
▁inaled 1
▁seedling 1
▁awards 1
▁riches 1
▁astound 1
▁undoing 1
▁Nutter 1
▁intimidated 1
▁cocksucker 1
▁symptom 1
▁Luis 1
▁del 1
▁Aguila 1
▁Freedom 1
▁conducted 1
▁healing 1
▁cassette 1
▁necessarily 1
▁album 1
▁Julie 1
▁Degas 1
▁Berthiers 1
▁indigestion 1
▁disorder 1
▁20- 1
meter 1
▁reviewing 1
▁grief 1
▁assessments 1
▁Y 1
▁Squad 1
▁Libya 1
▁marnie 1
▁ethnicities 1
▁inconsistencies 1
▁Leung 1
▁Mushroomed 1
▁Firing 1
▁Geoffery 1
puff 1
▁amendment 1
▁promising 1
▁clipping 1
▁Gellar 1
▁artistic 1
▁installation 1
▁Enesserrette 1
▁toolbox 1
▁consummated 1
▁Regents 1
▁matricide 1
▁gardening 1
▁gangrene 1
▁blah 1
▁Hang 1
▁reopen 1
▁lobbying 1
▁download 1
▁spiked 1
▁Laura 1
▁Maureen 1
▁expired 1
▁popcorn 1
would 1
▁geography 1
▁expendable 1
▁companion 1
▁plucking 1
▁footings 1
▁tides 1
▁bloke 1
▁cupcakes 1
▁punches 1
▁waterproof 1
cond 1
ioning 1
▁Greendale 1
▁Warehouse 1
ricault 1
▁Jackie 1
▁examiner 1
▁5, 1
▁psychically 1
▁TREE 1
▁Olivia 1
▁PFC 1
▁satisfactory 1
▁practical 1
▁swirling 1
▁raging 1
▁inferno 1
▁cursed 1
▁rug 1
Bleep 1
Ed 1
▁coy 1
▁Chang 1
▁obtained 1
▁misskelley 1
▁Arkansas 1
▁warns 1
▁feminine 1
▁rhymes 1
▁implicate 1
paint 1
▁clever 1
▁splint 1
▁laden 1
▁howling 1
▁makeover 1
▁balcony 1
▁Libby 1
▁hare 1
▁hugs 1
▁depos 1
▁scout 1
▁hive 1
▁Bills 1
▁Wicked 1
▁Tenth 1
▁noodle 1
▁blinking 1
▁expanse 1
dimensional 1
▁expanded 1
▁spectrum 1
▁simplest 1
▁14. 1
inch 1
▁Bunny 1
▁Janie 1
▁spaces 1
▁Swedish 1
▁Danielle 1
▁Plus 1
▁Youtube 1
▁compression 1
.3 1
▁meg 1
▁stallion 1
▁bridled 1
▁Andre 1
▁orthopedic 1
▁broadcasting 1
▁homing 1
▁Mogadishu 1
Cosmo 1
▁Hughes 1
▁Gavin 1
▁Goldman 1
▁lawsu 1
▁guarded 1
▁handful 1
▁swan 1
▁Arabic 1
▁Kenneth 1
▁chatter 1
▁insisted 1
▁reminiscences 1
▁lamplight 1
▁piano 1
▁12:15, 1
till 1
After 1
judges 1
▁boar 1
▁acclaimed 1
▁Champion 1
▁Boar 1
▁lent 1
▁convict 1
▁bobbles 1
Mother 1
▁needn 1
Does 1
▁respecters 1
▁polite 1
▁Smash 1
radak 1
▁reynolds 1
▁hoisting 1
▁jibsheet 1
▁Tina 1
▁scrap 1
▁jeopardizing 1
▁prestige 1
See 1
▁Hannigan 1
▁gross 1
1,112, 1
877 1
,1 1
4. 1
problem 1
▁insoluble 1
savages 1
▁danged 1
▁rag 1
▁nearer 1
▁cagey 1
▁withdrew 1
● 1
▁morale 1
▁Baltic 1
▁amateurs 1
▁chronicles 1
▁Touching 1
ghost 1
▁armies 1
▁Lorraine 1
▁Dauphin 1
▁corruption 1
▁amidst 1
▁Already 1
kid 1
▁Hello 1
▁Bet 1
composers 1
▁specialize 1
▁lunchtime 1
▁receipts 1
▁ceremonial 1
▁foods 1
▁sacrificial 1
Roosters 1
▁panicky 1
▁herds 1
nation 1
▁healthiest 1
▁plumb 1
▁Jericho 1
▁Franzi 1
Life 1
▁respectabil 1
▁Enrique 1
▁Lu 1
í 1
▁Tomas 1
▁tipped 1
▁Hugo 1
▁talks 1
▁evolves 1
rockin 1
▁motorboat 1
▁occasion 1
Ascoynes 1
▁masse 1
▁telegrams 1
▁Josef 1
▁wooden 1
▁Cody 1
▁Jarrett 1
Acid 1
▁browses 1
wines 1
▁Diomedes 1
▁spiced 1
▁ploughing 1
▁volcanic 1
▁Throughout 1
Italie 1
▁recruited 1
▁Carey 1
Miss 1
▁Harrington 1
▁faithfully 1
▁lamentable 1
▁theatre 1
▁permitting 1
actresses 1
▁roles 1
▁requiring 1
▁vigour 1
▁retain 1
▁dim 1
▁witch 1
▁Runners 1
▁snatching 1
▁critics 1
▁museums 1
▁goodfor 1
▁Madame 1
button 1
wife 1
▁Deprived 1
School 1
nuns 1
▁Bonnet 1
▁Rackham 1
▁Blackbeard 1
▁parchment 1
▁faded 1
▁stretcher 1
▁premier 1
▁inform 1
▁Cousin 1
▁intimately 1
▁serums 1
▁undoubtedly 1
▁unforgivable 1
▁negligence 1
report 1
▁Stagecoach 1
▁wiggling 1
▁steamer 1
▁curiously 1
▁unconcerned 1
Jatz 1
▁offense 1
▁michael 1
▁cassio 1
▁ounces 1
▁ounce 1
▁Randy 1
▁Concello 1
▁instruments 1
▁busted 1
▁giants 1
▁moulded 1
▁bowl 1
▁coliseum 1
net 1
▁capitalize 1
▁puttin 1
▁overJ 1
▁totin 1
▁blacker 1
▁hangnail 1
▁Custer 1
▁Scully 1
▁aground 1
▁Lucilius 1
▁sicken 1
▁useth 1
▁spleen 1
▁insufferable 1
▁Wendy 1
▁gardener 1
Americans 1
▁lawns 1
▁lawn 1
Englishmen 1
Arabs 1
▁dud 1
▁Cherokees 1
▁Somerset 1
▁Maugham 1
▁Truman 1
▁Capote 1
San 1
▁hubbub 1
Egyptians 1
▁monuments 1
▁Akhnaton 1
Cross 1
▁Airplanes 1
▁gunfire 1
▁prop 1
using 1
▁setting 1
▁moat 1
mat 1
hemati 1
▁hon 1
▁cians 1
▁architects 1
phone 1
▁wham 1
▁Broadway 1
▁analyzing 1
▁specimens 1
▁Thorwald 1
cops 1
▁souffl 1
▁sacred 1
▁captives 1
▁dominant 1
▁Break 1
truth 1
body 1
▁humbly 1
▁hike 1
gre 1
▁atest 1
b 1
▁unch 1
martial 1
▁dustpan 1
▁thrash 1
▁Han 1
▁seasons 1
states 1
▁White 1
0,000. 1
▁strudel 1
pamphlets 1
▁drum 1
▁rod 1
▁roaming 1
roamings 1
▁incognito 1
▁devoutly 1
princesses 1
▁rivalry 1
▁womankind 1
0,000 1
▁farthing 1
▁premiums 1
▁Gill 1
▁Resistance 1
▁Robie 1
▁Throwing 1
▁acquainted 1
Jim 1
▁boats 1
▁improvise 1
▁snub 1
musicians 1
▁nightclubs 1
─ 1
▁Kalador 1
▁aim 1
▁downstream 1
Abraham 1
▁Byron 1
▁indelibly 1
▁losses 1
▁befalls 1
▁vague 1
▁culminated 1
▁separation 1
▁Carrington 1
Fishe 1
▁uncanny 1
▁intravenously 1
▁Moby 1
▁insulted 1
▁creed 1
▁bondage 1
▁hast 1
▁Moses 1
▁rejoiced 1
▁Israel 1
▁ripping 1
▁Sanderson 1
▁ranch 1
▁grasped 1
▁reasonable 1
▁displacement 1
▁moonlight 1
▁doomed 1
shops 1
hospitals 1
▁answering 1
▁register 1
▁interpreter 1
▁guerillas 1
▁crowding 1
▁nuisance 1
Words 1
▁tribute 1
▁assistants 1
▁morsel 1
▁handout 1
customers 1
▁weeping 1
▁method 1
▁hooking 1
▁hav 1
▁experts 1
▁arrows 1
▁'' 1
Rats 1
▁flee 1
▁Nah 1
▁sergeant 1
▁blindfolds 1
▁daring 1
education 1
▁marines 1
amour 1
▁fortieth 1
▁takeoff 1
▁horrifyingly 1
▁Atlantic 1
▁enacted 1
▁Perrin 1
▁howl 1
▁dividing 1
▁storehouse 1
▁Kotlyarov 1
▁sabers 1
▁Grisha 1
▁120. 1
▁weights 1
▁vulgarities 1
▁Cecile 1
▁Gerda 1
▁Yvette 1
▁Maudet 1
▁misfortune 1
▁draws 1
▁varies 1
▁22 1
nations 1
▁categorically 1
▁potentially 1
▁locomotive 1
▁builder 1
trains 1
scientists 1
▁Von 1
▁Metz 1
tank 1
▁coaches 1
▁strategy 1
▁slight 1
▁complication 1
▁leftover 1
▁prayin 1
▁Knocko 1
▁Minihan 1
▁distinguished 1
ilgrim 1
▁conditions 1
▁ward 1
▁Sons 1
▁ahold 1
▁Garibaldi 1
▁Athletic 1
▁Clu 1
▁Marciano 1
▁blinded 1
housing 1
▁wherefore 1
planes 1
fishermen 1
▁butchered 1
▁marlin 1
length 1
▁planks 1
▁la 1
▁mar 1
▁daylight 1
betters 1
▁docks 1
▁unleashed 1
▁Crippled 1
▁wills 1
▁strung 1
▁pins 1
▁Plates 1
▁screws 1
▁navigator 1
two 1
Vietnamese 1
▁deciding 1
▁Certain 1
acts 1
▁impure 1
▁winner 1
▁Newbury 1
Sheriffs 1
▁Tasaburo 1
▁arranging 1
▁quarrel 1
▁obeys 1
▁distasteful 1
▁understudy 1
stones 1
▁ages 1
▁laundry 1
jury 1
martians 1
current 1
▁inner 1
▁Corny 1
▁tangible 1
▁September 1
students 1
▁goest 1
hunger 1
▁Toledo 1
gentlemen 1
▁crotch 1
▁Congo 1
bullets 1
▁atomic 1
▁inhabited 1
beings 1
▁Lolobrija 1
▁puppies 1
▁20, 1
▁3,000 1
▁lire 1
▁prevail 1
▁advertising 1
▁joys 1
▁tempt 1
▁applause 1
▁pact 1
▁Whitewood 1
▁Alberto 1
▁opposed 1
▁afar 1
▁infinitely 1
▁Pablo 1
▁punishments 1
..? 1
▁minks 1
▁Fall 1
▁shaft 1
▁bitten 1
▁rattlesnake 1
▁unfaithful 1
▁owed 1
▁hailing 1
▁Wonder 1
▁seasoned 1
▁Lenny 1
▁sciences 1
▁begatting 1
▁monument 1
▁topple 1
▁flaw 1
▁relevance 1
▁grope 1
▁whisper 1
▁psaltery 1
▁Akbar 1
▁sword 1
▁bridal 1
shares 1
▁100,000 1
▁guzzler 1
▁Spicy 1
▁scalp 1
▁Moffat 1
▁Dabney 1
▁snuck 1
▁Paddy 1
▁household 1
▁Destroy 1
▁observe 1
▁gimmick 1
▁doubled 1
plane 1
▁guided 1
▁missile 1
▁proudly 1
▁admission 1
▁Scandinavia 1
▁cabins 1
▁Sheriff 1
▁shells 1
▁baths 1
▁highest 1
▁profession 1
ative 1
▁lettuces 1
▁Whereas 1
▁nothin 1
▁scares 1
Creatures 1
▁arrogantly 1
gold 1
▁Daiho 1
▁Madrid 1
▁Confidentially 1
▁fawn 1
▁titled 1
Tropez 1
▁Turks 1
▁pirates 1
▁feathers 1
Surgeons 1
▁obliged 1
▁aspire 1
▁handles 1
▁Seek 1
enemies 1
▁fearlessly 1
▁stirring 1
free 1
▁peopl 1
▁submit 1
▁realistic 1
humans 1
▁psychologically 1
▁converse 1
▁instances 1
think 1
robots 1
▁recharged 1
Facts 1
▁disadvantage 1
▁gee 1
▁Herbie 1
blade 1
▁stab 1
▁Gene 1
▁overdressed 1
▁appetites 1
▁principles 1
▁checkbook 1
▁dearly 1
▁Cook 1
▁arraignment 1
▁mutiny 1
▁Bligh 1
▁sextant 1
▁fals 1
other 1
treasure 1
▁resurface 1
▁moored 1
▁ferrymen 1
▁frighten 1
code 1
▁mattered 1
▁Leave 1
vehicle 1
▁forbidden 1
▁aching 1
▁develops 1
▁vibrations 1
subject 1
avant 1
▁garde 1
▁shortcomings 1
others 1
▁Menoptra 1
▁massing 1
pregnant 1
▁draft 1
answers 1
▁jolt 1
▁recesses 1
name 1
▁Mire 1
▁Beasts 1
▁Lampert 1
▁EURESCO 1
▁whe 1
▁foremost 1
bad 1
▁busts 1
Mom 1
▁conflagration 1
intention 1
operation 1
▁snooze 1
▁Drahvins 1
▁Kept 1
▁tied 1
▁honky 1
tonk 1
▁Daleks 1
▁eavesdrop 1
▁sprang 1
▁Prometheus 1
▁tyrant 1
▁Pelias 1
▁Kanebo 1
▁arrange 1
▁barriers 1
▁riddled 1
government 1
▁seized 1
bomb 1
▁poets 1
▁irony 1
▁democrats 1
▁unbelief 1
▁Miri 1
cap 1
gesture 1
▁elementary 1
▁metabolic 1
▁impossibly 1
▁Almost 1
▁Darrin 1
▁Him 1
Crucify 1
▁shouted 1
▁mould 1
▁bronze 1
▁perpetrated 1
▁wrongs 1
▁mount 1
▁rides 1
▁Class 1
▁accommodate 1
▁worries 1
▁entrance 1
▁Cowards 1
▁cemetery 1
▁Assyrians 1
▁Nile 1
▁Amazing 1
▁Observe 1
▁swinging 1
▁sellable 1
out 1
▁poetic 1
▁Curt 1
▁awake 1
▁penal 1
▁undeniably 1
▁suspecting 1
▁tosses 1
▁brows 1
▁wreath 1
▁Seeing 1
▁sailed 1
▁Claude 1
▁Forbidding 1
▁carts 1
▁treasure 1
▁Burn 1
▁guerrilla 1
▁individualism 1
▁Stuffed 1
▁wedged 1
▁carotide 1
▁pharynx 1
▁arrogance 1
▁guttersnipes 1
▁uneducated 1
▁clergy 1
▁robbed 1
▁whored 1
▁lppis 1
▁hegemony 1
▁Sparta 1
▁confiding 1
▁cite 1
▁texts 1
▁elegance 1
▁remotely 1
▁ills 1
▁recognising 1
▁deserving 1
▁benefactors 1
▁presumption 1
▁scold 1
▁scolded 1
▁octopus 1
▁defused 1
▁Protestants 1
▁hindrance 1
▁sinners 1
▁Returning 1
▁renaturalized 1
▁Manchuria 1
▁Bromsgrove 1
3,000, 1
▁twits 1
▁joke 1
▁Fr 1
Pop 1
Maybe 1
▁kidding 1
▁boodle 1
▁afterward 1
▁youngsters 1
▁inhuman 1
▁longed 1
▁contrive 1
▁prospers 1
▁prosper 1
▁gunplay 1
▁fatal 1
▁Runaways 1
400! 1
▁inhaled 1
▁smokestacks 1
▁minerals 1
▁Godzilla 1
▁breathed 1
drowned 1
▁Mull 1
▁expense 1
▁finer 1
▁Cows 1
▁racquet 1
▁poem 1
▁Anderson 1
▁diesels 1
▁chick 1
▁scramble 1
▁coke 1
▁rowing 1
▁flowing 1
blowing 1
music 1
drip 1
▁catching 1
▁skedaddle 1
▁solemn 1
▁holiness 1
▁ma 1
▁spill 1
▁bolted 1
▁Impossible 1
▁Apollo 1
▁fascinated 1
▁stilled 1
bullfrog 1
▁scotching 1
machine 1
▁yatter 1
▁trooping 1
▁Edwards 1
▁entitled 1
▁deadwood 1
▁urgent 1
▁impertinent 1
▁channel 1
▁occupational 1
▁unpleasant 1
▁deductions 1
power 1
▁Bishops 1
▁pestilence 1
▁freer 1
▁coarse 1
▁comments 1
▁Move 1
fire 1
▁Peasants 1
▁martians 1
dresses 1
▁Huh 1
▁triangle 1
▁lonesome 1
▁nurses 1
▁cooped 1
▁heel 1
▁bachelor 1
▁fireworks 1
▁raffled 1
▁shuffleboard 1
everyone 1
▁fliers 1
▁chocolate 1
liveliness 1
▁Understand 1
▁admittance 1
▁Catania 1
▁Neither 1
▁toasts 1
Japanese 1
▁refrigerators 1
▁televisions 1
▁caskets 1
gun 1
germ 1
▁microscope 1
▁bacilli 1
birds 1
▁sow 1
▁reap 1
▁grain 1
▁barns 1
▁Nineveh 1
▁condemn 1
▁penance 1
▁ha 1
▁ve 1
lamp 1
▁bushel 1
▁solitude 1
▁stillness 1
▁commander 1
neighbors 1
▁accessible 1
▁Lil 1
35 1
▁spaceship 1
▁escaping 1
▁deliberately 1
column 1
▁extent 1
IAN 1
Any 1
lines 1
▁emission 1
▁wavelengths 1
▁fallacy 1
▁dilates 1
▁Conclusion 1
▁melodies 1
▁regrets 1
Policemen 1
▁phoned 1
▁veloc 1
▁Grecian 1
▁Troy 1
▁defy 1
▁jewelled 1
decision 1
cable 1
▁industries 1
metals 1
▁electricity 1
▁Rampion 1
Theory 1
violence 1
▁devours 1
▁appet 1
▁seldom 1
▁hein 1
▁satyr 1
▁disgusting 1
fancy 1
▁dolls 1
▁pigs 1
▁boyfriends 1
▁darn 1
▁platter 1
▁juicy 1
▁lobsters 1
▁chew 1
bird 1
duper 1
▁fist 1
Girls 1
▁clicking 1
▁affinity 1
▁soak 1
▁sponges 1
▁Mozart 1
▁pulsating 1
them 1
kings 1
▁kings 1
▁coolest 1
▁mansion 1
▁quicksand 1
▁orchestra 1
▁overtime 1
▁Vesuvius 1
▁bathing 1
▁proxy 1
▁investigating 1
▁Armbruster 1
▁Foundation 1
▁recall 1
▁250,000 1
▁asteroids 1
▁boredom 1
rial 1
▁Thinking 1
▁Umberny 1
▁magical 1
▁Progress 1
▁governors 1
▁Portuguese 1
▁buffoons 1
▁lace 1
▁satin 1
▁domestic 1
▁treason 1
▁condemns 1
doer 1
▁transmits 1
▁infamy 1
▁cautious 1
▁Magistrate 1
▁udders 1
▁Italians 1
guide 1
▁anyways 1
▁thunderbolt 1
▁tyres 1
▁screeched 1
▁tarmac 1
▁drew 1
▁frightens 1
▁arthr 1
ic 1
▁underprivileged 1
▁grandchildren 1
▁January 1
nd 1
▁simulated 1
▁flux 1
▁irreversible 1
▁formation 1
▁Sticking 1
▁Asking 1
▁marshal 1
▁vein 1
▁Giulio 1
▁policemen 1
▁Prisoners 1
▁recorder 1
▁Victor 1
▁Norris 1
▁Hi 1
▁Danny 1
▁Lieutenant 1
▁Detroit 1
▁confidentially 1
police 1
▁stickin 1
jewels 1
▁Number 1
▁Christine 1
▁Thriftymart 1
▁owing 1
▁decompos 1
▁jets 1
▁Katarina 1
▁publishers 1
▁decency 1
▁paradox 1
▁Muff 1
▁circuits 1
▁scratching 1
▁subsistence 1
▁illustrious 1
▁travelers 1
▁Pantheon 1
▁Bar 1
Goodbye 1
▁Peru 1
▁obsessions 1
▁audiences 1
▁treating 1
▁geometric 1
▁cloaking 1
▁Warren 1
▁structures 1
▁Convince 1
▁Read 1
▁festival 1
▁maneuver 1
cooled 1
▁Volkswagen 1
▁comforts 1
▁conveniences 1
▁gallons 1
▁luxuriant 1
▁subtropical 1
▁inhabitants 1
▁Cubango 1
▁Basin 1
▁luxury 1
▁uneaten 1
▁loath 1
▁bountiful 1
▁baboons 1
▁Unlike 1
▁relentless 1
▁thirsting 1
▁wart 1
▁subst 1
ute 1
▁DDT 1
▁Bunch 1
▁buttinskies 1
▁dandruff 1
▁Peeking 1
▁keyholes 1
▁Aimee 1
▁Semple 1
▁McPherson 1
▁fare 1
▁insufficient 1
▁suspicions 1
▁stakes 1
▁pronounce 1
▁fascinates 1
▁camouflaged 1
▁wasrt 1
▁boldly 1
▁wilderness 1
▁starboard 1
▁haddock 1
▁telecast 1
Fill 1
▁Jeez 1
▁niggers 1
▁smacks 1
▁upside 1
▁Theatrical 1
▁MGM 1
▁originator 1
▁Helen 1
▁Kane 1
▁vocal 1
▁john 1
▁makin 1
▁chumps 1
▁gettin 1
▁thrill 1
▁notorious 1
▁procurer 1
▁Igor 1
▁Milo 1
▁Janus 1
▁franchise 1
▁cigars 1
▁Amphion 1
▁parrot 1
▁mummify 1
▁doped 1
▁Carl 1
▁Laughing 1
▁scribbled 1
▁reproduced 1
▁Kyoto 1
▁rewrote 1
Chrysanthemum 1
▁evoke 1
▁indescribable 1
▁Sending 1
▁simulations 1
▁robots 1
▁Carrying 1
▁earphones 1
▁quitted 1
▁evaporated 1
▁monkeys 1
▁confessed 1
▁sulphur 1
▁debauchery 1
▁madwoman 1
▁cleverest 1
▁stupidest 1
▁Nelly 1
▁Doolan 1
▁Arert 1
▁Miles 1
▁Kelsey 1
▁digging 1
▁slamming 1
▁averaged 1
▁furze 1
▁Cape 1
▁Verde 1
▁Guinea 1
▁escudos 1
▁dug 1
▁fidgety 1
▁lick 1
▁Flowers 1
▁omit 1
▁particulars 1
▁departed 1
honest 1
▁dreaming 1
▁Unable 1
▁consulting 1
▁Emperors 1
▁Livia 1
▁counsels 1
▁reawaken 1
▁pessimist 1
▁optimist 1
▁Prefect 1
▁jabbering 1
▁nonsense 1
▁Window 1
▁Mass 1
▁earning 1
▁padrone 1
▁intellectually 1
▁superior 1
▁captors 1
▁foundations 1
▁Mahar 1
treatin 1
▁Growers 1
▁leaflets 1
▁posters 1
▁advertise 1
▁1200 1
▁Adi 1
ó 1
▁mis 1
▁amigos 1
▁Jes 1
ú 1
▁airplane 1
▁deportees 1
▁utility 1
▁prayer 1
▁Workers 1
▁pension 1
▁funds 1
▁bein 1
used 1
▁scabs 1
▁thugs 1
▁fightin 1
▁concession 1
▁landscape 1
▁dune 1
▁believable 1
▁simpler 1
▁Szell 1
▁kidnapping 1
▁heiresses 1
▁hijacking 1
▁bridges 1
▁assassinating 1
▁national 1
▁primetime 1
▁nutshell 1
▁sullen 1
▁loot 1
▁seeped 1
▁portion 1
▁altarpiece 1
▁Invariably 1
▁negotiating 1
▁Patrolman 1
▁Bancroft 1
▁Officer 1
▁Frann 1
▁wheeling 1
▁cheaper 1
▁Teuton 1
▁lovers 1
▁incapable 1
▁bellies 1
▁noisy 1
▁embarrassment 1
▁unprepared 1
▁sucky 1
▁fucky 1
▁Fellas 1
▁vice 1
▁Weirdly 1
▁palpable 1
▁precede 1
▁pat 1
▁mucky 1
▁Merrin 1
▁spectacular 1
▁hat 1
▁intellectuals 1
▁agitated 1
▁presidency 1
▁exploiting 1
▁manufactured 1
▁anxieties 1
▁Become 1
▁readies 1
▁sensual 1
▁awareness 1
▁legible 1
▁roast 1
▁devour 1
▁leagues 1
▁coma 1
▁Stupid 1
▁dogfish 1
▁sidetracked 1
▁ruled 1
▁incompetents 1
▁goblins 1
▁spacecraft 1
▁garages 1
▁triple 1
▁adequate 1
▁serviced 1
▁sanforized 1
▁chutes 1
▁adjustments 1
▁Sounded 1
scold 1
▁sprout 1
▁Miracles 1
▁Babies 1
▁fright 1
▁Reverend 1
▁Superior 1
▁Catherine 1
▁uncaring 1
▁Genevi 1
rard 1
11, 1
▁Bugenhagen 1
▁revives 1
▁relax 1
▁afterall 1
▁matted 1
▁moist 1
▁deliberation 1
▁Erwin 1
▁Again 1
▁forbade 1
▁apparent 1
▁Hobbits 1
▁Saruman 1
▁sickly 1
▁Wizards 1
▁Orcs 1
▁Rohan 1
▁homosexuality 1
▁floatin 1
▁poisoned 1
▁fishermen 1
▁catalina 1
▁corsica 1
▁cousteaus 1
▁Calypso 1
▁charting 1
▁Mediterranean 1
▁pollution 1
▁Niie 1
▁emptied 1
▁inland 1
▁Drawing 1
▁abdomen 1
▁simultaneously 1
▁injects 1
▁salivary 1
▁gland 1
▁vibration 1
▁ritual 1
▁Durant 1
▁regard 1
▁salute 1
▁Danube 1
▁Braila 1
▁blades 1
▁sultan 1
▁dough 1
▁moth 1
▁thats 1
▁isnt 1
▁performs 1
▁equipped 1
▁kidnap 1
▁outlawed 1
▁Arcturans 1
▁thalmic 1
▁regions 1
▁Elizabeth 1
▁duel 1
.30. 1
st 1
▁fatter 1
▁crib 1
▁Natalie 1
▁Italian 1
▁Ten 1
▁Word 1
making 1
▁wheat 1
▁daisies 1
▁cent 1
▁maniac 1
▁Dover 1
violent 1
▁psycho 1
▁pups 1
▁guidance 1
▁positions 1
▁devastate 1
Perhaps 1
▁reexamine 1
▁belonging 1
▁overthrow 1
▁grace 1
▁anarchy 1
▁insatiable 1
▁expeditions 1
▁unintentionally 1
▁males 1
▁billing 1
▁cooing 1
▁parted 1
▁mirrored 1
▁glittering 1
▁brook 1
▁bears 1
▁fiery 1
▁flowed 1
▁locator 1
▁Detention 1
Rehabilitation 1
▁Lycaste 1
▁Alba 1
▁approaches 1
▁speeds 1
▁accumulated 1
▁Milky 1
▁Way 1
▁constructed 1
▁interstellar 1
▁journeys 1
▁upright 1
▁domesticated 1
▁describes 1
▁astonishing 1
▁ramjet 1
▁frontal 1
▁suitable 1
▁proteins 1
▁Comets 1
▁remembrance 1
▁Heike 1
▁skepticism 1
▁symmetrical 1
▁seated 1
▁thoughtful 1
tables 1
▁outlined 1
▁fitness 1
▁athletic 1
▁eager 1
▁Shana 1
▁evokes 1
▁Hinchis 1
▁Flower 1
▁graduated 1
▁subscriptions 1
reform 1
▁reflex 1
▁occurring 1
▁shoved 1
▁rape 1
▁Deach 1
▁centers 1
▁inseparable 1
▁Armeror 1
▁Fallstag 1
▁reputed 1
▁promoters 1
▁flown 1
▁310 1
▁speaking 1
▁metaphorically 1
▁allegories 1
▁metaphors 1
▁ostensibly 1
▁sponsorship 1
3, 1
▁Cottes 1
▁Fallope 1
▁cartographer 1
▁trespass 1
▁II 1
▁Genesis 1
▁Inside 1
▁kilo 1
-232... 1
▁requesting 1
▁tapped 1
▁tectonic 1
▁magn 1
▁Above 1
▁horrendous 1
▁infectiv 1
▁isolation 1
ixo 1
▁transform 1
▁inanimate 1
▁associative 1
▁cortex 1
connects 1
▁barking 1
▁naps 1
▁Radio 1
▁Mon 1
oring 1
▁harbor 1
▁rangers 1
▁unfounded 1
▁singing 1
▁Nonsense 1
▁equality 1
Ruth 1
▁delivered 1
Esther 1
▁dine 1
▁Adam 1
▁aslant 1
▁sloping 1
▁timbers 1
▁growls 1
▁slavering 1
▁intervening 1
poised 1
▁unleash 1
challenged 1
▁Yachts 1
▁freighters 1
▁giggly 1
▁holograms 1
▁Loop 1
▁protective 1
▁WEll 1
▁Gone 1
▁cranky 1
▁Arrange 1
▁cutlery 1
▁quote 1
▁reinforce 1
▁dares 1
▁shan 1
▁parklands 1
▁Mommy 1
▁grumble 1
▁Countess 1
▁Esmeralda 1
▁brigand 1
▁posts 1
▁auditorium 1
▁actor 1
▁Anxious 1
▁weirder 1
▁remembering 1
▁goddamned 1
▁Specialty 1
▁chilled 1
▁gendarmes 1
perniflard 1
▁slices 1
▁dew 1
▁dots 1
▁Turin 1
▁apprehend 1
▁prick 1
▁Ha 1
▁devotion 1
hfully 1
▁uttered 1
▁fewer 1
▁Consequently 1
▁rejoice 1
rE 1
▁Wish 1
▁WErEn 1
▁headquarters 1
▁Sinclair 1
▁posted 1
▁Picking 1
▁worsens 1
▁Ivan 1
▁worsen 1
▁collection 1
▁dissection 1
▁rifles 1
▁Brazilian 1
▁chic 1
▁content 1
▁taffeta 1
100... 1
200. 1
Nobody 1
▁explorers 1
Once 1
▁Pole 1
▁bud 1
▁hotshot 1
▁Jacuzzi 1
▁wading 1
▁Trouble 1
▁amputation 1
▁blink 1
▁Ann 1
▁immortal 1
▁Incas 1
▁Arabs 1
▁Touch 1
▁cleaner 1
▁dishonesty 1
▁mooed 1
▁fundraiser 1
▁officials 1
▁suitcases 1
▁Kings 1
▁riddles 1
▁fetish 1
▁disturb 1
▁arriving 1
▁frigid 1
▁pre 1
shrunk 1
▁peculiar 1
▁inducer 1
▁capabil 1
▁coaxing 1
▁dread 1
▁dislike 1
▁parishioners 1
▁renounce 1
▁decree 1
▁McGuinness 1
▁trudged 1
▁abominable 1
▁pilgrims 1
▁Bono 1
▁postproduction 1
▁wobbly 1
▁cares 1
▁directing 1
▁Australian 1
▁Music 1
▁Awards 1
▁Tube 1
▁sales 1
▁adaptable 1
▁contests 1
▁perpetuate 1
▁attitude 1
▁ranked 1
▁iceberg 1
▁musicians 1
▁underscore 1
▁participants 1
▁diary 1
▁sticking 1
▁studs 1
▁plop 1
▁cooperative 1
▁producers 1
▁directors 1
▁2,500 1
▁satisfactions 1
▁hallucination 1
▁Movie 1
▁Week 1
▁unclean 1
▁wanders 1
▁desserts 1
▁tidy 1
▁emerald 1
who 1
forced 1
▁Vaso 1
▁painted 1
▁Rasta 1
▁Amoy 1
▁River 1
▁characteristic 1
▁carbuncle 1
▁ruby 1
▁Hudson 1
▁supper 1
▁loathing 1
▁defect 1
▁ingredients 1
▁rented 1
▁Gloria 1
▁worrisome 1
▁opponents 1
▁Bounty 1
▁POUNCE 1
▁Kill 1
▁ridiculously 1
▁simplic 1
▁Eunuchs 1
▁glue 1
▁Chandler 1
▁yell 1
▁reef 1
▁hates 1
▁Ne 1
▁nevertakes 1
▁beady 1
winter 1
▁Sector 1
▁compartment 1
▁tragic 1
▁Phil 1
▁Mic 1
▁broadcast 1
▁thinkin 1
▁syntax 1
▁idiot 1
▁wondrous 1
▁assembly 1
▁soared 1
▁ether 1
▁breezes 1
▁vulgar 1
▁folk 1
▁dawdle 1
▁felicitous 1
▁mock 1
▁Humiliation 1
▁replete 1
▁monstrous 1
▁cravings 1
▁scorching 1
▁companionably 1
▁raids 1
▁talkin 1
▁Reduced 1
▁slavery 1
▁treacherous 1
▁evhausting 1
▁innocence 1
▁Suspecting 1
▁Pirate 1
▁ambiguous 1
▁scent 1
▁Lewis 1
▁adrift 1
▁Salt 1
▁peppered 1
▁visibil 1
▁12? 1
▁dudes 1
▁City 1
▁pace 1
▁Sahara 1
▁gash 1
shaped 1
▁Buck 1
Keep 1
▁lamb 1
▁020, 1
▁restart 1
▁fools 1
▁inorganic 1
▁sickbay 1
▁vaguely 1
▁downhill 1
▁dictatorship 1
▁stifling 1
▁Salvador 1
▁Guatemala 1
▁Chile 1
▁mujas 1
▁heats 1
▁seize 1
▁grandparents 1
▁pals 1
▁perpetrators 1
▁accompany 1
▁helicopters 1
▁Los 1
▁Angeles 1
▁International 1
▁Airport 1
▁circulating 1
▁millionaires 1
▁Brogan 1
▁Malibu 1
▁whiting 1
▁courses 1
▁towel 1
▁louder 1
▁Hallows 1
▁Clear 1
▁visor 1
▁sunglasses 1
▁queer 1
▁righters 1
▁onslaught 1
▁smelly 1
▁units 1
▁fantasized 1
▁stocking 1
▁gasoline 1
▁tennis 1
▁platform 1
▁berserk 1
▁kneecap 1
Ohh 1
▁Photostat 1
▁ID 1
▁Georgine 1
▁Arrow 1
▁Cross 1
▁trusting 1
▁introduce 1
▁lip 1
▁unwanted 1
▁blindly 1
▁falsehood 1
▁fanatic 1
▁demonic 1
▁Johnny 1
▁Ryan 1
▁Adele 1
▁manually 1
▁Making 1
▁deathbed 1
▁instilled 1
▁scents 1
▁championship 1
▁stabilize 1
▁sciatic 1
▁multiplying 1
▁interfered 1
▁neural 1
▁multiply 1
▁apologetic 1
▁Peggy 1
▁fierce 1
▁tempting 1
▁pleasant 1
▁pathology 1
▁dregs 1
▁charity 1
▁Biff 1
▁chased 1
▁gym 1
▁brushes 1
▁prevents 1
▁ripper 1
Sobbing 1
▁telephones 1
▁Dwarfs 1
▁partnership 1
▁bartered 1
▁housekeeping 1
▁withhold 1
▁validated 1
▁statistical 1
▁snarfblatt 1
▁Arroyo 1
▁satisfy 1
▁sonny 1
▁gypsies 1
▁gunpowder 1
▁choosy 1
▁shops 1
▁rabbit 1
▁eyewitnesses 1
oh 1
▁arrogant 1
▁risers 1
▁ominous 1
▁plaintiffs 1
▁pardoning 1
▁departure 1
▁Spider 1
▁13, 1
▁potentials 1
▁garment 1
▁hooray 1
▁coons 1
▁insult 1
▁sundaes 1
▁Louisiana 1
▁neared 1
▁perish 1
▁shining 1
:30 1
▁instructors 1
▁ski 1
▁recruits 1
▁Janssen 1
▁chaps 1
sirring 1
▁contracted 1
▁brides 1
▁Third 1
Step 1
▁moron 1
▁deport 1
▁Vladivostok 1
▁realises 1
▁grandmas 1
▁aunts 1
▁nephews 1
▁Monitor 1
▁Hood 1
▁headed 1
▁Nelvana 1
▁lll 1
▁emissions 1
▁submission 1
▁procedures 1
▁purposes 1
▁proving 1
▁intervene 1
▁lowered 1
▁gulp 1
head 1
▁touring 1
▁sayin 1
'? 1
▁LA 1
▁licence 1
▁shitty 1
▁publicist 1
▁Bud 1
▁Suspicion 1
▁brushed 1
▁boils 1
▁construct 1
▁Irv 1
▁agreed 1
▁mascara 1
▁cicada 1
▁watchful 1
▁hawk 1
▁Mangiapan 1
▁outlandish 1
▁navel 1
▁Hansel 1
▁Gretel 1
▁Believing 1
▁cocks 1
▁snuffed 1
▁Mickey 1
▁Cohen 1
▁Boat 1
▁Offense 1
▁offends 1
▁Set 1
▁paperwork 1
▁cheque 1
▁opportunities 1
▁hooked 1
▁bicycle 1
▁Hawaii 1
▁Ritz 1
▁Carlton 1
▁disgrace 1
▁Months 1
▁Claiming 1
▁Scotty 1
▁crackpot 1
▁Gary 1
▁pyrethrum 1
▁whereas 1
▁starch 1
▁fluoride 1
▁hogs 1
▁Primer 1
▁Stars 1
▁Fright 1
▁urchin 1
shows 1
▁pitch 1
▁mire 1
▁firebrand 1
▁ere 1
▁fraughting 1
▁pow 1
▁Setebos 1
▁vassal 1
▁grudge 1
▁Aryan 1
hand 1
▁Hawaiians 1
▁nebuilding 1
▁Krishna 1
▁aeked 1
▁woree 1
▁Buyers 1
▁influenced 1
▁alot 1
▁gibberish 1
▁Loosen 1
▁unpractical 1
▁extend 1
▁boundaries 1
▁unified 1
▁compelling 1
▁Tancis 1
▁snout 1
▁Amateurs 1
▁Holmes 1
▁topless 1
▁drums 1
II 1
▁repay 1
▁Jeeves 1
▁inferior 1
tlesham 1
▁nephew 1
ress 1
▁teashop 1
▁Cecilia 1
▁prisoner 1
▁dungeons 1
▁downtown 1
▁grunt 1
▁era 1
▁storytellers 1
▁flip 1
▁radishes 1
▁containment 1
▁bulkheads 1
▁filament 1
▁momentarily 1
▁Crusher 1
▁squabbling 1
▁Vulcans 1
▁concoction 1
▁Romulans 1
flower 1
▁forgiven 1
▁figurine 1
▁idol 1
▁accent 1
▁salary 1
▁Melissa 1
▁Works 1
▁astray 1
▁engraved 1
▁kamikazes 1
▁overlook 1
▁diet 1
▁Redskins 1
▁miniature 1
▁swine 1
▁oleic 1
▁acid 1
▁supremely 1
▁entail 1
▁Muhammad 1
▁sic 1
▁bloodhounds 1
▁African 1
▁Latin 1
▁Asian 1
▁UN 1
▁denounce 1
▁woven 1
▁fabric 1
▁impenetrable 1
▁dinosaur 1
▁Oklahoma 1
▁Asked 1
▁disco 1
▁4:30 1
▁bike 1
▁maze 1
▁hairs 1
▁shaggy 1
▁hilary 1
▁pork 1
▁carlton 1
▁luxurious 1
nurse 1
▁Kostrinski 1
▁werert 1
▁Lanie 1
▁gamb 1
▁barricades 1
▁breakdown 1
▁training 1
▁metagenic 1
▁toxins 1
▁horns 1
▁rhinos 1
▁ampl 1
▁markings 1
▁Taguan 1
▁designs 1
▁Buranian 1
▁accelerated 1
▁viroxic 1
▁sequences 1
▁Repairs 1
▁particle 1
▁fountain 1
▁instinct 1
▁Data 1
▁soiled 1
▁garments 1
▁martial 1
▁cactus 1
▁fecund 1
▁childminder 1
▁Caligula 1
▁magnificent 1
▁fascinate 1
▁Cupcake 1
▁Aztec 1
▁Sacramento 1
▁manners 1
▁ethical 1
▁certainties 1
▁plays 1
▁noblemen 1
▁queues 1
▁'... 1
▁relentlessly 1
▁searched 1
▁reincarnation 1
▁emancipation 1
▁arise 1
▁Mario 1
▁radiator 1
▁Communism 1
▁warlords 1
▁embassy 1
▁Ursula 1
▁deceived 1
▁None 1
▁libertines 1
▁angers 1
▁madam 1
▁Benedick 1
▁wrestle 1
▁Beatrice 1
▁unlocked 1
▁studied 1
▁printout 1
▁Supreme 1
▁Court 1
▁docket 1
▁reelection 1
▁animated 1
▁puppets 1
▁weaponry 1
▁Sounds 1
▁armaments 1
▁duranium 1
▁bart 1
▁executives 1
▁haul 1
▁woodshed 1
▁cookie 1
▁Drexl 1
▁Blue 1
▁Lou 1
▁Moors 1
▁Cambridge 1
igzag 1
▁supreme 1
▁cower 1
▁despond 1
▁ownership 1
▁mines 1
▁railways 1
▁Stone 1
▁sullied 1
▁bash 1
▁strap 1
▁snaps 1
▁squirt 1
▁dilinium 1
▁psi 1
scan 1
▁grenade 1
▁recycled 1
▁Dutch 1
▁lager 1
▁waitresses 1
▁Absolutely 1
▁pretzels 1
Die 1
▁Bart 1
▁Jadzia 1
▁raped 1
▁recognise 1
mm 1
su 1
▁sinks 1
▁bayou 1
▁ambrosia 1
salad 1
▁Especiallyly 1
▁hyperbolic 1
si 1
▁nce 1
game 1
▁Reject 1
▁rejects 1
▁Siddal 1
▁dumber 1
▁Housing 1
▁prices 1
home 1
▁insured 1
▁visas 1
creature 1
▁poisoning 1
▁awa 1
▁conference 1
▁Gaugamela 1
▁unacceptable 1
▁anyhow 1
▁strongly 1
▁prohib 1
▁obsession 1
ney 1
▁pport 1
▁Blessed 1
▁ade 1
▁grays 1
▁swipe 1
▁fluke 1
blasting 1
▁barge 1
▁barrier 1
▁ridge 1
▁thickens 1
▁Greenhouse 1
▁gases 1
▁extremes 1
▁Hitting 1
patients 1
agency 1
▁inventory 1
▁Echo 1
▁imprints 1
▁residual 1
▁2:15, 1
▁imitate 1
▁organism 1
▁Violence 1
▁gracious 1
▁tra 1
▁opinions 1
▁irr 1
▁appropriates 1
▁Ickies 1
▁Panhellenic 1
▁rubles 1
▁ghastly 1
▁Ironically 1
▁hedgerows 1
▁enclose 1
▁require 1
▁Chastity 1
▁Raising 1
▁Rewarding 1
▁whites 1
▁tinkering 1
▁GPS 1
▁sanatoriums 1
Rocky 1
cinch 1
▁blesseth 1
leaf 1
▁robur 1
▁cerris 1
▁hairy 1
▁acorns 1
▁yanked 1
▁outta 1
tea 1
▁addiction 1
limb 1
▁suffers 1
▁shocks 1
▁molest 1
▁pencil 1
▁Steve 1
▁dragon 1
▁Mord 1
Sith 1
▁Rahl 1
▁cel 1
▁pets 1
▁boston 1
▁whore 1
▁ii 1
▁tops 1
chrysanthemums 1
▁mated 1
▁accentuates 1
▁attributes 1
▁extinguished 1
▁Bunsen 1
▁panel 1
▁violin 1
▁turnout 1
▁dolphin 1
▁lullabies 1
"! 1
▁mailboxes 1
drying 1
▁strains 1
▁murde 1
▁tself 1
▁offices 1
do 1
▁terrors 1
▁uncontrollable 1
▁teacher 1
▁damages 1
▁sweeper 1
▁tip 1
▁stat 1
▁extract 1
▁carotid 1
▁fairness 1
▁soaked 1
▁Epsom 1
▁indicating 1
▁bathtub 1
▁reapply 1
▁ineligible 1
▁g 1
▁irls 1
▁reproached 1
▁ingredient 1
▁digs 1
▁gums 1
▁tame 1
▁'05, 1
▁ticker 1
▁ment 1
▁sill 1
▁portions 1
▁nonchalant 1
▁Careful 1
▁puja 1
▁Maya 1
▁transformative 1
▁Styx 1
▁calcium 1
▁magnesium 1
▁hid 1
▁gathers 1
▁lumps 1
▁seminary 1
▁adventures 1
▁hinged 1
▁Innocence 1
▁protocol 1
▁ln 1
▁coordinated 1
▁rout 1
▁Eurasian 1
▁ould 1
▁sharing 1
Koothrapanties 1
▁humouredly 1
▁tweet 1
▁tweeted 1
▁Parks 1
▁Rec 1
▁Tw 1
▁graphic 1
▁kipper 1
▁turmoil 1
ially 1
▁cultivate 1
▁climbing 1
▁luckily 1
▁counteroffer 1
▁novel 1
▁biting 1
▁Nostalgia 1
▁sheould 1
▁strain 1
▁teachers 1
▁folly 1
▁discrimination 1
▁differently 1
▁Nam 1
▁Soong 1
min 1
▁Wanee 1
▁allowance 1
▁scatterbrains 1
▁bump 1
▁Charter 1
▁instant 1
▁credibility 1
▁roughshod 1
▁plausible 1
▁spire 1
▁contaminate 1
block 1
▁Raymond 1
monograph 1
▁ublished 1
▁Speak 1
▁Lecktor 1
▁ad 1
▁greed 1
▁Marchek 1
▁teaching 1
▁KNOW 1
▁Pier 1
▁Docks 1
▁slake 1
▁Keds 1
compass 1
▁poppy 1
▁vertebrae 1
parts 1
▁zinc 1
▁stared 1
▁quitting 1
▁Toby 1
▁Soft 1
▁commissioner 1
nano 1
technolog 1
▁infancy 1
▁Tarellians 1
▁populations 1
▁Rivan 1
▁stomachs 1
▁Freon 1
▁ou 1
▁coffeemaker 1
▁anticipate 1
lives 1
▁learnt 1
▁recommendations 1
▁occasions 1
Team 1
tart 1
▁des 1
ser 1
▁tray 1
▁eligibility 1
▁treaty 1
drop 1
▁spatter 1
▁Batista 1
▁coup 1
may 1
▁supporting 1
▁madhouse 1
▁turbine 1
▁Hampshire 1
sarcoidosis 1
▁ast 1
▁Langdon 1
▁basketball 1
▁Wise 1
-4, 1
Free 1
▁Bird 1
videotapes 1
><< 1
posse 1
leaves 1
▁eedles 1
▁edible 1
▁prost 1
utes 1
▁luminesce 1
▁strapped 1
food 1
Bre 1
▁beige 1
make 1
ht 1
dolly 1
Platecarpus 1
▁snack 1
▁Shore 1
budg 1
ie 1
▁possessing 1
W 1
hy 1
candidates 1
▁huck 1
▁Bean 1
girl 1
life 1
▁ave 1
▁ing 1
▁incorporated 1
▁occult 1
▁alchemists 1
prints 1
se 1
▁pe 1
▁tals 1
by 1
▁tim 1
▁fo 1
▁circled 1
▁upgraded 1
Bride 1
▁Frankensync 1
▁syncs 1
▁annals 1
▁manslaughter 1
▁huddled 1
▁courthouse 1
▁praying 1
▁pit 1
actual 1
▁ly 1
▁zigzaggy 1
▁Civilization 1
▁exterminate 1
▁impressionable 1
▁Grim 1
▁Reaper 1
hereens 1
▁alignment 1
▁ire 1
▁functions 1
forms 1
▁branched 1
▁ignored 1
▁wanting 1
▁Barnes 1
Ewing 1
▁feud 1
▁weaken 1
▁edna 1
▁Vincent 1
▁millay 1
▁molecule 1
▁chlorophyll 1
▁reactions 1
▁energetic 1
▁electrons 1
rich 1
▁Kennedy 1
▁electrified 1
▁prophetic 1
▁objective 1
▁Moon 1
▁Feng 1
▁chubby 1
▁metabolisms 1
▁somebod 1
▁phantoms 1
▁Aye 1
▁doomsday 1
▁mister 1
ri 1
▁ghtly 1
▁primed 1
light 1
schooling 1
▁awhile 1
▁trembles 1
▁drags 1
▁substance 1
▁benef 1
▁La 1
ï 1
va 1
▁grad 1
▁Charles 1
▁Durbin 1
▁momma 1
▁downer 1
▁kneeling 1
▁programs 1
▁forming 1
▁con 1
▁pervo 1
picture 1
▁Thy 1
▁greyhound 1
▁mic 1
▁applications 1
▁unmanned 1
▁blurry 1
▁pinpoint 1
▁features 1
▁launches 1
▁combat 1
▁Anonymous 1
▁backpacks 1
▁loo 1
▁criteria 1
ach 1
▁mistress 1
▁honourable 1
▁minister 1
▁terrorists 1
▁intens 1
▁cascade 1
▁neurons 1
▁resume 1
since 1
▁capacity 1
▁forgiveness 1
▁Matter 1
▁politely 1
▁pedestal 1
▁comply 1
▁smush 1
▁severely 1
▁rioters 1
▁community 1
▁website 1
▁Vallegrande 1
esteem 1
reliance 1
▁confetti 1
▁privilege 1
▁examining 1
▁wagons 1
▁Celesta 1
▁jacks 1
▁cease 1
▁sprung 1
▁sleazy 1
▁lecturer 1
▁Wondered 1
▁reporting 1
▁forsaken 1
▁scorned 1
▁hens 1
Η 1
▁honeymoon 1
▁YPF 1
▁technical 1
▁Deducting 1
▁Eh 1
▁barbed 1
▁Receive 1
▁glory 1
▁sanct 1
▁signifies 1
▁warnin 1
▁Froy 1
▁Kirby 1
▁battling 1
▁Compton 1
▁suckers 1
▁Hartmann 1
▁Ns 1
▁moderation 1
▁politics 1
▁halt 1
▁torchbearer 1
▁impart 1
▁Tsar 1
▁compact 1
▁Oscar 1
▁slobs 1
▁arguing 1
▁carapace 1
not 1
▁deductible 1
▁canoe 1
▁Vacancy 1
▁belo 1
ng 1
▁inished 1
▁Golem 1
▁outrageous 1
▁Warn 1
▁Lock 1
▁complet 1
▁ntrol 1
▁steins 1
▁montezuma 1
▁Enact 1
▁liar 1
▁cheat 1
▁scoundrel 1
▁crook 1
▁smelt 1
▁cornea 1
▁lens 1
▁retina 1
▁Midway 1
▁bait 1
▁toss 1
▁cavern 1
▁Badaboum 1
▁badaboum 1
▁figs 1
ore 1
▁cropped 1
▁error 1
oo 1
▁lacks 1
▁conversion 1
▁disable 1
▁Vicious 1
▁interfering 1
▁motorcars 1
▁positioning 1
▁rendering 1
▁tuneful 1
▁WouIdn 1
▁voters 1
▁knuckles 1
▁pulp 1
▁Greeks 1
▁Herr 1
rgermeister 1
▁socialist 1
daver 1
▁cadaver 1
▁limbs 1
▁attitudes 1
restriction 1
▁zigzagged 1
▁whizzed 1
Depression 1
▁text 1
▁publish 1
▁Monsieur 1
sentiment 1
▁sincere 1
▁profound 1
▁Eolo 1
▁fleece 1
king 1
▁guaranteed 1
▁vexed 1
▁hearkened 1
▁reverberations 1
▁dashed 1
▁chasm 1
▁descent 1
▁brim 1
▁wrinkles 1
utumn 1
ard 1
▁cuba 1
▁Port 1
▁Authority 1
nythi 1
▁ng 1
mo 1
▁uth 1
▁ur 1
▁wheezing 1
▁rattling 1
▁soun 1
▁hill 1
▁unresolved 1
▁wuss 1
▁undercover 1
▁malignant 1
▁explained 1
▁Lyon 1
▁mechanical 1
▁overwhelm 1
▁paralysis 1
▁executed 1
▁unable 1
▁fourteen 1
▁wardrobe 1
▁5:30. 1
bo 1
▁ut 1
▁delivery 1
▁patch 1
.: 1
▁Elliot 1
▁nodded 1
Sweet 1
▁Lining 1
▁obstacles 1
▁pressures 1
▁perception 1
▁Fool 1
▁preparation 1
▁motile 1
▁persistence 1
▁terminate 1
▁pornography 1
▁pudenda 1
▁liberation 1
▁douchebag 1
▁smelling 1
▁tarts 1
▁baking 1
▁Bubby 1
▁decrep 1
immerman 1
▁diabetes 1
▁priority 1
▁residency 1
▁pilfering 1
▁buds 1
▁symbolic 1
▁realizes 1
▁misused 1
▁againstthe 1
▁filmed 1
▁overexpose 1
▁dummy 1
{\* 1
approximate 1
size 1
▁poke 1
▁cooled 1
▁gen 1
alia 1
▁reindeer 1
▁decorations 1
▁rollers 1
▁Further 1
▁Labrador 1
▁Retriever 1
▁overrode 1
▁basilar 1
▁Durst 1
▁Prosper 1
▁relic 1
lyeh 1
▁Cthulhu 1
▁mystify 1
before 1
▁Dooly 1
▁commanders 1
▁Tighten 1
▁boisterous 1
▁clerks 1
▁shocking 1
▁fairy 1
▁tales 1
▁compensation 1
▁Thermite 1
▁plasma 1
▁incendiary 1
▁midwife 1
▁agate 1
stone 1
▁alderman 1
▁atomies 1
▁beam 1
▁Pernod 1
▁Armagnac 1
▁cherry 1
▁brandy 1
▁hath 1
▁transparent 1
▁barricadoes 1
▁clearstores 1
▁lustrous 1
▁ebony 1
brainwash 1
▁enormously 1
▁prominent 1
▁obscur 1
▁Temple 1
▁shekel 1
▁stockbrokers 1
▁bankers 1
▁reforms 1
▁economies 1
▁straightforward 1
▁logical 1
▁propos 1
▁starfish 1
▁fanny 1
▁workmen 1
▁exhausted 1
▁creativity 1
▁groupies 1
▁eatin 1
▁drone 1
▁continuous 1
▁encrypted 1
▁papier 1
▁li 1
▁Sebastian 1
▁galaxies 1
▁merged 1
▁resulting 1
▁spawned 1
▁Vegas 1
▁transporting 1
▁Pacific 1
▁Bon 1
▁whiff 1
▁Wh 1
▁Wessex 1
▁everytime 1
▁coiled 1
▁rattler 1
▁fangs 1
drippin 1
▁DA 1
Napoleon 1
▁automatic 1
▁guiding 1
▁Barclay 1
▁tha 1
▁Mondas 1
window 1
▁clump 1
▁Prof 1
essor 1
▁Vazquez 1
all 1
drow 1
▁ned 1
▁spools 1
▁Foreigners 1
▁ountry 1
▁freezers 1
fo 1
▁mischievous 1
▁hardens 1
lt 1
wer 1
Apple 1
▁appl 1
▁populace 1
erefo 1
didn 1
▁eno 1
▁4- 1
▁farming 1
hink 1
way 1
▁ey 1
▁marries 1
▁10,000. 1
▁monasteries 1
▁churches 1
▁rande 1
▁orig 1
ina 1
▁te 1
▁locally 1
▁astronauts 1
▁jumpsuits 1
▁Mutations 1
▁richly 1
▁counterintu 1
▁unwavering 1
▁peoples 1
▁softball 1
muumu 1
>>< 1
▁sl 1
▁bestie 1
▁exudes 1
▁latex 1
▁morphine 1
▁rapid 1
▁incarnates 1
▁throbs 1
▁Adm 1
chcraft 1
▁stinking 1
▁/ 1
faced 1
▁brocades 1
▁jewels 1
▁chilly 1
▁matured 1
image 1
▁Haitians 1
▁contaminating 1
▁Dominican 1
▁closest 1
▁sins 1
▁suystem 1
as 1
,.. 1
▁nothingn 1
ess 1
▁rom 1
▁settled 1
▁magistrate 1
▁sinful 1
▁themse 1
lves 1
▁Mason 1
▁yard 1
Cherry 1
▁,< 1
▁toaster 1
▁Neutrinos 1
▁reciprocal 1
▁substances 1
▁ticks 1
▁cobra 1
▁hiss 1
▁envelopes 1
▁Later 1
▁embodied 1
▁Iook 1
▁slavers 1
▁Dexron 1
▁thins 1
▁Brian 1
▁Clemonds 1
pitched 1
▁fuzzy 1
▁Dreadnought 1
▁Crichton 1
▁donor 1
▁Commandant 1
▁raided 1
▁waver 1
▁Face 1
▁Faster 1
deductible 1
▁speechless 1
▁glooming 1
▁bathrooms 1
machines 1
▁Millennia 1
▁5:00 1
▁decisive 1
▁Mackay 1
▁courts 1
▁trustee 1
▁Marcia 1
▁Blaine 1
▁await 1
▁Jiro 1
▁cancel 1
▁Athens 1
▁tweaking 1
▁weightless 1
▁Greyson 1
▁Ka 1
▁Gae 1
Ru 1
▁enjoyed 1
▁volcano 1
▁10. 1
▁bullies 1
▁meaner 1
exotic 1
▁dancer 1
Clucking 1
▁personals 1
▁medieval 1
▁glutton 1
▁shotgun 1
▁jagged 1
▁repos 1
▁incision 1
▁approximates 1
▁College 1
▁stumbling 1
▁clubs 1
▁Justin 1
▁shaping 1
Yes 1
▁Encinas 1
if 1
▁exceeding 1
▁1/4 1
▁buttoned 1
understandable 1
▁delicacy 1
▁cuz 1
▁dicker 1
▁hunter 1
▁Bobbie 1
▁Roberts 1
animal 1
▁squeal 1
▁saddle 1
▁tread 1
▁Whoever 1
▁monarchy 1
▁zip 1
▁unseemly 1
▁marshmallow 1
▁napalm 1
▁astronaut 1
▁reincarnate 1
▁rectangular 1
▁crouching 1
▁Means 1
▁recovering 1
▁ringleaders 1
▁Burdened 1
▁sadness 1
▁generalize 1
▁Knightley 1
▁eighty 1
wheeler 1
▁migratory 1
▁cursing 1
▁III 1
▁Gloucester 1
▁Experienced 1
▁classical 1
▁Sweetheart 1
▁gradually 1
▁incurable 1
▁Jo 1
▁shivering 1
▁wiser 1
1,000 1
▁deposited 1
▁deception 1
▁goldsmiths 1
▁pennies 1
▁plug 1
▁contraction 1
▁Fed 1
40 1
▁Promised 1
▁monk 1
▁getJimmy 1
▁Amount 1
