<brk> 0
> 36872
p 26006
▁< 13763
</ 13003
. 9506
' 7477
, 7393
< 6056
hon 5725
hoff 5720
'< 3717
▁qu 3712
▁de 3447
il 3378
ils 2906
elle 2864
elles 2692
▁et 2408
▁la 2254
▁pas 2141
▁le 2110
▁les 1924
▁à 1852
▁ne 1769
▁que 1697
▁l 1691
▁est 1610
▁sont 1569
... 1312
▁a 1201
▁un 1173
▁d 1163
▁ce 1151
▁des 1099
▁? 1043
▁pour 1036
▁en 1031
▁n 1017
est 995
- 979
▁s 966
▁ont 929
▁se 927
▁mais 904
▁une 896
▁Je 877
▁dans 826
▁je 824
▁, 751
▁vous 748
▁si 736
▁plus 701
Ils 649
▁Et 643
▁nous 618
▁quand 586
▁- 576
▁Mais 565
▁du 557
▁comme 538
▁qui 534
▁était 486
ai 484
▁sur 466
-< 464
▁me 456
▁Les 444
▁leur 432
▁J 430
▁avec 425
▁au 421
? 408
▁fait 401
▁où 400
>< 400
▁m 391
Elles 390
▁bien 383
▁tout 372
▁Si 365
▁cette 363
▁peut 351
▁c 335
▁on 334
▁Il 327
a 322
▁j 311
▁là 307
▁être 307
ont 306
▁ça 304
▁tu 302
▁par 300
▁y 297
Elle 294
▁! 293
▁faire 293
▁dit 278
▁ou 277
un 275
▁étaient 274
▁Le 268
▁Quand 266
▁La 264
Il 263
▁sais 263
▁ces 262
▁parce 258
▁ 258
▁avant 258
▁" 253
▁moi 252
▁même 250
être 248
▁son 239
▁On 232
▁C 229
▁mon 228
▁te 221
▁il 219
▁ma 211
▁Tu 209
▁va 207
▁été 204
▁peuvent 202
▁jamais 198
▁veulent 198
▁Vous 197
▁t 195
▁aussi 195
▁aux 195
▁toujours 193
en 192
▁sa 186
▁font 185
▁vont 184
▁lui 183
▁dire 182
▁soit 181
▁. 181
▁votre 178
gens 176
▁encore 174
▁avait 173
femmes 173
▁leurs 173
▁fois 172
▁vie 166
▁ici 165
une 165
▁rien 164
▁très 164
▁Qu 161
▁... 160
▁tous 158
▁comment 157
était 152
▁sans 151
▁voir 150
▁suis 149
choses 148
on 148
▁deux 145
à 145
▁car 141
▁S 139
▁veux 138
ce 137
▁Ce 136
▁sera 135
filles 134
▁jusqu 130
▁L 128
▁temps 128
▁alors 124
▁Ils 124
▁chose 124
▁toi 123
▁juste 121
▁ses 120
▁mes 120
▁besoin 118
▁Non 118
▁notre 117
▁Oui 114
▁monde 113
le 112
▁trop 111
! 110
y 109
▁peu 109
argent 109
▁avoir 108
▁pourquoi 107
▁veut 106
▁Ces 106
▁maintenant 105
▁En 105
▁toutes 104
▁nos 103
▁vu 102
▁moins 102
▁savoir 101
▁doit 100
▁savent 100
▁ton 99
▁vraiment 99
▁quoi 99
▁Alors 97
▁quelque 97
▁beaucoup 95
les 95
▁disent 94
▁donc 93
▁vos 92
▁sûr 91
▁Nous 90
▁pense 90
▁Comme 90
▁doivent 90
air 88
▁après 88
▁crois 88
▁sous 88
▁ans 87
." 87
▁mort 87
▁avaient 87
▁non 86
▁Cette 86
▁Une 85
▁Elle 84
▁Pourquoi 84
▁pourrait 84
▁gens 82
s 82
▁Elles 82
▁eu 81
▁chez 80
▁ta 79
▁seront 79
▁faut 79
▁toute 77
▁choses 75
▁déjà 74
▁jour 73
▁dû 73
▁eux 73
▁reste 73
▁viennent 72
▁mal 72
▁vers 72
▁Parce 71
eau 71
▁mieux 70
▁depuis 70
▁vient 70
▁Pour 70
autre 70
▁pendant 70
▁: 70
▁puis 70
>, 69
▁Ça 68
▁Un 68
▁dont 68
personnes 68
▁entre 67
▁soient 67
▁assez 67
▁serait 66
▁autres 66
▁quelques 66
t 66
▁moment 66
▁elle 66
hui 65
▁seulement 65
▁D 65
vous 63
▁sait 63
▁autre 63
▁chaque 63
e 63
▁cet 63
▁Bien 63
hommes 63
▁corps 62
▁pouvoir 62
▁Comment 62
▁tête 62
▁Peut 61
▁peux 61
▁femme 61
▁vois 61
▁pris 61
▁nuit 61
▁pensent 60
avais 59
▁prendre 58
la 58
▁personne 58
▁Que 58
▁ai 58
▁bon 58
▁tuer 57
▁petit 57
▁part 57
▁peur 57
étaient 57
▁tellement 56
▁Eh 56
▁façon 56
▁devant 56
▁trouve 56
▁jours 56
▁vais 55
▁savez 55
▁quelqu 54
▁Au 54
▁vivre 54
▁grande 54
▁A 54
▁vite 53
>. 53
▁terre 53
▁voient 53
▁Où 52
▁Même 52
▁bonne 51
▁arrive 51
▁avez 51
▁tes 51
▁cela 51
autres 51
▁avons 51
vie 50
▁trouver 50
▁maison 50
▁trois 50
▁hommes 50
▁père 49
▁marche 49
▁tant 49
▁porte 48
▁aujourd 48
▁rester 48
▁fin 48
où 47
" 47
▁place 47
▁loin 47
▁Oh 47
▁mains 46
▁f 46
▁ni 46
▁pu 46
▁enfants 46
▁Maintenant 46
▁donné 46
▁ferme 46
▁commencé 46
▁genre 46
▁voit 45
▁contre 45
▁cas 45
▁dis 45
▁parfois 45
▁Des 45
▁nom 45
▁pourraient 45
▁petite 45
▁parler 45
▁I 45
▁femmes 44
as 44
▁devrait 44
▁aurait 44
▁trouvé 44
▁Dans 44
▁grand 43
▁mère 43
▁Ou 43
▁Donc 43
moi 43
▁semblent 43
▁venir 42
▁aller 42
▁ainsi 42
▁Puis 42
▁feront 42
voiture 42
▁Mon 41
▁longtemps 41
▁dessus 41
▁mettre 41
▁croire 41
▁yeux 41
avaient 41
". 41
▁dès 41
▁feu 41
histoire 40
▁fort 40
▁seul 40
▁devait 40
▁sûrement 40
▁semble 40
▁Dieu 40
▁homme 40
▁aura 40
▁dois 40
▁savais 39
amour 39
▁matin 39
▁lieu 39
▁tard 39
▁b 39
▁demande 39
▁donner 39
▁quatre 38
étais 38
▁vrai 38
▁Est 38
Y 38
▁quel 38
là 38
▁coup 38
▁fonctionne 37
▁as 37
chose 37
▁seule 37
avoir 37
▁guerre 37
▁arrivent 37
▁sens 36
▁passé 36
▁Avec 36
À 36
▁donne 36
▁devraient 36
▁jeune 36
▁partir 36
▁filles 36
▁plupart 36
l 35
▁partie 35
▁De 35
É 35
▁dirait 35
7 35
▁sang 35
▁près 34
▁tombe 34
▁Parfois 34
▁sorte 34
▁ait 34
▁mis 34
▁pensé 34
▁problème 34
espère 34
▁morts 34
parents 34
▁lorsqu 34
amis 34
aime 34
▁force 34
▁tué 33
▁disparu 33
▁mois 33
▁combien 33
▁côté 33
▁aiment 33
▁pays 33
ï 33
▁voulaient 33
▁passer 33
▁voulais 33
▁disait 33
▁auraient 33
▁Avant 33
▁raison 32
▁existe 32
corps 32
▁arrivé 32
▁personnes 32
▁voiture 32
▁fera 32
▁croient 32
aiment 32
▁Ma 32
n 32
▁trouvent 31
▁pensais 31
▁devient 31
▁Votre 31
▁compte 31
▁heures 31
▁faisait 31
▁cause 31
h 31
eux 31
▁chance 31
▁Ouais 31
▁parlent 31
▁aucun 31
▁Ne 30
▁faisaient 30
▁propre 30
▁êtes 30
▁années 30
▁système 30
▁train 30
▁coeur 30
machine 30
: 30
▁celui 30
▁savaient 30
▁venus 30
▁seraient 30
▁M 30
▁point 29
▁soir 29
esprit 29
▁nouveau 29
▁passe 29
tu 29
▁main 29
▁derrière 29
▁aucune 29
▁meurent 29
▁connais 29
▁ils 29
▁auront 29
▁petits 29
entendent 29
▁sortent 29
▁laisse 29
▁pouvaient 28
▁vaut 28
▁voulait 28
▁Tout 28
▁commence 28
▁froid 28
▁oui 28
▁ville 28
▁plutôt 28
▁forme 28
▁manger 28
▁sortir 28
▁pouvait 28
▁marché 27
abord 27
▁mourir 27
▁3 27
▁deviennent 27
▁Pas 27
▁droit 27
accord 27
>... 27
▁Dès 27
homme 27
▁entendu 27
▁exactement 27
▁ensemble 27
▁simplement 26
▁devenir 26
▁bientôt 26
▁gouvernement 26
▁dur 26
▁Car 26
avait 26
aurait 26
▁peine 26
f 26
▁sécurité 26
8 26
▁doute 26
▁croyais 26
▁fais 26
▁chambre 26
▁regarde 26
▁dure 26
▁faux 26
▁fille 26
▁Plus 26
▁truc 26
ici 25
▁Mes 25
▁perdu 25
▁appartient 25
▁vieux 25
▁plein 25
▁travers 25
▁cerveau 25
▁actes 25
▁es 25
▁autant 25
Les 25
ignore 25
▁laissent 25
▁passait 25
Le 24
La 24
▁gars 24
▁ensuite 24
▁amis 24
▁voulu 24
▁changé 24
▁dernière 24
▁lumière 24
▁brûle 24
m 24
▁cou 24
▁laissé 24
▁Tous 24
▁ceux 24
▁prennent 24
▁travail 24
▁portent 24
▁50 23
au 23
▁sol 23
même 23
▁partout 23
▁fasse 23
▁su 23
aurais 23
▁allait 23
▁arrêté 23
▁rentre 23
▁grâce 23
▁afin 23
▁2 23
▁police 23
mêmes 23
▁devaient 23
▁tomber 23
▁nouv 23
▁mauvais 23
▁Après 23
▁route 23
▁parmi 23
▁petites 22
▁aider 22
▁rapidement 22
▁première 22
▁endroit 22
▁laisser 22
▁met 22
▁faites 22
▁beau 22
▁arrivée 22
▁regarder 22
▁chemin 22
▁grands 22
▁vivent 22
▁victime 22
▁fini 22
▁bras 22
▁famille 22
▁entrer 22
▁face 22
▁gagnent 22
▁pauvre 22
▁vide 21
▁tue 21
▁penser 21
▁presque 21
▁bonnes 21
▁détruire 21
▁ut 21
▁humain 21
▁T 21
▁sort 21
▁sent 21
▁garçons 21
maison 21
▁paix 21
▁suite 21
après 21
▁jeunes 21
▁5 21
▁millions 21
▁mettent 21
vérité 21
▁croyez 21
▁banque 21
bas 21
▁complètement 20
▁attendre 20
▁bas 20
▁essayé 20
▁marcher 20
▁souviens 20
▁certaines 20
▁dos 20
▁contrôle 20
▁prévu 20
▁âme 20
▁sentir 20
▁idée 20
▁demander 20
▁autour 20
▁gros 20
▁aient 20
▁montrer 20
▁demandent 20
▁parle 20
▁mer 20
▁comprendre 20
endroit 20
▁passent 20
▁travailler 20
▁payer 20
porte 20
▁restent 20
▁super 20
♪ 20
été 20
▁bar 20
▁heureux 19
▁dedans 19
▁certains 19
▁pieds 19
▁changer 19
▁bord 19
▁vérité 19
▁prend 19
▁valeur 19
▁4 19
▁prison 19
▁tel 19
leur 19
▁surtout 19
▁question 19
▁voulez 19
énergie 19
▁cœur 19
▁souvent 19
▁assis 19
▁demandé 19
▁Nos 19
victimes 19
▁connaissent 19
▁sentent 19
▁sinon 19
▁savait 19
▁regardent 19
▁travaillent 19
▁heure 19
gars 19
▁puissent 19
.. 19
▁.. 19
▁demain 18
▁bouche 18
▁vue 18
▁ligne 18
et 18
▁trava 18
▁20 18
gouvernement 18
intérieur 18
▁sauf 18
▁parti 18
▁revient 18
▁Combien 18
▁jouer 18
▁ouvert 18
▁meurtrier 18
▁allaient 18
▁possible 18
▁pire 18
▁dollars 18
▁dehors 18
▁acheté 18
▁créer 18
▁signifie 18
▁pouvez 18
▁10 18
ville 18
▁peau 18
▁noir 18
▁garde 18
route 18
$ 18
▁an 18
▁finissent 18
▁sole 18
▁vraies 18
▁préféré 18
▁Certaines 18
▁Ia 18
▁conduisait 18
▁Huseby 18
▁plan 17
▁' 17
▁haut 17
▁volé 17
balle 17
▁mauvaises 17
▁arriver 17
▁voyez 17
▁Cet 17
▁explose 17
▁revenir 17
▁planète 17
▁dernier 17
▁fond 17
avez 17
▁venu 17
▁Terre 17
ment 17
▁différentes 17
ennemi 17
chien 17
▁cru 17
ne 17
▁Regarde 17
▁faim 17
▁rendu 17
▁pourront 17
▁problèmes 17
heure 17
▁voudrais 17
▁Par 17
▁pleine 17
▁change 17
▁livre 17
% 17
▁allumé 17
▁type 17
,< 17
▁attendent 17
▁boîte 17
▁histoire 17
▁vendre 17
▁essaie 17
▁rouge 17
lui 17
▁découvert 16
▁oublient 16
es 16
▁puisse 16
▁New 16
▁vas 16
▁meurt 16
monde 16
▁Sans 16
▁importe 16
▁rappeler 16
▁pensez 16
▁sommes 16
▁moitié 16
aimerais 16
▁voyage 16
▁tirer 16
▁dites 16
▁tombé 16
▁ressemble 16
▁rendre 16
>- 16
existe 16
▁comprennent 16
▁Pendant 16
▁mauvaise 16
▁mec 16
▁partent 16
▁gagné 16
▁soleil 16
▁pattes 16
▁voler 16
▁prix 16
▁Sinon 16
▁Vos 16
▁suivre 16
ho 16
▁mortes 16
▁apprendre 16
▁lequel 16
▁1000 16
▁venait 16
▁donnent 16
▁préfèrent 16
▁énorme 15
▁facile 15
▁rendent 15
▁détruit 15
▁000 15
▁parents 15
▁impossible 15
▁prêt 15
▁importante 15
▁nature 15
▁arrière 15
▁penses 15
▁pourriez 15
▁Sa 15
▁Moi 15
▁plusieurs 15
école 15
▁sombre 15
▁retour 15
▁manque 15
▁rend 15
▁paraît 15
▁seuls 15
▁restera 15
aider 15
▁h 15
▁connaître 15
▁compris 15
années 15
types 15
▁pourra 15
▁choisi 15
▁bons 15
▁trucs 15
▁arrêter 15
▁Leur 15
dessus 15
▁secret 15
▁tenir 15
▁regardé 15
▁appris 15
▁chercher 15
▁frère 15
▁devenue 15
▁commencent 15
▁Sont 15
▁humains 15
▁tiré 15
▁lisent 15
▁continue 15
▁armes 15
▁long 15
▁victimes 15
▁semaine 15
▁e 15
▁devons 14
▁musique 14
▁foi 14
▁Notre 14
▁bébé 14
▁danger 14
▁menace 14
▁autorité 14
▁morte 14
▁aide 14
mère 14
▁protéger 14
▁contact 14
▁Lorsque 14
▁cours 14
▁N 14
ma 14
▁groupe 14
▁or 14
▁semaines 14
▁devez 14
entre 14
▁capable 14
▁1 14
▁année 14
▁affaire 14
▁ordonne 14
▁sujet 14
▁important 14
▁Sur 14
▁Sauf 14
▁bus 14
▁seules 14
▁tuent 14
▁repérer 14
▁terroristes 14
▁loi 14
idée 14
▁fallait 14
▁telle 14
▁partis 14
toi 14
espace 14
▁cherchent 14
▁fallu 14
▁envie 14
▁vivants 14
▁touche 14
▁Deux 14
▁bureau 14
▁pourtant 14
▁grosse 14
▁ciel 14
▁perdre 14
▁porter 14
▁prouver 14
▁fou 14
▁brûlé 14
▁éviter 14
appelle 14
importe 14
▁aurais 14
>' 14
▁paraissent 14
éviter 14
▁journal 14
▁milieu 14
qu 14
▁neuf 14
ge 14
▁tendue 14
▁effet 14
ces 14
▁tendues 14
▁sac 13
▁dangereux 13
▁mêmes 13
▁différents 13
▁but 13
▁coûte 13
cœur 13
▁société 13
▁propos 13
▁preuve 13
tête 13
", 13
coeur 13
arrête 13
▁contient 13
; 13
▁couleur 13
▁poids 13
aller 13
▁pièce 13
▁garder 13
▁esprit 13
▁minutes 13
▁belle 13
▁réalisé 13
aide 13
cerveau 13
▁montre 13
▁papa 13
▁trente 13
▁centimètres 13
▁changent 13
▁magnifiques 13
▁projet 13
▁simple 13
auraient 13
▁nez 13
▁ouverte 13
▁Toutes 13
▁tombent 13
▁feraient 13
▁voie 13
▁arrivés 13
▁grosses 13
▁peuple 13
▁présent 13
▁surface 13
▁rencontrer 13
▁ramener 13
▁rentrer 13
Z 13
▁Quoi 13
▁6 13
▁sortie 13
▁milliers 13
▁viendront 13
▁confiance 13
▁mariage 13
▁100 13
▁vraie 13
▁attaquent 13
▁vivant 13
▁hier 13
▁parfait 13
▁prêts 13
▁sert 13
▁mène 13
▁atteint 13
á 13
armes 13
▁photos 13
▁jolies 13
▁appelé 13
habitude 13
▁rapport 13
▁mot 13
▁fut 13
▁parlé 13
▁quotidien 13
▁quelle 13
▁cher 13
▁parties 13
▁amour 13
▁prête 13
L 13
▁pages 13
▁pousser 13
▁maladie 12
▁arrivera 12
armée 12
loi 12
▁manière 12
▁fermé 12
▁rapide 12
▁riche 12
▁pensaient 12
▁bout 12
▁bouge 12
système 12
▁salle 12
▁probablement 12
▁30 12
▁message 12
ordinateur 12
▁prochaine 12
▁tour 12
▁vent 12
▁étais 12
▁chaud 12
▁humaine 12
▁cul 12
arbre 12
▁Ainsi 12
▁représente 12
▁enfin 12
▁premier 12
▁téléphone 12
▁base 12
▁rue 12
▁bombe 12
▁ami 12
▁tient 12
▁écrit 12
▁permet 12
▁Aujourd 12
▁croit 12
▁chiens 12
▁frappe 12
▁Depuis 12
▁Chaque 12
▁libres 12
▁durant 12
▁liberté 12
▁glace 12
▁jeu 12
▁visage 12
arrive 12
▁cache 12
▁elles 12
▁vieille 12
▁état 12
▁Bon 12
▁environ 12
▁exemple 12
▁obtenir 12
▁vit 12
▁blanc 12
▁retrouver 12
▁servir 12
▁jouent 12
▁cinq 12
▁nulle 12
amies 12
▁battre 12
▁goût 12
sole 12
▁couverte 12
▁malin 12
▁lire 12
année 12
atmosphère 12
▁> 12
▁parie 12
▁journée 12
▁fassent 12
▁ré 12
▁joue 12
▁ressemblent 12
enfants 12
▁comprend 12
▁sorti 12
▁longue 12
▁Regardez 12
▁diront 12
▁roule 12
automne 12
▁ferait 12
▁publiée 12
▁bond 12
Tu 12
▁gant 12
▁débrouillés 12
▁soucieux 12
▁conflits 12
▁îles 12
▁capturés 12
† 12
Suspendez 12
▁coupez 12
▁changeraient 12
▁affecte 11
▁clé 11
▁Quel 11
▁choix 11
▁bruit 11
▁doux 11
▁publique 11
▁Dis 11
▁v 11
▁départ 11
allais 11
va 11
▁nouvelle 11
▁décidé 11
▁arrête 11
▁Son 11
▁signal 11
▁quantité 11
▁mur 11
▁construit 11
▁fenêtre 11
▁revenu 11
▁Selon 11
▁nerveux 11
▁Ensuite 11
J 11
▁sauver 11
▁six 11
-- 11
▁produit 11
▁verre 11
▁zone 11
fait 11
▁contraire 11
▁allé 11
▁puissant 11
▁sûre 11
▁meurtre 11
▁clair 11
arrêter 11
▁libre 11
▁conscience 11
▁reviennent 11
▁toucher 11
appartient 11
▁cesse 11
▁mots 11
▁crée 11
▁risque 11
▁tourne 11
▁machine 11
▁Ont 11
▁gaz 11
▁réussi 11
impression 11
▁bizarre 11
▁Pourtant 11
de 11
▁suppose 11
▁remonte 11
▁nord 11
▁détestent 11
▁devenu 11
ork 11
▁survivre 11
▁forte 11
▁devoir 11
▁adorent 11
▁meilleure 11
▁étant 11
▁cassée 11
▁récupérer 11
mères 11
▁fils 11
▁faits 11
cellules 11
▁difficile 11
▁compagnie 11
▁méritent 11
▁propriété 11
▁essaient 11
▁gagner 11
assurer 11
▁nourrir 11
▁aperçu 11
▁valent 11
▁menait 11
▁fac 11
or 11
ouvre 11
▁carte 11
▁moyen 11
boîte 11
▁suicide 11
▁mené 11
▁certes 11
▁apparences 11
▁chrétien 11
▁nage 11
▁associés 11
approchent 11
▁Malgré 11
▁représentera 11
▁volumes 11
▁600 11
▁refermée 11
▁mouche 11
imposent 11
▁tortures 11
sont 11
▁portes 10
▁nombre 10
▁rendez 10
▁quitte 10
▁lit 10
bébé 10
▁essayer 10
▁venue 10
avant 10
▁pouvais 10
▁étrange 10
▁immédiatement 10
▁faible 10
▁sonne 10
▁Ton 10
▁mérite 10
▁coffre 10
▁proche 10
▁Ah 10
ler 10
▁tueur 10
▁mémoire 10
humanité 10
▁mange 10
▁cassé 10
pays 10
▁devrais 10
▁touché 10
▁montré 10
▁disant 10
▁certainement 10
▁devienne 10
▁Cela 10
plan 10
▁retard 10
▁couper 10
▁euh 10
▁mari 10
▁chien 10
▁terrorisme 10
▁direction 10
ait 10
▁putain 10
▁continuer 10
▁noires 10
▁sale 10
▁restait 10
▁bonheur 10
▁viendra 10
▁films 10
▁source 10
▁justice 10
▁directement 10
▁rôle 10
▁table 10
▁prends 10
▁argent 10
ci 10
▁lettre 10
arrivent 10
▁faudrait 10
▁débarrasser 10
▁tort 10
Je 10
▁allez 10
▁télé 10
▁début 10
▁comprends 10
▁plaisir 10
créature 10
▁mangent 10
▁Dites 10
▁certain 10
▁choisissent 10
▁connaissaient 10
▁tourner 10
agit 10
▁nouvelles 10
photos 10
▁chaleur 10
▁voudront 10
▁écrasé 10
▁suivi 10
▁celle 10
erreur 10
▁avis 10
▁Là 10
▁ignore 10
▁venaient 10
▁12 10
▁disaient 10
▁traitement 10
▁bois 10
je 10
▁coups 10
▁colère 10
▁service 10
▁grandes 10
arme 10
▁fous 10
▁envoyé 10
▁faciles 10
▁appellent 10
▁200 10
▁réalisent 10
tats 10
▁crise 10
▁boivent 10
▁gardent 10
▁vêtements 10
▁achètent 10
lumière 10
▁appartenait 10
cette 10
▁renflouer 10
▁Peggotty 10
▁givre 10
▁oeil 10
▁également 9
▁labo 9
▁attend 9
Une 9
▁cherche 9
▁finit 9
▁traverser 9
▁métal 9
▁lorsque 9
▁accepter 9
truc 9
▁selon 9
▁étiez 9
ADN 9
▁Personne 9
▁enfant 9
▁recherche 9
▁commun 9
▁bateau 9
téléphone 9
▁faudra 9
▁numéro 9
▁boulot 9
▁pouvons 9
▁frappé 9
▁hors 9
▁devais 9
▁semblait 9
nom 9
▁droite 9
▁évident 9
appel 9
▁échoué 9
▁protège 9
sang 9
▁créé 9
▁trou 9
▁horrible 9
2 9
▁seins 9
▁aidé 9
▁mesure 9
▁15 9
▁amoureuses 9
art 9
▁ailleurs 9
▁conçu 9
▁9 9
▁balle 9
▁utilisent 9
▁coûté 9
origine 9
▁soin 9
▁sache 9
▁voitures 9
▁quitter 9
arrêtent 9
▁refusent 9
▁verra 9
effet 9
▁coupe 9
▁24 9
▁Très 9
▁beaux 9
▁servent 9
▁mourra 9
▁tombée 9
des 9
▁Peu 9
▁concerne 9
▁devenus 9
▁retourne 9
▁Ici 9
▁demandais 9
▁fleurs 9
▁jeté 9
▁laquelle 9
familles 9
▁comptent 9
▁apprend 9
▁animal 9
▁Certains 9
▁bougent 9
▁ha 9
▁efficace 9
▁cinéma 9
espoir 9
▁mètres 9
▁gardé 9
▁fermée 9
▁envoyer 9
▁vérifier 9
▁siècles 9
▁facilement 9
▁entendre 9
▁tombées 9
▁public 9
▁maman 9
▁rivière 9
▁monsieur 9
▁pierre 9
▁nécessaire 9
▁passée 9
▁Laisse 9
▁pourrais 9
▁iront 9
▁noms 9
▁"< 9
peuple 9
▁meilleures 9
▁r 9
ombre 9
▁voilà 9
▁sachant 9
▁meilleur 9
▁langue 9
époque 9
▁douce 9
▁nourriture 9
▁disais 9
▁recherches 9
▁construire 9
▁oublié 9
▁coule 9
musique 9
▁magnifique 9
▁dirige 9
▁explosent 9
▁plans 9
▁affaires 9
▁crime 9
▁caché 9
▁Voilà 9
b 9
▁montagne 9
▁entrent 9
▁Qui 9
▁Chez 9
▁vies 9
▁sauront 9
▁matière 9
▁ignorent 9
>'< 9
▁espèce 8
extérieur 8
▁ouvre 8
▁Seigneur 8
▁savons 8
▁processus 8
▁présente 8
ut 8
▁lait 8
▁assurer 8
▁Maman 8
guerre 8
▁soeur 8
▁avais 8
▁amoureux 8
avère 8
▁vivantes 8
▁capables 8
▁produire 8
âme 8
▁pluie 8
▁rappelle 8
▁vin 8
bateau 8
▁piste 8
temps 8
▁attaque 8
▁casse 8
( 8
▁allons 8
.< 8
▁mets 8
▁prévenir 8
▁époque 8
▁br 8
▁indique 8
▁santé 8
▁réparer 8
▁connu 8
▁vues 8
▁pue 8
▁fam 8
▁découvrir 8
pièce 8
▁lors 8
▁atteindre 8
▁passera 8
idées 8
▁serai 8
▁charge 8
▁sept 8
▁beauté 8
▁trouvait 8
▁totalement 8
▁poubelle 8
▁présence 8
▁pauvres 8
▁reçoivent 8
▁plaît 8
avenir 8
▁crimes 8
▁visible 8
▁différent 8
▁chaudes 8
âge 8
▁Ca 8
▁paraître 8
▁eh 8
▁Enfin 8
essaie 8
étend 8
▁soi 8
▁produisent 8
▁tas 8
univers 8
▁continuent 8
apprendre 8
▁regard 8
▁tire 8
mort 8
▁drôle 8
▁grandir 8
▁explosé 8
▁appeler 8
▁parfaite 8
▁cacher 8
▁mise 8
▁paient 8
▁redevenir 8
▁suffit 8
▁centre 8
▁défense 8
▁courant 8
▁pousse 8
photo 8
▁verront 8
▁abandonné 8
▁lieux 8
objet 8
▁signe 8
▁retirer 8
écoutent 8
▁déplacer 8
▁docteur 8
▁boire 8
▁joli 8
▁parfaitement 8
apprécient 8
▁voix 8
▁situation 8
▁appelle 8
▁remarquer 8
▁côtes 8
▁vaisseau 8
▁Désolé 8
▁payé 8
▁entier 8
▁nombreux 8
▁anglais 8
▁merveilleux 8
▁rapp 8
▁Jusqu 8
▁tels 8
nous 8
▁intérêt 8
▁juge 8
ise 8
▁pied 8
▁Faut 8
▁vécu 8
▁accident 8
▁relations 8
▁chanter 8
▁blanche 8
▁venues 8
▁mentent 8
▁riches 8
▁marque 8
▁nouveaux 8
▁vampire 8
▁finir 8
▁jettent 8
▁arrivées 8
▁dise 8
▁gauche 8
▁lune 8
mais 8
▁devront 8
lettre 8
▁contrat 8
▁40 8
Unis 8
▁tortue 8
▁âge 8
▁calme 8
▁respect 8
voix 8
▁utilisée 8
▁prendra 8
▁chances 8
▁plaisent 8
▁vol 8
▁craint 8
▁figure 8
d 8
▁généraux 8
Ces 7
aura 7
▁suivant 7
▁toit 7
▁produits 7
▁diffic 7
▁?" 7
▁revienne 7
entendre 7
▁mourront 7
▁provient 7
iser 7
virus 7
▁idées 7
▁nucléaire 7
▁lancé 7
train 7
faisait 7
▁vert 7
▁morceaux 7
▁écouté 7
▁tours 7
pleut 7
/ 7
▁voyons 7
agent 7
▁fonctionner 7
état 7
▁papier 7
▁Voir 7
▁deviendra 7
▁arrêt 7
▁km 7
▁pointe 7
▁sud 7
▁solide 7
▁60 7
▁dirai 7
▁destruction 7
▁chérie 7
▁fumée 7
▁sexe 7
▁refusé 7
▁-- 7
problème 7
▁Quelque 7
▁code 7
▁remarqué 7
▁chacun 7
▁folle 7
▁taille 7
▁Prenez 7
▁signifient 7
▁permis 7
mémoire 7
▁propres 7
▁battent 7
▁arme 7
▁500 7
▁dangereuse 7
▁suivent 7
clients 7
▁milliards 7
▁carrière 7
▁perte 7
▁repartent 7
▁répondent 7
▁prochain 7
▁paradis 7
▁souffrir 7
▁repos 7
▁lois 7
▁inventé 7
▁allés 7
▁vivante 7
▁avenir 7
▁aime 7
▁fer 7
ë 7
▁mangé 7
▁monté 7
▁Tes 7
▁cent 7
▁drapeau 7
▁contrôler 7
▁étoiles 7
▁population 7
▁finalement 7
▁unique 7
flics 7
▁erreur 7
▁parole 7
▁général 7
▁vole 7
▁culture 7
▁descendants 7
▁repas 7
▁raconte 7
aimaient 7
▁reviendra 7
▁Dr 7
▁pierres 7
▁pure 7
Américains 7
▁respectent 7
▁apprennent 7
▁putains 7
▁votent 7
▁incroyable 7
S 7
pierre 7
▁période 7
▁privée 7
▁ordre 7
▁existent 7
▁forts 7
main 7
▁faisant 7
▁vieillissent 7
▁comprendront 7
hof 7
▁ancêtres 7
▁ceci 7
▁jette 7
▁faute 7
▁trajectoire 7
étoiles 7
▁folles 7
▁trouveront 7
▁diable 7
▁biens 7
▁froide 7
▁tueront 7
▁drôles 7
▁image 7
▁rempli 7
▁â 7
▁cachent 7
▁noire 7
▁bat 7
▁poissons 7
▁gérer 7
▁semblant 7
▁arriveront 7
bombe 7
▁suit 7
▁entière 7
▁pleurent 7
▁Lorsqu 7
▁sentiment 7
feu 7
▁emmené 7
▁dix 7
▁perd 7
▁précis 7
▁film 7
▁écoutent 7
▁niveau 7
▁attention 7
▁racontent 7
0 7
▁éteinte 7
▁fête 7
▁connaissez 7
▁faibles 7
copines 7
▁Du 7
▁rencontre 7
▁animaux 7
opération 7
avec 7
▁Voyez 7
▁réveillent 7
▁dents 7
▁voudraient 7
 7
▁raconter 7
▁moindre 7
▁lac 7
auront 7
Un 7
▁monter 7
▁attrapé 7
mains 7
▁jolie 7
▁ordres 7
X 7
▁puissance 7
suffit 7
▁lendemain 7
▁micro 7
▁Paul 7
▁Tant 7
▁Grâce 7
▁arrêtée 7
▁supporter 7
▁religion 7
▁portait 7
▁mères 7
peau 7
▁prêtes 7
▁fichent 7
situation 7
▁vitesse 7
▁lourd 7
histoires 7
chaussures 7
▁fortes 7
▁sembler 7
▁forêt 7
▁pétrole 7
crise 7
▁contiennent 7
▁trous 7
▁avance 7
▁amies 7
▁14 7
▁chemise 7
▁monte 7
▁enfer 7
▁sois 7
▁mener 7
▁moyenne 7
▁commencer 7
▁souffle 7
▁preuves 7
▁écouter 7
tortue 7
{\ 7
▁bu 7
▁vieilles 7
▁cheval 7
ignorais 7
Cette 7
▁<< 7
▁hoff 7
monographie 7
▁égal 6
▁laissez 6
▁vôtre 6
▁prenait 6
▁ira 6
▁Merci 6
bague 6
attendre 6
▁raisons 6
▁reconnaître 6
▁Papa 6
▁job 6
bureau 6
▁dévorer 6
rapport 6
▁déclenché 6
se 6
visage 6
▁souffert 6
▁quartier 6
▁chat 6
odeur 6
▁coupé 6
▁programme 6
▁Vu 6
▁privé 6
attention 6
isé 6
os 6
imagine 6
▁prenne 6
▁ok 6
▁monstre 6
A 6
N 6
▁jure 6
hier 6
▁jambes 6
▁convient 6
an 6
▁atteindra 6
▁soudain 6
▁camp 6
▁utile 6
appartement 6
▁honnête 6
▁douleur 6
▁premières 6
existence 6
▁clairement 6
appare 6
▁Sais 6
▁vierge 6
lage 6
▁vis 6
▁bizarres 6
▁lève 6
▁camion 6
▁déterminer 6
ieu 6
▁stupides 6
▁poussé 6
▁centaines 6
▁répondre 6
▁pouvoirs 6
▁détecter 6
▁Jésus 6
immeuble 6
▁Mme 6
▁sauvé 6
▁connaît 6
▁systèmes 6
▁tranquille 6
▁péché 6
▁réfléchir 6
▁couche 6
▁Jamais 6
expérience 6
▁poitrine 6
existait 6
▁rêve 6
animaux 6
▁bête 6
▁marient 6
▁visite 6
▁panne 6
▁jalouses 6
▁contenait 6
▁pleurer 6
▁correspondent 6
▁bite 6
▁importants 6
▁chef 6
▁surprise 6
▁chaude 6
▁France 6
▁cour 6
▁symbole 6
▁contenir 6
▁dépend 6
▁traitent 6
▁entend 6
employés 6
animal 6
▁dernières 6
▁malades 6
▁tissu 6
balles 6
▁frapper 6
▁américains 6
▁extraordinaire 6
▁plage 6
▁traversé 6
▁promis 6
▁grave 6
▁flotte 6
▁terrible 6
▁dirais 6
lon 6
▁malgré 6
▁liens 6
▁coin 6
enfant 6
▁idiot 6
▁envoie 6
▁bouger 6
▁développe 6
▁tirent 6
▁atterri 6
▁quitté 6
▁baiser 6
▁lever 6
▁trouvaient 6
▁sauter 6
bâtiment 6
▁intelligents 6
▁forces 6
▁belles 6
▁reçu 6
▁pareil 6
▁vérifié 6
▁méchants 6
attendaient 6
▁forcé 6
▁champ 6
▁exploser 6
semblerait 6
▁cheveux 6
statue 6
▁lourde 6
▁cuisine 6
mecs 6
▁Savez 6
▁serais 6
▁oreilles 6
▁Christ 6
▁contents 6
inquiète 6
▁fraîche 6
▁tendance 6
▁solaire 6
▁air 6
▁êtres 6
▁plastique 6
aéroport 6
soldats 6
▁Juste 6
▁condition 6
▁tiennent 6
▁couler 6
▁découvrent 6
▁ayant 6
▁civilisation 6
▁Seulement 6
▁terroriste 6
▁soirée 6
ouest 6
▁regardait 6
lois 6
▁désir 6
▁sec 6
▁couvrir 6
▁moments 6
lé 6
▁américain 6
étoile 6
▁race 6
âmes 6
▁physique 6
▁informations 6
▁conduire 6
▁retrouvent 6
▁scène 6
▁capitaine 6
▁mariés 6
▁disparaîtra 6
▁colle 6
▁lu 6
▁due 6
serait 6
▁verte 6
▁déteste 6
▁souvenir 6
▁Beaucoup 6
▁rencontrent 6
▁explosera 6
▁brillent 6
▁faite 6
▁honte 6
autorités 6
▁réglé 6
▁mille 6
▁difficultés 6
▁choisir 6
▁os 6
▁cessé 6
▁champs 6
C 6
▁côte 6
▁couvert 6
▁brûler 6
▁souhaitent 6
▁fraîches 6
▁disons 6
▁nation 6
▁Aux 6
▁oh 6
▁ressembler 6
▁puisqu 6
▁dieux 6
▁bleue 6
▁blancs 6
▁offre 6
▁parfaites 6
▁agit 6
▁règles 6
▁sympa 6
chanson 6
▁conserve 6
enfer 6
▁gravité 6
▁bière 6
tempête 6
solution 6
▁chair 6
▁risques 6
▁300 6
▁balles 6
▁Se 6
écoute 6
▁proches 6
▁attaquer 6
▁voudra 6
▁moyens 6
▁danser 6
femme 6
▁enlevé 6
▁intelligentes 6
▁perdue 6
oiseau 6
́ 6
nt 6
entends 6
▁pur 6
▁décide 6
université 6
▁communauté 6
▁queue 6
île 6
bête 6
▁profondément 6
▁jeter 6
▁agir 6
▁Malheureusement 6
▁données 6
▁ouvrir 6
▁peinture 6
affaire 6
avions 6
▁lien 6
▁réalité 6
radio 6
glace 6
▁spécifique 6
▁23 6
▁poisson 6
ligne 6
▁vouloir 6
▁frères 6
▁prisonniers 6
▁familles 6
▁lentement 6
▁démons 6
▁rayon 6
journal 6
▁mûres 6
♫ 6
▁bêtes 6
▁cité 6
▁machines 6
‚ 6
▁dormir 6
\ 6
▁lueur 6
Napoléon 6
▁perds 5
▁chimiques 5
▁prier 5
▁ADN 5
▁mensonges 5
▁fric 5
▁descendent 5
arrière 5
▁guide 5
▁poser 5
▁président 5
ité 5
vache 5
▁seconde 5
sac 5
▁minuit 5
▁morceau 5
▁pensait 5
app 5
actions 5
▁menti 5
▁oiseau 5
▁résolu 5
▁pose 5
▁liquide 5
▁mission 5
▁moteur 5
▁site 5
▁virus 5
▁fonde 5
▁invisible 5
envoyer 5
▁détruira 5
▁bal 5
semble 5
▁correspond 5
▁test 5
▁transforme 5
▁criminel 5
▁prouve 5
▁traité 5
▁stopper 5
▁poursuivre 5
avance 5
▁malade 5
▁régler 5
▁drogue 5
!" 5
instant 5
▁rire 5
▁bref 5
▁modèle 5
▁courage 5
activité 5
perte 5
trava 5
▁coincé 5
▁court 5
me 5
▁profit 5
▁serez 5
▁secondes 5
▁héros 5
▁nourrit 5
▁immense 5
▁coté 5
▁papiers 5
▁terrain 5
▁lignes 5
▁volent 5
▁succès 5
▁malheureux 5
aviez 5
▁réputation 5
scène 5
▁commandes 5
▁refroidisse 5
▁content 5
sociétés 5
▁propriétaire 5
décision 5
▁responsable 5
▁vaincu 5
▁contrôlent 5
▁jaune 5
▁devriez 5
▁Rome 5
▁vrais 5
▁prenaient 5
▁montagnes 5
▁grandit 5
▁Pourvu 5
▁sentiments 5
▁apparue 5
▁plante 5
▁maisons 5
▁village 5
▁remplissent 5
▁neuve 5
▁chaîne 5
▁frais 5
▁tombera 5
▁fenêtres 5
▁spectacle 5
▁mine 5
▁complexes 5
▁approche 5
▁terme 5
▁spécialement 5
▁cependant 5
▁cachés 5
▁marier 5
▁plat 5
▁devra 5
plantes 5
▁satellite 5
▁réseau 5
▁cancer 5
▁serre 5
▁pain 5
▁autrefois 5
▁risquent 5
▁retrouvée 5
▁bouteille 5
▁envahir 5
▁servira 5
▁donnait 5
▁apporté 5
douleur 5
▁neuves 5
▁blanches 5
▁réve 5
▁défendent 5
▁Saint 5
▁séparés 5
▁envers 5
garçons 5
▁sèche 5
▁fatigués 5
▁dorment 5
▁Porte 5
▁aimeraient 5
▁réussir 5
▁vampires 5
▁valait 5
▁lycée 5
▁perdent 5
▁Honneur 5
▁voulons 5
échant 5
▁fuite 5
appellent 5
▁secrets 5
ssent 5
▁cible 5
▁avions 5
▁libère 5
▁davantage 5
▁crâne 5
...< 5
▁maris 5
chansons 5
▁fanent 5
programme 5
▁suffisamment 5
▁couteau 5
▁chasse 5
▁vides 5
pour 5
explosion 5
▁officiers 5
▁collines 5
enfuir 5
▁casser 5
▁légende 5
▁Grand 5
▁neige 5
▁libérer 5
▁tôt 5
▁réponses 5
robe 5
▁cm 5
▁entrés 5
▁voici 5
▁honnêtes 5
▁personnel 5
▁permettra 5
▁guider 5
Angleterre 5
▁véritable 5
▁réaliser 5
▁précieux 5
▁degrés 5
▁malheureusement 5
▁aimer 5
▁refaire 5
▁minute 5
▁marchent 5
▁contente 5
▁carbone 5
▁apporter 5
▁semblaient 5
▁Toute 5
▁ressentent 5
▁habitent 5
▁interdit 5
▁expérience 5
écouter 5
▁Voyons 5
▁souffrent 5
empêcher 5
▁laver 5
imaginer 5
▁cool 5
▁censé 5
▁continuait 5
▁procès 5
▁cartes 5
▁sérieusement 5
▁coulait 5
▁Ecoute 5
▁besoins 5
▁tranquilles 5
▁célèbres 5
▁claire 5
▁principe 5
▁cassent 5
▁rues 5
▁accroché 5
▁verres 5
▁parlaient 5
▁sable 5
▁pénètre 5
▁fabriquer 5
utiliser 5
règles 5
▁soeurs 5
▁proies 5
▁...< 5
▁espérant 5
▁sales 5
▁équipe 5
▁resté 5
dedans 5
▁rêvent 5
▁coins 5
▁retrouvé 5
▁possèdent 5
▁naissance 5
▁taux 5
▁réponse 5
▁Chine 5
▁demi 5
▁empreintes 5
fleur 5
▁géniale 5
▁couvertes 5
▁poudre 5
▁joie 5
▁normales 5
▁créature 5
▁étrangers 5
▁suivante 5
▁fantôme 5
vêtements 5
attends 5
▁placée 5
▁volée 5
race 5
▁ferment 5
▁conséquences 5
▁Rien 5
▁répète 5
▁OK 5
▁Puisque 5
▁soldats 5
Quand 5
▁Aussi 5
ta 5
▁prise 5
▁enregistre 5
▁joué 5
▁nid 5
▁infos 5
▁violents 5
économie 5
▁Ta 5
▁danse 5
▁restes 5
▁envoient 5
▁remplacer 5
intérêt 5
▁Cependant 5
▁électrique 5
▁passés 5
▁bateaux 5
▁nul 5
▁déclaré 5
▁frontière 5
▁attendaient 5
▁souhaite 5
▁course 5
▁créent 5
▁survécu 5
▁chère 5
aimer 5
aient 5
▁retire 5
▁mienne 5
occupent 5
▁entrée 5
▁images 5
▁glissé 5
▁maintenir 5
▁vendent 5
▁acheter 5
▁politique 5
aujourd 5
▁garçon 5
▁vend 5
▁ferais 5
▁pleines 5
▁bloque 5
▁montrent 5
onde 5
▁trouves 5
▁rythme 5
▁café 5
▁américaine 5
▁11 5
▁Quant 5
▁Tandis 5
▁courir 5
▁immunitaire 5
▁400 5
▁baisse 5
▁occupées 5
▁bain 5
▁complexe 5
▁allée 5
▁liste 5
▁diamant 5
▁mènera 5
▁tenait 5
▁énergie 5
▁dîner 5
sol 5
▁graines 5
▁puissante 5
▁Laissez 5
attaque 5
▁arbres 5
▁pensées 5
▁pires 5
E 5
▁zéro 5
▁airs 5
▁différente 5
entrepôt 5
▁portaient 5
▁travaillaient 5
église 5
▁devenues 5
▁dangereuses 5
adresse 5
▁restées 5
signal 5
▁travaille 5
▁parlait 5
▁odeur 5
▁distance 5
queue 5
▁intérêts 5
enlever 5
▁Quelle 5
obscurité 5
▁vente 5
hiver 5
émotion 5
▁ff 5
▁aurons 5
▁découvre 5
audience 5
▁partager 5
▁classe 5
Ce 5
▁Attends 5
▁enlever 5
▁ressemblait 5
▁fonction 5
▁resteront 5
▁chute 5
▁merde 5
▁cherché 5
▁passées 5
▁tandis 5
▁avion 5
▁potentiel 5
▁ba 5
)} 5
serpent 5
▁Ses 5
▁descendre 5
▁studio 5
▁environnement 5
méthodes 5
relation 5
▁réellement 5
▁doigt 5
▁____ 5
▁signifiait 5
▁dégage 5
▁théorie 5
▁disparaissent 5
▁concert 5
▁prenant 5
▁ordinaires 5
▁couchent 5
▁o 5
▁craignent 5
empêche 5
intéressent 5
▁Va 5
▁bijoux 5
policiers 5
mon 5
▁sucre 5
▁radio 5
▁___ 5
cet 5
restait 5
▁fichu 4
▁relais 4
▁comportement 4
véhicule 4
▁résiste 4
▁répandre 4
langue 4
▁gorge 4
▁décider 4
▁tester 4
▁couronne 4
▁palais 4
▁Miss 4
▁rideau 4
▁évidente 4
▁gentille 4
police 4
▁disponible 4
▁Charlie 4
▁attraper 4
tableau 4
▁futur 4
▁lancer 4
entreprise 4
▁soigner 4
▁maire 4
▁circonstances 4
▁département 4
▁démarre 4
▁briser 4
▁remède 4
▁entièrement 4
▁probable 4
▁disparition 4
démon 4
marin 4
▁fonctionné 4
sort 4
chat 4
▁manquer 4
▁bouché 4
avion 4
mur 4
▁enregistré 4
▁parc 4
▁garage 4
▁résisté 4
▁répondu 4
portable 4
▁disque 4
) 4
▁conse 4
▁objets 4
▁automatiquement 4
▁Essayer 4
▁marchait 4
▁racine 4
▁signé 4
▁16 4
▁hein 4
▁Monsieur 4
▁désolé 4
cheval 4
▁pensions 4
▁mien 4
▁emploi 4
▁respirer 4
▁glisse 4
▁expliquer 4
▁obtient 4
▁portable 4
▁nouvel 4
▁apporte 4
auto 4
▁développer 4
▁règne 4
hôpital 4
▁choc 4
▁Mr 4
▁premiers 4
▁reconnu 4
▁terminée 4
monstre 4
▁voyager 4
▁vendu 4
▁double 4
delà 4
▁rouler 4
▁franchement 4
▁télévision 4
▁retourner 4
▁efforts 4
ton 4
▁traiter 4
▁exprimer 4
▁regardez 4
▁fantastique 4
▁guérit 4
▁lente 4
lien 4
▁importance 4
▁brèche 4
▁permanente 4
tat 4
▁faisais 4
▁mouvement 4
▁prie 4
▁magasin 4
▁Techniquement 4
Et 4
▁attendu 4
▁programmer 4
▁discours 4
▁façons 4
▁logique 4
▁sûrs 4
▁richesse 4
avons 4
▁dessous 4
▁apparaît 4
▁jambe 4
aimais 4
▁vague 4
▁aimé 4
▁meurs 4
▁vertes 4
lir 4
▁tracer 4
▁fierté 4
banque 4
▁faillite 4
▁vapeur 4
▁chacune 4
▁ignoraient 4
▁survivants 4
étudiants 4
▁laide 4
▁couleurs 4
▁secteur 4
▁dingue 4
▁pression 4
▁tuée 4
▁répand 4
▁furent 4
▁Impossible 4
technologie 4
▁élément 4
▁explosion 4
▁sexuels 4
▁instant 4
▁normal 4
▁spécial 4
▁inverse 4
▁chimique 4
aux 4
▁oû 4
▁fichier 4
▁pièces 4
▁saison 4
▁bleu 4
frères 4
▁écoute 4
▁anciens 4
▁aimaient 4
▁libéré 4
▁rêves 4
▁fuir 4
projet 4
▁trouvés 4
▁travaillé 4
▁station 4
▁miel 4
verre 4
▁coincée 4
▁date 4
▁fusée 4
fille 4
opinion 4
Europe 4
▁No 4
▁Heureusement 4
▁décision 4
▁Brésil 4
▁sentait 4
▁transformé 4
ordre 4
▁V 4
apprennent 4
▁éteint 4
neige 4
▁quittent 4
▁hasard 4
chiens 4
▁grandissent 4
▁sperme 4
▁jeux 4
▁off 4
▁battus 4
▁laissant 4
▁çà 4
▁fruits 4
étrangers 4
▁gardien 4
ouvrir 4
▁démocratie 4
planète 4
▁compréhension 4
aliens 4
▁rendront 4
▁cri 4
vaisseau 4
▁mouvements 4
▁front 4
▁information 4
accusation 4
▁testé 4
▁John 4
▁pistolet 4
▁Dominion 4
▁repéré 4
▁importantes 4
imagination 4
▁dignité 4
▁ouvrent 4
ailleurs 4
lignes 4
▁Mère 4
lettres 4
puce 4
▁Apparemment 4
▁existence 4
▁considéré 4
importance 4
▁risqué 4
▁détruise 4
drogue 4
▁Surtout 4
▁quels 4
▁croyait 4
boîtes 4
▁vain 4
▁huit 4
▁proviennent 4
▁Ie 4
▁B 4
▁zones 4
▁sauté 4
père 4
▁dort 4
▁courent 4
▁destiné 4
▁Disons 4
▁nôtres 4
adore 4
coutez 4
▁solitude 4
▁histoires 4
▁entraîner 4
▁recevoir 4
▁causer 4
▁français 4
▁Aucune 4
▁trouvera 4
▁regardais 4
▁utilisé 4
▁fermer 4
▁Néanmoins 4
▁dansent 4
▁Attendez 4
▁posent 4
▁restés 4
▁thé 4
▁amené 4
On 4
▁retrouve 4
▁apprécier 4
▁parvenir 4
▁parles 4
▁portée 4
image 4
▁mineurs 4
▁Peuvent 4
fleurs 4
▁génial 4
▁sérieux 4
▁sincèrement 4
▁baisent 4
▁soldat 4
▁comptait 4
▁confié 4
carte 4
▁responsables 4
▁ignorer 4
▁déplace 4
théorie 4
▁traite 4
▁obtiennent 4
▁simples 4
▁coucher 4
▁terminé 4
▁assassiné 4
membre 4
entreprises 4
▁tragédie 4
▁joues 4
▁filé 4
▁achète 4
▁crème 4
▁taire 4
▁lits 4
▁chaos 4
▁taxi 4
▁viande 4
▁pénis 4
▁foutaient 4
▁bol 4
▁température 4
▁portant 4
lune 4
▁journaux 4
▁gèle 4
▁pourrez 4
▁sortis 4
▁90 4
▁sortes 4
▁apportera 4
▁particulier 4
▁juré 4
▁abrités 4
▁explique 4
▁survie 4
agir 4
▁découverte 4
▁gentil 4
équipage 4
acheter 4
▁réel 4
personnages 4
▁réagi 4
▁faveur 4
exploser 4
▁mourraient 4
▁pourrai 4
▁région 4
▁pantalon 4
▁générale 4
▁etait 4
▁écoutez 4
▁échappé 4
▁firent 4
▁parlera 4
▁renvoyer 4
▁durerait 4
article 4
▁invasion 4
▁regardaient 4
..." 4
pierres 4
▁maintiennent 4
affection 4
allée 4
▁Paris 4
▁satisfaction 4
▁mince 4
▁questions 4
▁professionn 4
▁aspirent 4
▁risqueraient 4
▁termine 4
▁goûté 4
▁moteurs 4
▁prêtres 4
allaient 4
▁doigts 4
▁fonctionnent 4
▁vendredi 4
▁suggère 4
etre 4
▁retraite 4
▁pom 4
pom 4
▁tyrannie 4
navette 4
▁résistance 4
▁particulière 4
▁absolument 4
▁tristes 4
écart 4
▁crains 4
compagnie 4
▁identique 4
▁fa 4
accepte 4
▁technologie 4
▁quant 4
▁orange 4
▁Prends 4
éteint 4
▁soviétique 4
▁entendaient 4
▁large 4
▁âgés 4
▁bataille 4
▁II 4
▁masque 4
▁renforcer 4
▁viendrait 4
▁protection 4
piste 4
▁gants 4
▁accès 4
▁Peter 4
▁créatures 4
arrêtera 4
▁ca 4
▁cadeau 4
ceinture 4
▁ouverts 4
▁Vont 4
▁Valhalla 4
▁silence 4
▁restée 4
▁disparaisse 4
▁malheureuses 4
▁espoir 4
▁vus 4
▁remarquable 4
▁traversent 4
▁entré 4
▁vaisseaux 4
▁Soit 4
▁cadavre 4
▁remettent 4
▁combattre 4
▁poussière 4
▁préfère 4
▁bavards 4
▁pause 4
mot 4
▁dessins 4
▁rangée 4
▁usées 4
▁commande 4
▁tonnes 4
▁Leurs 4
attendent 4
▁opinion 4
caméra 4
▁Al 4
▁élevé 4
▁entrera 4
▁humaines 4
▁doucement 4
▁décident 4
▁crache 4
▁flot 4
▁continué 4
▁banques 4
▁lavé 4
▁nuages 4
▁cérémonie 4
▁sein 4
▁voisin 4
▁passage 4
▁montrera 4
▁Croyez 4
▁soyez 4
▁poche 4
▁voyait 4
▁chassent 4
poisson 4
▁authentique 4
▁renseignements 4
▁poste 4
▁nager 4
▁traverse 4
▁désert 4
arrivée 4
▁gay 4
▁commandé 4
▁reviendront 4
▁recommencer 4
Afrique 4
▁survivent 4
▁médecin 4
▁conduit 4
menaces 4
avantage 4
ancien 4
unique 4
▁larmes 4
▁grandi 4
▁accord 4
▁mystère 4
▁habits 4
* 4
▁raté 4
▁moquent 4
amuser 4
▁disparues 4
portes 4
▁prenez 4
▁engendre 4
▁conduite 4
banques 4
▁services 4
▁sors 4
▁position 4
▁internet 4
▁essaye 4
▁Sam 4
▁photo 4
▁tissus 4
▁sèches 4
▁superbes 4
▁aillent 4
▁fans 4
▁po 4
▁repose 4
▁spirituelle 4
alcool 4
abeille 4
▁possède 4
▁pétales 4
chambre 4
▁utilise 4
▁géant 4
▁quelquefois 4
pièces 4
▁relation 4
▁brise 4
▁possession 4
nation 4
soeurs 4
▁reviendrait 4
vaches 4
▁client 4
▁triplé 4
▁identiques 4
▁méritait 4
oeil 4
leurs 4
▁robe 4
▁courte 4
▁chers 4
▁fausse 4
▁Puisqu 4
information 4
▁étions 4
▁glandes 4
▁sauriez 4
morceau 4
▁mecs 4
▁représentent 4
▁gr 4
▁donnera 4
▁continuera 4
▁assure 4
essence 4
▁retiré 4
médicament 4
▁ennemis 4
▁fiche 4
▁refuge 4
▁laqu 4
▁propage 4
▁Madame 4
lions 4
▁assiette 4
▁Euh 4
▁paie 4
affaires 4
▁eau 4
▁servi 4
▁extrêmement 4
parties 4
▁tape 4
▁estomac 4
▁debout 4
échapper 4
▁Ni 4
▁quiconque 4
▁totale 4
▁bébés 4
▁offrir 4
▁jungle 4
T 4
▁permettant 4
numéro 4
▁Japonais 4
êtes 4
▁__ 4
▁retourneront 4
▁vienne 4
▁pleins 4
oxygène 4
▁Demandez 4
▁personnalité 4
# 4
▁présentent 4
▁fonctionnait 4
pos 4
▁jury 4
▁attendant 4
▁mordre 4
poupée 4
▁laisseront 4
électricité 4
° 4
▁généralement 4
aident 4
action 4
▁diraient 4
▁chantaient 4
▁réserve 4
▁essentiel 4
endorment 4
si 4
▁vivait 4
occuper 4
▁raconté 4
▁colonies 4
▁croise 4
▁violence 4
▁touchent 4
terre 4
▁__< 4
Qu 4
▁créée 4
▁pédoph 4
▁profond 4
▁sortaient 4
▁tenter 4
▁sortira 4
▁verras 4
▁menacent 4
▁fût 4
encre 4
▁bouton 4
▁morgue 4
▁tracé 4
▁impliquant 4
▁parlez 4
▁génie 4
▁Japon 4
arrivera 4
▁lavage 4
rivière 4
Italie 4
▁déchire 4
blessure 4
▁salon 4
▁discuter 4
▁remonter 4
▁cœurs 4
▁techniquement 4
▁tirée 4
émission 4
▁patient 4
▁générer 4
▁défaut 4
Tout 4
▁composé 4
Vos 4
▁conduisent 4
▁paysans 4
▁fus 4
▁jouait 4
intention 4
▁sel 4
▁science 4
tous 4
▁mettront 4
▁ailes 4
▁stade 4
▁esprits 4
▁Imagine 4
▁semblé 4
▁Hé 4
▁génération 4
▁armés 4
▁voyaient 4
"... 4
▁roi 4
▁syndicat 4
▁ventre 4
▁vote 4
▁monographie 4
attaquent 4
>> 4
Ma 4
lueur 4
vampire 4
mes 4
▁_____ 4
▁emporté 3
▁Norman 3
intéresse 3
▁remettra 3
▁routes 3
que 3
▁sienne 3
▁dira 3
▁exprès 3
▁absence 3
▁extérieur 3
▁chéries 3
▁désire 3
▁espérez 3
▁tasse 3
bouteille 3
écriture 3
▁négatif 3
▁programmes 3
▁arrivait 3
▁adresse 3
▁échoue 3
▁fermera 3
▁circuit 3
▁séparation 3
▁donnant 3
▁blessé 3
▁drogué 3
▁Tom 3
▁expliquerait 3
▁falloir 3
▁synthèse 3
▁Kevin 3
▁dégâts 3
▁cadeaux 3
▁financier 3
▁ancien 3
▁prédire 3
▁méchant 3
▁K 3
▁encourage 3
▁cliente 3
pain 3
▁boulanger 3
▁éclatent 3
▁avéré 3
▁Ok 3
▁différence 3
▁imite 3
▁printemps 3
▁cousine 3
▁piqué 3
▁carburant 3
▁Anton 3
▁logiciel 3
▁sécrète 3
▁pleure 3
▁propriétés 3
▁formé 3
▁retombe 3
▁certaine 3
▁attire 3
▁posé 3
▁central 3
▁derniers 3
▁diminuer 3
▁k 3
bus 3
▁masqué 3
▁sonner 3
blague 3
▁hard 3
soit 3
▁compagnon 3
pourrait 3
▁devrons 3
▁arraché 3
contrat 3
▁légal 3
▁croître 3
G 3
traitement 3
▁surprend 3
▁abîmé 3
▁provenait 3
unité 3
vent 3
▁collé 3
▁chanson 3
▁déta 3
▁diplôme 3
▁inévitable 3
▁auto 3
▁cardiaque 3
▁devint 3
Orient 3
▁récent 3
▁confirme 3
▁géante 3
▁Manhattan 3
aucune 3
dossier 3
▁effacé 3
▁O 3
▁appel 3
▁garantir 3
▁descende 3
▁vôtres 3
▁provoquer 3
▁i 3
▁F 3
essayer 3
▁obtenu 3
▁flammes 3
▁Théoriquement 3
▁absorbé 3
vaut 3
petit 3
▁prochains 3
chèque 3
▁déclaration 3
▁tir 3
▁espérer 3
▁serveurs 3
▁saisir 3
▁indétectable 3
▁reprendre 3
▁motivation 3
▁taper 3
▁jaloux 3
▁prétendent 3
▁poursuivi 3
réponse 3
bêtes 3
▁localiser 3
▁défie 3
partie 3
▁triste 3
▁disponibles 3
▁spéciale 3
essaye 3
▁conduits 3
▁prospère 3
acte 3
▁tranqu 3
▁équipes 3
▁19 3
▁revenaient 3
croyances 3
Empire 3
▁laissera 3
▁Riker 3
▁tourné 3
▁résistants 3
▁jouais 3
échange 3
▁mystérieusement 3
▁eaux 3
▁réserves 3
▁reposent 3
▁verts 3
▁mers 3
humains 3
▁balance 3
▁marre 3
▁sauvage 3
attendais 3
▁surveiller 3
▁ruche 3
morts 3
▁pourrions 3
▁implique 3
▁pratique 3
▁enseigner 3
conscience 3
nations 3
colère 3
▁étage 3
▁ferai 3
▁conseil 3
▁Reste 3
▁prendront 3
▁étranges 3
▁durs 3
oreille 3
▁oncle 3
▁pacte 3
honneur 3
▁recherchent 3
maladie 3
produit 3
▁maîtres 3
▁connus 3
▁prestigieux 3
expression 3
occupation 3
▁créativité 3
▁policier 3
▁imagination 3
▁espèrent 3
▁The 3
▁Broadway 3
embrassent 3
▁Ben 3
emmener 3
▁fantasmes 3
▁parleraient 3
▁plu 3
▁organismes 3
▁meurtres 3
▁voisins 3
▁royale 3
▁vivaient 3
▁Roi 3
adorent 3
▁anges 3
▁Italie 3
▁vaste 3
▁céleste 3
▁menacés 3
▁atteigne 3
▁demandait 3
▁coulé 3
adieu 3
▁champagne 3
▁ennuis 3
inspecteur 3
▁tués 3
▁instable 3
▁sachent 3
▁refuse 3
ours 3
▁réalise 3
▁impeccable 3
attaquer 3
▁bâtiment 3
▁signale 3
▁poignée 3
▁apparemment 3
▁cherchaient 3
allait 3
▁approchait 3
▁éloigner 3
▁communistes 3
▁générations 3
▁critique 3
▁voyagent 3
▁sagesse 3
▁bloc 3
▁remplir 3
envoie 3
▁refuser 3
▁occupé 3
▁usines 3
▁gris 3
O 3
▁dispose 3
▁Ray 3
▁tues 3
ennui 3
▁racontait 3
é 3
▁donnez 3
▁ministère 3
▁Internet 3
▁rapports 3
tragédie 3
▁attaqué 3
▁croyances 3
▁détecteurs 3
▁procure 3
criminels 3
▁vulnérables 3
prostituées 3
▁terreur 3
sous 3
▁heurte 3
▁propager 3
▁Quelques 3
agisse 3
▁trace 3
▁souffrance 3
▁profondeur 3
œil 3
▁mondiale 3
▁survit 3
▁saurais 3
▁combat 3
▁désespoir 3
▁poursuivra 3
▁gosses 3
miroir 3
▁Mike 3
▁!" 3
▁comptes 3
▁avale 3
▁entrées 3
▁durée 3
▁étoile 3
▁troupes 3
admire 3
▁Tony 3
▁braves 3
▁rarement 3
▁mènent 3
▁comportent 3
▁enterre 3
▁sensibles 3
▁vortex 3
▁Bajorans 3
▁habitants 3
ose 3
bactérie 3
▁variété 3
▁puissions 3
▁Berlin 3
▁indiquant 3
▁avancé 3
▁porterait 3
▁toilettes 3
▁rentrés 3
appelait 3
▁remet 3
▁mettaient 3
▁rompu 3
▁barbecue 3
▁cordes 3
▁préparé 3
▁Juifs 3
famille 3
▁foutent 3
▁paieront 3
▁réparation 3
▁cachette 3
0, 3
▁populaire 3
▁parking 3
▁menacé 3
ennuient 3
▁flamme 3
éteindre 3
▁angle 3
▁sexuel 3
▁résonne 3
▁scientifique 3
▁imposer 3
▁surpris 3
▁mourut 3
▁Presque 3
▁bêtises 3
▁fiers 3
▁approprié 3
▁tourments 3
estomac 3
▁commis 3
▁poulet 3
▁bande 3
▁monteront 3
▁auquel 3
▁piège 3
▁créés 3
▁délicieuses 3
▁savants 3
▁échange 3
▁terminera 3
▁roulé 3
▁déclare 3
▁condamné 3
cinéma 3
▁résistent 3
▁miennes 3
▁types 3
▁crédit 3
▁maximum 3
▁chouette 3
chemises 3
▁vitrine 3
▁conneries 3
▁Désolée 3
▁vache 3
▁brûlée 3
groupe 3
▁rock 3
▁liaison 3
▁tiens 3
▁entreprise 3
▁construite 3
▁treize 3
▁sucer 3
▁gouttes 3
▁verrai 3
▁voyant 3
fans 3
▁reggae 3
▁vérifie 3
▁chapeau 3
▁gent 3
,.. 3
▁..< 3
▁limites 3
▁tuyau 3
▁légèrement 3
▁Devine 3
▁lesquels 3
▁canon 3
▁provoqué 3
▁munitions 3
▁reproduisent 3
▁brisée 3
▁muté 3
▁existait 3
▁sauve 3
▁équipement 3
utilisent 3
▁accompli 3
▁nourris 3
▁Allons 3
▁charme 3
▁utiliser 3
▁souffler 3
▁devrions 3
▁diriger 3
▁tante 3
▁atomique 3
impact 3
▁Trouvez 3
▁Avez 3
▁prises 3
▁médias 3
important 3
▁colonnes 3
▁manteau 3
▁critiques 3
▁restaurant 3
▁partenaire 3
▁concentration 3
▁calmer 3
▁engendré 3
▁p 3
▁déclarer 3
▁allées 3
▁buvaient 3
▁né 3
▁gâteau 3
▁rapproche 3
▁isolé 3
▁secrètement 3
▁capacité 3
▁former 3
▁clarté 3
▁volonté 3
appartiens 3
▁whisky 3
▁gare 3
▁fâchent 3
mission 3
▁agents 3
▁Quels 3
problèmes 3
▁outre 3
administration 3
▁jetée 3
▁accepté 3
▁convaincre 3
▁kilomètre 3
▁accusés 3
▁racisme 3
▁libérés 3
▁rose 3
▁porté 3
journée 3
▁lave 3
▁pratiquement 3
▁cinquante 3
▁gonfle 3
▁Général 3
▁lumières 3
atteindre 3
▁scanner 3
▁capsule 3
▁chargée 3
▁imaginer 3
▁comprenons 3
Que 3
hôtel 3
▁mentir 3
▁agent 3
▁FBI 3
▁décrit 3
▁paraisse 3
▁deviez 3
▁fondre 3
▁attitudes 3
▁dauphins 3
▁chier 3
▁trésors 3
appelaient 3
▁mercredi 3
▁échangent 3
▁récits 3
▁robes 3
▁fruit 3
▁jouissent 3
▁fondent 3
▁kilos 3
▁Sera 3
souffrance 3
▁référence 3
▁symptômes 3
▁enceinte 3
▁habituellement 3
▁matériel 3
▁pêche 3
▁préoccuper 3
meurtre 3
trou 3
▁règle 3
enquête 3
▁épouse 3
Ã 3
putes 3
chiffre 3
li 3
▁rappellent 3
▁jupe 3
▁ordinateur 3
▁poil 3
▁construisent 3
▁longues 3
▁Washington 3
▁soutenir 3
▁nucléaires 3
▁trésor 3
routes 3
célébrités 3
▁assises 3
voleurs 3
▁saturé 3
▁autorités 3
▁bowling 3
▁Américains 3
▁défendre 3
▁intérieur 3
▁prient 3
inquiètent 3
▁Voici 3
docteurs 3
▁cellulaire 3
▁manquent 3
▁laissés 3
▁venez 3
Inde 3
▁taxis 3
lame 3
▁combattent 3
▁apportent 3
▁étudier 3
▁style 3
▁particules 3
▁0 3
usine 3
▁second 3
▁barrage 3
▁auparavant 3
▁baissé 3
▁médicale 3
▁innocentes 3
offrir 3
▁Vraiment 3
▁formidable 3
▁mettait 3
▁boîtes 3
▁espèces 3
▁calibre 3
▁sorcière 3
Oui 3
▁oublieront 3
vision 3
patients 3
▁rencontré 3
▁muscles 3
▁réunion 3
▁tests 3
▁Thanksgiving 3
équipe 3
▁abri 3
▁venant 3
▁disparaître 3
étude 3
▁dossiers 3
▁ravis 3
▁intentions 3
▁copine 3
▁trouveraient 3
▁Dean 3
▁morale 3
fenêtre 3
▁pétrolières 3
Amérique 3
▁secrète 3
▁épreuves 3
▁collision 3
▁Trente 3
▁pitié 3
▁créées 3
▁surviennent 3
vers 3
▁réels 3
▁démolir 3
▁historiques 3
taient 3
images 3
▁coller 3
▁vingt 3
▁vaches 3
▁appelaient 3
▁El 3
▁récompense 3
▁voteront 3
▁pensant 3
▁voter 3
▁Mieux 3
▁signez 3
▁indices 3
▁Quelqu 3
▁dépensé 3
infection 3
▁prévisibles 3
▁plancher 3
▁métaux 3
▁mignon 3
▁digne 3
▁difficilement 3
▁remettre 3
Vous 3
▁coupable 3
▁conversation 3
cassette 3
▁dirigent 3
Pourquoi 3
▁siècle 3
patientes 3
▁messages 3
▁refusaient 3
▁haine 3
▁foule 3
▁cherchait 3
▁karma 3
yeux 3
▁pincer 3
▁caresser 3
▁fesses 3
▁resterait 3
▁frigo 3
▁mondes 3
▁capacités 3
▁coca 3
▁régime 3
▁écrite 3
▁maigres 3
énervent 3
▁veiller 3
▁tenu 3
▁supportent 3
▁sensible 3
▁puce 3
▁éclate 3
▁patron 3
▁éclair 3
▁Trois 3
▁réaction 3
admettre 3
▁bronze 3
▁rond 3
▁étudié 3
herbe 3
▁satisfaits 3
▁croyaient 3
▁grise 3
▁casino 3
▁Sud 3
▁librement 3
menace 3
▁troisième 3
▁presse 3
▁signification 3
expliquent 3
▁rencontrés 3
▁assassine 3
▁flic 3
▁marais 3
▁menacées 3
▁rende 3
livre 3
▁viennes 3
▁match 3
homosexualité 3
▁datent 3
accident 3
▁portefeu 3
▁religieuses 3
appliquer 3
▁trompent 3
▁solution 3
▁masques 3
▁miracles 3
▁tenté 3
envahir 3
▁quelconque 3
▁conférait 3
Irak 3
▁éventuellement 3
▁imaginent 3
▁développement 3
▁batterie 3
▁révèlent 3
▁feuilles 3
chats 3
abri 3
▁ferez 3
question 3
▁grossesse 3
▁pointes 3
▁courageux 3
▁Egypte 3
▁demanderont 3
▁connue 3
prix 3
▁émet 3
▁proximité 3
▁pareille 3
▁placard 3
▁amusantes 3
▁humide 3
▁arranger 3
▁confortables 3
série 3
▁adoré 3
▁commençaient 3
▁foie 3
▁valoir 3
▁promouvoir 3
>? 3
explique 3
▁plantes 3
aie 3
▁donnerait 3
▁génétiquement 3
équipes 3
▁souvenirs 3
▁réparée 3
▁Sous 3
▁miroir 3
appeler 3
▁pourras 3
▁sortiront 3
▁racheter 3
▁show 3
▁église 3
▁gentilles 3
▁émotions 3
▁points 3
analyse 3
▁calculer 3
étudiantes 3
▁Maria 3
▁celles 3
▁fleur 3
magie 3
▁out 3
ira 3
▁divines 3
▁soucis 3
ignorer 3
▁enceintes 3
▁cire 3
envoient 3
▁chialent 3
▁exc 3
nte 3
▁victoire 3
▁vagin 3
▁censées 3
bille 3
▁servaient 3
▁Bref 3
▁qualités 3
▁progrès 3
▁chasser 3
accès 3
exercice 3
▁Michael 3
▁patients 3
▁paroissiens 3
▁excités 3
▁séparent 3
mariage 3
▁modifie 3
▁nommé 3
▁foyer 3
▁donneraient 3
▁affreux 3
▁colonne 3
isait 3
▁casier 3
▁étendue 3
▁mettez 3
▁anticorps 3
▁paire 3
coute 3
▁poteau 3
▁genoux 3
▁Red 3
▁chambres 3
▁marteau 3
irai 3
▁empêcher 3
▁tâches 3
▁extraterrestres 3
etait 3
▁etre 3
▁tenues 3
cartes 3
▁Moyen 3
▁cents 3
▁séparer 3
▁chargé 3
▁Jack 3
▁couches 3
▁meilleurs 3
▁têtes 3
En 3
▁fixée 3
▁féminines 3
▁lettres 3
▁originale 3
▁attaché 3
▁âmes 3
▁étranger 3
▁positions 3
grenouille 3
▁plonge 3
▁saute 3
▁permettre 3
▁précisément 3
▁endroits 3
écrouler 3
lot 3
▁mordent 3
▁justement 3
▁finirait 3
▁liées 3
▁Père 3
▁connaissances 3
▁effort 3
▁fixement 3
info 3
▁boite 3
▁procureur 3
▁livres 3
▁blesser 3
▁côtés 3
▁mortel 3
▁intérieure 3
▁effectivement 3
gum 3
▁rendait 3
▁remplie 3
▁gras 3
▁minable 3
agence 3
▁récemment 3
▁crevé 3
▁sévère 3
▁unes 3
▁supprimer 3
▁kilomètres 3
▁rapprochent 3
occasion 3
Ton 3
jeu 3
▁Crois 3
▁avancer 3
▁ressources 3
▁fausses 3
▁devenait 3
▁Soleil 3
télé 3
▁pèse 3
▁consiste 3
▁froides 3
▁Durant 3
▁resta 3
apprécierais 3
ore 3
▁pleuvoir 3
▁correspondances 3
▁pères 3
exprimer 3
▁ennuyeux 3
▁reconnaissent 3
sœurs 3
▁apparu 3
▁publier 3
▁Mets 3
▁tienne 3
▁Mick 3
avocat 3
flèche 3
▁lâche 3
▁clinique 3
▁revenue 3
▁caca 3
organisme 3
entrée 3
▁proie 3
anneau 3
▁forcer 3
▁traces 3
▁prédateur 3
▁empêchait 3
▁organes 3
▁cellules 3
▁poussera 3
courant 3
▁favorable 3
▁commettre 3
▁gouverneur 3
▁telles 3
opportunité 3
▁loué 3
▁emmènent 3
▁pique 3
▁sage 3
▁intelligent 3
▁connaîtront 3
▁pureté 3
▁conditions 3
poules 3
▁sanctuaire 3
▁sortant 3
▁avocat 3
▁appelée 3
▁ve 3
▁déterminé 3
▁répéter 3
▁généreux 3
approcher 3
▁amie 3
iront 3
▁jusque 3
▁électronique 3
▁tente 3
▁fréquences 3
▁sauraient 3
▁naturel 3
▁tension 3
alarme 3
assurance 3
▁causé 3
▁financer 3
▁guerres 3
▁intéressant 3
▁réfléchissent 3
▁Etats 3
▁taisent 3
▁serve 3
▁confus 3
▁aviez 3
▁eue 3
taches 3
échappe 3
▁bonus 3
▁saine 3
vies 3
▁lesquelles 3
▁mordra 3
plante 3
▁gueule 3
▁sexy 3
▁reculer 3
▁magnétique 3
pouvoir 3
fils 3
▁puissantes 3
▁conclure 3
▁placé 3
▁dociles 3
▁installer 3
▁chinoises 3
▁thème 3
▁masse 3
▁million 3
▁couru 3
▁chaussures 3
▁membres 3
▁déplacent 3
acide 3
▁tremblent 3
▁finira 3
identité 3
pression 3
▁réussit 3
▁conservent 3
▁Anglais 3
▁prouvent 3
▁ordonné 3
▁systém 3
atiquement 3
▁tunnels 3
▁formes 3
mouche 3
▁attaqués 3
ondes 3
corde 3
fourmis 3
▁mariées 3
▁Encore 3
combinaison 3
hydrogène 3
créatures 3
▁détruites 3
▁rampe 3
▁intelligente 3
urgence 3
▁Hier 3
▁déroule 3
▁démarré 3
royaume 3
▁poison 3
▁auprès 3
bande 3
▁branche 3
maman 3
▁étern 3
▁chevaux 3
▁parleront 3
▁lèvres 3
▁suivis 3
▁prévoir 3
., 3
▁désespérément 3
▁résoudre 3
▁flotter 3
▁flics 3
▁navire 3
▁Puisse 3
▁plafond 3
▁Juge 3
▁affecté 3
▁congé 3
▁parte 3
▁haute 3
car 3
▁technique 3
▁touches 3
▁ressemblaient 3
▁rends 3
▁épaules 3
▁jugement 3
faire 3
▁grimper 3
autorité 3
collier 3
apparence 3
maisons 3
▁Nature 3
▁meure 3
▁duré 3
▁léger 3
▁île 3
▁communiquer 3
feuille 3
▁témoins 3
▁seras 3
▁retournent 3
▁flux 3
▁Nord 3
▁signature 3
▁maître 3
▁gagne 3
▁nappe 3
▁viens 3
▁glaciale 3
▁obéissent 3
▁senti 3
▁dossier 3
▁mensonge 3
▁paroles 3
▁admettre 3
▁Garde 3
B 3
▁social 3
▁Indiens 3
▁exact 3
▁choisit 3
▁fiable 3
▁fortune 3
▁page 3
▁terribles 3
▁billets 3
▁noyer 3
▁talons 3
▁mètre 3
▁Mo 3
▁chirurgien 3
▁charmantes 3
▁retenu 3
▁rapporté 3
4 3
▁Inde 3
autel 3
▁saurait 3
▁penseront 3
▁importait 3
▁inconnues 3
▁effondrée 3
▁cafard 3
▁sacrée 3
▁désirent 3
▁filer 3
musiciens 3
▁dieu 3
▁aideront 3
▁registre 3
▁réparations 3
▁fabriquent 3
▁nt 3
▁Demain 3
▁sœur 3
▁coque 3
atteindront 3
▁tremble 3
appelleront 3
▁responsabilité 3
▁tempête 3
▁accéléré 3
nos 3
▁___< 3
▁trait 3
▁hum 3
▁nourrissent 3
▁japonaises 3
Si 3
▁cercue 3
▁appartiennent 3
idiots 3
▁soufflait 3
▁demandant 3
▁patrons 3
▁donneront 3
▁crochet 3
▁correctement 3
rois 3
▁soirs 3
aube 3
▁transformer 3
▁Vérifiez 3
▁normale 3
ã 3
▁prostituées 3
▁convictions 3
▁mettra 3
▁confort 3
▁sonnent 3
▁q 3
▁donnaient 3
▁quitteront 3
personne 3
▁tableau 3
osent 3
▁Président 3
utilise 3
▁réparé 3
iI 3
▁Ies 3
jolies 3
ensemble 3
▁cruels 3
fs 3
cHFFFFFF 3
} 3
— 3
▁45 3
▁crient 3
▁dames 3
▁Sept 3
▁bals 3
▁orbite 3
▁fréquence 3
▁bleus 3
▁différemment 3
▁désastre 3
▁down 3
▁pond 3
▁direz 3
Mon 3
▁bec 3
▁rejettent 3
▁aveux 3
▁sorcières 3
▁_< 3
▁Napoléon 3
▁butin 2
▁lunettes 2
▁langues 2
▁Seront 2
▁claque 2
▁prions 2
▁noter 2
▁reconnaîtrais 2
▁éléments 2
érable 2
▁paies 2
▁vaudra 2
liers 2
▁canapé 2
▁focalisé 2
▁foudre 2
café 2
▁incapable 2
▁Colonel 2
▁droits 2
▁caméra 2
▁adieu 2
▁mardi 2
étranger 2
exploration 2
▁tien 2
▁vives 2
▁tomberait 2
▁emplois 2
▁régénérer 2
nourriture 2
▁indépendants 2
▁vendra 2
▁surchauffe 2
▁Première 2
▁monument 2
▁identifier 2
▁Procureur 2
▁endommagé 2
▁Arrête 2
▁comporter 2
▁25 2
▁résultats 2
▁stab 2
▁surcharge 2
▁noyau 2
▁mute 2
Peu 2
▁maléfique 2
grave 2
▁contacter 2
▁cabinet 2
▁tapez 2
▁préférez 2
▁chats 2
▁couloirs 2
▁.... 2
▁décent 2
▁rare 2
▁perfection 2
▁basket 2
▁symboles 2
▁Maître 2
vaccin 2
▁prof 2
détecteur 2
▁saleté 2
▁négligé 2
rituel 2
▁clou 2
moment 2
▁espéré 2
▁royal 2
▁dirigé 2
▁fameux 2
▁dissoudre 2
icône 2
▁moniteur 2
▁efficacement 2
▁pomme 2
▁cuite 2
▁fabrication 2
▁maintient 2
▁récession 2
remède 2
▁Défense 2
eu 2
▁36 2
▁stressé 2
▁drive 2
▁scolaire 2
▁Big 2
▁lance 2
▁cycle 2
▁Boy 2
D 2
▁déplacé 2
▁atterrit 2
▁innocente 2
▁cruel 2
élément 2
▁charger 2
▁Lang 2
▁signer 2
▁ordinateurs 2
▁volés 2
▁routeur 2
▁médical 2
▁dommages 2
▁déjeuner 2
▁bondit 2
▁Luke 2
ateur 2
▁empêche 2
▁connues 2
▁lumineux 2
▁plateau 2
amélioration 2
▁dénouement 2
▁ya 2
isez 2
▁détecté 2
▁calculé 2
▁mode 2
▁donnons 2
lusion 2
▁croyance 2
▁sauvée 2
▁devis 2
apporter 2
▁survive 2
▁South 2
▁divorce 2
horribles 2
▁mentionné 2
▁expire 2
▁Ham 2
▁profonde 2
comité 2
▁réduit 2
écoule 2
▁goutte 2
▁rentré 2
▁sueur 2
dispositif 2
▁événements 2
▁connexion 2
▁Californie 2
▁estime 2
▁difficulté 2
costume 2
▁manche 2
▁russe 2
▁Europe 2
Est 2
▁témoin 2
▁costume 2
▁rance 2
▁hauteur 2
▁immeuble 2
▁partait 2
▁Island 2
▁50, 2
papier 2
▁planté 2
▁Dennis 2
▁votant 2
▁bel 2
▁teste 2
▁fonctionnement 2
▁boutique 2
▁détestaient 2
▁Sue 2
▁témoigner 2
toile 2
cul 2
▁ange 2
exploitation 2
▁oeuvre 2
▁obscur 2
▁effectuer 2
▁trahison 2
▁arrestation 2
aurons 2
▁abandonner 2
▁sacrifice 2
futur 2
▁Dewey 2
lapin 2
▁attrapes 2
▁souci 2
▁écartent 2
▁nerveuse 2
vidéos 2
▁bravoure 2
▁provenance 2
▁voté 2
▁midi 2
▁sente 2
▁déchiré 2
▁repoussait 2
inspire 2
▁tiennes 2
▁stable 2
▁détruirai 2
▁demeure 2
▁intact 2
▁Ensemble 2
▁effondré 2
▁dénigrer 2
▁comportaient 2
▁impunément 2
▁gentillesse 2
▁dessiner 2
▁préféraient 2
▁brutes 2
▁contentent 2
▁nettoie 2
assiettes 2
▁disparut 2
▁observent 2
▁rassemblés 2
▁applaudir 2
▁caresse 2
embrasse 2
▁célèbre 2
▁ja 2
▁couchée 2
▁qualifiés 2
▁moque 2
▁cuit 2
▁jambon 2
▁total 2
▁hermétique 2
▁prirent 2
centrale 2
▁principale 2
▁offrent 2
▁ancienne 2
▁bénir 2
▁quitta 2
▁Concernant 2
▁sénateur 2
▁claqué 2
▁moniteurs 2
▁rendus 2
▁dispersées 2
▁Remplissez 2
pharmacie 2
▁24... 2
er 2
▁livré 2
▁nus 2
▁saints 2
▁municipal 2
médias 2
▁mesures 2
▁regardant 2
▁rides 2
▁lisse 2
▁pizza 2
approche 2
▁tentant 2
▁Cardassia 2
Enterprise 2
▁trouvées 2
bras 2
▁déchirée 2
analyser 2
▁identifiés 2
▁jazz 2
films 2
▁couvrait 2
film 2
▁inventée 2
▁allemande 2
▁stars 2
Hollywood 2
▁instruments 2
genre 2
▁Melody 2
▁1929 2
ouvriers 2
▁suspects 2
▁externe 2
▁érotiques 2
▁motos 2
▁Street 2
▁gardiens 2
▁destin 2
▁foutra 2
achève 2
▁producteur 2
▁craignaient 2
▁agissent 2
▁scénario 2
▁prévoyait 2
▁verrez 2
Dieu 2
▁frottent 2
▁dépendent 2
▁navigation 2
▁multiplie 2
▁poing 2
▁passeront 2
▁possédait 2
▁vêtues 2
▁climat 2
▁nobles 2
▁ramené 2
▁recrachent 2
▁grandis 2
▁don 2
▁sensé 2
océan 2
▁rapides 2
▁yacht 2
▁causeront 2
▁associé 2
▁bienvenus 2
ascenseur 2
▁peste 2
▁durera 2
▁vivra 2
▁sensation 2
▁Shinji 2
▁hôtel 2
▁revenait 2
rat 2
▁cris 2
▁cerf 2
▁entendent 2
▁invincible 2
▁constamment 2
chaussure 2
▁pont 2
▁percent 2
▁intrigué 2
▁pisser 2
▁propulse 2
arrêteront 2
▁deuil 2
pistolet 2
▁néanmoins 2
▁insistent 2
▁témoigne 2
▁Moro 2
▁pendre 2
▁piquer 2
avocats 2
sou 2
▁hais 2
emploi 2
▁ennemi 2
▁vital 2
rue 2
▁tournait 2
▁politiques 2
▁critères 2
▁informer 2
▁troupeau 2
▁avances 2
pénis 2
▁pull 2
résultat 2
essentiel 2
▁simulaient 2
▁ovaires 2
▁armure 2
▁protégeaient 2
▁Grande 2
▁Bretagne 2
▁bannis 2
▁esclaves 2
▁rapportent 2
▁puisque 2
2, 2
▁squelette 2
▁pourrir 2
▁proposé 2
▁reconstituer 2
▁reculé 2
▁prétend 2
▁ferons 2
▁mystérieuses 2
▁Babylon 2
▁impliqués 2
engageaient 2
▁musée 2
▁perdaient 2
apercevoir 2
▁patience 2
▁gêne 2
▁Wayne 2
tuerie 2
nez 2
▁resserre 2
▁griffent 2
▁finiront 2
▁amicaux 2
▁vexés 2
▁présentés 2
▁affectera 2
▁collée 2
▁remettait 2
▁truqué 2
▁débite 2
▁quadrant 2
▁inspire 2
▁solutions 2
▁traque 2
▁Ecoutez 2
médecine 2
bataille 2
sauvages 2
▁enlèvent 2
▁fourchette 2
▁Souvent 2
▁ramène 2
▁Allez 2
message 2
▁récoltent 2
▁hall 2
▁Raj 2
▁toxicologique 2
▁confirmera 2
▁convaincus 2
▁rétablir 2
anatomie 2
▁procédure 2
étende 2
▁diffusé 2
▁rebondit 2
▁lourdes 2
efforts 2
▁trachée 2
▁Iraniens 2
▁fascinant 2
▁renversé 2
▁diabète 2
▁joint 2
▁saviez 2
▁revenues 2
individus 2
rumeur 2
▁scellées 2
plus 2
▁ordinaire 2
▁Libérez 2
▁botter 2
▁appellera 2
▁Messieurs 2
▁capitale 2
▁furieux 2
▁cuisiné 2
▁grandeur 2
▁urbaine 2
▁déchirent 2
▁pis 2
cité 2
▁heureuse 2
▁tremblement 2
▁lancée 2
arbres 2
▁déborde 2
amènent 2
▁tromperie 2
▁scêne 2
écran 2
formule 2
émet 2
assaut 2
▁Allemagne 2
▁échouera 2
▁cruciale 2
▁faculté 2
▁séries 2
▁habillés 2
▁tiendront 2
▁bibliothèque 2
▁équipés 2
▁suggéré 2
▁terminait 2
▁soutien 2
gorge 2
▁gardes 2
▁luttant 2
écrasait 2
▁campagne 2
▁envoyée 2
▁empire 2
▁défier 2
▁enfermé 2
effort 2
▁renforts 2
▁définitive 2
▁offert 2
▁aperçus 2
▁futures 2
Prophètes 2
▁donnée 2
▁survenue 2
▁servis 2
▁déceler 2
▁allemand 2
▁Pologne 2
▁essence 2
▁ignorés 2
▁virginité 2
▁désiraient 2
▁dépassé 2
▁vendues 2
▁attendait 2
▁démolie 2
▁disiez 2
▁remise 2
▁paraissaient 2
▁arrivant 2
▁embardée 2
▁hamburgers 2
▁trompé 2
requins 2
▁défoncent 2
▁office 2
▁filet 2
▁chiffres 2
▁anniversaire 2
▁superbe 2
▁aveugles 2
▁comptaient 2
▁billet 2
▁enfoncé 2
▁demandaient 2
Sud 2
▁allemands 2
lapins 2
▁collent 2
▁gamin 2
▁chauffe 2
▁placer 2
▁fit 2
▁ticket 2
▁kidnappé 2
▁libérée 2
antidote 2
▁artifici 2
phrase 2
oseront 2
▁suffire 2
▁x 2
▁rayons 2
entretuent 2
imaginaient 2
▁chargées 2
▁obligés 2
▁fardeau 2
▁manœuvrer 2
extraterrestres 2
▁avantage 2
▁guère 2
▁tâche 2
▁sacrifié 2
▁exécuter 2
hyperespace 2
▁envoyés 2
résidents 2
▁nient 2
allégation 2
▁Mulder 2
▁mob 2
▁partage 2
▁astéro 2
▁vendront 2
▁assurés 2
suspects 2
▁coupables 2
▁monstres 2
▁endormie 2
▁résister 2
▁salut 2
américaines 2
▁fonçaient 2
▁sinistre 2
▁trouvais 2
adorer 2
existent 2
▁échanges 2
▁missiles 2
▁Cuba 2
▁suspendre 2
Histoire 2
▁juger 2
▁censée 2
▁sentez 2
▁demanderaient 2
cible 2
▁créatifs 2
▁permettrait 2
▁Ronald 2
▁campagnes 2
▁embarrasser 2
▁tord 2
▁pisse 2
▁employé 2
personnel 2
▁communication 2
▁hé 2
acteurs 2
▁incroyables 2
▁préparés 2
▁nettoyage 2
▁sautent 2
sentiments 2
▁insupportables 2
▁6000 2
lera 2
▁Mer 2
▁nagent 2
▁éto 2
▁maquillaient 2
▁jouaient 2
▁imitent 2
▁ras 2
▁considèrent 2
▁fourrure 2
inscription 2
▁attrapent 2
▁,.. 2
Sole 2
▁immob 2
▁courants 2
ennuyaient 2
▁empêché 2
▁ordonnée 2
▁levaient 2
▁chauffeur 2
prisonniers 2
▁reconnaissants 2
▁essayaient 2
▁partiront 2
▁humanité 2
▁mm 2
▁Forcément 2
▁tuerie 2
▁causent 2
insecte 2
▁défend 2
▁coûtait 2
accepter 2
▁soutient 2
▁U 2
▁refait 2
▁tableaux 2
▁éclairer 2
▁entiers 2
héritage 2
▁convaincu 2
▁démontre 2
▁laser 2
possible 2
▁République 2
▁essayent 2
▁repousser 2
démons 2
▁Jonathan 2
▁redevient 2
sorcières 2
autoroute 2
▁improbable 2
▁réagit 2
▁étonnantes 2
bagnole 2
▁arrives 2
▁clignoté 2
réfugiés 2
▁brouillard 2
▁chants 2
▁marqué 2
▁catalogue 2
▁Chérie 2
▁fières 2
▁introduit 2
▁Nathan 2
▁rient 2
Etat 2
▁remercie 2
▁dansé 2
nonnes 2
▁travaillant 2
▁Mary 2
▁virent 2
flammes 2
▁approcher 2
organisation 2
▁adultes 2
▁sexuelle 2
▁dissimuler 2
▁Etaient 2
▁venger 2
▁analyses 2
hôpitaux 2
▁appliquer 2
▁Monde 2
▁punir 2
▁explication 2
▁placées 2
▁soulager 2
inquiétude 2
▁légiste 2
▁Désormais 2
▁bruns 2
▁agi 2
▁dégager 2
▁dormi 2
▁sujets 2
▁boules 2
arrange 2
▁annonce 2
▁Jérusalem 2
▁Regardes 2
▁réelle 2
Martiens 2
▁devaientnous 2
serviettes 2
▁assassin 2
▁brisant 2
▁fiables 2
▁permettent 2
▁croisés 2
▁participer 2
liberté 2
▁équivaut 2
▁contrainte 2
▁limitation 2
▁laboratoire 2
▁cancéreuses 2
▁préparent 2
Tes 2
bijoux 2
▁tintent 2
▁remercier 2
salle 2
▁ouais 2
▁pépinière 2
▁brisé 2
▁dirent 2
▁expert 2
▁démarrer 2
obtenir 2
▁comporte 2
blancs 2
industrie 2
mn 2
habiller 2
▁fuyaient 2
▁nichons 2
▁plate 2
▁miracle 2
▁accue 2
▁digère 2
▁évoluer 2
▁serpent 2
▁définitivement 2
▁ruelle 2
▁préparaient 2
FBI 2
▁imperfections 2
micro 2
▁plisse 2
annonce 2
▁dissout 2
avaler 2
extra 2
▁TV 2
▁apparaissent 2
▁bagnoles 2
▁serrée 2
▁taches 2
▁cuisinier 2
▁envolée 2
▁réunions 2
▁stock 2
envole 2
▁perdus 2
▁donnes 2
▁assise 2
▁vo 2
éclater 2
▁éjaculé 2
épaisseur 2
ff 2
▁Ally 2
▁reconnaissant 2
Cela 2
▁emmène 2
autodétruira 2
paroles 2
▁vivront 2
sera 2
▁justifiées 2
▁avocats 2
▁désordre 2
▁filets 2
▁impliquée 2
▁étude 2
▁effets 2
▁stress 2
▁post 2
▁sérotonine 2
▁originaire 2
▁stockait 2
dessous 2
frère 2
désir 2
▁infinie 2
informations 2
▁menaçant 2
▁définie 2
▁baseball 2
ball 2
▁vider 2
▁trophée 2
▁devions 2
drogues 2
▁utilisées 2
parole 2
▁télécommande 2
▁hurler 2
▁fondu 2
écroule 2
▁tromper 2
bite 2
▁traditions 2
▁méchantes 2
▁séduisantes 2
▁di 2
▁primaire 2
aimez 2
abus 2
▁tireur 2
▁transforment 2
▁grange 2
▁aimerais 2
camionnette 2
▁conducteur 2
site 2
▁visité 2
fédéraux 2
▁rejeter 2
▁riz 2
▁rentrent 2
▁Quelquefois 2
▁implacable 2
▁250 2
▁locales 2
▁salit 2
▁espérons 2
▁comprenaient 2
▁plumes 2
▁creusent 2
▁minuscule 2
établir 2
▁parlons 2
▁garderont 2
▁retrouvés 2
braves 2
▁avancent 2
▁taillés 2
▁privés 2
▁terne 2
▁consomme 2
entrer 2
▁imprimé 2
▁attends 2
▁saloperies 2
videmment 2
envie 2
▁Prix 2
▁tombes 2
lac 2
▁artificiel 2
▁gaffe 2
▁poseraient 2
▁duper 2
▁production 2
▁heureuses 2
▁construisaient 2
▁constructeurs 2
▁construction 2
▁Langley 2
▁amènent 2
▁amène 2
arrêt 2
▁chauffage 2
▁ll 2
c 2
De 2
▁alliez 2
chaudière 2
▁baignoire 2
▁dansaient 2
▁penseraient 2
▁bougeront 2
▁Islande 2
Fondateurs 2
▁accrochée 2
clef 2
▁garée 2
▁Silence 2
▁numéros 2
▁contamination 2
▁moral 2
▁considère 2
uniformes 2
▁lundi 2
▁occupés 2
tarte 2
ème 2
▁valaient 2
▁bâti 2
▁avertir 2
▁DE 2
▁enregistrée 2
▁mentale 2
▁consulter 2
▁subi 2
▁imprévisibles 2
▁soignée 2
▁complications 2
▁aimais 2
▁Lex 2
▁conviendront 2
▁résout 2
cargo 2
▁galaxie 2
andro 2
ïï 2
▁règlent 2
▁suffisante 2
▁montées 2
labo 2
▁partaient 2
▁ramenés 2
production 2
▁P 2
▁infecter 2
▁Cylons 2
▁culpabilité 2
▁intelligence 2
▁inférieure 2
▁forcément 2
▁vinaigre 2
▁sonnera 2
▁devrez 2
▁élégantes 2
▁ramper 2
▁ténèbres 2
▁créant 2
▁éternellement 2
pouce 2
▁remplacé 2
index 2
acheteurs 2
▁volant 2
▁Mercedes 2
▁débrouillent 2
▁capital 2
▁Police 2
▁Los 2
▁Angeles 2
▁épaisses 2
▁Trouve 2
▁the 2
▁préviens 2
▁sirène 2
▁écrasés 2
▁emporte 2
▁marques 2
▁State 2
▁montés 2
▁Simon 2
▁maladies 2
▁uniquement 2
groupes 2
▁plantés 2
▁attendions 2
▁aident 2
▁économies 2
▁entières 2
▁ment 2
▁ciment 2
▁piétiné 2
▁boisson 2
▁ex 2
assassins 2
▁signaux 2
extraterrestre 2
obtiennent 2
▁élevèrent 2
▁baptisèrent 2
éro 2
▁Nations 2
▁Unies 2
▁projetèrent 2
▁stables 2
▁civiles 2
▁nations 2
▁cave 2
▁emporter 2
▁fossé 2
▁dinde 2
▁continu 2
▁courrier 2
Pas 2
marché 2
▁limite 2
poudre 2
▁verraient 2
▁concurrence 2
▁fréquentait 2
▁bouleversé 2
▁envahi 2
', 2
▁égo 2
stes 2
▁capturer 2
▁pare 2
▁révolution 2
▁promesses 2
▁proposition 2
▁regards 2
▁cruauté 2
▁temporaire 2
▁divertir 2
5 2
▁mortels 2
▁technologies 2
▁écarter 2
▁recours 2
▁béta 2
▁ombre 2
▁dénoncés 2
▁interroger 2
▁crier 2
▁supporte 2
▁revolver 2
ront 2
▁condamnés 2
▁semi 2
▁mouraient 2
Anglais 2
▁Bouddha 2
citoyens 2
▁clients 2
▁disposés 2
▁diminuent 2
▁CD 2
▁impuissants 2
▁moralité 2
▁décisions 2
▁concernant 2
▁dévorait 2
▁nombreuses 2
▁apprécié 2
horreur 2
▁insectes 2
embêtent 2
▁arrêtent 2
▁trompés 2
connards 2
▁connaissais 2
▁intestins 2
▁hiver 2
▁gelait 2
allume 2
▁poulets 2
▁spectre 2
▁interne 2
▁pensons 2
▁surve 2
▁garantie 2
▁prêtre 2
▁bureaux 2
▁rares 2
▁couvre 2
▁contrôlait 2
▁saisi 2
▁na 2
▁récupèrent 2
arrêterait 2
▁espoirs 2
▁diminue 2
▁Pense 2
▁invitent 2
dent 2
▁épaisse 2
▁arrache 2
▁imaginée 2
▁proposer 2
▁insurgés 2
mensonge 2
▁supplémentaire 2
▁accusent 2
oublie 2
▁ordonnance 2
copains 2
forme 2
▁prévoient 2
▁Vient 2
espèces 2
rats 2
▁Rappelez 2
▁potentielle 2
▁débute 2
▁réplique 2
▁mignons 2
▁hôpital 2
▁habituelle 2
▁clôture 2
00 2
▁honneurs 2
▁ressentir 2
▁surveille 2
▁Super 2
▁ouvrait 2
▁immédiate 2
▁augmentent 2
▁rupture 2
▁rêvé 2
▁mettrait 2
explication 2
▁précision 2
▁disques 2
▁kg 2
roses 2
▁économisent 2
▁week 2
end 2
▁Finalement 2
o 2
▁serveur 2
tard 2
encontre 2
violettes 2
▁fanées 2
▁applaudissaient 2
▁bougie 2
▁examiner 2
▁chèque 2
▁Stan 2
supérieurs 2
▁déranger 2
▁Sûrement 2
▁coordonnées 2
▁conçue 2
▁tirs 2
tumeur 2
▁grossir 2
▁vierges 2
▁observer 2
cour 2
▁doué 2
▁plantent 2
▁horaires 2
▁apprendront 2
▁concevoir 2
▁adaptée 2
▁existantes 2
Union 2
▁septembre 2
▁prouvé 2
▁réalisèrent 2
▁illusion 2
▁mirent 2
▁soupçonnés 2
▁politiciens 2
▁organisation 2
▁encourager 2
▁essentiellement 2
▁désireux 2
appétit 2
place 2
▁haricots 2
▁spacieuses 2
▁révéler 2
▁calcul 2
▁Vers 2
▁douze 2
▁territoire 2
▁protègent 2
▁avouer 2
▁Franchement 2
▁broyer 2
▁lls 2
▁siège 2
▁rappelleront 2
▁injuste 2
aucun 2
foulard 2
▁recommande 2
public 2
▁délit 2
▁revêtir 2
▁grimpent 2
▁Gardien 2
▁Puissent 2
▁repartait 2
▁Reggie 2
▁difficiles 2
▁30. 2
▁utiles 2
▁redeviendra 2
▁Vince 2
▁échapper 2
▁décompose 2
▁déformer 2
▁enlèves 2
£ 2
ensuite 2
responsabilité 2
▁comportements 2
▁immoraux 2
▁soirées 2
▁centime 2
mignonnes 2
station 2
▁vidéo 2
▁assurances 2
▁modeste 2
▁dimanche 2
antenne 2
▁fleuriste 2
▁embarrassées 2
▁apparence 2
▁chirurgie 2
▁empiré 2
▁Lucas 2
▁légitime 2
▁conséquent 2
violence 2
demois 2
assoir 2
cellule 2
vin 2
▁gâte 2
moutarde 2
▁pesait 2
▁creux 2
▁reprend 2
œuvre 2
▁annuler 2
▁Remettre 2
▁Kelvin 2
▁inventer 2
▁chagrin 2
▁couloir 2
▁violemment 2
▁Goa 2
▁rejoigne 2
hélicoptère 2
▁miss 2
▁atterrissait 2
▁réagira 2
▁tomberont 2
▁pots 2
▁réception 2
strip 2
teaseuses 2
couronne 2
▁symbolise 2
▁affirme 2
enrichir 2
▁trouvez 2
▁genou 2
sangsues 2
▁prétexte 2
▁établi 2
▁inutile 2
▁devine 2
▁perdues 2
▁surement 2
▁persuadé 2
▁nourrisse 2
▁structure 2
▁copie 2
▁tourneront 2
▁parfaits 2
▁surgi 2
▁versé 2
entoure 2
▁dingues 2
▁Havane 2
▁épines 2
▁échouent 2
gène 2
▁Fais 2
▁actif 2
▁qualité 2
▁montrait 2
▁brûlait 2
▁concouraient 2
▁sympas 2
▁brûlant 2
▁Avenue 2
intégration 2
racines 2
étrangler 2
▁arbitraires 2
▁respecter 2
▁révélation 2
▁paru 2
▁hésiter 2
▁emmenée 2
▁eut 2
▁renverse 2
ms 2
tait 2
▁fui 2
geste 2
▁entreprises 2
entité 2
isera 2
peut 2
▁hab 2
▁fabriqué 2
▁troubles 2
▁Temps 2
▁jus 2
aiguilles 2
▁fane 2
▁fument 2
▁cigarette 2
▁réclament 2
▁agneau 2
▁éliminé 2
cibles 2
▁saucisses 2
▁fermier 2
▁Fait 2
▁mélodie 2
▁suicidées 2
▁marchandent 2
honnêteté 2
araignée 2
▁Logan 2
▁attendra 2
satellite 2
▁fert 2
▁cherchais 2
▁repèrent 2
▁aisément 2
humiliation 2
▁ingéré 2
▁club 2
▁Mettre 2
petite 2
▁Fred 2
▁occupe 2
▁obsèques 2
▁ravissantes 2
▁intercepté 2
▁répond 2
▁renvoient 2
▁dépriment 2
▁copines 2
▁mystérieux 2
▁vision 2
▁vieillir 2
test 2
▁retardé 2
▁clandestine 2
▁Jackson 2
▁ref 2
▁champion 2
▁voyagé 2
▁vertébrale 2
▁bassin 2
▁convertis 2
preuve 2
empreintes 2
▁douloureuse 2
"? 2
▁ronde 2
▁poumons 2
▁moche 2
▁active 2
▁libèrent 2
▁stratégie 2
aperçois 2
▁essayant 2
▁vêtir 2
girafe 2
▁fonds 2
▁bracelets 2
▁défectueux 2
▁vendue 2
▁McGee 2
▁construits 2
▁empirent 2
▁recréer 2
▁probab 2
▁revue 2
clé 2
▁serrure 2
▁fondées 2
explosera 2
omètres 2
▁mutinerie 2
▁lèche 2
▁notion 2
admets 2
approchait 2
▁traînée 2
▁engin 2
▁posséder 2
▁dévaster 2
▁33 2
▁parier 2
▁compliqué 2
▁comestibles 2
▁cuivre 2
forces 2
▁testicules 2
▁coupait 2
▁fabuleuses 2
▁situe 2
▁matrice 2
▁lignée 2
▁ignorant 2
▁adulte 2
▁tombait 2
▁ressort 2
▁banales 2
▁présentez 2
▁samedi 2
bouche 2
▁fonce 2
▁atout 2
institution 2
▁9. 2
▁aspirer 2
laient 2
pet 2
▁Marie 2
▁Richard 2
▁moches 2
escalier 2
communauté 2
▁considérez 2
▁relève 2
▁sentira 2
▁repassées 2
▁épuisement 2
▁grossit 2
▁parapluie 2
▁saurez 2
▁innocent 2
ouvrent 2
compagnies 2
▁sentaient 2
▁disposées 2
▁dépenser 2
côtes 2
▁baisser 2
tube 2
▁armé 2
▁forment 2
▁réside 2
▁allais 2
▁tentative 2
▁déposée 2
▁majorité 2
▁fondament 2
alement 2
ca 2
▁mignonnes 2
▁oiseaux 2
▁ramènent 2
orthographe 2
▁David 2
▁escaliers 2
▁minces 2
▁livraison 2
▁gratuite 2
▁comprenais 2
▁séparées 2
▁supplie 2
▁entreront 2
▁agressif 2
▁secrétaire 2
▁naviguer 2
▁effrayées 2
graines 2
▁terrifiée 2
▁intéressante 2
▁habitée 2
champ 2
▁Vois 2
▁boucles 2
▁soie 2
▁prétendu 2
chewing 2
▁ventes 2
▁snobisme 2
▁San 2
▁Francisco 2
▁transféré 2
▁final 2
▁sorties 2
▁critère 2
▁facteur 2
▁Boston 2
▁obstacle 2
▁boule 2
▁Tha 2
▁grottes 2
▁apercevoir 2
▁agence 2
▁demanderais 2
glise 2
▁individualités 2
▁soudainement 2
▁anti 2
▁cérébrale 2
▁sociale 2
▁aveugle 2
▁rencontrées 2
▁journaliste 2
▁débuté 2
¶ 2
▁verrouillées 2
▁grandira 2
tôt 2
▁tournent 2
▁pot 2
baiser 2
let 2
société 2
▁tombaient 2
▁fusionné 2
▁Suivez 2
adorerais 2
▁secours 2
▁nulles 2
paix 2
▁durer 2
▁Donnez 2
bonbon 2
▁terminer 2
▁meme 2
▁gelée 2
▁changements 2
▁fontes 2
▁tres 2
▁Autrement 2
▁contentaient 2
▁considérée 2
▁centrale 2
▁aspects 2
▁servant 2
▁monnaie 2
▁indépendance 2
▁uni 2
▁My 2
▁of 2
▁R 2
▁Ford 2
▁re 2
▁guinées 2
▁promettent 2
▁trembler 2
▁reine 2
▁mourrons 2
▁balai 2
▁César 2
▁infecté 2
▁messieurs 2
▁trouvons 2
pétrole 2
▁sarin 2
▁connaissait 2
mâle 2
▁budget 2
▁métallique 2
▁échappe 2
▁retient 2
▁château 2
▁mèneront 2
écroulera 2
▁francs 2
▁humeur 2
▁palette 2
▁24, 2
▁Bryan 2
▁soupçonne 2
▁parvenu 2
▁amitié 2
jour 2
tatouage 2
▁finie 2
▁enfermées 2
▁soulage 2
▁conversations 2
▁grippe 2
▁souffrances 2
▁éclaté 2
shirt 2
[ 2
] 2
▁sacrifier 2
▁Seraient 2
▁désordonnée 2
ami 2
▁épais 2
▁porterai 2
▁Livre 2
▁communique 2
▁conviction 2
▁coupée 2
▁confronté 2
▁trauma 2
▁parcouru 2
▁Belgique 2
▁pyramide 2
▁digérer 2
émotions 2
▁chemins 2
▁vitale 2
▁protégée 2
oe 2
▁costaud 2
▁réconforter 2
▁Pardon 2
▁Canada 2
▁ore 2
▁tiers 2
▁Joe 2
▁clean 2
équipement 2
▁réagir 2
▁Sean 2
▁enterrées 2
▁intense 2
▁violent 2
▁prétendants 2
▁macho 2
moustache 2
▁brille 2
▁Thompson 2
▁portera 2
▁rendra 2
▁Winchester 2
▁flexible 2
niquer 2
▁cage 2
▁casiers 2
▁consentement 2
vessie 2
▁reculons 2
▁guéri 2
▁cognent 2
▁ouvrant 2
▁évacuer 2
région 2
▁affamées 2
▁10000 2
▁droites 2
▁fuit 2
▁sommet 2
▁Robin 2
▁contaminer 2
grippe 2
▁apparus 2
▁sécher 2
▁referme 2
▁déclenche 2
192,220 2
▁revoir 2
installer 2
▁enterré 2
▁réchauffer 2
espèce 2
▁lézard 2
▁reliant 2
▁supérieure 2
▁élastiques 2
▁mutent 2
▁Silver 2
▁fléau 2
▁orage 2
▁remuer 2
▁coûtent 2
▁détecte 2
▁venimeux 2
▁éclater 2
▁soleils 2
▁résolue 2
▁anciennes 2
▁exterminer 2
boulot 2
▁Toujours 2
▁confirment 2
▁dés 2
▁croiront 2
▁attitude 2
192,230 2
▁aurez 2
▁clés 2
▁toxique 2
▁vérifiée 2
▁uniforme 2
▁pénétrer 2
▁ouvrira 2
▁perturbe 2
▁instables 2
▁rendrait 2
▁souhaits 2
▁électeurs 2
▁lame 2
▁faiblit 2
▁géniales 2
▁pointé 2
▁restiez 2
▁payait 2
▁méthodes 2
▁immorales 2
▁Lauren 2
établissement 2
▁trouverait 2
▁basse 2
▁efficaces 2
▁renforce 2
relations 2
▁flétrit 2
min 2
▁sexu 2
▁intimes 2
▁fabriquée 2
▁Face 2
▁Conseil 2
▁Jedi 2
▁vase 2
▁bonté 2
▁pendaison 2
▁pénètrent 2
▁Envoyez 2
▁cochon 2
▁cellule 2
▁étrangères 2
▁profiter 2
▁Fédérale 2
▁mondiales 2
liards 2
▁contrepartie 2
▁projets 2
isant 2
▁étasunien 2
oeuvre 2
▁alimenter 2
▁tranquillement 2
boule 2
▁légère 2
▁rompre 2
▁arriverait 2
▁balayer 2
▁comprenez 2
▁justifiée 2
▁nectar 2
lieu 2
▁mutation 2
enfance 2
▁respecte 2
rumeurs 2
▁fusionner 2
▁foirer 2
▁culte 2
notes 2
▁roses 2
▁éruption 2
▁bombes 2
décret 2
▁valeurs 2
▁fondamentales 2
▁manuellement 2
▁découpait 2
▁chaussure 2
▁bleues 2
exister 2
▁raide 2
envoler 2
capsule 2
▁malmené 2
▁rétablie 2
▁magiques 2
▁logo 2
épanouisse 2
▁audacieux 2
▁protégées 2
blagues 2
▁profite 2
▁affreuses 2
▁queues 2
▁coiffer 2
▁prières 2
vitre 2
▁rituel 2
aillent 2
▁Lucy 2
puces 2
▁littéralement 2
▁regardes 2
▁grossi 2
▁sardines 2
▁sucres 2
▁méthode 2
environnement 2
▁flotté 2
▁GPS 2
▁lâcher 2
▁fatigué 2
▁détruite 2
▁dénoncent 2
▁tou 2
▁priorité 2
▁antiquités 2
▁isoler 2
blessures 2
identification 2
empreinte 2
apporte 2
▁enduré 2
▁vautours 2
▁recommence 2
épée 2
▁trouvée 2
souris 2
▁souches 2
▁souple 2
▁commença 2
vague 2
▁révélant 2
▁grève 2
▁conserver 2
▁déchirer 2
▁relâche 2
vérités 2
▁perçues 2
▁espérait 2
▁gangsters 2
▁Américain 2
▁Barack 2
▁Obama 2
▁rabattent 2
▁œufs 2
▁éclos 2
▁femelle 2
▁jet 2
▁dioxyde 2
éloigne 2
▁vilaines 2
▁signatures 2
▁professeur 2
▁nettoyée 2
▁stupide 2
▁ruines 2
▁désormais 2
▁sombrer 2
Eglise 2
▁Jersey 2
▁Deuxièmement 2
▁ouvrières 2
▁surnom 2
▁envolé 2
▁méthane 2
▁entraîne 2
▁rapportera 2
interroger 2
▁fédéral 2
lite 2
▁option 2
Oh 2
▁disposaient 2
▁miroirs 2
▁astronaute 2
▁vibrer 2
chance 2
▁spéciales 2
▁équilibre 2
▁amenées 2
▁choisissez 2
▁Volé 2
▁salaire 2
▁inférieur 2
▁Jessica 2
▁acte 2
▁chercheront 2
▁grille 2
sa 2
▁reconstruire 2
U 2
▁options 2
▁disparus 2
▁existé 2
▁salope 2
vente 2
▁remue 2
▁contamine 2
Irlande 2
▁instructions 2
▁grappin 2
▁blesse 2
▁inutiles 2
câble 2
▁Putain 2
▁bottes 2
▁demandes 2
▁alliance 2
goutte 2
▁incontrôlable 2
essayais 2
▁prolonge 2
▁bancal 2
▁Attention 2
▁nécessaires 2
▁démon 2
▁compter 2
▁locale 2
▁misère 2
girls 2
▁demanderai 2
▁décolle 2
▁gel 2
▁enfiler 2
▁suivait 2
▁malveillant 2
coup 2
▁élevée 2
▁croiseurs 2
▁fumer 2
▁boum 2
▁top 2
vidéo 2
▁biper 2
▁Anna 2
▁Imaginez 2
▁charmante 2
▁sers 2
▁nécessite 2
▁bougé 2
▁fédérales 2
▁dommage 2
▁talent 2
▁Majesté 2
▁théière 2
Alors 2
▁intouchable 2
▁Castle 2
▁sophistiqué 2
▁centres 2
▁collecte 2
▁modestes 2
code 2
▁accrochent 2
▁fatiguent 2
fées 2
▁douloureuses 2
▁géré 2
▁revenus 2
▁Jamie 2
▁fleurissent 2
▁fouet 2
▁péchés 2
▁divine 2
▁couilles 2
▁dépressives 2
▁Appelez 2
▁audacieuse 2
▁suspect 2
▁Twitter 2
plat 2
son 2
▁noble 2
facture 2
▁mette 2
▁mouchard 2
charge 2
▁Winston 2
▁combattu 2
aidaient 2
dague 2
▁guéris 2
▁proprement 2
▁guérir 2
▁retourné 2
▁traîner 2
▁poker 2
ouTube 2
▁volontairement 2
1 2
imaginent 2
▁sacrifiées 2
▁réunir 2
▁pédophile 2
▁cabine 2
▁commençait 2
▁reliées 2
oublier 2
▁22 2
réponses 2
▁appartement 2
▁roulerait 2
fontaine 2
▁Tim 2
▁univers 2
▁subsister 2
▁coupées 2
▁pelage 2
▁personnelle 2
▁insoluble 2
▁port 2
science 2
▁éclaire 2
▁complète 2
▁bénéfice 2
▁scientifiques 2
▁gouvernements 2
▁positif 2
▁reçoit 2
entraînent 2
▁recouvert 2
▁invisibles 2
▁hélicoptère 2
▁souvient 2
▁collègues 2
▁passeport 2
▁bouffent 2
▁anéanti 2
▁caserne 2
▁pompiers 2
▁Pedro 2
▁annuelle 2
▁commencera 2
▁fidèles 2
centre 2
▁mit 2
écrire 2
▁Mort 2
▁sombres 2
▁incendie 2
▁appartenu 2
▁Mickey 2
▁Cohen 2
▁connard 2
▁terrestre 2
haut 2
▁ralentir 2
▁naître 2
▁oubliées 2
▁St 2
▁ponde 2
▁amuse 2
▁35 2
midi 2
▁embrasser 2
▁crash 2
▁Amy 2
pensées 2
▁interdite 2
▁harmonie 2
arrache 2
▁connaisse 2
unes 2
force 2
▁surprenant 2
▁mises 2
▁communiquent 2
▁Tôt 2
▁emmenés 2
▁prudence 2
bottes 2
▁neiges 2
▁ringardes 2
F 2
caisses 2
▁drame 2
▁splendide 2
▁susceptible 2
▁attaquera 2
▁noté 2
▁revendications 2
▁frauduleuses 2
▁croissance 2
▁vacances 2
augmenter 2
R 2
tre 2
▁terres 2
▁sentier 2
▁pleurs 2
▁préparer 2
▁inhalé 2
▁Milan 2
▁frein 2
▁rejoignent 2
▁Reid 2
▁Petit 2
▁étudiant 2
▁Timmy 2
malédiction 2
▁gratuit 2
▁porteront 2
éloigner 2
▁sourcils 2
▁clavicules 2
▁principalement 2
▁mérité 2
▁virer 2
▁détraqué 2
▁resto 2
document 2
▁fantômes 2
▁organiques 2
▁golf 2
▁tables 2
▁attacher 2
emmènent 2
effondrement 2
reste 2
▁amours 2
▁lampe 2
entendront 2
▁trouveras 2
▁fil 2
bébés 2
▁entendus 2
▁Lors 2
▁Aprês 2
▁atterrir 2
▁gouvernés 2
habitants 2
▁communisme 2
▁vulnérable 2
▁virés 2
▁Mexique 2
▁gagnaient 2
▁eurent 2
▁vins 2
▁brûlent 2
interpréter 2
▁jeunesse 2
▁bars 2
▁déj 2
▁écraser 2
emmène 2
▁assister 2
▁Moscou 2
▁pilules 2
▁sentais 2
▁revanche 2
▁boisseau 2
▁mouton 2
▁Angleterre 2
▁gazon 2
Arabes 2
▁croix 2
▁horriblement 2
▁oser 2
iris 2
▁pollen 2
▁enragés 2
▁Autant 2
▁disputent 2
▁féminine 2
▁retiennent 2
abattre 2
▁Jim 2
singe 2
▁détour 2
▁Abraham 2
▁arrivèrent 2
▁gravé 2
ceux 2
▁éducation 2
▁douces 2
▁somme 2
▁esclavage 2
▁intéressés 2
▁Pensez 2
mots 2
▁traitait 2
▁dévore 2
étaie 2
▁malheur 2
▁sergent 2
▁acceptent 2
éducation 2
▁Quatre 2
▁échappée 2
▁jardin 2
▁transporter 2
appuient 2
▁pèlerins 2
▁logement 2
dindes 2
▁bled 2
▁cassaient 2
▁compréhensifs 2
▁obsolètes 2
▁pilotaient 2
▁fringants 2
▁remarche 2
▁Essayons 2
▁appelait 2
parieurs 2
▁vieil 2
deux 2
▁gagnant 2
▁veuves 2
▁conférence 2
▁activités 2
▁linge 2
▁laissées 2
▁sottises 2
▁ailles 2
▁sommeil 2
▁payent 2
▁dépensent 2
▁tirera 2
▁3000 2
▁vénèrent 2
▁punition 2
▁ent 2
Des 2
▁feuille 2
▁effrayés 2
humidité 2
▁noces 2
▁vendaient 2
▁tartes 2
attache 2
▁maquette 2
▁pleut 2
▁guidé 2
▁viendrai 2
▁osent 2
▁vaudrait 2
▁montée 2
▁douche 2
▁tiraient 2
▁écoutaient 2
▁accomplir 2
robots 2
▁détruits 2
▁faiblesse 2
▁précaution 2
▁supposer 2
▁tenaient 2
ignorent 2
▁vibrations 2
grandes 2
▁seigneurs 2
Siciliens 2
▁réveiller 2
▁dons 2
▁essenti 2
▁choquer 2
▁tournées 2
▁extraire 2
▁vertu 2
▁actuel 2
▁psychologiques 2
▁Croix 2
▁lutte 2
▁Seuls 2
▁sauvages 2
▁Tombstone 2
▁Nil 2
▁craindre 2
colonies 2
▁exister 2
▁carotide 2
membres 2
▁perdront 2
▁folies 2
tour 2
▁impliquées 2
▁organisations 2
▁starter 2
▁illusions 2
▁tennis 2
▁dépendait 2
pluie 2
▁neiger 2
▁puissants 2
▁supérieurs 2
▁nôtre 2
▁Henri 2
▁Sire 2
▁Martiens 2
▁partez 2
▁retraités 2
▁concours 2
▁coton 2
Japonais 2
▁Jonas 2
▁impur 2
▁erre 2
▁tranquillité 2
aqueduc 2
▁viendraient 2
▁remarquerez 2
▁soif 2
▁armée 2
▁prouvée 2
▁faille 2
▁singe 2
▁porcs 2
▁décrivent 2
▁voisinage 2
▁Venez 2
▁manières 2
▁nageaient 2
nus 2
▁sordide 2
▁disputer 2
▁devrai 2
examiner 2
▁Dix 2
▁commet 2
▁prendrais 2
▁Buvez 2
▁développé 2
amusait 2
▁invités 2
gosses 2
environ 2
▁promènent 2
▁poursuivaient 2
▁demandez 2
▁filmer 2
▁crève 2
supermarché 2
▁préférée 2
▁organe 2
r 2
masses 2
▁apparues 2
▁Contrairement 2
atteint 2
▁poches 2
▁élevés 2
▁cracher 2
▁fascine 2
▁morde 2
▁isolés 2
▁marrantes 2
Mais 2
▁aimez 2
▁nés 2
u 2
▁bordel 2
▁incompréh 2
ensibles 2
▁Excusez 2
▁Jesus 2
▁loyauté 2
▁travailleurs 2
Bon 2
▁exercée 2
Eux 2
▁environs 2
▁malignes 2
belle 2
▁assassinats 2
▁longs 2
▁dévorent 2
appartenait 2
plu 2
▁verse 2
▁Mexico 2
▁attirant 2
▁paroi 2
pieds 2
▁baladent 2
▁Sœur 2
▁Sainte 2
▁célibataires 2
acier 2
▁tapé 2
▁tendres 2
▁iI 2
▁lancent 2
▁pêcher 2
▁parasite 2
doivent 2
▁reconnais 2
avancer 2
étiez 2
▁italienne 2
▁réforme 2
▁vidé 2
▁sénateurs 2
▁insatiables 2
▁loups 2
▁localisation 2
▁voyages 2
▁inventent 2
molécules 2
▁guerriers 2
▁acceptez 2
▁subir 2
3 2
▁Oû 2
▁otages 2
▁installés 2
▁suent 2
▁trés 2
occuperont 2
▁tiendra 2
▁ajouter 2
▁texte 2
ça 2
▁osé 2
version 2
▁poussent 2
ennemis 2
▁poule 2
oeuf 2
▁répondit 2
▁décevoir 2
▁êtê 2
▁filmaient 2
▁techniciens 2
▁heurté 2
▁gèlent 2
▁écran 2
▁producteurs 2
▁tarif 2
▁demeurent 2
éclairage 2
▁dressé 2
nues 2
▁Vengeur 2
Surtout 2
▁priais 2
▁mourez 2
▁mord 2
▁blâmer 2
▁Sahara 2
▁rations 2
moulin 2
Où 2
▁libérées 2
>.< 2
▁chantent 2
▁âgées 2
▁quoiqu 2
▁multiplient 2
,... 2
tueraient 2
▁Aucun 2
▁métier 2
▁pardonner 2
▁Maison 2
▁mannequin 2
▁tires 2
▁malins 2
▁prétentieux 2
▁cuir 2
▁familier 2
▁pensée 2
▁écartées 2
▁abouti 2
▁teignait 2
▁brosse 2
▁claquer 2
▁légere 2
▁surgir 2
▁machettes 2
▁Carlton 2
▁cochons 2
▁percer 2
▁lisiez 2
▁statut 2
▁prisonnière 2
ier 2
▁Will 2
écrasent 2
▁cagoules 2
▁Missouri 2
▁grandiose 2
▁achetez 2
▁oeuf 2
poulet 2
▁célébrité 2
▁observé 2
Enfant 2
▁mamie 2
échec 2
▁réincarnation 2
▁obéi 2
aimiez 2
▁fâche 2
▁militaires 2
▁Bart 2
angoisse 2
▁blottir 2
▁tache 2
▁personnage 2
▁mines 2
▁divorceraient 2
▁bousculer 2
▁kimono 2
▁contenteraient 2
▁révision 2
▁triompher 2
▁_ 2
▁gazettes 2
▁prévoyaient 2
▁osez 2
▁répudier 2
▁sauvent 2
▁protester 2
▁Supposons 2
▁supposons 2
auberge 2
▁conviendrait 2
▁convienne 2
▁quercus 2
▁empêchés 2
▁Pourraient 2
▁souviendra 2
▁maîtriser 2
▁recrachés 2
▁dérouler 2
▁tombeau 2
Ananka 2
▁colline 2
▁chacals 2
musée 2
expédition 2
▁pressent 2
▁citron 2
▁infaillible 2
▁mêlés 2
enfonce 2
▁dent 2
▁ete 2
▁accidents 2
▁surmènent 2
▁indiquait 2
45. 2
égotistes 2
▁bouteilles 2
▁bassines 2
▁maîtresse 2
esclaves 2
▁incite 2
▁douter 2
équateur 2
>__ 2
▁cultiver 2
▁présents 2
Ses 2
existaient 2
▁calife 2
▁série 2
▁blessure 2
▁nuque 2
▁rat 2
▁fourni 2
▁causes 2
ales 2
▁chasseurs 2
luminol 2
▁interagit 2
hémoglobine 2
du 2
installe 2
▁massive 2
▁arbre 2
Cet 2
▁penche 2
Votre 2
▁équipage 2
▁découvriront 2
▁commencée 2
▁règlement 2
▁Commandant 2
▁soutiennent 2
comprend 2
▁ue 2
▁Professeur 2
▁badaboum 2
vos 2
▁reconquérir 2
généraux 2
▁magistrat 2
▁réformes 2
▁hôte 2
▁is 2
▁bouleversera 1
▁filtre 1
▁longévité 1
activé 1
▁commutateur 1
▁manuel 1
▁désactivé 1
▁transcende 1
▁poisons 1
▁divisées 1
▁destinataires 1
▁manifeste 1
orrec 1
▁tement 1
▁infectieuse 1
▁existaient 1
▁lecture 1
▁fascinante 1
déontologie 1
importait 1
▁déclencheurs 1
▁doutais 1
▁toucherait 1
accoutrement 1
▁juives 1
▁bûche 1
▁perspicace 1
▁sodium 1
▁glutamate 1
siège 1
€ 1
assois 1
euros 1
nièces 1
▁blottissent 1
▁Tellement 1
▁récupéré 1
▁rebelle 1
▁Placé 1
▁dessinee 1
▁specialement 1
▁Rosalie 1
▁transformee 1
▁poignee 1
▁nue 1
▁nique 1
▁piscine 1
▁ivrogne 1
▁similitudes 1
▁imperceptibles 1
▁Killian 1
▁distribue 1
▁caractère 1
▁1931. 1
▁Serait 1
exact 1
▁cherchiez 1
▁attribué 1
▁diffusion 1
▁stipulé 1
éloquence 1
▁pâturage 1
▁fiançailles 1
véritable 1
▁amphibie 1
▁Rêvant 1
entrerai 1
▁effraction 1
▁trouverais 1
▁volerai 1
▁glisserai 1
▁Festival 1
▁Sundance 1
partenaire 1
▁Gravely 1
▁pyromane 1
▁trafiqué 1
oppose 1
▁délicat 1
foie 1
▁égale 1
mine 1
▁indispensable 1
▁craque 1
▁Cher 1
yorkais 1
▁Brannis 1
coupure 1
▁guérisse 1
▁tombez 1
Bureau 1
▁Chanson 1
▁Matt 1
veste 1
▁Davina 1
écoutaient 1
▁graisser 1
▁rouages 1
▁imaginaire 1
▁terni 1
mystère 1
▁morbide 1
▁hallucinogène 1
▁plaiderait 1
▁énergiquement 1
▁aggravantes 1
▁Carter 1
▁Nix 1
▁cure 1
dents 1
▁chiait 1
▁tournage 1
▁pensera 1
Jasmine 1
▁choquée 1
arrangement 1
▁réarrangé 1
▁extra 1
▁macromolécules 1
▁remarquais 1
capteur 1
Devin 1
▁souhaites 1
isateur 1
speech 1
▁majuscules 1
▁contrôlées 1
▁épisode 1
▁psychotique 1
extraction 1
▁défendait 1
▁mangez 1
▁siffler 1
▁tuyaux 1
▁allergique 1
▁fiab 1
▁nitrate 1
ammonium 1
▁lavés 1
coupable 1
agresse 1
▁remarquera 1
▁comparer 1
▁inonde 1
▁hypothalamus 1
hydrogel 1
▁cérébro 1
spinal 1
▁Karen 1
▁jogging 1
orte 1
▁dirigiez 1
volume 1
▁at 1
lustrations 1
▁pseudo 1
▁via 1
▁surgissait 1
▁espion 1
pouls 1
▁mucus 1
▁réapprovisionne 1
▁voyageur 1
▁fœtus 1
▁pirater 1
réve 1
ecchymoses 1
▁enfui 1
▁composant 1
percuteur 1
▁Annapolis 1
▁Nouvelle 1
cosse 1
▁Chekura 1
▁Shelburne 1
▁préparais 1
▁pierogies 1
▁portais 1
▁reprenne 1
mouvement 1
▁disciples 1
▁disparaitront 1
avancez 1
▁piraté 1
▁atterrira 1
atterrissage 1
▁taperai 1
fort 1
kit 1
▁créera 1
▁chômage 1
▁usé 1
▁réglo 1
▁automob 1
▁registres 1
massacre 1
▁invraisemblable 1
▁vibré 1
▁marches 1
▁glissantes 1
▁hafnium 1
▁alliage 1
▁tungstène 1
▁tubes 1
Chaque 1
génération 1
▁Obtient 1
▁Superhero 1
conduite 1
▁entrain 1
▁débattre 1
▁Hazard 1
▁ramenons 1
▁berner 1
▁mémorise 1
agencement 1
▁disposition 1
▁meubles 1
▁contourne 1
▁Golden 1
▁plaqué 1
exorciser 1
▁compromettre 1
▁identifiez 1
▁Paloma 1
▁prélever 1
▁détectable 1
voisine 1
▁promenade 1
▁matinale 1
Mississippi 1
▁schéma 1
couteau 1
▁corrompt 1
▁draine 1
▁informatif 1
▁caduque 1
Alyssa 1
age 1
▁répondrait 1
▁attendez 1
▁convulse 1
▁convulsions 1
effacera 1
▁terriblement 1
▁dérangement 1
sem 1
▁ble 1
▁hyper 1
▁Jacob 1
▁relever 1
▁caractéris 1
tiques 1
▁hériter 1
▁thermostat 1
▁to 1
ettes 1
▁ye 1
▁juniors 1
▁surchauffer 1
▁rafraîchissant 1
▁collecté 1
▁microbes 1
▁aériens 1
▁Pouvez 1
▁Megan 1
Sofia 1
▁Davenport 1
itinéraire 1
▁descendit 1
▁At 1
▁intestin 1
▁diplômés 1
▁secondaire 1
▁Python 1
▁touchera 1
Siège 1
▁récursive 1
▁recalibrer 1
▁soubresaut 1
prescrit 1
▁alerte 1
▁délivre 1
▁inhabituelle 1
▁Littlewood 1
nombre 1
▁théorème 1
▁nombres 1
étudier 1
▁arts 1
▁martiaux 1
▁Sachant 1
lant 1
radar 1
▁intermittent 1
▁Monomoy 1
▁déplacement 1
▁impressionnés 1
recul 1
▁évité 1
▁amorti 1
▁affiche 1
▁dépenserai 1
▁0.000 1
▁ralentit 1
▁imperceptible 1
▁Janet 1
▁rachètes 1
▁stipule 1
▁parlerez 1
▁remettons 1
col 1
▁utérus 1
▁Mrs 1
▁Mullucks 1
▁dilater 1
▁événement 1
▁Soeur 1
▁Monica 1
▁Joan 1
biscuit 1
▁soucoupe 1
▁Vermont 1
▁perçu 1
▁incité 1
ajournement 1
▁incrimination 1
▁visions 1
Safehold 1
▁W 1
derun 1
▁restant 1
▁achevé 1
▁tiroir 1
▁soulever 1
▁sourc 1
▁Schweikart 1
▁Cokely 1
▁Maida 1
▁ajustement 1
▁Davis 1
▁Main 1
▁exagérer 1
▁subt 1
▁paf 1
▁débarqué 1
▁Lord 1
▁pardons 1
▁dépit 1
▁évidences 1
▁expériences 1
machin 1
tendon 1
▁gonflé 1
▁gaine 1
▁enflée 1
raps 1
▁Permettez 1
▁impartial 1
▁contradictions 1
▁capitalisme 1
▁Bénis 1
repas 1
▁bénisse 1
▁inscrire 1
▁surqualifiés 1
▁décidez 1
▁loges 1
▁emprisonné 1
▁Mokichi 1
▁gorgé 1
afflue 1
agonie 1
▁prendrez 1
▁regain 1
▁Connaver 1
▁Arkyn 1
▁radiation 1
▁effondrer 1
horizon 1
-2 1
▁conduise 1
▁provoque 1
▁crachats 1
▁nécrose 1
▁tissulaire 1
béguin 1
▁ardoise 1
▁probation 1
▁biais 1
Eco 1
▁Chuckie 1
fœtus 1
▁ressente 1
éjecterai 1
▁bâclé 1
▁portez 1
▁étiquette 1
oligarque 1
▁contingent 1
unécroudiffic 1
eàcraquer 1
,/ 1
▁pertinent 1
▁depuisungrand 1
nombredef 1
côté 1
▁impliquer 1
▁Shepherd 1
▁Baltimore 1
▁ADA 1
▁Pierre 1
▁Levy 1
▁abîme 1
pudding 1
angle 1
▁lofts 1
▁commerciaux 1
▁renifleur 1
vol 1
▁Tampa 1
▁Florida 1
▁Rhode 1
▁vols 1
▁alentours 1
▁Nier 1
Ophelia 1
▁Récupérer 1
Necronomicon 1
▁retouché 1
▁excellent 1
symbole 1
▁rugisse 1
▁dégoûtant 1
▁Hopper 1
▁boucle 1
▁absent 1
▁acronyme 1
▁analyser 1
▁Voulant 1
interromps 1
▁bombé 1
▁empirer 1
Main 1
▁Orson 1
succès 1
▁conseiller 1
▁agressées 1
▁disparaissait 1
▁Soyez 1
▁apparaître 1
▁connaîtra 1
▁marié 1
▁Cyrus 1
▁injustement 1
▁apprenne 1
▁accents 1
▁régionaux 1
dieu 1
▁Certain 1
▁distances 1
lieutenant 1
▁engagement 1
Machine 1
▁encombrée 1
▁affreuse 1
▁Halo 1
▁abondance 1
flingue 1
▁ballistique 1
▁Betty 1
▁Crowe 1
off 1
▁collet 1
▁couine 1
perruque 1
▁défait 1
▁agences 1
▁débattent 1
▁répands 1
toxine 1
▁relâchée 1
aération 1
cappuccino 1
▁Diable 1
▁Florrick 1
▁installations 1
démantèlement 1
lement 1
▁failles 1
▁identifient 1
▁piratant 1
▁bouleversent 1
▁irait 1
▁rétréci 1
love 1
▁Sénat 1
compacteur 1
▁athlète 1
▁snob 1
▁suer 1
▁concentre 1
commode 1
▁Schmidt 1
▁viré 1
iserai 1
attaché 1
case 1
▁récitais 1
▁prétendais 1
▁ordonnais 1
▁vermine 1
▁bajorane 1
▁tuaient 1
▁couverts 1
vortex 1
▁cardassienne 1
▁oppressive 1
▁implantées 1
irait 1
▁mercenaires 1
▁reliques 1
poches 1
▁magma 1
▁énergétiques 1
▁oxydés 1
▁supportera 1
▁imprégner 1
▁klingonnes 1
▁Kahless 1
▁Cmdt 1
▁Lt 1
excavation 1
▁vétuste 1
▁bizarrement 1
▁affectait 1
▁ripostions 1
▁impressionnait 1
▁Aline 1
enchaînera 1
▁chênes 1
▁abattre 1
ruban 1
intestin 1
▁flatte 1
▁ressorte 1
▁chameaux 1
▁bossé 1
▁Harold 1
▁rusé 1
▁gardais 1
Armée 1
▁oie 1
▁laides 1
surdité 1
adressait 1
▁nocturnes 1
▁jetez 1
▁yen 1
▁transpercée 1
▁chante 1
▁plaindre 1
▁empêchent 1
▁évasion 1
▁Viendront 1
▁Devant 1
▁écriraient 1
Menteurs 1
paquet 1
▁criant 1
▁dérangeant 1
▁Carabinieri 1
▁épouser 1
▁entendrez 1
▁entendront 1
▁tigres 1
▁mouille 1
▁répétant 1
▁Tenant 1
bride 1
▁contour 1
▁Ode 1
▁niaises 1
goudron 1
▁détaché 1
anomalie 1
▁Maroussia 1
▁cacardent 1
bouleau 1
éprouve 1
▁pourrit 1
domaine 1
▁constatent 1
employer 1
▁accordé 1
emprunts 1
▁honorés 1
▁débarrassent 1
▁Dodge 1
approchez 1
▁mordu 1
▁tickets 1
▁embarqué 1
ang 1
▁Gao 1
▁interposé 1
▁Compris 1
▁mijoter 1
▁65 1
▁obéissaient 1
▁professeurs 1
▁restaient 1
▁bigleux 1
▁confondaient 1
▁dotée 1
▁habitu 1
▁suivrai 1
▁Tromav 1
▁Leh 1
▁Ladak 1
▁pérégrination 1
▁prostenations 1
▁bouddhiste 1
▁accompagnées 1
▁semblable 1
▁Bardo 1
▁reconnait 1
▁obstruée 1
bouddhisme 1
▁fleurit 1
▁boulet 1
▁Dont 1
▁polluer 1
▁torchaient 1
▁maintien 1
▁Pol 1
▁Quat 1
▁Consortium 1
▁Indonésien 1
▁bénéfiices 1
▁atteindront 1
▁Ténèbres 1
▁vaincues 1
▁jadis 1
▁réviser 1
ouvrirai 1
▁marionnettes 1
▁mystères 1
▁bornées 1
▁sexistes 1
▁veuillez 1
▁Goodrich 1
▁décorée 1
▁jeudi 1
empareront 1
▁lâcheront 1
▁appropriées 1
▁compliqués 1
▁Explique 1
▁saisit 1
tranches 1
▁brûlantes 1
▁Hop 1
extirper 1
▁divan 1
▁klingon 1
▁Dukat 1
▁perdrons 1
téléporteurs 1
programmes 1
▁corticostéro 1
▁acides 1
▁aminés 1
▁variations 1
▁infinies 1
▁perverses 1
variations 1
▁exécutées 1
▁reflètent 1
▁découvrais 1
▁inspirants 1
éloges 1
▁blasés 1
▁art 1
▁châtiment 1
Français 1
▁1946 1
▁découvrant 1
▁productions 1
▁hollywoodiennes 1
▁manquées 1
▁montrerai 1
▁subverti 1
▁genres 1
▁conçus 1
▁répression 1
▁60' 1
▁diversifié 1
▁prète 1
▁explosant 1
▁annulaient 1
▁décoratrice 1
avocate 1
▁topo 1
▁revoit 1
▁défendue 1
habitent 1
▁panique 1
▁charivari 1
▁infernal 1
▁reconnaissaient 1
▁diversité 1
▁direct 1
▁Messala 1
Hur 1
▁poursuivrons 1
▁agressivement 1
▁concentrant 1
dérangés 1
▁notoires 1
sexualité 1
entourent 1
▁aspect 1
▁asexué 1
▁co 1
ncide 1
▁masturbation 1
▁régulière 1
▁chevaucher 1
▁Marge 1
▁insoutenable 1
▁détenus 1
▁enfuis 1
▁compatir 1
attirera 1
seringues 1
▁comprises 1
▁souris 1
amènera 1
▁recoudre 1
▁recousu 1
minute 1
▁cadreur 1
▁scripte 1
▁contrariés 1
▁paumés 1
▁couillons 1
▁lançons 1
offensive 1
Antonio 1
▁cockta 1
>'. 1
▁relient 1
taupe 1
▁sature 1
▁répend 1
▁banquet 1
▁orbites 1
▁blessures 1
▁signalé 1
▁emparons 1
reine 1
▁courtisanes 1
▁coquettes 1
▁parfumées 1
▁roturiers 1
▁Agitant 1
▁piques 1
▁surmontées 1
▁ironisent 1
dire 1
▁apprenti 1
▁Lls 1
▁descendaient 1
▁traiteraient 1
▁deviendras 1
▁sentiront 1
▁Joseph 1
▁sortiraient 1
▁reviendraient 1
▁judicieux 1
▁silencieux 1
▁trahi 1
▁enlacé 1
enlaçaient 1
interrogeaient 1
floraison 1
▁caveau 1
inondation 1
▁giron 1
Plus 1
▁bambou 1
Emir 1
▁altérée 1
pentagramme 1
▁terrifie 1
▁rochers 1
▁polarité 1
▁inversée 1
▁courtiers 1
▁surveillent 1
tueurs 1
▁gages 1
▁Quinn 1
▁rasent 1
▁Whisky 1
▁pardonne 1
▁réceptionniste 1
▁Gomez 1
▁Wade 1
structure 1
▁fluctue 1
improviste 1
▁montrez 1
Cardassiens 1
occupaient 1
▁accédé 1
▁ODN 1
allure 1
▁imparfaites 1
oplait 1
▁Réve 1
lez 1
▁étouffée 1
▁ravivée 1
▁vodka 1
▁étouffant 1
▁clan 1
▁créa 1
▁goûterait 1
▁toits 1
▁ruisseau 1
▁achetant 1
▁indiquée 1
▁bouts 1
excitent 1
▁styles 1
Gangsta 1
▁mangeraient 1
▁Formidable 1
▁destinée 1
▁Nikki 1
W 1
ly 1
▁harmonica 1
▁reconnaît 1
▁extirper 1
▁panse 1
▁pansage 1
▁quinca 1
lerie 1
▁tunnel 1
révolution 1
▁spiritu 1
rideau 1
abattra 1
▁Russie 1
▁mn 1
▁identifié 1
▁coincent 1
▁steak 1
lée 1
▁fermerait 1
▁vérifient 1
arnaqueurs 1
▁pointés 1
▁tribu 1
enzera 1
▁menacée 1
▁perturbait 1
▁transformait 1
▁hormone 1
▁évolue 1
▁reptilienne 1
▁Château 1
▁rebelles 1
unifier 1
▁persécuter 1
vétérans 1
▁stabilité 1
▁imposèrent 1
▁suivantes 1
▁évolution 1
▁foutre 1
▁Geraldo 1
▁zubrium 1
▁tarissent 1
▁roulantes 1
ensevelisse 1
▁Gadjos 1
éléphants 1
quelque 1
bords 1
▁coupants 1
irriter 1
▁dégoté 1
expose 1
caisse 1
▁Raja 1
▁Saheb 1
▁boulettes 1
▁loyaux 1
▁Shankar 1
▁averti 1
▁marie 1
militaires 1
opposants 1
▁scandale 1
▁exécutions 1
plaques 1
▁permettaient 1
▁batifolent 1
▁loyalistes 1
Indépendence 1
▁lambis 1
▁remontent 1
▁replongent 1
▁roches 1
▁lester 1
équilibre 1
association 1
▁végétal 1
polype 1
▁calcaire 1
abriter 1
cachalot 1
▁échoués 1
▁moucher 1
▁déterrée 1
▁occidentaux 1
▁habitudes 1
erreurs 1
▁appartiendront 1
▁hanter 1
▁transcendent 1
▁colonie 1
▁télépathes 1
▁Psi 1
▁tentaient 1
▁surpassés 1
▁laissons 1
▁Ombre 1
▁frapperaient 1
▁partance 1
▁Ericsson 1
▁Ombres 1
attaqueront 1
base 1
▁opérationn 1
▁innocents 1
▁enfance 1
▁gambadant 1
▁15000 1
gamins 1
▁sacrifient 1
idéal 1
▁démontrait 1
▁comprendrait 1
▁convoi 1
▁massacrer 1
▁complet 1
▁évoluerait 1
▁dépasserait 1
▁entendement 1
▁précédés 1
▁bourreau 1
▁goujon 1
▁renferment 1
▁déchiffrer 1
arracher 1
▁tronche 1
▁rallie 1
▁divise 1
empoignent 1
embrasser 1
▁déchaîner 1
▁fâchée 1
▁contournerait 1
▁Park 1
▁rôde 1
▁runabout 1
▁drogués 1
▁Cardassiens 1
invasion 1
▁humano 1
▁hublot 1
▁aimeriez 1
intensifie 1
console 1
▁Tuvok 1
▁accède 1
▁entends 1
▁Delta 1
seringue 1
▁énormément 1
▁Pire 1
▁visages 1
▁sélectionnées 1
▁surplace 1
▁existiez 1
▁asserviront 1
▁sauvera 1
unir 1
scie 1
Hépha 1
stos 1
▁marcherait 1
▁notoriété 1
▁capturent 1
▁grossière 1
▁Hidalgo 1
▁figée 1
▁expression 1
▁Scar 1
haine 1
▁puér 1
▁redémarre 1
▁minuteur 1
comète 1
▁Howard 1
Howard 1
mule 1
▁buffle 1
▁plantation 1
▁voiloir 1
▁dressait 1
approchaient 1
▁quasi 1
▁croque 1
▁consommait 1
wet 1
▁Grey 1
▁by 1
pass 1
enzyme 1
▁touchées 1
▁désespèrent 1
▁regrouper 1
▁Burski 1
▁surprends 1
inflige 1
inspirent 1
▁litière 1
incendies 1
▁gonflements 1
▁Clara 1
▁librairie 1
▁retarder 1
▁progression 1
▁anonyme 1
▁alerté 1
▁préservé 1
▁purifié 1
▁volat 1
▁bénédiction 1
▁lié 1
▁chocs 1
▁dises 1
foreuses 1
▁creuseront 1
▁attendront 1
▁déviées 1
▁rebondiront 1
▁atmosphère 1
▁repartiront 1
▁continuité 1
▁rassures 1
▁agite 1
▁couic 1
▁ligoter 1
▁mangera 1
▁expédition 1
ha 1
dum 1
▁vérifiera 1
▁niée 1
▁véhémence 1
▁sanglante 1
croiseur 1
▁minbari 1
▁émettons 1
▁achever 1
longtemps 1
▁cannabis 1
▁revendre 1
▁arsenal 1
▁Technicolor 1
▁attaquant 1
▁rendant 1
▁Curieux 1
impliques 1
couple 1
fossiles 1
▁tempêtes 1
▁fédéraux 1
▁Sauvé 1
▁Boulot 1
jouets 1
jouet 1
divisions 1
vietnamiennes 1
-52... 1
▁bombarderont 1
▁intensivement 1
▁carrés 1
paysans 1
▁huang 1
▁phi 1
▁Viêts 1
▁retirés 1
▁Vann 1
▁assiéger 1
▁Marines 1
▁régulières 1
▁fixaient 1
▁réhab 1
itation 1
enfuie 1
agirait 1
annuaire 1
▁élève 1
▁Wang 1
▁protecteur 1
occuperai 1
▁engloutie 1
▁accroupi 1
▁pliaient 1
▁fixer 1
uns 1
▁admis 1
the 1
▁effroyable 1
manière 1
adaptera 1
▁adapte 1
▁exagéré 1
▁compliquée 1
▁périssable 1
▁négatifs 1
Terre 1
▁mobiliser 1
▁éraflé 1
▁ravi 1
▁coordonnerez 1
▁sachions 1
▁5... 1
▁surprenantes 1
▁philo 1
amende 1
▁salée 1
▁Tueuse 1
participants 1
▁déchirez 1
aille 1
évacuer 1
▁retirons 1
▁cassera 1
probation 1
▁misères 1
▁craquer 1
▁abandonne 1
▁écureuils 1
incinérer 1
▁raclée 1
▁mêle 1
Irakiens 1
▁gardaient 1
▁républicains 1
▁accroissent 1
inévitable 1
mal 1
▁détachée 1
▁votée 1
▁Elaine 1
villes 1
▁Maud 1
▁novembre 1
failles 1
astéroides 1
▁Laisseront 1
▁chaotique 1
▁quartiers 1
▁forçait 1
▁participent 1
▁Sisko 1
▁Fédération 1
▁Vulcain 1
▁écrits 1
▁indiquer 1
▁Starfleet 1
▁25000 1
▁quotidiennes 1
▁ratios 1
▁dégradation 1
▁radiométrique 1
▁ramènera 1
▁Alpha 1
▁milieux 1
▁résulter 1
▁arythmie 1
▁ambassadeur 1
▁ultimatum 1
▁déclarera 1
▁éclairci 1
▁affaiblir 1
affiche 1
▁propagande 1
▁étudiante 1
▁glorifiera 1
▁critiquait 1
confession 1
▁imbues 1
▁Burger 1
▁King 1
▁Bensonhurst 1
▁Poughkeepsie 1
▁natale 1
▁Léningrad 1
Pétersbourg 1
▁Angel 1
▁situés 1
▁commandant 1
▁Deveraux 1
▁gouraient 1
▁fadasse 1
informateur 1
▁déconnecteront 1
▁désires 1
▁ranger 1
▁évanouie 1
▁gardée 1
▁parcours 1
▁acceptaient 1
▁diplômes 1
▁tatouage 1
Naomi 1
," 1
efface 1
▁décollé 1
tombait 1
▁centaine 1
étire 1
▁logiciels 1
▁bancaires 1
▁économiser 1
nazis 1
▁badges 1
compte 1
▁grossisse 1
anges 1
peuples 1
▁économique 1
Excusez 1
▁délai 1
photographie 1
puceaux 1
rds 1
▁associeraient 1
▁huileuse 1
▁minois 1
▁dégueulasses 1
composé 1
allumer 1
contenant 1
▁geste 1
▁situait 1
▁mêlent 1
▁branlaient 1
▁vergogne 1
emmerder 1
▁loterie 1
emprunter 1
▁Sois 1
▁collaboré 1
▁gênant 1
▁foutrement 1
▁crucifixion 1
Veulent 1
▁caillou 1
▁uns 1
▁panel 1
▁génétique 1
Euh 1
▁wouf 1
▁redécoré 1
aspect 1
▁Etait 1
▁net 1
baraquements 1
▁moisis 1
▁puent 1
▁intéressé 1
▁past 1
▁diffusant 1
politiciens 1
▁réunification 1
▁compromet 1
bandits 1
▁cadavres 1
commandes 1
▁tolérance 1
marijuana 1
▁accédait 1
▁délits 1
▁comparable 1
▁commerçant 1
paraîit 1
▁opération 1
▁coopéré 1
▁foret 1
▁tete 1
▁prétends 1
armure 1
▁anéantisse 1
▁constatiez 1
médecins 1
▁décliner 1
changement 1
▁émane 1
▁lifter 1
▁regardées 1
▁accru 1
▁reflexes 1
▁privées 1
▁convaincue 1
▁publiable 1
▁enrichissantes 1
▁safari 1
saucisse 1
▁découpée 1
quadri 1
▁incapacité 1
▁nier 1
▁ravie 1
▁Santiago 1
jury 1
▁délibèrent 1
amiral 1
▁certitude 1
ennuis 1
▁secoue 1
▁bouffée 1
▁monoxyde 1
▁Accepte 1
dinosaures 1
▁dominent 1
▁péninsule 1
ucat 1
▁dinosaures 1
▁suicident 1
▁bloqués 1
▁promeut 1
▁incompétents 1
▁superviser 1
▁grade 1
▁Pennsylvanie 1
liaison 1
▁Charlotte 1
▁serres 1
doigt 1
▁violet 1
▁définira 1
▁allégeaient 1
▁remplissaient 1
épouse 1
▁occupée 1
▁poignardé 1
▁ravies 1
▁Connaissent 1
▁construiront 1
▁Marklars 1
▁déconseillé 1
▁changeants 1
▁réunis 1
▁Assurer 1
▁renaissance 1
▁Bajor 1
▁récompensée 1
▁Prophètes 1
▁Promenade 1
▁tourbillon 1
▁Délivre 1
▁endurent 1
▁accueille 1
▁fouille 1
échappent 1
évasion 1
▁planeurs 1
▁réintroduit 1
▁avalée 1
mini 1
muffins 1
▁mimi 1
▁rosario 1
hosto 1
▁anneau 1
▁Chinois 1
▁mythique 1
Pétrié 1
▁coopérer 1
▁résidents 1
▁Gogolak 1
▁misent 1
▁acquittement 1
▁coéquipier 1
étant 1
▁Holman 1
▁lointain 1
plaît 1
écouterai 1
▁jurés 1
▁tribunes 1
▁afficheront 1
▁ratés 1
▁bascule 1
▁mettes 1
▁ressuscités 1
paren 1
ts 1
▁états 1
héros 1
stop 1
▁Boris 1
▁Badenov 1
▁tueraient 1
▁rade 1
▁ferraille 1
▁élimine 1
aérospatiale 1
orin 1
▁nié 1
▁Turquie 1
▁imposeront 1
▁exiger 1
▁échanger 1
cauchemar 1
▁Diffus 1
déclarations 1
▁appuyaient 1
assassiner 1
défaite 1
▁profiteront 1
opposent 1
▁Hooligans 1
▁détruisez 1
▁commercial 1
convictions 1
▁fragiles 1
voeux 1
▁chasteté 1
▁stricts 1
▁duc 1
▁Blangis 1
▁monarchiste 1
▁bobine 1
▁érection 1
▁atteignait 1
tuer 1
▁déroulent 1
▁sobre 1
▁focalises 1
▁florissante 1
sculpture 1
▁coincés 1
▁écrabouillé 1
▁couraient 1
Anvers 1
▁embrouiller 1
gitans 1
▁éteindront 1
▁mômes 1
▁transformés 1
▁torche 1
enterrer 1
▁raclure 1
pensée 1
▁dégageaient 1
▁causale 1
altérer 1
▁rétrobio 1
▁piquées 1
verdict 1
▁imaginera 1
▁considérées 1
▁politiquement 1
▁réfléchies 1
▁étés 1
▁Malomars 1
▁sacrés 1
▁Malloy 1
▁acceptait 1
▁Margaret 1
▁Thatcher 1
▁parcequ 1
▁Reagan 1
▁Virginie 1
▁confirmer 1
▁enquêter 1
▁Runyon 1
▁pardonnerons 1
oublierons 1
▁Webster 1
▁Tuer 1
utérus 1
▁mexicain 1
▁loto 1
▁explorent 1
Européens 1
arrosez 1
▁citer 1
▁équipé 1
alèses 1
▁profonds 1
assassin 1
▁Friandise 1
▁louis 1
▁régné 1
conducteurs 1
▁appelés 1
emballage 1
▁casher 1
▁décrite 1
▁angélique 1
▁Londres 1
▁mystique 1
▁Caspienne 1
New 1
▁Dolls 1
▁teigneux 1
▁Fouille 1
▁Sid 1
▁slip 1
permanente 1
▁Hélas 1
▁hachées 1
▁finement 1
▁Vianne 1
▁rouille 1
▁acquises 1
urgent 1
▁filent 1
▁Chungju 1
▁honorent 1
▁Hwawol 1
▁tantes 1
▁glane 1
▁bâtons 1
lls 1
▁douzaines 1
▁pêchent 1
▁autorise 1
▁fréquemment 1
▁glaner 1
▁cueilleurs 1
▁maitrise 1
▁vends 1
▁calfeutre 1
ascenseurs 1
▁Passons 1
▁baleine 1
▁mesurer 1
libérateurs 1
agitaient 1
▁folâtraient 1
▁trêve 1
▁précaire 1
▁Hitler 1
▁enchantés 1
▁drapeaux 1
Babcock 1
▁casquettes 1
▁faufilé 1
▁gourbis 1
▁rampé 1
▁évitant 1
▁orphelins 1
▁partagé 1
▁illustrait 1
▁réalités 1
secousse 1
▁explosifs 1
taxi 1
▁branché 1
▁éternué 1
▁oblige 1
▁possédera 1
▁exploseront 1
▁homosexuels 1
▁organisées 1
antichambre 1
▁iras 1
▁assumerais 1
▁Vee 1
in 1
▁rougi 1
▁Falkirk 1
▁Wallace 1
▁émus 1
▁inspirés 1
tueur 1
▁Metcalfe 1
▁battais 1
▁villages 1
▁colonial 1
▁missionnaires 1
▁roquettes 1
▁innovations 1
▁écologiques 1
▁Ishmael 1
▁kit 1
▁peeling 1
▁oubli 1
▁conscient 1
▁rejaillir 1
▁Androméda 1
▁renaît 1
couloir 1
▁clientèle 1
appliquent 1
▁bouquins 1
▁achats 1
▁repartis 1
▁reviens 1
pronostique 1
▁trahiraient 1
▁Phoebe 1
▁filment 1
dermite 1
chirurgiens 1
▁ramèneront 1
▁descendront 1
▁virez 1
bâton 1
▁Crais 1
▁écoutée 1
▁pincé 1
▁Rhumann 1
▁serment 1
▁révèllent 1
▁pertinentes 1
▁activement 1
travers 1
▁module 1
▁freller 1
bouclier 1
▁Kathy 1
▁simulait 1
pilote 1
▁Wiccanes 1
▁manipuler 1
impressionnables 1
zoom 1
▁calmes 1
▁modifiées 1
▁digitalement 1
▁nues 1
▁mac 1
▁souri 1
Talibans 1
▁trahis 1
▁diaboliser 1
▁schizophrènes 1
infirmière 1
▁causée 1
éditeur 1
▁influents 1
▁cafards 1
▁Devlin 1
émeute 1
Hôpital 1
▁Roswell 1
▁terminaient 1
▁hautes 1
▁épousent 1
▁actives 1
▁détermination 1
▁etqu 1
onsesépare 1
▁expliques 1
▁adorable 1
▁dégouline 1
▁cogne 1
▁allumés 1
▁allumées 1
▁Prozac 1
▁implorer 1
ministère 1
▁classée 1
ennemie 1
▁pigeront 1
tension 1
▁lyncheurs 1
▁raciste 1
▁Hourra 1
▁diminuait 1
▁continuaient 1
▁décomposés 1
▁Martin 1
▁compensent 1
▁insignifiants 1
▁forcés 1
▁exposée 1
▁évaporée 1
▁tireurs 1
▁infect 1
▁congrès 1
▁déposition 1
15 1
30. 1
▁penserai 1
▁accorder 1
▁quotas 1
▁compliquées 1
▁appliquées 1
▁opprime 1
▁réfugiés 1
▁illégalement 1
▁enhardis 1
▁portés 1
pèlerins 1
▁vint 1
implanter 1
▁Nouveau 1
▁groseille 1
▁examiné 1
▁animale 1
▁Problème 1
▁saufs 1
ote 1
carburant 1
enflammer 1
▁ravoir 1
▁impatient 1
▁découvraient 1
▁finiriez 1
▁bourrées 1
▁cousues 1
▁Dalia 1
▁tentations 1
▁prophètes 1
Maîtres 1
chant 1
▁vaincre 1
▁Ignorant 1
▁représailles 1
▁israéliennes 1
Autorité 1
▁palestinienne 1
▁Palestine 1
▁spacieuse 1
avaitjamais 1
anniversaire 1
▁allumèrent 1
▁bougies 1
▁refont 1
▁entrevu 1
▁etdétournerles 1
▁Martienspendant 1
▁quenousposions 1
▁dynamite 1
prendre 1
▁etnous 1
▁devionsnous 1
▁lepluspossible 1
▁canyon 1
▁avantquela 1
▁Tenir 1
▁hygiéniques 1
▁serviettes 1
▁agonisait 1
emplit 1
▁désunit 1
▁comtesse 1
▁enterrer 1
▁Valois 1
▁représentait 1
incroyables 1
▁accompl 1
issements 1
▁technologiques 1
▁contrôlé 1
▁aptitude 1
▁scores 1
▁amélioré 1
▁dramatiquement 1
▁honorer 1
▁consumérisme 1
aimes 1
▁démontrer 1
▁contraste 1
▁affirmation 1
▁téméraire 1
▁inconditionn 1
▁rejet 1
▁naît 1
liard 1
▁développez 1
▁mono 1
▁divisent 1
▁inhibition 1
accumulent 1
▁opposés 1
▁assidu 1
écrivais 1
▁cavité 1
▁péritonéale 1
▁assassinat 1
▁perversion 1
▁coupera 1
▁tiges 1
▁revivront 1
▁paysage 1
Quelques 1
altruisme 1
rendent 1
▁offrandes 1
▁suffisantes 1
affirmer 1
▁exercer 1
▁Nicole 1
▁plait 1
huile 1
voyous 1
▁latinos 1
▁rappliqué 1
▁buter 1
thwock 1
Lumière 1
artha 1
▁réag 1
¡ 1
▁carats 1
▁calendriers 1
▁résolus 1
▁Bonjour 1
notre 1
▁paraîtrait 1
▁procurent 1
▁souhaité 1
▁spéciaux 1
▁indiquent 1
▁fondation 1
▁souhaitait 1
▁Dunne 1
note 1
▁excuses 1
▁poignante 1
auriez 1
▁ramassé 1
étape 1
▁Ouvrir 1
Séminoles 1
▁exceptionnelle 1
▁inspirante 1
▁envoûtante 1
▁chapeaux 1
▁melon 1
▁hantera 1
frangins 1
▁blessée 1
▁navré 1
▁citoyen 1
▁Capisce 1
▁unanimes 1
Francais 1
▁attrait 1
▁universel 1
▁frit 1
▁black 1
▁crevette 1
▁clignotantes 1
▁ventilo 1
chute 1
▁capsules 1
▁détonateur 1
▁télécommandé 1
▁grenades 1
▁Ut 1
▁hangar 1
▁limande 1
embête 1
▁douloureux 1
Père 1
▁méfient 1
▁Pape 1
détresse 1
▁accable 1
▁empoisonne 1
▁paroisses 1
▁évêques 1
▁renseignement 1
informe 1
▁Tziganes 1
▁sauvait 1
lerait 1
biopsie 1
▁positive 1
menteurs 1
▁Jeffrey 1
épileptique 1
▁braquage 1
activer 1
grappins 1
▁déployés 1
▁bide 1
▁lmaginez 1
▁attiré 1
▁syndiqués 1
▁Lecter 1
▁Parlez 1
▁enlevées 1
▁Steven 1
tradition 1
▁implantent 1
▁étonnants 1
adapter 1
▁situations 1
▁décors 1
▁absents 1
terrestre 1
▁révolutionner 1
terrestres 1
▁intéressants 1
▁Cousteau 1
▁détienne 1
▁interprêter 1
▁insulter 1
▁roulent 1
▁ridicules 1
▁conviennent 1
▁prennes 1
▁impact 1
▁épouvantable 1
▁poursuit 1
▁pakistanais 1
▁minables 1
▁riaient 1
▁Allemands 1
▁Espagne 1
▁magouillent 1
▁Coco 1
jours 1
pool 1
▁éternité 1
combattants 1
▁mutuellement 1
▁citations 1
▁Remettez 1
jus 1
▁fermement 1
%% 1
▁tremper 1
▁moelleuses 1
▁cachée 1
▁programmées 1
▁connecté 1
loyauté 1
▁Stanley 1
▁Jaffe 1
▁rendit 1
chienne 1
▁patte 1
▁Toutres 1
éclatent 1
fragment 1
iaque 1
▁Aurelie 1
▁res 1
iee 1
▁grâces 1
▁désigne 1
▁apparitions 1
girl 1
▁contrarier 1
▁girl 1
énerverait 1
Malchanceux 1
▁Tucky 1
▁galerie 1
▁Perri 1
▁Souvenez 1
Algernon 1
▁Sidney 1
procès 1
▁jurys 1
▁appropriés 1
apparition 1
▁progresse 1
▁tampons 1
▁tribus 1
▁indiennes 1
▁directions 1
▁réparent 1
▁expérimentale 1
▁méthamphétamine 1
▁atteints 1
▁traumatique 1
ocytocine 1
▁Appalaches 1
▁propagée 1
▁Massachusetts 1
risque 1
▁CM 1
1, 1
▁Joey 1
▁DeLoy 1
zizi 1
▁œ 1
▁pêché 1
▁intimidante 1
▁soft 1
▁comparez 1
▁célibataire 1
▁vs 1
technique 1
sifflet 1
▁confirmé 1
▁fleurissait 1
▁fur 1
▁nourrissaient 1
cuillère 1
▁caramel 1
▁salé 1
▁Philadelphie 1
exécution 1
▁Pryce 1
▁Walter 1
▁Longmire 1
▁influente 1
ségrégation 1
▁limitée 1
▁aîné 1
▁Andrew 1
av 1
▁ère 1
▁chaume 1
▁Barry 1
serrure 1
▁luisent 1
▁développons 1
▁téléchargée 1
▁texanes 1
▁apprenaient 1
▁chauffent 1
▁promener 1
▁pinçaient 1
qualités 1
▁superfici 1
▁interrogatoire 1
tribus 1
fféren 1
▁sectes 1
▁battues 1
terme 1
▁soulevé 1
cabriolet 1
▁fontionnent 1
▁habitude 1
▁tampon 1
▁peint 1
▁hideux 1
▁soupe 1
▁entuber 1
inscrivent 1
▁alias 1
▁Lorelei 1
▁perplexe 1
▁Séoul 1
▁LE 1
▁AFRIKA 1
▁initiales 1
▁fouinent 1
▁avancée 1
▁cerceau 1
▁baguettes 1
enfuient 1
▁Suivre 1
▁éraflées 1
▁plis 1
▁dépouillés 1
▁asservis 1
▁révolteront 1
▁sauvèrent 1
▁banlieues 1
▁achetèrent 1
▁posèrent 1
▁verrous 1
▁alarmes 1
▁grilles 1
▁rassurés 1
▁douillet 1
▁conditionnés 1
▁chaînes 1
Canadiens 1
▁aventurés 1
▁Kayla 1
▁universités 1
▁rêvaient 1
▁espéraient 1
▁couchera 1
▁Denver 1
▁assurons 1
▁démoli 1
▁for 1
▁idéaux 1
▁Regens 1
▁Hall 1
▁Langebro 1
▁sures 1
▁connaîtras 1
▁1100 1
▁inconsciemment 1
▁consultées 1
▁soumises 1
▁allions 1
▁fusillés 1
Rendez 1
▁Klara 1
▁Khariton 1
▁Shavuot 1
▁montrons 1
▁rappelons 1
▁Union 1
▁Brisée 1
▁venons 1
▁déposé 1
▁bipède 1
▁primates 1
▁bâtonnet 1
attrapent 1
▁bitte 1
▁convoqué 1
importants 1
▁financiers 1
bagarre 1
▁Parlons 1
▁reproduise 1
▁télomères 1
▁division 1
▁indéfiniment 1
intéressant 1
▁étincelaient 1
▁éduquées 1
▁350 1
▁enquiquinants 1
▁dorénavant 1
▁dénudent 1
▁torse 1
▁gisent 1
▁déserté 1
▁attendiez 1
tâche 1
▁battons 1
▁ri 1
acharnent 1
▁émoussée 1
▁confidenti 1
¿ 1
Julien 1
▁Julien 1
▁biche 1
éternité 1
affiches 1
▁parviennent 1
absents 1
▁excuser 1
▁marocains 1
▁Nourredine 1
▁flamand 1
▁désaltère 1
▁Hong 1
▁Kong 1
Anciens 1
▁changertoutes 1
▁dêtre 1
▁refusés 1
▁Paradis 1
▁reflet 1
▁farfouillent 1
▁balancent 1
▁levons 1
verres 1
▁bouquets 1
▁juraient 1
▁déménageraient 1
Toi 1
▁directeur 1
▁offrait 1
▁appart 1
▁échangé 1
▁yuans 1
▁enregistrât 1
▁record 1
▁1993, 1
▁déficitaire 1
▁semestre 1
▁1995. 1
▁entendez 1
▁grince 1
enflamment 1
▁relocalisé 1
Dieux 1
▁sombré 1
▁Gouvernements 1
▁promotion 1
projets 1
▁misant 1
▁prospères 1
▁fermiers 1
▁industriels 1
▁Sardar 1
▁Sarova 1
▁potable 1
▁gagnons 1
▁dénoncer 1
▁libèrerai 1
▁ampoule 1
alimentés 1
▁précise 1
enlèves 1
▁coupes 1
▁générateur 1
ation 1
▁infroissables 1
▁Bobby 1
▁finissait 1
apprendras 1
▁Gotham 1
Dinah 1
emmèneront 1
emmèneraient 1
▁accouche 1
▁encyclopédie 1
▁Galle 1
émigration 1
▁Deirdre 1
▁sensationnels 1
▁jouiez 1
risques 1
boxeurs 1
▁persuadés 1
▁battraient 1
▁attirés 1
Molina 1
▁mercure 1
injectait 1
▁gère 1
locataires 1
transmission 1
sexu 1
sirènes 1
▁bibelots 1
▁brillants 1
▁chansons 1
▁marins 1
adoption 1
▁document 1
▁Leo 1
▁transgénique 1
▁tenace 1
▁Vérifie 1
▁vocales 1
▁cappbles 1
▁distorsion 1
▁acceptable 1
entichent 1
▁directive 1
▁respiratoire 1
▁fouillent 1
▁ponts 1
▁gêner 1
▁renforcera 1
▁obligeant 1
▁hulla 1
▁hoop 1
▁saurai 1
▁docteurs 1
▁lancement 1
▁dégagée 1
▁procurés 1
▁fluides 1
▁corporels 1
▁pièges 1
▁pistolets 1
▁fromage 1
humour 1
gouvernante 1
▁débordée 1
▁ajouteront 1
▁bénévoles 1
▁étudient 1
▁Bible 1
▁bâtir 1
▁antiatomique 1
▁antibactéri 1
ologique 1
▁antichimique 1
▁réservé 1
▁huiles 1
▁Delhi 1
▁délocalisaient 1
▁défendus 1
▁rapatrié 1
▁Secteur 1
▁secteurs 1
▁concernés 1
▁brouiller 1
▁pistes 1
▁DOMICILE 1
▁JULIE 1
▁FELDMAN 1
▁SAMEDI 1
▁MARS 1
▁Ricky 1
▁saisis 1
▁Westchester 1
9. 1
▁vouliez 1
▁plaider 1
▁déficience 1
▁concluante 1
▁épluché 1
▁testament 1
garage 1
▁amochées 1
▁mystérieuse 1
▁issue 1
▁charitable 1
▁modèles 1
▁claires 1
▁opérer 1
▁exigences 1
▁phrases 1
▁logeront 1
gonorrhée 1
▁asymptomatique 1
tables 1
▁excitant 1
▁Smallville 1
▁Lana 1
▁approchés 1
▁frôlé 1
▁sabots 1
▁Méfie 1
chèvre 1
▁corne 1
▁manquement 1
trétonine 1
▁récupérera 1
▁camouflé 1
▁formée 1
▁Svarog 1
imploreront 1
▁disparaîtront 1
réplicateurs 1
▁consommeront 1
▁réplicateurs 1
▁inestimable 1
▁agile 1
▁énergies 1
▁Cie 1
▁remarque 1
▁patate 1
▁fuseau 1
▁seriez 1
▁député 1
▁vécue 1
Démocrates 1
▁désigné 1
▁budgétaire 1
▁Pittsburgh 1
▁eues 1
adorais 1
éch 1
▁rassemblé 1
▁paralysé 1
commande 1
▁buccale 1
▁1964, 1
▁Jacarutu 1
▁sietch 1
Arakeen 1
épice 1
▁ralentira 1
▁fraction 1
▁ressentaient 1
excuses 1
▁croiser 1
▁pipelines 1
prophétie 1
▁requérait 1
▁encline 1
▁supprimé 1
▁faisons 1
▁commencés 1
▁baisers 1
▁cargos 1
▁enfermèrent 1
▁tonneau 1
▁vendirent 1
cinq 1
▁enfoirés 1
▁sophistiquées 1
▁bâtard 1
▁hideuse 1
▁abyssales 1
événements 1
▁intensité 1
▁résonnent 1
▁écho 1
▁survivait 1
ongles 1
▁liquéfié 1
œ 1
▁adroitement 1
▁enfreint 1
▁rêgles 1
▁zonage 1
▁établies 1
▁1966. 1
▁fatiguée 1
illustrations 1
▁textes 1
▁visent 1
▁considérés 1
▁œuvres 1
 1
obstacles 1
▁sautant 1
▁spectateur 1
▁timbre 1
▁AMG 1
▁abrutis 1
▁Jaguar 1
Type 1
▁Généralement 1
▁revendent 1
▁Microsoft 1
▁Oracle 1
▁Intel 1
▁regarderont 1
▁PV 1
▁ripoux 1
▁sain 1
▁mollet 1
▁médicalement 1
▁vindicatives 1
biches 1
▁Amérique 1
accorde 1
▁boissons 1
▁Find 1
▁over 1
order 1
▁drinks 1
▁quon 1
▁adoreraient 1
▁écoutés 1
▁baraque 1
▁porche 1
'" 1
Autant 1
▁factures 1
▁mobilier 1
▁étiquettes 1
▁favorites 1
▁soupirent 1
▁caddies 1
emmena 1
▁Building 1
▁ascenseurs 1
▁câble 1
▁building 1
▁fourmis 1
▁dissoudrait 1
15< 1
▁pote 1
stars 1
▁risquer 1
précises 1
▁hôpitaux 1
▁tombeaux 1
▁clown 1
Nous 1
signe 1
habillent 1
Indiens 1
espagnol 1
▁payaient 1
▁Chino 1
▁guérilleros 1
▁10/10. 1
▁lâcheraient 1
▁barrer 1
▁offrirai 1
1000 1
▁Georges 1
minorités 1
▁contentes 1
▁Gilliam 1
▁intéressons 1
détenus 1
▁éduque 1
▁contribueront 1
▁filme 1
▁triche 1
▁embarquent 1
▁Dave 1
▁calé 1
▁Salut 1
▁". 1
▁probant 1
▁Marseilles 1
▁quittant 1
▁sympathisé 1
▁mafia 1
▁Capone 1
▁sagement 1
fric 1
▁ralentisse 1
▁imminent 1
appels 1
▁mordait 1
▁Gato 1
▁Relax 1
▁chiés 1
▁surveillants 1
▁traversera 1
▁avancera 1
éclate 1
Atlanta 1
▁détecteur 1
▁plexiglas 1
▁empailler 1
videurs 1
▁videur 1
z 1
â 1
▁Emmenez 1
▁percuté 1
▁flashes 1
▁irrationn 1
>." 1
▁pertes 1
▁broute 1
▁professionnels 1
▁Jesse 1
▁Nassau 1
▁McMartin 1
▁criaient 1
▁innocence 1
▁amenait 1
Arnold 1
▁écoutait 1
▁plaidé 1
▁manigancé 1
▁terrifiante 1
▁horribles 1
▁plaiderais 1
▁discutent 1
▁pleurais 1
papa 1
tant 1
naknak 1
▁disciplinés 1
▁réapparaissait 1
▁enfoui 1
▁excuse 1
▁manigancent 1
▁abandonnés 1
▁communiste 1
▁rires 1
▁rang 1
▁repassés 1
▁accrochant 1
▁tourment 1
?" 1
parfois 1
chemise 1
Kammo 1
lnde 1
▁blâme 1
▁croupit 1
▁mutiler 1
▁coûterait 1
▁approxim 1
ativement 1
▁regrette 1
▁attentes 1
▁renoncements 1
▁codés 1
aveugles 1
▁aurions 1
▁opprobre 1
job 1
▁suffirait 1
▁continent 1
neigera 1
▁tourisme 1
▁Cheju 1
▁gelées 1
▁étang 1
▁dérivent 1
▁paresseusement 1
▁sushi 1
▁réponds 1
▁dicte 1
épanouissement 1
peuplement 1
▁obstruer 1
▁respiration 1
cutanée 1
adaptation 1
▁ambiant 1
▁ép 1
atoires 1
▁éliminent 1
éruption 1
▁débridée 1
▁radicules 1
▁pubescentes 1
▁ciseaux 1
▁rasoirs 1
▁trempées 1
▁apprécient 1
▁débrancher 1
▁transmets 1
infliger 1
▁60. 1
▁bleuissaient 1
▁saignaient 1
▁marchaient 1
▁endoctriné 1
21, 1
▁tuait 1
interrogateurs 1
▁emmenaient 1
▁détenues 1
▁profitaient 1
▁tâter 1
▁emmenait 1
▁Chœung 1
▁Ek 1
▁plument 1
▁progressent 1
▁rugby 1
▁Giscard 1
▁Mitterrand 1
▁enterrera 1
▁Chirac 1
▁Félicitations 1
▁merveilleuses 1
▁jum 1
▁méconnaissable 1
▁tabassés 1
gros 1
▁bonnets 1
opérations 1
▁tremblé 1
prolétaires 1
▁démocrate 1
chrétien 1
ravisse 1
urs 1
▁assassins 1
▁arrêtés 1
▁perpétuité 1
▁purgent 1
▁experts 1
▁Aldo 1
▁légué 1
▁enseigne 1
▁éphémère 1
▁partant 1
▁salaires 1
▁augmenté 1
▁récessions 1
▁augmente 1
▁maximaliser 1
▁suprématie 1
▁punies 1
▁corporatifs 1
▁baron 1
▁Thurlow 1
▁incarcérer 1
▁enclaves 1
▁motiver 1
▁compagnies 1
▁dénationalisée 1
▁accepteraient 1
▁préféreraient 1
▁impôts 1
▁sociétés 1
▁remanient 1
▁nationale 1
▁repassent 1
▁écouteurs 1
▁révoltent 1
illégal 1
▁récusent 1
gouvernements 1
▁méditation 1
▁transcendantale 1
beaucoup 1
exagère 1
▁dédain 1
▁combattants 1
▁capturait 1
▁humour 1
▁tranchées 1
▁plaise 1
▁cheville 1
messieurs 1
▁chient 1
▁froc 1
▁ser 1
▁souvenaient 1
œsophage 1
▁déchirerait 1
▁sanction 1
orange 1
▁foncez 1
▁merveilleuse 1
observer 1
lézards 1
▁monitor 1
▁Pong 1
▁Takien 1
▁Foncez 1
meetings 1
▁Sherry 1
▁Roger 1
▁descend 1
▁Santa 1
▁Fe 1
▁Springs 1
▁juillet 1
▁mathématicien 1
▁breveté 1
▁polytechniciens 1
autodétruise 1
▁transfert 1
▁instantané 1
▁NRO 1
Oural 1
▁survolée 1
▁déployant 1
▁biologique 1
▁identifiant 1
lance 1
défense 1
▁jailli 1
▁pressée 1
▁protectrice 1
▁Angelus 1
▁Hildebrand 1
interro 1
▁trigo 1
▁chapitres 1
▁supplémentaires 1
▁condamner 1
sceau 1
▁œuvre 1
▁périple 1
▁bail 1
▁rétrospective 1
▁Hitchcock 1
▁vidée 1
▁okay 1
▁constituaient 1
inspecteurs 1
▁techniques 1
▁distribuent 1
▁soupapes 1
▁pilotes 1
▁assuré 1
lés 1
▁lieutenant 1
▁concrétisent 1
▁Pouvoir 1
▁Rich 1
▁têtues 1
▁rangées 1
▁oreiller 1
poussière 1
▁applaudiront 1
▁tarte 1
▁pommes 1
▁citation 1
▁Fisher 1
▁liquidé 1
▁viêt 1
cong 1
chouettes 1
▁prédateurs 1
▁mammifères 1
▁avalent 1
▁digèrent 1
dates 1
▁Pottery 1
▁Barn 1
▁canards 1
▁écossais 1
ananas 1
engage 1
▁den 1
▁libères 1
Pol 1
▁divertissement 1
▁vulgaire 1
▁instructif 1
indis 1
▁débarrassé 1
▁donnerons 1
▁kemocite 1
▁fabrique 1
▁peins 1
▁mariages 1
▁Télé 1
▁magazines 1
▁recommandons 1
▁quarantaine 1
▁agressive 1
▁contemplons 1
▁étonnement 1
bulle 1
élargit 1
services 1
▁coûteux 1
▁baladeuses 1
▁préfèreront 1
visite 1
▁apprécierait 1
▁situé 1
▁Sibérie 1
▁suivies 1
▁corrects 1
quelle 1
▁renverront 1
▁ad 1
▁vitam 1
▁eternam 1
acquisitions 1
▁potenti 1
▁marcherai 1
▁Peach 1
▁Shell 1
▁nettoyé 1
▁tireront 1
▁Rabb 1
casquette 1
altercation 1
▁Singer 1
▁mourrir 1
▁911. 1
▁Laissons 1
élèves 1
▁fauteu 1
▁mimes 1
▁séchez 1
▁refermer 1
▁mesurait 1
▁Chicago 1
▁Monaco 1
▁désappointer 1
▁plaignant 1
▁libérale 1
égout 1
▁gâchée 1
▁dépression 1
ordonnance 1
▁comprimés 1
▁mémo 1
▁mailing 1
Aptril 1
▁retrace 1
envers 1
▁rebondi 1
▁chaudière 1
▁détails 1
▁soyons 1
▁ivres 1
▁négligeable 1
▁pile 1
▁Frannie 1
▁cristal 1
▁tarots 1
▁Découvre 1
▁rationnelle 1
▁comprenions 1
▁soulevait 1
barre 1
▁encombrant 1
▁apparement 1
▁emmenagé 1
Ouzbékistan 1
▁apartement 1
▁réconcilier 1
▁amende 1
▁rembourse 1
▁Donnie 1
▁Personn 1
▁atteinte 1
▁angoissés 1
▁transpirent 1
▁maximale 1
▁brûlante 1
▁cuisinière 1
▁refroidir 1
▁Kareem 1
▁dévouement 1
nizée 1
thérapie 1
▁électrochocs 1
▁torride 1
▁Knicks 1
▁blessés 1
▁suivront 1
masques 1
▁tragi 1
comédie 1
▁grecque 1
▁assortis 1
▁grecques 1
homosexuels 1
▁désobéit 1
▁divin 1
▁commandement 1
▁procréer 1
▁jetaient 1
▁rentrait 1
premières 1
éteignait 1
agitait 1
interprétait 1
exorcisez 1
▁consumeront 1
estime 1
journalisme 1
lunes 1
▁occupent 1
▁franchis 1
▁exactes 1
▁piratées 1
▁concerts 1
▁pari 1
▁ôter 1
accrochent 1
▁devancer 1
émergent 1
▁transmises 1
▁voisines 1
▁zat 1
▁mayonnaise 1
▁2/3 1
presse 1
▁inhumés 1
▁conteneur 1
▁cargaison 1
contrebande 1
▁décidera 1
▁roulait 1
▁disputaient 1
▁classées 1
▁chronologique 1
quatre 1
▁interviewent 1
▁encerclé 1
horaire 1
▁cuisse 1
▁loger 1
▁fascia 1
▁conjonctif 1
armées 1
▁irakienne 1
▁dispositifs 1
▁conclu 1
▁inefficaces 1
▁évoquées 1
▁utilisaient 1
▁attentats 1
▁Soviétique 1
▁talibans 1
▁souhaitaient 1
▁islamique 1
▁radicale 1
▁contradictoires 1
▁attaques 1
islamistes 1
entretenir 1
inconscient 1
▁collectif 1
▁viser 1
▁clandestin 1
Qaida 1
▁Saddam 1
▁Hussein 1
Bretagne 1
▁incarcérés 1
▁QHS 1
▁imaginaient 1
appuyait 1
▁craintes 1
fumisterie 1
▁répandait 1
▁lassitude 1
▁alentour 1
▁spic 1
span 1
▁investissements 1
▁expansion 1
▁régulée 1
▁Sens 1
saboteurs 1
▁ferrée 1
▁fréquentée 1
▁intervention 1
▁apathiques 1
▁peloter 1
▁Assure 1
attraperai 1
▁traits 1
▁adorée 1
▁malmène 1
▁pancréas 1
▁sire 1
agenouillent 1
héritier 1
Agent 1
▁Kulok 1
▁jurait 1
▁habituelles 1
▁HIV 1
▁téléphonerai 1
▁rattraper 1
victime 1
écorce 1
▁racines 1
▁Travail 1
▁Paso 1
▁avortement 1
▁massacrée 1
▁conditionnel 1
▁Faux 1
Semblants 1
télécommande 1
▁combustible 1
▁gentleman 1
choc 1
▁dispute 1
▁pleinement 1
▁légitimité 1
▁omniprésente 1
▁ultra 1
orthodoxe 1
▁néfastes 1
▁engloutissent 1
▁millénaire 1
▁migrent 1
instinct 1
▁médiathèque 1
▁Bloshoi 1
▁ballerine 1
▁égyptienne 1
▁choisie 1
▁sou 1
_ 1
rance 1
▁unanime 1
architecte 1
▁Ramy 1
oussef 1
▁Ady 1
▁Utiliser 1
▁orientations 1
▁civ 1
▁effondrements 1
▁innondations 1
▁produirà 1
▁pluies 1
▁intenses 1
▁temple 1
▁vagues 1
▁Baker 1
▁mouillées 1
▁vengent 1
Covenant 1
▁documents 1
▁perruque 1
▁dimanches 1
orphelinat 1
▁Santelmo 1
▁déchargée 1
▁relierait 1
▁sournoises 1
modèle 1
▁Ange 1
Quête 1
▁joyeuses 1
▁Herman 1
lit 1
vacances 1
▁émotionn 1
ellement 1
▁réveillées 1
mesures 1
▁résolvent 1
▁amertume 1
▁produite 1
▁confiaient 1
▁nounous 1
▁découvrirait 1
▁courses 1
▁foncé 1
▁sourires 1
▁raser 1
▁CC 1
disque 1
▁portiez 1
▁Vosk 1
quartier 1
▁portées 1
▁Lee 1
▁boit 1
▁apprécie 1
▁gamines 1
▁comblé 1
▁lacune 1
Aah 1
Ooh 1
▁ralenti 1
▁délicieuse 1
▁assemblée 1
▁municipale 1
campus 1
▁désuétude 1
avancée 1
▁fondues 1
▁ponce 1
▁stérilets 1
laser 1
▁cautérise 1
▁Brute 1
ex 1
▁prostituer 1
corporations 1
▁ruiner 1
▁supposée 1
▁prescriptions 1
▁légales 1
▁prescrit 1
▁pornos 1
avertissement 1
exposition 1
▁clamer 1
▁inspection 1
▁approfondie 1
▁amygdales 1
▁compteur 1
32,50. 1
▁surveillance 1
affecte 1
▁Droguées 1
▁détesterai 1
▁poursuivie 1
▁compétitives 1
▁gamme 1
▁incluant 1
▁look 1
▁inhabituel 1
▁partiez 1
▁125 1
▁intermittente 1
▁maintenance 1
▁Martha 1
▁Garden 1
inscrire 1
▁BOTO 1
▁Summer 1
▁comparée 1
horrible 1
▁splenectomies 1
▁recommandait 1
▁perturbantes 1
outrage 1
▁subit 1
▁passionnée 1
▁compromis 1
▁superposé 1
▁éclairent 1
▁câbles 1
▁guanaco 1
▁rumine 1
▁souche 1
▁divisait 1
▁grossissait 1
biologie 1
▁modifiée 1
ballon 1
▁foot 1
▁légèr 1
écrase 1
▁provoquez 1
▁dévoileront 1
espériez 1
chaises 1
▁hideuses 1
▁paternaliste 1
▁rattrapages 1
▁Emily 1
Garrett 1
▁approché 1
▁sérum 1
▁chauffé 1
éclaircisse 1
▁inut 1
isable 1
▁parlerai 1
vaudrait 1
▁intéressantes 1
interdis 1
▁fatalement 1
automatiser 1
▁espace 1
▁Krystovski 1
▁transmis 1
ulds 1
▁rechercher 1
▁mécanisme 1
▁retenant 1
▁libèrera 1
▁remontera 1
▁Réponse 1
▁Karris 1
Porte 1
▁alimentée 1
▁sortants 1
▁entrants 1
▁évacuation 1
▁fichera 1
▁réagissait 1
▁Mettez 1
▁mous 1
▁gercées 1
colle 1
▁déprimes 1
▁fertilise 1
▁buisson 1
▁concu 1
▁réussite 1
itaires 1
Iran 1
uranium 1
goupille 1
▁Débarrasse 1
▁sucent 1
▁préférerais 1
▁compétent 1
veux 1
▁porcelaine 1
affament 1
▁mutilent 1
▁esthétique 1
▁standard 1
▁Fixer 1
▁idéal 1
▁répande 1
▁épineux 1
effriter 1
▁Mm 1
▁Skinner 1
▁sauvées 1
▁Hallelujah 1
▁hallelujah 1
▁Cash 1
▁44 1
▁adapter 1
▁décevantes 1
▁argumentent 1
▁bases 1
▁enraciner 1
▁Montagne 1
▁Pelion 1
▁rajeunir 1
▁hachaient 1
▁bouillir 1
▁chaudron 1
́Â 1
▁Lemnos 1
▁premiere 1
▁importé 1
▁Noire 1
▁Colchis 1
▁Toison 1
Arthur 1
▁Merlin 1
▁étinc 1
graal 1
▁Graal 1
isée 1
▁Dernier 1
vanneau 1
▁Salomon 1
▁poli 1
▁chatoyait 1
▁présenter 1
▁so 1
▁ur 1
savez 1
▁convenable 1
▁osseuse 1
fichier 1
▁allant 1
▁soufflé 1
▁impec 1
▁limonade 1
▁biere 1
▁problemes 1
▁Oublie 1
▁éclosent 1
▁serpents 1
▁voraces 1
▁Meme 1
écolieres 1
▁catholiques 1
▁récitent 1
Ave 1
veuves 1
▁fantasmer 1
moustique 1
assoit 1
▁cratère 1
▁versera 1
▁tuez 1
▁pollinisait 1
▁disséminent 1
▁végétation 1
▁murée 1
▁fragile 1
▁surpuissant 1
▁combler 1
rose 1
▁restons 1
▁corporelle 1
▁Partez 1
▁Restons 1
étendait 1
▁recouvrait 1
▁disposons 1
▁souhaiteraient 1
employée 1
arc 1
▁comptables 1
▁abstraits 1
passif 1
hymne 1
▁114 1
épouses 1
▁Dogg 1
▁Bougeais 1
▁conviendra 1
▁Lmagine 1
intimité 1
▁verrouillée 1
chaîne 1
engagera 1
aies 1
▁92 1
▁Louis 1
▁bouler 1
▁divorcées 1
▁alcooliques 1
▁aigries 1
▁rappelez 1
▁Toulon 1
▁réunissaient 1
▁partageaient 1
▁bulletins 1
victoires 1
▁douleurs 1
▁ultime 1
▁commerces 1
▁Wasson 1
▁fermait 1
▁Nanny 1
▁impossibles 1
▁injustes 1
▁intangibles 1
▁Solve 1
▁Isoler 1
▁Coagula 1
▁démontées 1
▁dictionnaire 1
▁défini 1
▁repiquer 1
▁fila 1
▁appât 1
▁coupés 1
▁époux 1
Larry 1
▁Parrish 1
▁dépravé 1
▁maniaque 1
▁indubitablement 1
▁nuisent 1
▁fœtal 1
apprêtent 1
▁Vallois 1
crit 1
 1
attende 1
lectionn 1
▁tabous 1
▁sociaux 1
▁Remarque 1
Quincy 1
▁Quincy 1
mieux 1
▁absorber 1
▁accéder 1
▁propane 1
▁bouse 1
▁authenticité 1
▁invérifiable 1
▁divagations 1
▁Parti 1
▁démissionnaire 1
▁mentaux 1
évidence 1
▁survivra 1
▁fie 1
▁prémonitions 1
▁recrutées 1
office 1
▁chambouler 1
▁Armée 1
▁déplaît 1
▁actionnaires 1
inciter 1
animosité 1
▁MOI 1
obéiront 1
▁CR 1
È 1
▁copain 1
▁devinait 1
▁écrites 1
▁rougissent 1
▁pastèque 1
▁rentable 1
▁ensorcelante 1
avoue 1
▁lot 1
▁Rolex 1
coups 1
▁silencieuses 1
▁merci 1
porno 1
▁décrivait 1
▁gays 1
▁montrée 1
▁Arrosez 1
▁droguent 1
▁tatouent 1
allument 1
▁régulateur 1
▁consomment 1
▁compassion 1
▁banni 1
avin 1
▁joignent 1
▁mercenaire 1
▁Mortes 1
type 1
▁cramées 1
▁banc 1
▁province 1
▁labourer 1
froid 1
▁caverne 1
▁enfuies 1
▁retournées 1
amusent 1
▁ressusciter 1
▁ressentons 1
▁mérique 1
▁résonneront 1
▁rivières 1
▁vallées 1
▁bourdonnera 1
▁courbes 1
▁ébruité 1
▁Mangent 1
▁jupons 1
▁déesses 1
▁promené 1
▁stupidité 1
▁touchante 1
▁poésies 1
▁étal 1
▁somnambule 1
▁tisse 1
Audrey 1
garantie 1
▁CAT 1
▁parait 1
emmèneras 1
emmènerons 1
▁lunette 1
▁brillante 1
▁diffusées 1
assure 1
lèvres 1
▁mutant 1
▁insolite 1
ANAF 1
▁longueur 1
▁planquaient 1
▁tapis 1
meufs 1
▁rideaux 1
▁titubent 1
▁bâtirez 1
▁exemplaire 1
▁établissant 1
▁sauvegardes 1
▁réfute 1
▁hache 1
▁importée 1
montant 1
▁adeptes 1
occupe 1
▁gisement 1
▁goudron 1
▁mou 1
▁éplucher 1
▁dithiophosphate 1
▁diméthyle 1
▁pesticide 1
▁éloignés 1
▁intéressées 1
piston 1
▁merveille 1
▁Odorscreen 1
▁commercialisée 1
sable 1
▁Bayliss 1
▁suivrais 1
▁achevée 1
▁modifiant 1
▁Source 1
ankou 1
▁germe 1
▁alimente 1
▁Réponds 1
▁légaux 1
▁Myers 1
clébs 1
▁dangeureusement 1
▁impliqué 1
aides 1
▁rendrai 1
▁actu 1
▁risquait 1
caravane 1
▁campement 1
▁transportait 1
▁immigrés 1
▁clandestins 1
▁grains 1
▁employeur 1
▁télégraphe 1
▁raides 1
▁organiser 1
▁scéance 1
▁garderie 1
▁normallement 1
▁Valentin 1
▁fiancent 1
▁sympathie 1
épreuve 1
▁draguent 1
▁concitoyens 1
aggraver 1
▁gazeuses 1
▁véhicule 1
▁désagrège 1
▁fréquenté 1
▁trimbalent 1
▁saintes 1
▁Vas 1
▁révélé 1
▁mentalement 1
▁attardé 1
▁vexer 1
casseroles 1
angelots 1
▁supportes 1
emballent 1
▁utilises 1
▁contacts 1
▁Blackhole 1
bunker 1
▁inactif 1
▁Rambaldi 1
lanciers 1
▁reviendrons 1
▁enterrement 1
▁adoptent 1
▁stratégies 1
▁quoique 1
▁débarrasse 1
▁arrachez 1
▁défoncer 1
▁décrire 1
amnésie 1
▁suffi 1
▁étincelle 1
▁subsisté 1
▁diesel 1
▁incubes 1
▁séduisaient 1
raz 1
marée 1
▁signes 1
tsunami 1
▁anxieuses 1
▁orages 1
▁couveuse 1
meuh 1
▁Drogué 1
▁normalement 1
▁inconfortables 1
▁métastasée 1
▁Olive 1
▁immun 1
oglobulines 1
nature 1
▁referont 1
▁infections 1
gueules 1
▁cytokine 1
▁potassium 1
▁attires 1
▁synthétisé 1
▁immuables 1
▁rigoureuses 1
▁guerrières 1
▁discrètement 1
▁répugnantes 1
▁massages 1
▁remplira 1
▁métiers 1
▁explorer 1
▁peluche 1
▁coûtaient 1
Holly 1
▁violée 1
▁harcelé 1
théories 1
▁illégales 1
inventions 1
▁panneaux 1
▁descendrons 1
▁futée 1
▁frottant 1
▁terrifié 1
▁albinos 1
▁rembourser 1
▁hurlé 1
▁hospitalisées 1
▁détesterais 1
▁Devalos 1
cravate 1
▁empirées 1
▁notez 1
▁fraise 1
section 1
▁Potomac 1
x 1
4, 1
maladies 1
▁citées 1
lampes 1
▁hmm 1
▁bactéries 1
▁respirons 1
▁Bull 1
▁présume 1
allergies 1
interventions 1
▁luttez 1
▁détérioration 1
abréviations 1
tres 1
▁antispams 1
▁Bayesian 1
ités 1
▁spam 1
▁validée 1
▁dessinant 1
▁précisemment 1
étirera 1
-4< 1
présence 1
légions 1
▁rétives 1
aigle 1
▁énervés 1
essuyer 1
▁Metropolis 1
.? 1
▁récolté 1
▁surchargez 1
barrage 1
▁sécurités 1
▁membre 1
▁Royale 1
trahison 1
▁soupçonner 1
minuit 1
▁câliner 1
▁lances 1
▁rouillé 1
▁internautes 1
parleurs 1
▁origine 1
▁DJ 1
▁CAFFRE 1
▁réécrire 1
▁reprogrammer 1
eah 1
▁façcon 1
incubation 1
▁OGM 1
tomates 1
▁fantomes 1
▁demons 1
▁parcqu 1
bidule 1
▁sentirai 1
▁batiment 1
▁nickel 1
▁apprenez 1
▁attrappent 1
▁Sherri 1
▁désirables 1
pochette 1
▁avoue 1
▁remarques 1
▁Souviens 1
▁mouillée 1
alerte 1
▁apparaîtra 1
▁34 1
▁Profitez 1
lunettes 1
▁Margarita 1
▁dictent 1
▁Makeba 1
▁attaqueront 1
▁dénoncerai 1
▁surcompense 1
▁arce 1
▁souhaiterais 1
▁modifié 1
Age 1
castor 1
▁chassé 1
▁poursuivants 1
▁balançait 1
▁Lisa 1
▁aimerait 1
▁assiégée 1
▁fiancé 1
▁actrice 1
▁star 1
▁vieilli 1
▁interessantes 1
▁Sophie 1
▁rit 1
▁mignonne 1
▁retombé 1
▁admettant 1
légende 1
▁calice 1
▁recueillit 1
▁porta 1
▁chope 1
▁fatiguées 1
Christiane 1
▁bague 1
▁blé 1
▁crachez 1
▁agité 1
▁fouillée 1
▁attirait 1
▁réglez 1
▁brossez 1
▁tirais 1
▁rebondissait 1
▁névrosés 1
▁grincheux 1
▁systématique 1
▁éprouvaient 1
▁nostalgie 1
▁virilité 1
▁fine 1
▁mammouth 1
▁opossum 1
instrument 1
nègre 1
▁insultant 1
▁regorgeait 1
baguettes 1
▁calumet 1
▁plaisantes 1
dames 1
▁bocal 1
▁Janette 1
▁Long 1
Excalibur 1
local 1
▁Tsaga 1
▁Vivienne 1
▁graves 1
▁incidents 1
▁encre 1
▁mourras 1
▁Edward 1
▁mêlée 1
▁vertus 1
▁gênantes 1
irritation 1
▁dégoût 1
parachu 1
tistes 1
▁payée 1
apprenait 1
▁posées 1
▁roules 1
▁exposent 1
▁Humus 1
rectum 1
entasse 1
▁monumentale 1
▁taperais 1
▁Simplement 1
▁édition 1
▁Stérile 1
entretenons 1
cadavre 1
▁Ayez 1
▁etes 1
▁evidemment 1
bracelet 1
▁adaptera 1
▁culottes 1
▁lavées 1
▁batteries 1
▁cheftaine 1
▁Dame 1
▁Aîshé 1
▁Mikhaîl 1
▁Glabre 1
▁Othman 1
▁Vaillant 1
▁nourrissez 1
▁fortement 1
▁débarasser 1
emparer 1
▁autonomie 1
▁satisfait 1
▁0,30 1
hu 1
▁accroît 1
▁dépendance 1
influence 1
▁monopolistiques 1
▁réincarné 1
▁revivre 1
▁saignée 1
magazine 1
▁salopard 1
▁népotiste 1
▁camarade 1
▁africaine 1
emboîtaient 1
▁ininterrompue 1
accentue 1
▁bouillante 1
▁aussitôt 1
▁tiède 1
▁progressivement 1
▁ébullition 1
▁sanguins 1
▁localisé 1
▁superposées 1
▁sections 1
encodage 1
▁clef 1
▁décryptage 1
▁echniquement 1
▁demandée 1
raison 1
▁revint 1
étinc 1
▁significative 1
▁décoration 1
▁rentreront 1
▁donnerais 1
nose 1
▁liaient 1
▁lient 1
▁Jeffries 1
ecstasy 1
▁Lynette 1
cristal 1
▁revoient 1
▁inculpons 1
▁Austin 1
▁cambriolage 1
▁imprimez 1
motion 1
▁plaîtboire 1
lait 1
▁ancrée 1
▁acceptée 1
▁persiste 1
▁physiquement 1
oeuvres 1
▁plier 1
▁furieuses 1
▁réagissais 1
▁mutileraient 1
▁codes 1
▁lesbiens 1
▁choississent 1
▁séduisent 1
▁Klausner 1
▁angiome 1
▁punissait 1
grilles 1
▁probabilités 1
moins 1
fusillades 1
▁gangs 1
▁Rhimes 1
▁dramatique 1
▁Cieux 1
▁progéniture 1
▁Satan 1
Christ 1
APL 1
▁rigolait 1
neiger 1
Tyolus 1
▁basses 1
▁plaines 1
▁cherchez 1
perversité 1
▁Effaçant 1
▁prêterais 1
▁stoppé 1
▁compétition 1
▁Rusty 1
▁Ranch 1
(*) 1
▁terminal 1
campagne 1
▁ardue 1
▁entraînés 1
▁entamerait 1
▁redeviennent 1
▁ressentiment 1
▁pourri 1
myrtilles 1
▁surgelées 1
▁restaurateur 1
▁déduis 1
roues 1
▁mâchant 1
▁fusible 1
▁guerrier 1
▁décuple 1
▁pentagone 1
▁Heu 1
coffret 1
▁FISC 1
statut 1
▁emprunte 1
▁télépathique 1
▁capter 1
▁Kira 1
météorites 1
▁conduisais 1
places 1
▁um 1
▁tracassé 1
▁Fine 1
▁developpé 1
▁détourne 1
oublierai 1
▁déclenchée 1
▁douceur 1
destinée 1
▁Savais 1
▁ascenseur 1
▁approuve 1
▁massif 1
▁fusionne 1
trappe 1
▁nourritures 1
▁Celle 1
▁conduisiez 1
▁multiples 1
▁reprises 1
▁impressions 1
▁suspicion 1
▁inquiétant 1
▁orteils 1
orientation 1
▁pâles 1
éboulement 1
tireur 1
▁bordure 1
héro 1
troglobies 1
lande 1
▁spécialisées 1
▁chutes 1
▁singulièrement 1
▁oxygène 1
▁respire 1
▁branchies 1
▁externes 1
innombrables 1
▁punit 1
▁requiert 1
▁rapproché 1
▁prolongé 1
▁affecter 1
congé 1
▁sabbatique 1
▁canard 1
▁bicarbonates 1
éloignent 1
▁trajet 1
▁permanence 1
▁analyse 1
▁cargaisons 1
▁hauts 1
▁surplombe 1
▁boulevard 1
▁adorait 1
▁négative 1
appréciais 1
▁labels 1
▁hip 1
hop 1
▁Catholique 1
▁souhait 1
▁supérieur 1
Puissant 1
fréquence 1
▁McKay 1
▁pressant 1
▁désactiver 1
amplifier 1
▁Pourrait 1
▁déréglée 1
▁Arrêtez 1
▁fleuri 1
▁enlisée 1
atomique 1
▁inquiétez 1
défonce 1
▁relaxante 1
lets 1
Loi 1
▁débordait 1
▁cadre 1
▁désirer 1
▁embauchent 1
▁loosers 1
personnalités 1
▁déviantes 1
▁confessé 1
▁ignoriez 1
▁fair 1
Dire 1
▁asymétrique 1
étudiante 1
carrière 1
étendre 1
apparitions 1
▁préviennent 1
▁intercepter 1
flux 1
▁dévier 1
élargisse 1
fenêtres 1
▁Daniel 1
▁fêter 1
▁approuvé 1
▁marketing 1
interdictions 1
chasse 1
bonne 1
▁détaillée 1
▁Fargo 1
▁théologien 1
▁Dietrich 1
▁Bonhoeffer 1
▁évaluée 1
▁repense 1
▁grinçait 1
▁carcasse 1
▁crosse 1
▁déteindre 1
▁compétences 1
efficacité 1
▁braqueur 1
▁rage 1
▁suicidaire 1
▁kamikaze 1
▁lapidées 1
▁psylo 1
▁charnues 1
▁Cod 1
▁déviant 1
▁Copenhaguen 1
normes 1
▁baissent 1
▁00 1
embarque 1
espèrais 1
arrosent 1
▁arrosées 1
écraser 1
références 1
▁CV 1
▁Rushlight 1
issue 1
▁penserait 1
▁régglé 1
détonateur 1
emballer 1
présent 1
▁sapin 1
▁Ouai 1
▁multim 1
lionnaire 1
▁distante 1
▁Tompkinson 1
▁espérance 1
▁regrettez 1
▁métrol 1
Jem 1
▁Hearne 1
▁mémorable 1
▁solde 1
▁devastatrices 1
▁paraitre 1
avalanches 1
▁remodelent 1
▁gratter 1
▁Puissance 1
▁satellites 1
▁rev 1
zone 1
▁Plate 1
▁repondre 1
▁amplifier 1
▁accelerés 1
▁disparaissant 1
moulins 1
Konnie 1
▁glacier 1
▁lubrifie 1
▁coude 1
▁moulin 1
▁suffir 1
acceleration 1
▁glaciers 1
▁consequences 1
▁serieuses 1
▁humidité 1
Antarctic 1
▁desert 1
habituer 1
civilisations 1
▁Astres 1
▁personnifiaient 1
▁Mythes 1
▁mettant 1
▁fournir 1
▁financé 1
ascension 1
Hitler 1
approvisi 1
onnement 1
▁blanchir 1
▁nazi 1
▁apprit 1
▁renfermait 1
forts 1
▁appartenant 1
▁Nazis 1
▁impressi 1
onnantes 1
▁impie 1
▁survivrait 1
▁Gouvernement 1
▁frauduleux 1
▁Sécession 1
manège 1
▁How 1
▁Green 1
▁Was 1
▁Valley 1
▁portrait 1
▁Grapes 1
▁Wrath 1
▁UNE 1
▁PRODUCTION 1
▁DARR 1
ANUCK 1
TH 1
▁CENTUR 1
ALIS 1
▁PAR 1
▁JOHN 1
▁FORD 1
▁parvint 1
▁Darling 1
▁Clementine 1
▁disparaît 1
▁Katie 1
▁décrypter 1
copie 1
Internet 1
▁tonne 1
▁conditionnelle 1
▁témoignera 1
▁voyais 1
officier 1
▁affaissé 1
alouettes 1
▁muettes 1
▁captives 1
▁promettre 1
▁conspirent 1
▁polies 1
▁permettront 1
niche 1
▁manquait 1
▁recevez 1
enveloppe 1
▁vadrouille 1
▁immaculée 1
statues 1
▁choisies 1
▁cousines 1
intérêts 1
▁communs 1
▁mutuels 1
▁lnternet 1
▁Marquée 1
▁Pentagone 1
▁Ceci 1
chemin 1
▁inter 1
▁transmettre 1
▁guidera 1
▁coexister 1
▁mannequins 1
▁Gucci 1
▁Dolce 1
▁sciences 1
▁mesdames 1
▁trouvions 1
▁prospérera 1
▁suinte 1
cloche 1
▁fêle 1
▁Charnue 1
ement 1
▁motivé 1
aff 1
ée 1
options 1
▁étriquées 1
▁Sadie 1
▁approuver 1
▁designé 1
▁parviens 1
▁connaitre 1
▁vigueur 1
▁Historiquement 1
▁réprimées 1
▁conduisant 1
▁abuser 1
neigeait 1
▁surprises 1
▁mélodiques 1
▁réapparaissent 1
▁admettent 1
▁attirées 1
▁contrôlable 1
▁poussettes 1
▁ramassent 1
▁bourrés 1
bombes 1
▁brûlerons 1
tigre 1
▁fronts 1
▁transpondeur 1
▁cap 1
▁parlais 1
▁circulation 1
▁roues 1
▁renverrai 1
▁fâchés 1
▁inscrites 1
▁verticales 1
▁horizontales 1
▁synesthétiques 1
▁sensations 1
▁révélées 1
▁poète 1
religion 1
▁guidée 1
séquence 1
▁fondateurs 1
démocratie 1
▁embarqués 1
garce 1
▁globe 1
▁nageoires 1
▁maigre 1
▁détruirez 1
▁pakistanaises 1
▁canailles 1
▁Parcequ 1
▁couté 1
▁centimes 1
▁pesaient 1
générations 1
Phèdre 1
▁souviendront 1
▁Honnêtement 1
culotte 1
typo 1
▁transmettait 1
▁médium 1
▁possédant 1
Helvetica 1
caractère 1
▁rythmes 1
▁contrastes 1
▁manuscrite 1
▁chanteur 1
▁Ferry 1
▁décevant 1
▁Continue 1
▁attentifs 1
▁nuances 1
▁soupçonnent 1
▁Baiano 1
▁traduire 1
▁grec 1
▁Greely 1
▁scellé 1
▁collectivement 1
▁détenir 1
▁Tokyo 1
▁Bombay 1
▁Guéthary 1
▁obscènes 1
▁sensati 1
onnalisme 1
▁vénal 1
▁serruriers 1
démo 1
▁Génial 1
▁améliorée 1
▁prit 1
▁tournant 1
▁silicone 1
▁Doreen 1
éteigne 1
▁treillis 1
▁nano 1
fibres 1
▁axons 1
▁déchirés 1
▁aiguisées 1
>____< 1
▁rouillent 1
▁emplacement 1
▁inhibiteur 1
▁Existe 1
▁lin 1
▁repressuriser 1
▁Suivons 1
▁vendeur 1
opium 1
▁planètes 1
▁sensée 1
▁pensiez 1
estrade 1
▁réexaminez 1
balistique 1
▁Graves 1
▁Maxim 1
▁atterrisse 1
▁Dokey 1
parcours 1
Alma 1
▁Hodge 1
▁violences 1
▁cambriolé 1
▁Jagger 1
gonzesses 1
énormes 1
▁émotionnelles 1
empathie 1
▁émotionnel 1
▁jouir 1
Awesome 1
▁Possum 1
Génial 1
▁Opossum 1
▁cheeseburgers 1
▁enclins 1
▁engager 1
▁débat 1
▁défendu 1
accusé 1
▁sciemment 1
▁intentionn 1
châlet 1
▁incombe 1
▁créateurs 1
▁distinguer 1
▁volées 1
▁sites 1
▁ressortiraient 1
▁ramenaient 1
▁plantée 1
▁couverture 1
▁diffusée 1
opposition 1
▁dégats 1
▁regarderai 1
▁brosserai 1
ferait 1
▁influence 1
▁déclencher 1
accouchement 1
▁Fédéral 1
▁Raptor 1
▁Luc 1
▁Clarke 1
▁payant 1
concierge 1
pute 1
▁méthadone 1
meuf 1
▁Mowgli 1
▁sauveront 1
▁saigne 1
▁Focus 1
▁dizaine 1
▁recommander 1
▁ingénues 1
▁décidait 1
▁mettais 1
▁ensanglanté 1
.... 1
▁pissent 1
▁veuille 1
ajoute 1
▁réactif 1
▁appliquons 1
▁rotation 1
▁centrifugeuse 1
▁précipite 1
▁tenons 1
épaves 1
▁devenaient 1
Camaro 1
▁toc 1
▁couvertures 1
▁américaines 1
▁suspension 1
▁molle 1
▁journalisme 1
investigation 1
▁freine 1
▁pénétre 1
▁médullaire 1
▁biseau 1
▁marquera 1
▁fluide 1
▁dimension 1
▁vomit 1
▁résoudront 1
enlèvent 1
▁décoction 1
▁menant 1
▁Jones 1
incube 1
▁gestation 1
alimenter 1
▁mature 1
▁partira 1
▁suicider 1
▁Montre 1
▁évaluer 1
▁fibres 1
▁digitales 1
▁etc 1
expressions 1
▁Carrionites 1
▁précises 1
▁duveteuse 1
▁ôtent 1
▁inhalent 1
▁pulmonaire 1
anthrax 1
▁spécialisé 1
▁saches 1
▁Tyson 1
▁Shaw 1
Aricept 1
▁traumatisme 1
▁Augmentez 1
▁dosage 1
▁leurrer 1
▁inertes 1
▁rejettera 1
▁moule 1
▁rapporter 1
▁Sainteté 1
assurerais 1
▁élastique 1
▁présentation 1
▁supposés 1
▁2941 1
▁responsab 1
▁tragédies 1
▁Bea 1
▁Stella 1
quand 1
accuserait 1
▁Ancêtres 1
▁Porta 1
▁retombée 1
▁promptement 1
composant 1
▁hémolytique 1
▁venin 1
▁Coupez 1
interférence 1
▁transmission 1
▁Rapp 1
▁Amsterdam 1
▁syllables 1
▁Harmon 1
Ancien 1
▁Testament 1
▁logée 1
cerises 1
▁électriques 1
▁no 1
man 1
land 1
▁épuisé 1
▁bougera 1
▁encombré 1
▁clarifier 1
▁fonctionnera 1
convertisseur 1
▁fractal 1
▁multi 1
tonale 1
écureu 1
▁mât 1
▁méfait 1
▁enveloppes 1
▁rendras 1
penderies 1
▁Ceux 1
manifestation 1
▁escalader 1
▁émeute 1
▁remues 1
▁comité 1
▁Katherine 1
▁Mayfair 1
▁réunissent 1
▁bavarder 1
▁bikinis 1
▁boue 1
▁promettiez 1
▁Tru 1
▁Blood 1
▁deviendrait 1
▁divisions 1
▁disputé 1
▁trône 1
acheté 1
▁couronnes 1
▁levant 1
▁objectif 1
▁sommairement 1
▁accomplis 1
▁coucou 1
▁enveloppée 1
▁bordée 1
▁Ganesh 1
▁souffrait 1
▁diagnostic 1
▁flacon 1
urine 1
▁violette 1
▁Patricia 1
▁Foster 1
▁Liz 1
kryptonite 1
▁annule 1
actives 1
hélico 1
▁Américaines 1
▁bouffé 1
▁indigènes 1
▁magn 1
▁sachez 1
▁obligé 1
enlève 1
▁récupérée 1
▁couple 1
▁installé 1
▁sachiez 1
▁addictives 1
positivisme 1
▁dissonant 1
▁ajouté 1
itaire 1
▁fatidique 1
▁ignorez 1
applique 1
▁Ouvre 1
▁constate 1
aidera 1
compromis 1
▁contractuelle 1
▁crabe 1
cancer 1
▁lis 1
▁écrivent 1
▁plaque 1
bio 1
▁sème 1
▁miettes 1
▁Astroboi 1
bijou 1
ongle 1
▁Radley 1
▁Hannah 1
▁SWAT 1
▁entrainé 1
▁Maddox 1
explosent 1
▁quatrième 1
▁flèche 1
▁fuselage 1
▁dépanneuse 1
▁semer 1
immense 1
congélateur 1
introduit 1
création 1
Jim 1
sanglier 1
▁choisis 1
▁assommé 1
▁Rowley 1
▁Reveal 1
▁détroit 1
▁lade 1
▁grimpe 1
▁ressortira 1
▁contagieuse 1
œufs 1
▁enlevant 1
▁parabole 1
▁toucherons 1
▁briller 1
contusion 1
▁carrée 1
▁arroses 1
▁min 1
▁prunes 1
▁Etant 1
propriété 1
Héparine 1
▁fâchées 1
▁Ceylia 1
accompagnait 1
▁01 1
10 1
▁assemble 1
▁graisse 1
scoop 1
▁civilisée 1
▁photographiées 1
▁Sûr 1
▁Myra 1
▁Chloé 1
attente 1
▁présentes 1
▁sélection 1
▁garagiste 1
▁déverrouillée 1
▁ramolisse 1
caution 1
▁accusation 1
▁infirme 1
▁chirurgicale 1
▁Pauvre 1
▁souhaitons 1
▁parlée 1
▁cornu 1
▁tatou 1
▁errer 1
▁minimale 1
équivalent 1
leuse 1
éclair 1
▁ligaments 1
▁mâchoire 1
▁engloutir 1
▁siens 1
porteur 1
▁criblée 1
▁décomposent 1
▁digestif 1
▁mastique 1
▁exproprié 1
▁Terrace 1
▁féministes 1
▁obligées 1
▁candidat 1
réunions 1
▁obligatoires 1
▁fem 1
bligatoires 1
anomalies 1
négociation 1
▁inclut 1
orage 1
▁défenseurs 1
▁renonce 1
▁tapais 1
▁souriant 1
ssais 1
▁rebondir 1
▁moquant 1
▁Boyd 1
Gr 1
ace 1
▁Inez 1
▁Visiblement 1
▁trompaient 1
▁Johanna 1
▁Wheeler 1
spi 1
▁décalé 1
▁déra 1
humain 1
▁obus 1
▁bous 1
pres 1
▁grossissent 1
▁trouverai 1
quoi 1
▁Baxter 1
▁manques 1
▁aidaient 1
▁Palais 1
▁Détente 1
▁aggravé 1
▁donation 1
▁philanthrope 1
▁rédigé 1
infiltre 1
▁idiotes 1
▁malavisée 1
▁tympan 1
▁Peux 1
▁négligentes 1
▁tordue 1
▁désaccordée 1
▁conquérir 1
▁marchera 1
▁attentivement 1
▁bidon 1
▁orienté 1
▁victoires 1
▁affronteront 1
▁contaminé 1
▁Bob 1
▁généré 1
essai 1
encens 1
▁spray 1
▁cryptage 1
▁chiée 1
IA 1
accusent 1
▁Ian 1
▁mental 1
▁Intrepus 1
▁chuté 1
▁analystes 1
spatiales 1
▁Wraiths 1
ampleur 1
▁inimaginable 1
▁nourricières 1
▁activé 1
▁digestifs 1
▁simulations 1
▁cancéreuse 1
▁affaiblissant 1
▁Cité 1
réalité 1
▁prévaloir 1
▁délaissée 1
▁disputes 1
▁factionn 1
▁ambitions 1
cabinet 1
▁respectait 1
pamphlet 1
▁nuira 1
▁aboutit 1
▁flippé 1
asperger 1
▁déodorant 1
▁pub 1
▁déshabillent 1
▁cassant 1
▁objet 1
▁latéralement 1
▁graver 1
▁plissées 1
▁Koslov 1
▁enfermée 1
▁Rita 1
▁ronfle 1
azote 1
▁artères 1
▁cheminé 1
▁détestées 1
▁discrimination 1
▁surpoids 1
▁ragé 1
▁gratos 1
poêle 1
▁Fanny 1
bibliothèque 1
▁définit 1
▁actionnée 1
▁tierce 1
accepterai 1
enregistrer 1
▁hamster 1
▁insidieuses 1
▁tactiques 1
▁astucieuses 1
▁profits 1
réglementation 1
▁héréditaire 1
amiante 1
▁papeterie 1
▁essayez 1
cafard 1
▁Plutôt 1
▁Crane 1
▁subventions 1
▁contribuable 1
▁Addario 1
▁promettait 1
▁patio 1
▁rouquine 1
▁fabuleuse 1
▁nationales 1
▁entraînera 1
entend 1
▁ondes 1
▁sonores 1
▁frappaient 1
module 1
▁réverbe 1
▁Fischer 1
▁Frank 1
▁refoutre 1
merde 1
▁Marcus 1
▁demandiez 1
▁embryonnaires 1
▁entonnait 1
▁samba 1
▁terminées 1
▁refroidit 1
▁raccroche 1
▁anxieux 1
▁résolution 1
▁Sweets 1
▁abattue 1
▁arc 1
▁étages 1
▁rouspéter 1
▁oscillé 1
▁grandissante 1
▁Plo 1
▁Koon 1
▁Cooper 1
carotte 1
▁cuillère 1
potion 1
▁apparaissait 1
▁sautais 1
▁touchais 1
▁congestion 1
▁filon 1
▁mobiles 1
▁Déplacez 1
▁focal 1
non 1
▁dédicacera 1
▁masculine 1
▁virile 1
▁auteur 1
▁Philip 1
▁Hawkin 1
▁extraverties 1
▁monopolisent 1
▁Gageons 1
▁fout 1
directeur 1
▁Sécurité 1
▁batte 1
peur 1
gonflement 1
▁institution 1
▁monétaire 1
▁appliqué 1
▁iranien 1
▁foncièrement 1
▁corrompues 1
▁tendent 1
▁institutions 1
▁personn 1
▁insignifiantes 1
▁nécessités 1
▁publication 1
▁détaillé 1
▁institu 1
tionnalisée 1
▁création 1
Réserve 1
▁commerciales 1
▁gouverné 1
▁intéresser 1
▁Réserve 1
▁empruntez 1
▁hypothèque 1
▁facture 1
▁contrefait 1
légitime 1
▁corporations 1
infrastructure 1
allergie 1
▁arachides 1
▁54 1
▁6600 1
▁annuellement 1
▁déverser 1
▁déchets 1
▁toxiques 1
▁monopole 1
▁motif 1
▁déclara 1
▁exploité 1
▁dormante 1
▁dévoilent 1
▁produisant 1
▁solaires 1
▁dévoilée 1
▁fracas 1
▁percutait 1
▁flotterait 1
presque 1
paie 1
▁versée 1
▁2, 1
▁dépôt 1
avis 1
▁Texans 1
▁pourchasseront 1
fera 1
▁approchée 1
▁galop 1
▁exité 1
▁jardins 1
▁Moines 1
▁salons 1
▁Concorde 1
▁porches 1
▁Charleston 1
▁affaibli 1
▁révérait 1
▁photographique 1
▁irréfutable 1
lever 1
▁ole 1
▁levé 1
▁déguisait 1
éléphant 1
▁Bolivie 1
▁effacer 1
▁bulletin 1
▁auriez 1
abeilles 1
▁baie 1
▁souder 1
encaissera 1
▁domaine 1
▁chaine 1
▁Diego 1
▁respectez 1
▁hâter 1
▁boucher 1
entraîne 1
▁Service 1
▁marcheront 1
▁subirait 1
▁tanga 1
▁nuits 1
▁solitaires 1
trompe 1
▁magique 1
▁unis 1
examine 1
bogue 1
▁Emma 1
▁accidentel 1
Apprenez 1
▁triompheront 1
▁dorée 1
▁Anita 1
▁subitement 1
▁illogiques 1
▁écervelées 1
embarrassant 1
▁ABA 1
▁NBA 1
renouveau 1
▁religieux 1
▁toléré 1
▁sédition 1
▁déstab 1
▁récupérées 1
▁écris 1
▁endormi 1
magasin 1
▁recyclable 1
▁Couleur 1
▁perles 1
▁dorées 1
▁ajustée 1
▁Ancients 1
▁connaissons 1
porta 1
▁Encaisser 1
▁recruter 1
▁Méfiez 1
▁consumera 1
▁concordaient 1
▁Jan 1
▁Thomas 1
▁Hansen 1
▁Utilisent 1
sphères 1
▁vinrent 1
▁donnèrent 1
▁représentatif 1
Corporation 1
▁vachement 1
étouffait 1
extrapole 1
alien 1
▁féconder 1
▁autonomes 1
interdiction 1
▁absolue 1
▁atomiques 1
▁souveraines 1
▁sages 1
▁Sages 1
▁égales 1
▁dénoncez 1
▁décret 1
▁112, 1
▁modifications 1
▁propose 1
▁provisoires 1
▁archi 1
▁languit 1
▁Milorad 1
▁pêchant 1
impacte 1
▁Eparpillant 1
légendes 1
marteau 1
▁corriger 1
▁flatter 1
▁Ecrase 1
▁Veillez 1
sangsue 1
▁sœurs 1
▁fourmille 1
▁mieu 1
▁corde 1
Miracle 1
▁éclat 1
▁retransmet 1
▁clavier 1
▁doses 1
brou 1
▁rivaliser 1
▁Ethernet 1
▁commune 1
▁causera 1
▁Galvez 1
▁périmètre 1
▁définition 1
▁Malestrazza 1
▁Alorts 1
▁daim 1
▁cultive 1
▁répandrait 1
▁désastreuses 1
▁bloqueurs 1
coéquipiéres 1
▁peloton 1
▁rivalisent 1
astuces 1
▁confrontées 1
hostilité 1
navire 1
mafias 1
▁ennemies 1
▁réapparue 1
▁téléchargées 1
▁jpeg 1
▁compressées 1
▁rajouté 1
▁déçues 1
flamme 1
▁vaciller 1
▁combiné 1
▁défrisant 1
▁coiffeuse 1
▁endormies 1
▁loyer 1
▁pointer 1
▁écœurante 1
tentation 1
▁introduite 1
étendra 1
▁infectés 1
▁tige 1
▁Kindon 1
▁purifier 1
▁Eaux 1
▁pompaient 1
▁2000 1
obligations 1
▁planifié 1
▁séance 1
▁spiritisme 1
arriverait 1
▁bée 1
▁Purée 1
mouettes 1
▁chalutier 1
▁jetées 1
▁exsudés 1
▁imbibent 1
▁déchétuaire 1
solifier 1
▁nutriments 1
▁originelle 1
civilisation 1
▁Indienne 1
▁perdurée 1
▁reverdie 1
▁forêts 1
▁VIVANT 1
▁inerte 1
▁traditionnel 1
▁purifie 1
malheur 1
▁bata 1
lons 1
▁pulvérisé 1
▁clavicule 1
▁gelé 1
▁métaphoriques 1
▁autorisés 1
estomper 1
▁naturellement 1
▁amenant 1
▁véto 1
▁avalé 1
▁Joy 1
Oliver 1
▁cathéters 1
▁soutifs 1
▁insupportable 1
▁défenses 1
▁maintenues 1
▁changera 1
▁Celui 1
▁pleuve 1
▁réussis 1
'' 1
▁publicités 1
▁emps 1
energie 1
▁Ja 1
▁blondes 1
▁trentaine 1
arrê 1
▁marijuana 1
▁Attrapes 1
▁candidates 1
▁sérieuses 1
agresseur 1
▁Ducky 1
cuivre 1
▁transpiration 1
oxyde 1
▁Jessie 1
▁Robertson 1
▁coure 1
▁DoD 1
▁aviaire 1
▁abîmée 1
▁réparera 1
▁orchidées 1
▁pendante 1
▁Claire 1
▁Meade 1
▁tourmente 1
▁Staten 1
▁promenait 1
atrocités 1
▁retrouverai 1
dégueu 1
▁Dommage 1
▁rouillée 1
▁surfaces 1
▁poreuses 1
▁nécrosé 1
▁concorde 1
▁Matty 1
excuse 1
▁maladroite 1
▁WC 1
▁ressentez 1
▁Exact 1
chauves 1
▁enragées 1
▁repaire 1
▁différencient 1
▁cartilage 1
dictature 1
▁Connor 1
▁rejeté 1
▁méchanceté 1
▁nutritive 1
▁statique 1
▁Enlevez 1
▁endommagez 1
▁redirige 1
▁connexions 1
tissu 1
▁cérébral 1
plaque 1
▁assorties 1
▁international 1
▁royaume 1
▁Bahre 1
▁attirante 1
▁déchirant 1
▁muscle 1
▁Gardez 1
déclencheur 1
▁Essaie 1
▁dérayer 1
Harold 1
▁latitude 1
▁excitées 1
▁deviendrai 1
▁persistent 1
▁soutenu 1
▁démanteler 1
▁Glass 1
Steagall 1
▁Act 1
▁sauvetage 1
élites 1
▁charisme 1
Obama 1
▁gober 1
▁tyrannique 1
tribunal 1
▁Bush 1
▁maltraiter 1
▁documenté 1
▁douleureux 1
▁indépendamment 1
▁contractant 1
▁transportée 1
▁gratuitement 1
▁coordonnant 1
▁désorientent 1
otaries 1
▁Lassées 1
▁insaisissables 1
▁exocets 1
adulte 1
▁antre 1
fem 1
▁émergent 1
▁tuerait 1
▁émettant 1
▁asphyxier 1
▁innombrables 1
▁colonisant 1
▁habitats 1
chenille 1
▁noie 1
▁mandibules 1
▁collées 1
▁Astucieusement 1
balisier 1
▁rationne 1
▁colibri 1
▁voleurs 1
▁cède 1
▁raccorde 1
▁pôles 1
grotte 1
supraconducteur 1
▁lévitera 1
expériences 1
▁Viking 1
organismes 1
souvenir 1
▁falsifié 1
▁Slughorn 1
▁détachable 1
écrivent 1
roche 1
▁Science 1
allez 1
lier 1
éto 1
▁extraterrestre 1
▁compt 1
▁pr 1
▁oblème 1
▁suggérer 1
▁concentrer 1
▁Gardes 1
▁Suisses 1
Illumination 1
stylo 1
▁bip 1
échantillons 1
effilochait 1
fillettes 1
▁soutiendrait 1
▁marieraient 1
▁juin 1
▁Plaza 1
▁niquer 1
valise 1
▁sachets 1
▁révèle 1
étendue 1
▁abrite 1
▁scarabées 1
fumier 1
▁fermentation 1
▁résilientes 1
▁catalyseur 1
▁annoncé 1
▁90... 1
▁dispo 1
▁Job 1
▁prince 1
▁charmant 1
▁Colleen 1
▁Shirley 1
▁rebord 1
▁maquillage 1
▁trempée 1
▁vérifiais 1
poste 1
▁trouée 1
▁pH 1
▁algorithme 1
▁ions 1
▁acide 1
▁basique 1
▁roche 1
▁rebouché 1
▁récoltes 1
▁réveil 1
▁passagers 1
déjeunent 1
▁terrasse 1
▁culotte 1
▁gainante 1
▁vapes 1
▁dissous 1
saumure 1
▁Volstead 1
▁défoncé 1
oubliera 1
▁sitôt 1
▁médailles 1
excellence 1
▁visuelle 1
▁cuites 1
▁mâles 1
▁veaux 1
▁boucherie 1
▁élevées 1
▁caisses 1
▁boitent 1
abattoir 1
tattouage 1
▁primitives 1
▁suffisent 1
▁doutent 1
opératrices 1
▁Partout 1
depenser 1
▁rencontrez 1
ailes 1
▁truffé 1
▁fautes 1
sein 1
▁crêpe 1
▁Fils 1
terres 1
▁samoura 1
loup 1
▁dévo 1
era 1
▁attirera 1
▁aliens 1
hôtesse 1
▁matériau 1
▁versez 1
▁paraffine 1
perruche 1
▁éteindre 1
achèvera 1
soupe 1
▁Elo 1
í 1
Combien 1
▁sources 1
▁rendue 1
▁Descends 1
▁bad 1
▁discussion 1
▁banale 1
▁draineurs 1
▁drainer 1
▁dépassent 1
pêche 1
▁pruneau 1
votr 1
▁Ricard 1
▁Tanger 1
hypophyse 1
▁endommagée 1
hormones 1
▁tremblera 1
▁entendirent 1
ménage 1
▁acourèrent 1
▁nettoyèrent 1
▁maquereau 1
embrassèrent 1
▁devinez 1
▁transforma 1
▁illustre 1
▁habilement 1
entrepreneur 1
▁expédier 1
▁Coast 1
▁City 1
▁inondé 1
ourse 1
▁blatère 1
égarement 1
▁incompatible 1
▁déclenchés 1
circuité 1
population 1
▁multipliée 1
▁belgique 1
▁salamandres 1
▁mâche 1
balances 1
▁enfuit 1
0. 1
▁psychique 1
▁tendre 1
▁Bones 1
▁satisfaisant 1
▁insultante 1
▁exacte 1
▁délicate 1
▁Colby 1
▁criminalité 1
▁Sénateur 1
▁Merrik 1
compas 1
▁sudoripares 1
expulser 1
▁tranché 1
▁chev 1
▁excusant 1
voiturette 1
▁Remets 1
divan 1
▁décolorer 1
espion 1
▁accessoires 1
▁adéquats 1
arranger 1
▁comédie 1
pilules 1
▁fluidité 1
▁Craig 1
▁streap 1
tease 1
danceuses 1
▁oeuvres 1
▁Warhol 1
▁emblématique 1
▁déchiqueté 1
▁traire 1
▁meuglent 1
▁copuler 1
porc 1
épic 1
▁boude 1
▁infini 1
top 1
model 1
▁lesbiennes 1
▁tuera 1
▁empreinte 1
▁chlore 1
▁diffusee 1
réaction 1
▁exothermique 1
▁demie 1
▁occuper 1
▁grandisse 1
▁reproduire 1
▁renouvellement 1
▁burka 1
▁Badgley 1
▁Mischka 1
▁Pandorica 1
▁Dalek 1
▁réfléchis 1
▁décrochaient 1
▁rencard 1
épanouiront 1
▁sacré 1
▁vedette 1
▁risqués 1
▁masturbateur 1
▁gâche 1
▁Blair 1
▁Witch 1
▁Ajoutez 1
▁rituels 1
▁combattaient 1
▁distraction 1
▁9500 1
▁ennuyeuses 1
entrées 1
▁résorbé 1
▁réelles 1
▁régénèrent 1
▁poignet 1
▁Harvey 1
▁Specter 1
▁vanille 1
▁Blye 1
▁Hmm 1
▁actuelle 1
▁garés 1
chrétienté 1
▁jugée 1
enfermeront 1
salope 1
▁Joyeux 1
▁Jordan 1
▁sélectionnes 1
▁laps 1
▁séquence 1
▁télécharge 1
▁avérée 1
▁évanoui 1
▁RAO 1
▁progresser 1
▁pneu 1
Hartley 1
▁Soudan 1
▁consumé 1
▁cliquent 1
▁abdos 1
▁effrayent 1
▁Enfermées 1
▁plombes 1
▁minerai 1
▁Dyson 1
▁Bo 1
▁vidéos 1
▁Pam 1
▁Stefan 1
▁Mara 1
perturbation 1
▁observation 1
▁suspicieuse 1
▁tentons 1
intercepter 1
arrimer 1
▁mélangées 1
▁hésité 1
▁trainent 1
▁métabolismes 1
▁répandu 1
▁Arcadia 1
occulter 1
joint 1
▁chargeront 1
M 1
▁wi 1
fi 1
▁grandissons 1
▁SHIELD 1
accroche 1
▁traitées 1
▁salopes 1
▁management 1
▁Lockhart 1
Gardner 1
▁lise 1
▁payantes 1
▁Obtenez 1
▁Asie 1
▁testées 1
application 1
▁piratage 1
▁Pride 1
▁touchée 1
▁machiavéliques 1
▁échafauder 1
▁programmé 1
▁dansions 1
▁redevienne 1
▁construis 1
minuteur 1
▁déteint 1
gâteau 1
▁Bill 1
▁consciente 1
▁couvercle 1
pleuvait 1
▁Fermons 1
▁prétendons 1
croque 1
monsieur 1
▁pesant 1
▁cavale 1
▁tune 1
▁pros 1
larmes 1
▁perturbation 1
voitures 1
▁Corée 1
alarmer 1
insomnies 1
carburateur 1
▁encrassé 1
alimente 1
▁effrayant 1
iPhone 1
▁tiendrait 1
▁Merde 1
▁Saz 1
▁10, 1
équipières 1
▁retenues 1
▁copains 1
▁Old 1
▁Town 1
chaloupe 1
emplissait 1
baleine 1
▁chavirer 1
▁respectons 1
▁Brad 1
▁triple 1
▁gus 1
▁hedge 1
▁fund 1
▁amateur 1
▁annonçant 1
apocalypse 1
▁concourir 1
▁Bah 1
bon 1
▁intersidéral 1
▁suffisait 1
▁chaise 1
cavalier 1
forteresse 1
▁enfouie 1
▁socle 1
▁rocheux 1
▁pacotille 1
▁voiturette 1
▁pleuré 1
▁kilométrage 1
▁Not 1
existera 1
▁radar 1
▁procèdent 1
▁comptée 1
cliente 1
▁réveillon 1
▁appliquée 1
▁rétroactivement 1
▁formulées 1
▁compliquer 1
▁internationales 1
▁Tobi 1
▁cartographié 1
▁feras 1
demande 1
▁Ministre 1
ouie 1
▁Gizzard 1
▁Excuse 1
turbot 1
▁agrandie 1
▁faussement 1
▁terminale 1
▁gratitude 1
▁banderoles 1
phrases 1
tapisserie 1
▁Stallings 1
▁essaieront 1
▁Salima 1
▁Genre 1
▁usine 1
▁décennies 1
▁STASI 1
▁confisqué 1
▁FSB 1
▁Kent 1
incident 1
▁manqué 1
arcade 1
▁cueillies 1
▁branches 1
▁reflété 1
▁misérable 1
suicide 1
▁issu 1
▁choux 1
▁téléspectateurs 1
▁terminent 1
▁Rachel 1
▁pilule 1
▁Corvette 1
▁conduira 1
▁rentrée 1
▁Pardonnez 1
▁Good 1
▁Fortune 1
Oslo 1
▁grossis 1
▁imprègne 1
▁laine 1
existez 1
▁Halloween 1
▁tarée 1
▁décroche 1
▁cubitus 1
▁adéquation 1
▁accorde 1
▁creusé 1
▁profils 1
▁hyperactives 1
▁tchats 1
▁blogs 1
▁Pinterest 1
▁Facebook 1
tasse 1
▁mouette 1
alligator 1
▁garderais 1
▁stands 1
▁apprendrais 1
▁soutienne 1
▁matchs 1
boa 1
chauffe 1
tentes 1
▁ajoutez 1
▁satané 1
▁fourgon 1
▁Prohibition 1
mutu 1
▁Rhyl 1
▁échéance 1
▁bouclée 1
▁obligatoirement 1
jeep 1
▁side 1
▁heu 1
rest 1
exposer 1
▁ultraviolette 1
▁ressortie 1
▁trahit 1
▁embarrassé 1
paillettes 1
▁rouges 1
▁grattent 1
▁supposant 1
Nolan 1
▁modernes 1
▁gainé 1
usure 1
▁adaptées 1
expliquais 1
poursuites 1
▁conventionn 1
▁Nulle 1
▁locataire 1
crime 1
asseyait 1
▁Daisy 1
▁Parker 1
▁danseuses 1
▁accusé 1
▁Derek 1
▁harcèlement 1
▁poursuites 1
entraînais 1
canon 1
branche 1
▁Brick 1
Ulysse 1
▁appartienne 1
▁dépouilles 1
▁dus 1
▁Ithaque 1
▁saura 1
▁accueillir 1
▁engloutira 1
crevette 1
▁majeure 1
▁intacte 1
▁marrons 1
▁terrifieraient 1
▁génère 1
diable 1
exercent 1
▁chaussettes 1
▁Surviennent 1
▁supposées 1
▁études 1
▁fighting 1
▁Temeraire 1
▁ocre 1
putains 1
cordite 1
▁fermoir 1
nanites 1
▁reconnecte 1
▁lèvent 1
impuretés 1
▁Sortez 1
▁supers 1
▁crimin 1
▁attendras 1
douille 1
▁programmée 1
▁rechargé 1
▁avaler 1
▁Mordor 1
évoluent 1
▁menaçaient 1
▁apportait 1
▁Pawnee 1
▁dégagé 1
▁habitat 1
▁désirait 1
▁séjour 1
▁comté 1
▁tournera 1
▁Considérez 1
▁rejetée 1
équitation 1
▁amazone 1
▁dirit 1
▁pathétique 1
▁sabotée 1
épreuves 1
▁purifient 1
peste 1
▁raréfié 1
▁Warlow 1
▁rencontres 1
aperçoivent 1
▁tolérant 1
rencontre 1
▁migre 1
accouple 1
▁Burbank 1
accueil 1
▁faisable 1
agatas 1
▁triées 1
alibi 1
▁provenaient 1
▁abrasions 1
▁ruiné 1
ie 1
▁anticonstitu 1
tionnel 1
▁entité 1
▁fournisseur 1
▁priori 1
▁contenus 1
▁Margot 1
▁crachée 1
entendrait 1
▁sonnait 1
▁téléphonique 1
▁couchait 1
▁continuais 1
▁sonné 1
▁témoignage 1
▁accablant 1
barrière 1
camion 1
▁Mia 1
▁remis 1
▁réprésentent 1
▁figures 1
▁déclarent 1
▁agitent 1
▁Strokes 1
▁rétrécir 1
▁Jenna 1
épuiser 1
inquiete 1
▁coûtera 1
▁Marine 1
▁océanographe 1
▁Traquant 1
abomination 1
▁ateigne 1
▁Okay 1
-11< 1
insèrent 1
▁finissaient 1
▁tortillas 1
▁sauce 1
▁salsa 1
▁décongelé 1
▁coupaient 1
▁vieillit 1
Appris 1
citations 1
▁injecté 1
fantôme 1
▁suggèrent 1
▁sien 1
▁détériore 1
▁Donny 1
abandonneront 1
▁ramènerait 1
▁entretenues 1
▁Henry 1
▁Stamm 1
▁croisière 1
▁aspiré 1
▁panier 1
▁salade 1
▁cubaines 1
▁exquises 1
table 1
▁massage 1
▁sangles 1
camisole 1
▁Adams 1
▁assurent 1
▁irréprochable 1
▁blessées 1
▁Walternatif 1
▁subsiste 1
▁aimants 1
▁débordaient 1
▁short 1
piscine 1
▁tremplin 1
▁marquées 1
arroser 1
▁enquêteur 1
▁focalise 1
▁altère 1
▁perceptions 1
▁convergent 1
▁translucide 1
▁écroulé 1
▁traquent 1
▁fugitif 1
apprête 1
▁CERTIFICAT 1
▁NAISSANCE 1
▁professionnel 1
▁motocyclette 1
▁circulant 1
▁achalandée 1
▁engagez 1
asseoir 1
▁algériens 1
▁camions 1
▁réapparaître 1
Opa 1
Locka 1
▁Idéalement 1
▁Ohio 1
▁polluée 1
▁suintait 1
apparait 1
▁Delaware 1
▁General 1
autopsie 1
▁obsédante 1
▁révélée 1
▁Rédigée 1
▁lobbyistes 1
▁réglementation 1
▁dérivés 1
▁antique 1
▁redécouvertes 1
▁Christopher 1
▁Dunn 1
▁théorisé 1
▁galeries 1
▁résonance 1
▁voire 1
▁supérieures 1
▁retransmis 1
▁lointaine 1
▁Pâques 1
▁admettions 1
▁localisée 1
▁répétitif 1
▁indiquera 1
▁parasites 1
▁moderne 1
▁décoller 1
fumée 1
▁Aurait 1
▁kilowatts 1
▁Macy 1
▁constituer 1
▁présenté 1
▁incomplet 1
balayette 1
▁toilette 1
poésie 1
▁consciences 1
▁fendue 1
▁réglée 1
▁démarrait 1
▁restaurée 1
▁artisans 1
théière 1
▁magnifie 1
▁hydrocarbures 1
▁substances 1
▁renouvelable 1
▁croît 1
épuisent 1
▁Ministry 1
▁Ideas 1
▁battement 1
▁grassroot 1
innovation 1
▁changement 1
▁tuées 1
TARDIS 1
▁moisi 1
▁transformera 1
lézard 1
▁nageurs 1
▁Olympique 1
course 1
▁glisser 1
▁starting 1
block 1
▁culbute 1
▁astucieuse 1
sida 1
▁douloureusement 1
▁protégera 1
Empereur 1
▁revérifier 1
recette 1
▁traditionnelle 1
▁météorite 1
▁servos 1
▁relancer 1
▁cognait 1
▁agitait 1
▁lampes 1
▁Dior 1
▁aggraver 1
habit 1
▁moine 1
▁coût 1
fa 1
Papa 1
▁nouent 1
▁poils 1
▁pubiens 1
▁décomposé 1
▁IP 1
▁connecte 1
▁apprendra 1
▁rentrées 1
▁remises 1
▁Kang 1
▁piles 1
Lucas 1
▁renverrais 1
▁dévalorisent 1
▁expliquant 1
▁domaines 1
▁honnêteté 1
▁authentiques 1
professionnel 1
▁toiles 1
▁excréments 1
▁rechute 1
▁primitif 1
▁quête 1
▁GNB 1
▁contacté 1
▁fabriquant 1
apparaît 1
▁boute 1
agressivité 1
▁obscurcir 1
▁Meredith 1
médecin 1
▁refasse 1
▁strictement 1
▁Brenda 1
enviais 1
▁concrète 1
▁pixels 1
Gros 1
seau 1
▁ReWire 1
couleur 1
▁piétiner 1
▁bétail 1
prime 1
▁commentaire 1
▁sournois 1
▁attendrons 1
▁light 1
Tiens 1
▁Manny 1
▁Albion 1
▁bougeait 1
cycle 1
épaisse 1
▁cèdera 1
▁repensé 1
cigognes 1
▁monogames 1
▁vasières 1
▁Juist 1
▁historique 1
ü 1
nster 1
▁164 1
▁Westphalie 1
▁Ans 1
▁destinées 1
▁Andromède 1
▁demandera 1
ou 1
▁Réunies 1
ius 1
▁Weasley 1
▁lègue 1
Déluminateur 1
▁Scrimgeour 1
ouvrirait 1
▁pareilles 1
▁inconnue 1
▁révéla 1
▁devras 1
orifice 1
▁gangster 1
▁40. 1
▁excité 1
examen 1
▁microscopique 1
▁inconvénient 1
▁Bombardé 1
▁électrom 1
agnétiques 1
▁Burj 1
▁Khalifa 1
▁édifice 1
▁modifier 1
▁infrastructure 1
▁cliques 1
▁recommences 1
Juste 1
améliorent 1
▁semblables 1
▁piratiez 1
gaz 1
▁KO 1
▁vlan 1
▁receviez 1
▁débrouillez 1
chatte 1
▁étroite 1
▁retomber 1
▁accélérant 1
jolie 1
▁Jolie 1
▁nettoyer 1
▁instrumentale 1
éblouit 1
ligue 1
▁tolérera 1
▁servait 1
▁rapportez 1
Ignace 1
▁tends 1
agrippe 1
pied 1
▁folie 1
aiderez 1
▁sirop 1
▁vrombir 1
▁Rio 1
exposent 1
▁Wheeling 1
▁Martinsv 1
▁acquiesce 1
▁simule 1
▁5000 1
▁traitions 1
▁restaurer 1
▁suscité 1
▁déchaînent 1
▁note 1
▁prés 1
▁entrepôt 1
▁Brooklin 1
▁arr 1
ater 1
destruction 1
▁produise 1
▁consultant 1
patte 1
▁purement 1
▁mater 1
balai 1
▁Jason 1
▁ayez 1
▁remboursée 1
▁assurez 1
Camryn 1
uniqu 1
▁Sydney 1
▁spirituel 1
▁amenés 1
courbe 1
▁salmon 1
▁chartreuse 1
urticaire 1
▁bacon 1
▁invite 1
▁pasà 1
▁chiante 1
▁mûrir 1
▁Milton 1
▁Marilyn 1
indiscipline 1
▁soumise 1
▁sévérité 1
comportement 1
▁guise 1
▁Tonnerre 1
▁éternel 1
▁présenteraient 1
▁do 1
▁it 1
baffle 1
▁Aeroflex 1
▁parade 1
▁nuptiale 1
▁high 1
tech 1
▁diffuseurs 1
▁parfum 1
▁SV 1
-54 1
▁recharges 1
▁livrées 1
▁séparément 1
▁avantageux 1
▁teint 1
▁carat 1
▁accroche 1
▁ceinture 1
▁dessinez 1
empestent 1
▁agirent 1
▁anxieusement 1
▁engagée 1
améliorer 1
excursion 1
▁curiosité 1
▁tendu 1
alliance 1
▁Liban 1
délinquance 1
▁baissera 1
▁frémissait 1
▁saoul 1
▁enterrée 1
▁prospérer 1
▁visqueuse 1
▁puant 1
▁paralyse 1
▁instantanément 1
▁pêcheur 1
▁mouillent 1
▁réalises 1
▁discuté 1
▁gaché 1
▁puit 1
▁canadiennes 1
Hé 1
▁-" 1
facultés 1
▁facon 1
▁statuts 1
▁cadrans 1
▁Destiny 1
▁manifestent 1
▁tentera 1
▁embuscade 1
▁avancez 1
▁empathiques 1
▁Prenons 1
emmes 1
▁deviendront 1
cours 1
▁vetements 1
▁surprennent 1
▁ennuyeuse 1
▁Fannie 1
▁Mae 1
▁Freddie 1
▁Mac 1
▁désastreux 1
▁cartonner 1
▁Chris 1
▁déguiser 1
hab 1
▁faneraient 1
▁soumet 1
licence 1
▁Winters 1
▁réfléchissez 1
infanterie 1
▁rédac 1
Moi 1
▁gifle 1
courtier 1
unis 1
I 1
▁remboursées 1
machines 1
▁pauses 1
▁termes 1
▁contrairement 1
égo 1
▁admet 1
▁possibilité 1
▁démenti 1
construction 1
▁Emeutes 1
▁meurtrières 1
chômage 1
▁excès 1
▁emprunté 1
▁dette 1
▁détenue 1
▁commode 1
altère 1
▁coexistence 1
▁pacifique 1
▁contribution 1
▁omniprésent 1
▁officieuse 1
▁possédons 1
▁Rob 1
▁déplacés 1
▁cherokee 1
▁intemperies 1
▁Afrique 1
Occidentaux 1
cire 1
Rodney 1
▁repris 1
▁semait 1
▁penches 1
▁formulaire 1
▁impressionne 1
▁1,30 1
▁suc 1
▁brulant 1
pousse 1
▁mériterait 1
▁récompenses 1
richesses 1
▁stupéfier 1
▁dures 1
▁française 1
▁intimidés 1
▁sympôme 1
▁amoureuse 1
Luis 1
▁del 1
▁Agu 1
morsure 1
▁recousue 1
infectera 1
album 1
▁Julie 1
▁Degas 1
passeport 1
indigestion 1
estimer 1
évaluations 1
▁incompletes 1
▁compétente 1
▁disposer 1
▁Libye 1
▁réaménagent 1
▁Marnie 1
ethnies 1
▁immigrent 1
▁bosquet 1
▁serré 1
▁incohérences 1
▁consulte 1
▁Leung 1
tir 1
▁retirées 1
▁Geoffery 1
▁nana 1
amendement 1
▁pair 1
soirée 1
▁promet 1
▁Frère 1
▁datant 1
▁Gellar 1
▁installation 1
▁artistique 1
▁campus 1
▁Enesserrette 1
▁demandà 1
▁consommé 1
▁juridiquement 1
▁engagé 1
▁deuxièmement 1
▁régents 1
▁matricide 1
▁jardinage 1
▁gangrène 1
▁inévitablement 1
▁rouvrir 1
▁cessent 1
▁lobbyisme 1
▁téléchargement 1
aiguille 1
▁détenu 1
▁Laura 1
▁médicaments 1
▁tricher 1
▁nègres 1
▁Maureen 1
▁Playboy 1
affichera 1
▁Kg 1
▁pop 1
corn 1
▁entourant 1
▁coriaces 1
▁compagne 1
▁convaincs 1
épilent 1
▁grimpé 1
▁Chef 1
▁marées 1
▁affectés 1
▁coupons 1
▁cupcakes 1
▁brute 1
▁riposte 1
▁imperméables 1
▁habitué 1
▁marc 1
annexe 1
▁clim 1
▁indépendante 1
▁Greendale 1
▁annexe 1
▁habituer 1
▁Géricault 1
▁Jackie 1
▁5. 1
▁fichiers 1
▁informatiques 1
▁psycholog 1
iquement 1
▁bloquera 1
▁ARBRE 1
▁Olivia 1
▁abaisser 1
température 1
enterré 1
▁Hill 1
bout 1
estompe 1
▁zob 1
▁supposé 1
▁réalisez 1
▁tourb 1
lonne 1
▁brasier 1
▁poisse 1
tapis 1
▁déballer 1
▁enfilé 1
carpe 1
▁chinois 1
▁mentionne 1
▁misskelley 1
Arkansas 1
▁examinera 1
▁juridique 1
▁rime 1
▁sortirait 1
impliquer 1
▁peindre 1
Aérographe 1
▁montrerais 1
att 1
▁derniere 1
▁assassinée 1
▁coute 1
▁alla 1
▁tourmentées 1
▁achalandées 1
▁hurlaient 1
▁ongles 1
▁relooking 1
▁enlève 1
▁balcon 1
▁Libby 1
▁vêtement 1
attendrais 1
▁collier 1
lièvre 1
▁poursuis 1
▁fuient 1
éclaireuse 1
▁indétectables 1
achètes 1
lira 1
Chloé 1
▁eilleure 1
▁Wicked 1
▁voulut 1
▁garées 1
▁Tenth 1
▁shoot 1
nouille 1
▁patiente 1
▁puisent 1
▁luminosité 1
▁bi 1
dimensionn 1
galaxie 1
▁éloignée 1
éloignait 1
▁dilatait 1
étirât 1
▁delà 1
▁courbé 1
▁âgé 1
suspect 1
▁Bunny 1
▁Janie 1
▁sanitaires 1
▁Diffic 1
▁suédoises 1
▁Danielle 1
aise 1
doit 1
▁vivras 1
▁surveilleront 1
▁compression 1
,3 1
étalon 1
▁bride 1
Andre 1
▁orthopédique 1
▁outils 1
▁émettent 1
▁Mogadiscio 1
▁reprendrait 1
▁Cosmo 1
▁Hugues 1
▁Gavin 1
▁Goldman 1
▁redeviendrait 1
▁renforcé 1
▁brillant 1
affronter 1
▁médocs 1
▁verso 1
▁arabes 1
▁Kenneth 1
conversation 1
▁interceptée 1
▁dissolve 1
▁admiré 1
rai 1
▁piano 1
jusqu 1
Après 1
▁patientes 1
▁goûtent 1
juges 1
▁mesurent 1
▁foire 1
▁coqu 1
écoutait 1
entendait 1
Á 1
▁close 1
▁?< 1
▁coq 1
▁tremblaient 1
▁apportée 1
▁pendouille 1
▁mangeront 1
▁cuisinent 1
▁obligation 1
▁sourient 1
▁Modestes 1
▁courtois 1
▁trichaient 1
▁Frappez 1
▁écrasez 1
▁gang 1
▁Radak 1
▁Reynolds 1
▁retordre 1
amuseraient 1
▁duperies 1
opposer 1
▁guindant 1
▁calaison 1
▁fauve 1
▁copeau 1
▁renoncer 1
▁renonceront 1
▁Hannigan 1
877 1
▁erreurs 1
▁Frappent 1
▁valises 1
▁préférable 1
▁nettement 1
▁bruleront 1
▁tortureront 1
▁reprennent 1
▁hissé 1
▁arretez 1
offre 1
▁Onze 1
▁Baltique 1
▁amateurs 1
▁chronique 1
spectre 1
▁puiser 1
▁armées 1
▁péronnelle 1
▁pucelle 1
▁Lorraine 1
▁Dauphin 1
▁blasphémaient 1
▁durable 1
▁corruption 1
▁hameau 1
▁paisible 1
▁rassembler 1
▁approchaient 1
▁résonnera 1
compositeurs 1
▁spécialisés 1
▁déjeuners 1
recettes 1
▁évoquent 1
▁entasse 1
▁victuailles 1
▁fascisme 1
▁battaient 1
▁apprenant 1
▁Jericho 1
▁respectable 1
▁Enrique 1
▁Luis 1
▁Tomas 1
▁poignardés 1
Hugo 1
▁prévenus 1
▁amourette 1
ado 1
▁tanguer 1
Ascoyne 1
▁télégrammes 1
▁répondront 1
▁transporté 1
▁Cody 1
▁Jarrett 1
▁lessiver 1
▁bouffe 1
▁Diomède 1
▁parvenus 1
assassinat 1
▁esclave 1
▁percèrent 1
▁retrouva 1
▁souterrain 1
ouvrira 1
▁recrute 1
▁miroiter 1
▁Carey 1
Mlle 1
▁Harrington 1
▁rapportons 1
▁fidèlement 1
▁lamentable 1
▁théâtres 1
▁actrices 1
▁rôles 1
▁exigeant 1
▁kidnapper 1
▁musées 1
▁terrent 1
▁atterrirait 1
▁madame 1
▁acculé 1
bouton 1
▁aveuglera 1
▁farce 1
▁élèvent 1
▁Privés 1
▁protestent 1
▁tarder 1
▁dut 1
▁Connues 1
religieuses 1
▁immondes 1
▁Barbe 1
Noire 1
▁tomberaient 1
▁parchemin 1
▁falsifier 1
▁encres 1
▁civière 1
▁commissariat 1
▁informe 1
▁suggérée 1
▁supposez 1
▁appliquent 1
▁gravées 1
usent 1
▁reveniez 1
▁Cousin 1
▁accepteront 1
▁intimement 1
▁sérums 1
▁arrivions 1
▁négligence 1
▁impardonnable 1
▁censés 1
diligence 1
▁frétiller 1
▁charriait 1
▁amena 1
mauvais 1
jatz 1
▁Michel 1
▁Cassio 1
▁Cristina 1
▁objection 1
pomme 1
▁pourrie 1
▁g 1
▁dégrossie 1
▁scie 1
▁Randy 1
▁Concello 1
▁enferme 1
▁cassés 1
▁étirée 1
▁colisée 1
roue 1
▁foules 1
▁décor 1
▁capitalisiez 1
▁payeront 1
clou 1
▁mêm 1
▁Custer 1
▁Scully 1
échouer 1
colonie 1
▁énergumènes 1
▁Note 1
▁Lucilius 1
▁dégrade 1
▁cérémonies 1
venin 1
▁dût 1
▁Chacun 1
▁Gwendolen 1
▁négliger 1
▁jardinier 1
▁gazons 1
▁rouillés 1
▁fauché 1
▁réentendre 1
▁Cherokees 1
▁quelgenre 1
▁Somerset 1
▁Maugham 1
▁Truman 1
▁Capote 1
▁semblerait 1
▁prolongée 1
San 1
▁cernés 1
▁Ramenez 1
▁soigneusement 1
gyptiens 1
▁bâtisseurs 1
propulseur 1
▁allument 1
▁mettrons 1
▁broussailles 1
▁mathématiciens 1
▁architectes 1
▁disparais 1
attendait 1
▁échantillons 1
▁plâtre 1
▁Thorwald 1
malle 1
▁fuie 1
soufflé 1
▁gai 1
▁construirons 1
▁Apache 1
▁régissant 1
▁prisonnières 1
▁serviles 1
▁repérées 1
▁reines 1
▁régnante 1
▁anéantie 1
▁Docteur 1
▁Grant 1
dernière 1
▁Dispersez 1
▁froids 1
▁iris 1
▁désirons 1
▁continueront 1
meilleurs 1
▁martiale 1
annoncerai 1
▁soutirer 1
▁Han 1
▁bouclent 1
▁éminent 1
▁redonnerait 1
▁White 1
▁jointe 1
▁verrou 1
▁strudels 1
▁pamphlet 1
▁véritablement 1
▁tambour 1
▁pertinents 1
▁canne 1
errances 1
▁incognito 1
princesses 1
▁dévotement 1
▁repoussé 1
▁rivalité 1
▁naturelle 1
assurances 1
expediteur 1
▁recuperer 1
▁augmentera 1
▁polices 1
▁quart 1
▁penny 1
▁ouies 1
▁réflecteu 1
iment 1
▁Résistance 1
▁faisiez 1
▁agiront 1
▁Envoyer 1
envenime 1
▁improvise 1
assoient 1
▁snobes 1
▁cabarets 1
▁convoitent 1
▁commise 1
▁Kalador 1
objectif 1
classe 1
▁dominante 1
▁Rentrons 1
emportent 1
▁leva 1
▁aperçut 1
▁dressa 1
▁représentez 1
▁honoré 1
▁liraient 1
▁ineffaçables 1
pertes 1
▁confuse 1
▁Carrington 1
Carp 1
▁dura 1
▁déposséder 1
alimentent 1
▁intraveineuse 1
▁Moby 1
▁Dick 1
▁ravagé 1
▁corp 1
▁renaîtra 1
▁frapperais 1
offensait 1
▁supplice 1
▁sourd 1
▁priver 1
▁Quelles 1
▁écouteront 1
▁auras 1
gypte 1
▁serviront 1
▁tardait 1
▁redescendre 1
▁rassemblèrent 1
▁portèrent 1
allégresse 1
Voici 1
Ô 1
▁Isra 1
▁titre 1
▁griffé 1
▁ranch 1
▁Sanderson 1
▁affamée 1
inverser 1
▁condamnée 1
ateliers 1
▁signalement 1
▁généreuse 1
▁interprète 1
entassent 1
▁gênante 1
▁Dangereux 1
▁tribut 1
▁mienn 1
assistants 1
▁fonctionnaires 1
▁Faute 1
▁cuire 1
▁veau 1
▁perfectionné 1
▁bombardier 1
experts 1
▁accueillerons 1
▁flèches 1
▁rats 1
▁désertent 1
▁asséché 1
▁reconnaissantes 1
▁aidez 1
▁offrez 1
▁bandeaux 1
▁attachez 1
▁gloire 1
▁affreusement 1
Atlantique 1
▁Perrin 1
▁exclus 1
▁partagent 1
▁dépêchez 1
▁Kotliarov 1
▁arri 1
ven 1
▁bourg 1
▁Rentre 1
▁sabres 1
▁tranchent 1
▁Gricha 1
cas 1
▁levait 1
▁ordure 1
vulgarités 1
▁Cécile 1
▁Acceptez 1
▁Gerda 1
étouffent 1
trace 1
vette 1
▁Maudet 1
▁profitiez 1
▁foutu 1
service 1
attire 1
témoin 1
▁varie 1
▁remets 1
écoutais 1
▁laverais 1
offrirais 1
▁boive 1
▁catégorique 1
inventeur 1
▁locomotive 1
trains 1
▁Von 1
▁Metz 1
▁adorables 1
▁accrocherai 1
▁pétillent 1
▁étanche 1
▁chalumeau 1
▁mêler 1
▁joueurs 1
▁entraîneurs 1
▁complication 1
▁retournaient 1
▁prieront 1
▁saint 1
▁François 1
▁Knocko 1
▁Minihan 1
▁distingués 1
Pères 1
▁Garibaldi 1
▁Club 1
▁Sportif 1
▁Rocky 1
▁Marciano 1
▁aveuglés 1
▁éternels 1
pêcheurs 1
▁planches 1
▁pêcherie 1
▁mar 1
▁espagnol 1
▁déploya 1
▁boiteux 1
▁boiteuse 1
▁épingles 1
▁bazar 1
▁exaucées 1
▁copilote 1
▁Vingt 1
vietnamiens 1
▁décidant 1
>>< 1
actes 1
▁incorrects 1
▁intrinséquement 1
▁impurs 1
▁Newbury 1
shérifs 1
▁Tasaburô 1
▁obéit 1
▁déplaisant 1
▁doublure 1
▁poseront 1
▁probleme 1
vivants 1
▁trier 1
▁inoffensifs 1
▁oublier 1
▁invitées 1
▁Mlle 1
▁Corny 1
▁Eloigner 1
...? 1
▁sacrifieront 1
▁tangible 1
▁Telle 1
▁désirez 1
▁Annie 1
▁reconnaîtriez 1
▁élégant 1
▁dessin 1
ignorez 1
st 1
▁mie 1
▁Tolède 1
chevaliers 1
▁vestes 1
▁capes 1
▁râpées 1
▁trappe 1
▁Congo 1
▁Dois 1
▁expérimental 1
▁éternuer 1
▁Parler 1
oiseaux 1
▁paraissait 1
▁plume 1
▁stér 1
▁effrayé 1
▁habité 1
▁entreprendre 1
▁mourrez 1
▁Lolobrijida 1
▁naissent 1
▁villes 1
▁sublimes 1
▁15/20, 1
▁lires 1
▁réuni 1
▁vedettes 1
▁triomphent 1
▁publicitaires 1
▁joies 1
▁cajolent 1
entendaient 1
▁Suppose 1
▁satan 1
▁Alberto 1
▁gen 1
▁connait 1
▁infiniment 1
▁Pablo 1
..? 1
▁visons 1
▁labeur 1
▁ivre 1
▁puits 1
▁ressentiraient 1
▁infidèle 1
▁dissolvent 1
isiss 1
▁considération 1
▁héler 1
▁insultent 1
▁expérimentés 1
▁nions 1
sciences 1
▁accomplissaient 1
▁engendrements 1
▁engendraient 1
ériges 1
▁pertinente 1
attirer 1
▁murmurent 1
sent 1
▁cithare 1
▁jouera 1
Akbar 1
▁yens 1
▁autorisées 1
▁Interdisez 1
▁scalp 1
▁Moffat 1
▁Sergent 1
▁Dabney 1
▁fondait 1
▁Paddy 1
▁domestique 1
palais 1
▁pouls 1
-29 1
▁affaiblis 1
agenouiller 1
affront 1
▁fièrement 1
avo 1
▁ir 1
▁Scandinavie 1
▁cabines 1
▁shérif 1
▁passerait 1
▁contexte 1
▁déroulée 1
▁fidèle 1
▁gouverne 1
▁profession 1
▁subordonner 1
▁conception 1
▁judiciaire 1
▁laitues 1
▁ruent 1
▁embêter 1
▁Gay 1
effraie 1
▁suceront 1
▁avilis 1
▁volera 1
▁offrants 1
▁Daihôma 1
▁artistes 1
▁Madrid 1
▁avouerais 1
concitoyens 1
▁flagornent 1
▁célébrités 1
▁Tropéziens 1
▁guerrière 1
▁résista 1
▁vaillamment 1
▁Espagnols 1
▁Turcs 1
▁pirates 1
▁renseigner 1
▁soignent 1
▁méprisable 1
▁sentes 1
▁dégoûte 1
▁poignées 1
▁reptile 1
▁Traque 1
▁combats 1
quelques 1
▁soumettre 1
▁réaliste 1
petites 1
▁supportaient 1
▁dialoguer 1
▁dépasser 1
▁recharge 1
▁utilisés 1
▁fournissons 1
▁save 1
▁colére 1
▁poignarder 1
▁Gene 1
▁déshabillées 1
▁développent 1
▁appétits 1
mu 1
▁scles 1
▁16... 1
▁principes 1
▁emballés 1
▁chéquier 1
▁attachons 1
▁chèrement 1
▁vivement 1
▁Cook 1
▁onze 1
Puisqu 1
▁actions 1
▁possibles 1
▁Bligh 1
▁protégé 1
▁sextant 1
▁artifices 1
amène 1
eunes 1
▁psychologique 1
▁relâchés 1
▁foncer 1
▁traînait 1
▁amarré 1
▁passeurs 1
effrayer 1
▁suivie 1
▁durait 1
enfreigne 1
▁ronds 1
▁chargeait 1
▁encaissez 1
obscurantisme 1
derrière 1
▁maisje 1
▁Essaient 1
▁inciter 1
sujet 1
garde 1
▁Montrera 1
▁Menoptra 1
▁rassemblent 1
▁atterriront 1
▁fréquentent 1
▁blagues 1
enceintes 1
▁conscription 1
▁recoins 1
▁retiendront 1
Bêtes 1
▁Bourbier 1
▁vivais 1
▁puissiez 1
▁pleuvra 1
espionnes 1
▁poitrines 1
▁plaie 1
▁montreraient 1
enfermaient 1
▁agirons 1
nobles 1
coopération 1
▁choqué 1
▁Drahvins 1
▁Daleks 1
▁germé 1
▁Prométhée 1
▁tyran 1
▁Pélias 1
▁Kanebo 1
▁CHEN 1
▁DOCTEUR 1
▁Unis 1
▁savions 1
arrangerais 1
minéral 1
▁couronné 1
▁pétries 1
ironie 1
▁poètes 1
incrédulité 1
▁démocrates 1
▁Miri 1
▁élémentaire 1
▁fillette 1
taux 1
▁métabolique 1
▁anormalement 1
▁Darrin 1
Crucifie 1
▁!", 1
▁crié 1
▁chœur 1
▁péter 1
▁coulée 1
▁trahisons 1
▁accomplies 1
▁impatientes 1
▁classes 1
▁bricoles 1
▁plaindraient 1
▁enregistrera 1
▁poèmes 1
▁postérité 1
▁dompte 1
▁rebeller 1
▁Mexicain 1
lâches 1
▁trahissent 1
▁renoncé 1
▁gît 1
▁cimetière 1
anticorps 1
atteignent 1
▁bactérie 1
▁vaincra 1
Assyriens 1
▁rives 1
▁brouillent 1
▁féconde 1
▁cercle 1
▁monnayable 1
▁œil 1
inquietent 1
▁cosmiques 1
▁périlleuse 1
sentiment 1
▁poétique 1
▁dite 1
▁Curt 1
▁éveillé 1
▁adopté 1
▁cages 1
liez 1
▁chargeant 1
▁naviguait 1
▁interdire 1
▁chariots 1
▁Brûlez 1
coto 1
acceptent 1
▁guérilla 1
▁Rouge 1
▁révolutionnaire 1
▁individualisme 1
▁perdra 1
▁respectées 1
▁Existent 1
▁Entré 1
▁pharynx 1
▁provoquant 1
écoulement 1
arrogance 1
raclures 1
▁caniveau 1
▁réalisais 1
▁clergé 1
▁éduqués 1
▁reprocheraient 1
▁pute 1
▁amusés 1
carie 1
hégémonie 1
▁Sparte 1
▁fiant 1
▁trouble 1
▁citeront 1
▁élégance 1
assigne 1
▁raisonner 1
▁déserterai 1
▁maux 1
▁plaçons 1
▁méritants 1
▁mettons 1
▁bienfaiteurs 1
▁prétention 1
▁tourmentez 1
▁tourmentés 1
▁grondez 1
▁grondés 1
▁Criton 1
▁approchons 1
▁Socrate 1
démocrati 1
▁Donne 1
poulpe 1
▁désamorcée 1
ouverture 1
protestants 1
▁pécheurs 1
▁regrettent 1
▁Retour 1
▁rapatriés 1
▁Mandchourie 1
▁pleurait 1
▁Bromsgrove 1
▁auxqu 1
avancent 1
▁tournés 1
▁décimer 1
▁Fritz 1
▁flairé 1
▁jugent 1
▁décrocher 1
impressionnent 1
▁brisent 1
arrachement 1
▁inhumain 1
▁remparts 1
entretuer 1
▁affirmant 1
fugueurs 1
▁agriculteur 1
▁fourrière 1
▁capturé 1
▁fumées 1
▁minéraux 1
▁polluants 1
▁étincelles 1
▁Godz 1
▁noyé 1
▁dépenses 1
▁hébergement 1
▁valeureux 1
invitent 1
club 1
poème 1
▁déguster 1
▁hâte 1
gouines 1
▁gosse 1
▁avaleront 1
▁crue 1
▁tondre 1
▁coke 1
▁nerveuses 1
▁ramer 1
▁Achetées 1
▁disparaitre 1
endimanche 1
▁solenn 1
▁Apollo 1
▁fasciné 1
▁Nick 1
▁Bloss 1
▁Hum 1
▁génies 1
▁liquider 1
▁Edwards 1
▁Cachez 1
offusqueront 1
▁voulue 1
▁pendus 1
▁urgente 1
▁Ambassadeurs 1
▁impertinente 1
▁Chenal 1
brebis 1
▁habile 1
▁corrompre 1
▁Evêques 1
39 1
▁00:45:29,3 1
▁00:45:30,300 1
▁pest 1
ence 1
▁concurrencera 1
▁rustiques 1
▁jurent 1
▁unies 1
▁évolués 1
▁divorcer 1
▁arrêtez 1
▁attisez 1
▁exigeants 1
▁achèterons 1
▁Don 1
▁Giuseppe 1
▁valise 1
▁transformée 1
▁triangle 1
assurait 1
▁moquer 1
▁enfermés 1
▁infirmières 1
célibataires 1
▁feux 1
artifice 1
▁tombola 1
▁parascolaires 1
▁Bingo 1
▁prospectus 1
▁chocolat 1
▁Sita 1
vivacité 1
appliquait 1
▁agresse 1
▁serons 1
▁reçus 1
▁évitent 1
Catan 1
▁ia 1
noeud 1
▁noeud 1
biscottes 1
▁accompagnés 1
riches 1
▁cercueil 1
▁fumait 1
▁microbe 1
▁microscope 1
▁sèment 1
▁moissonnent 1
▁Ninive 1
▁dresseront 1
▁condamneront 1
▁prédication 1
▁chandelier 1
isolement 1
▁accessibles 1
▁descendus 1
▁sortirez 1
▁empêcherez 1
▁délibérément 1
élève 1
▁déployée 1
▁allumée 1
▁pouce 1
▁appuyé 1
▁regroupés 1
▁meute 1
détaillée 1
évaporer 1
▁longueurs 1
▁émises 1
▁dilate 1
▁conclusion 1
▁contracter 1
▁enracinées 1
▁regretter 1
▁UL 1
SSE 1
▁vêtus 1
▁costumes 1
▁grecs 1
▁assiégeons 1
▁Troie 1
▁défient 1
▁posés 1
▁mouront 1
▁bâton 1
Leur 1
▁étonné 1
▁industries 1
▁Rampion 1
▁appétit 1
▁rassasié 1
▁façonne 1
▁acheteur 1
▁Pitié 1
▁dîners 1
▁gala 1
▁ressens 1
homards 1
▁cuisinés 1
▁confions 1
▁foutus 1
▁hante 1
poissons 1
▁fichue 1
ange 1
▁abritons 1
II 1
amènerai 1
▁cliqueter 1
▁affinité 1
absorbent 1
▁éponges 1
▁partagera 1
▁Mozart 1
▁mentaient 1
pièges 1
▁palpiter 1
▁flots 1
▁paralysera 1
▁prendraient 1
▁vécurent 1
▁souffrez 1
▁loupent 1
▁préparée 1
▁gobent 1
▁Saviez 1
▁mouvant 1
▁civilisés 1
vieux 1
▁poses 1
▁remarquez 1
▁appartenaient 1
orchestre 1
▁supp 1
'... 1
▁brillait 1
▁mont 1
▁Vésuve 1
▁maillot 1
▁vilaine 1
▁funérailles 1
onseil 1
▁fondé 1
▁Fondation 1
▁Armbruster 1
▁23.000 1
▁plomb 1
▁étrangère 1
asseyent 1
▁natur 1
▁accablent 1
▁monotonie 1
▁galaxies 1
pères 1
▁accompliraient 1
▁pensantes 1
▁Umberny 1
Brésiliens 1
gouverneurs 1
Portugais 1
▁galions 1
▁autochtones 1
▁nationaux 1
empare 1
▁condamne 1
descendants 1
▁fautifs 1
agissait 1
apportes 1
Italiens 1
▁pourboires 1
▁posez 1
marchandise 1
▁réveillez 1
▁refoulées 1
▁pneus 1
▁crissé 1
▁adore 1
▁rhumatisme 1
opérer 1
▁défavorisés 1
▁barbecues 1
invités 1
▁photographié 1
▁statues 1
▁marbre 1
atteigne 1
▁formation 1
▁irréversible 1
▁monnaies 1
▁précieuses 1
▁payez 1
▁marshall 1
▁Entendons 1
▁Giulio 1
maiso 1
▁magnétophone 1
▁Norris 1
▁Premiêrement 1
▁Lieutenant 1
▁Detroit 1
ls 1
▁noirs 1
▁Aubrey 1
▁Clayton 1
▁galette 1
▁Christine 1
▁choper 1
/24 1
▁pognon 1
▁éclata 1
▁Libérant 1
▁décomposition 1
fût 1
▁business 1
▁énormes 1
▁romaines 1
▁soutenus 1
katarina 1
▁peter 1
▁enverrai 1
▁éditeurs 1
▁nuls 1
▁paradoxe 1
▁Muff 1
▁circuits 1
▁électroniques 1
▁liée 1
vis 1
▁unités 1
▁identitaires 1
▁installées 1
▁subsistaient 1
▁pauvrement 1
▁moutons 1
voyageurs 1
▁Panthéon 1
▁enfilais 1
▁gonflaient 1
▁expiraient 1
▁parvenaient 1
Adieu 1
▁béniront 1
▁Pérou 1
▁figuré 1
▁obsessions 1
▁abrutit 1
infant 1
▁cubique 1
▁retournés 1
occultation 1
▁envoyez 1
tirages 1
▁secs 1
Warre 1
▁hord 1
▁manœuvré 1
▁Songez 1
édification 1
▁structures 1
▁élaborées 1
▁exécutent 1
▁persuade 1
▁refouler 1
▁filtrent 1
▁collective 1
▁lésion 1
▁Lis 1
▁éjectées 1
▁germent 1
▁festival 1
inondations 1
coléoptères 1
▁refroidissement 1
▁Volkswagen 1
▁formalisent 1
▁commodités 1
▁litres 1
▁oasis 1
▁verdure 1
▁luxuriante 1
▁Cubango 1
▁luxe 1
▁herbe 1
▁pressés 1
abondance 1
babouins 1
▁cousue 1
rivières 1
▁évaporer 1
▁assoiffée 1
▁sanglier 1
▁séparé 1
▁substitut 1
▁cueille 1
▁DDT 1
▁fouineurs 1
▁pellicules 1
▁pantalons 1
▁troués 1
▁évangélistes 1
▁ramassez 1
▁affranch 1
issement 1
▁insuffisant 1
▁soupçons 1
▁enjeux 1
▁prononces 1
▁Drôle 1
▁interdits 1
▁chaparde 1
▁baleines 1
▁sérénité 1
▁bâbord 1
▁tribord 1
haddock 1
▁hypocrisie 1
▁retenez 1
▁putes 1
▁Golf 1
▁apportons 1
▁reportage 1
moignage 1
▁appr 1
ciation 1
Remplis 1
‡ 1
pens 1
▁publicit 1
oirauds 1
▁voleront 1
▁reconna 1
Œ 1
ˆ 1
▁théâtrale 1
▁Hollywood 1
▁dépassait 1
amateurisme 1
▁aidée 1
▁doublée 1
▁Helen 1
▁Kane 1
▁créatrice 1
▁waters 1
▁Faire 1
inculpé 1
fac 1
itateu 1
▁notoire 1
▁Igor 1
▁franchise 1
▁Milo 1
▁Janus 1
cigares 1
▁Amphion 1
nova 1
▁perroquets 1
▁momifié 1
êtres 1
▁Carl 1
▁gribouillée 1
▁illisible 1
▁reproduites 1
▁développées 1
▁gueulent 1
▁plaignent 1
▁contenaient 1
Arctique 1
▁Kyoto 1
▁réécrivaient 1
▁Chrysanthèmes 1
▁racontée 1
intense 1
▁simulons 1
Surprise 1
ordonnant 1
▁enlevés 1
entendant 1
▁supporté 1
singes 1
▁revoilà 1
▁confessés 1
▁soufre 1
débauche 1
▁triment 1
▁matins 1
humeur 1
▁vertueux 1
vertueux 1
▁sots 1
▁palefrenier 1
▁Doolan 1
▁dresse 1
▁jumelles 1
▁méchante 1
▁Miles 1
▁sables 1
▁échauffé 1
sucre 1
▁malle 1
▁regretteront 1
▁heurteront 1
▁fracasseront 1
▁bouffaient 1
problèm 1
▁baisés 1
parasites 1
▁peuples 1
▁Cap 1
▁Vert 1
▁Guinée 1
▁creuser 1
▁fosses 1
▁enterraient 1
▁gênée 1
▁lécher 1
▁opté 1
▁recommandé 1
omettre 1
▁détail 1
▁moindres 1
minuties 1
▁passion 1
▁interrompre 1
cinglées 1
▁rêver 1
▁Incapable 1
▁économiques 1
empereurs 1
▁répondirent 1
▁appartiendra 1
▁Livia 1
▁occupait 1
▁donnés 1
▁nu 1
▁pessimistes 1
▁optimistes 1
▁inconnu 1
▁provenir 1
▁Préfet 1
▁bredouillent 1
▁guichet 1
▁2... 1
emme 1
▁tromperont 1
▁chassaient 1
▁signant 1
Tziganes 1
▁couteaux 1
partis 1
▁expiré 1
▁messe 1
▁fascistes 1
▁rou 1
▁ravisseurs 1
lave 1
▁ronge 1
▁fondations 1
▁mahar 1
▁épaule 1
cultivateurs 1
▁ouvriers 1
▁tracts 1
▁affiches 1
▁millier 1
▁Adios 1
▁mi 1
▁amigos 1
aurez 1
▁monterez 1
grand 1
▁appelleront 1
cages 1
▁débarras 1
▁égard 1
prière 1
▁réconforte 1
UMWA 1
▁volontaires 1
▁garent 1
▁bagnole 1
▁recourir 1
jaunes 1
▁illégal 1
▁immoral 1
syndicat 1
▁Patterson 1
▁Chargé 1
▁négociations 1
▁combattraient 1
▁âprement 1
▁concession 1
▁promenaient 1
▁jeeps 1
enfermer 1
▁suivaient 1
▁croirait 1
chapitre 1
▁essaieraient 1
▁noient 1
▁Szell 1
▁filmeront 1
▁kidnappings 1
héritières 1
▁détournements 1
▁sabotages 1
ambassadeurs 1
éseau 1
▁national 1
▁masses 1
▁oppressées 1
▁prime 1
▁time 1
▁maussades 1
▁confrontation 1
▁inondations 1
▁inf 1
trée 1
retable 1
éca 1
automobile 1
▁garantis 1
▁retombent 1
▁négocier 1
admettront 1
▁Bancroft 1
▁Frann 1
amenait 1
▁pullulent 1
▁cultures 1
▁répare 1
▁dare 1
dare 1
culturistes 1
▁suçait 1
▁cinglé 1
▁Teuton 1
impose 1
▁amants 1
▁incapables 1
▁louche 1
▁baril 1
▁grogne 1
▁Entendu 1
▁contredise 1
▁22. 1
▁extrême 1
orps 1
▁matériels 1
▁attributs 1
▁repartir 1
▁emploie 1
sucer 1
▁réguliers 1
▁Bizarrement 1
▁précèdent 1
▁caressent 1
▁embrassent 1
▁crèvent 1
stalle 1
▁crottée 1
▁éclairés 1
▁Merrin 1
▁brave 1
intellectuels 1
▁déchaînés 1
▁raviver 1
▁inquiétudes 1
▁prépare 1
ultime 1
▁sensuelle 1
▁lisible 1
avisent 1
lamme 1
▁rôtir 1
▁lieues 1
▁enfermons 1
▁coma 1
▁vaccin 1
▁préventive 1
▁Stupides 1
▁sentirent 1
▁magie 1
▁distraits 1
▁batailles 1
arrêtaient 1
incompétents 1
▁blâment 1
fantômes 1
▁lâches 1
gen 1
▁barricadent 1
▁allumer 1
▁télévisions 1
actualité 1
▁terrorise 1
▁renfort 1
▁reconnaissance 1
▁amidonné 1
▁isolante 1
▁séparée 1
▁parachutes 1
▁ajustements 1
▁commençons 1
guerriers 1
▁coururent 1
miracles 1
▁Réchauffe 1
▁gelés 1
▁montent 1
▁étranglent 1
▁Supérieure 1
▁Catherine 1
▁indifférents 1
▁Geneviève 1
▁fermés 1
▁Gérard 1
▁1911. 1
▁mobilisé 1
▁défenestrer 1
▁Bugenhagen 1
▁mourrant 1
▁revit 1
▁loisir 1
▁sujettes 1
▁décharge 1
▁hommage 1
enterre 1
linge 1
▁réanimer 1
▁croquis 1
alliage 1
▁emmêlé 1
▁mouillé 1
▁congélateur 1
▁conservés 1
▁habillée 1
▁désirs 1
▁étrangement 1
▁Iui 1
▁mûre 1
▁réflexion 1
▁adopter 1
▁Erwin 1
parent 1
▁interdisent 1
fièvre 1
▁Hobbits 1
▁Langue 1
▁Serpent 1
▁Saroumane 1
gentil 1
Magiciens 1
▁Orques 1
▁Rohan 1
défectueuses 1
▁pratiquent 1
▁noyés 1
▁digue 1
▁empoisonné 1
pêcheur 1
Habitants 1
▁dangers 1
▁Humaine 1
▁préserver 1
▁Catalina 1
▁Corse 1
Cousteau 1
▁Calypso 1
▁duquel 1
▁pollution 1
▁croissante 1
▁Méditerranée 1
▁fluvial 1
▁déversait 1
▁cubes 1
▁remplissant 1
▁abdomen 1
▁infectée 1
▁injecte 1
▁simultanément 1
▁glande 1
▁salivaire 1
arriver 1
essaim 1
▁émettait 1
▁saluer 1
miennes 1
espére 1
▁requin 1
▁traversant 1
▁Danube 1
▁Braila 1
▁tranchant 1
▁sultan 1
▁Hongrie 1
▁ben 1
▁élevage 1
mite 1
:... 1
flotte 1
▁interdites 1
▁Arcturans 1
▁signaler 1
régions 1
▁thalamiques 1
détecteurs 1
▁Selvan 1
▁battu 1
▁duel 1
▁clairière 1
▁poules 1
▁Bonté 1
▁personnifier 1
▁Sors 1
▁résistera 1
▁boirai 1
firme 1
liées 1
▁manigancer 1
inquiéteraient 1
▁Nathalie 1
break 1
fusées 1
▁lancées 1
▁internes 1
▁déterrer 1
blé 1
▁fleurir 1
marguerites 1
▁dessèchent 1
▁rampant 1
▁essayèrent 1
▁9,4 1
▁pieux 1
▁baisé 1
▁Douvres 1
▁timbré 1
▁dévisagés 1
▁occuperai 1
trêve 1
▁reconsidérer 1
valeurs 1
appartenance 1
▁planification 1
▁renversement 1
▁empereur 1
▁régnant 1
anarchie 1
expéditions 1
▁quittée 1
▁enfantant 1
'? 1
▁mâle 1
▁tendrement 1
▁ours 1
▁Ardent 1
flot 1
▁détention 1
▁réhabilitation 1
▁Lycaste 1
▁Alba 1
▁Cinq 1
entres 1
▁déplaçaient 1
▁reprenaient 1
▁indécis 1
▁accélère 1
tels 1
▁Voie 1
▁lactée 1
orbite 1
▁lanceront 1
▁interstellaires 1
▁apprivoisent 1
étonnante 1
▁célérité 1
réacteur 1
▁collecteur 1
▁frontal 1
▁couvrant 1
▁codent 1
▁protéines 1
▁comètes 1
▁primitive 1
▁célèbrent 1
▁Heike 1
▁scepticisme 1
▁Admirer 1
▁savante 1
▁répartition 1
hôtes 1
▁fins 1
▁arborent 1
▁bridge 1
▁Prétendrais 1
▁jouant 1
corbeille 1
▁sportif 1
▁Shana 1
anciens 1
▁reculés 1
▁Hinchis 1
▁Fleur 1
▁aile 1
▁abonnements 1
▁revues 1
▁élections 1
▁Prisons 1
▁réflexe 1
▁violer 1
▁Deach 1
mélodie 1
▁inséparables 1
▁Armeror 1
▁FaIIstag 1
ses 1
▁promoteurs 1
▁31 1
▁métaphore 1
▁traitaient 1
▁allégories 1
▁métaphores 1
biographie 1
▁offici 1
▁sponsors 1
▁concurrents 1
▁biographie 1
▁Cottes 1
▁FaIIope 1
▁cartographe 1
▁pénétré 1
▁permission 1
inquiétait 1
savants 1
▁formule 1
▁Genesis 1
232. 1
▁percée 1
▁sismologique 1
▁seu 1
isolées 1
ixo 1
▁traduise 1
▁Emparez 1
▁souffrira 1
▁inanimée 1
▁95 1
▁considérable 1
cortex 1
▁associatif 1
▁associe 1
▁embêtait 1
▁Mamie 1
▁aboyant 1
▁sieste 1
émetteur 1
Rangers 1
▁commenceraient 1
▁Malheur 1
▁fondement 1
▁saignait 1
▁chanterait 1
disques 1
▁isolée 1
▁dérange 1
égalité 1
▁prématurément 1
▁livreront 1
▁marchandise 1
▁Ruth 1
▁constituerons 1
▁commenceront 1
nerveux 1
interceptent 1
▁Esther 1
▁sauterons 1
▁racontaient 1
▁symbolisent 1
▁adressa 1
▁Adam 1
▁Eve 1
▁oblique 1
▁charpente 1
▁tentes 1
▁gronde 1
▁bave 1
▁écume 1
▁intervalle 1
▁montres 1
▁quartz 1
▁numériques 1
▁nuage 1
▁parfumée 1
▁luisants 1
▁stellaires 1
▁défi 1
▁répugnante 1
▁voiliers 1
cargos 1
▁séduisante 1
▁établir 1
enverraient 1
hologrammes 1
▁détruisant 1
▁Boucle 1
▁qe 1
▁hagards 1
▁caution 1
▁Expliquez 1
▁allemandes 1
couverts 1
augmentation 1
▁gréve 1
▁augmentation 1
▁débraye 1
▁suppurent 1
▁Smithson 1
▁compétents 1
▁entamer 1
▁Or 1
▁communal 1
▁enfuie 1
▁grogner 1
▁Comtesse 1
▁Esmeralda 1
▁giflent 1
▁brigand 1
▁lanternes 1
▁crasseuse 1
▁Premier 1
▁ministre 1
intéressaient 1
acteur 1
▁Pressés 1
▁omettant 1
▁niveaux 1
▁contrebas 1
rêve 1
▁marchais 1
Fièvre 1
▁sûreté 1
spécialité 1
▁glacée 1
▁gamins 1
seules 1
gendarmes 1
▁primes 1
▁tempéraure 1
perniflard 1
▁degré 1
▁glacé 1
▁tranche 1
▁descends 1
▁boyaux 1
▁rosée 1
regarde 1
▁rayures 1
▁pois 1
▁polie 1
▁sophistiqués 1
▁Turin 1
▁trottoirs 1
▁piégé 1
essayez 1
appréhender 1
▁peser 1
▁action 1
fierté 1
▁croyons 1
▁sublime 1
▁prononcé 1
assument 1
▁exploiter 1
▁Q 1
▁Sainclair 1
panneau 1
▁offense 1
▁gré 1
▁entente 1
▁aggrave 1
aggrave 1
▁confortable 1
▁convertir 1
▁Occupe 1
▁commençais 1
▁collection 1
▁dissection 1
oubliez 1
▁arrêteront 1
▁taffetas 1
voleu 1
Personne 1
▁habitaient 1
▁stylos 1
xplorateurs 1
▁pôle 1
▁rétrograde 1
nfoirés 1
▁intensément 1
voisin 1
▁Jacuzzi 1
▁aqueduc 1
▁relié 1
▁grenou 1
lère 1
▁fortunées 1
amputation 1
Ann 1
▁Reconnaîtriez 1
immortalité 1
▁frappait 1
▁Incas 1
▁envahit 1
aspirateur 1
▁meuglé 1
valises 1
Roi 1
▁énigmes 1
▁essayes 1
▁nettes 1
▁fétiche 1
▁préfères 1
▁temporaires 1
▁crainte 1
▁frigides 1
▁pré 1
rétréci 1
▁exige 1
▁design 1
▁redoutez 1
▁détesteront 1
▁reconnus 1
alors 1
▁travailles 1
accouplent 1
▁visiter 1
▁renoncent 1
▁McGuinness 1
▁touchés 1
▁Rocheuses 1
▁abominable 1
▁quasiment 1
aprês 1
Bono 1
▁générosité 1
▁joueraient 1
▁offriraient 1
▁inoubliable 1
techniciens 1
insérais 1
▁filmés 1
▁respectais 1
plans 1
▁débordent 1
▁Music 1
▁Awards 1
▁australiens 1
▁décerné 1
▁Australie 1
▁séduit 1
voyage 1
▁enferment 1
▁inhibée 1
▁iceberg 1
▁Justice 1
▁sensass 1
▁accentuer 1
enregistrement 1
angue 1
pipe 1
▁passais 1
▁désespérés 1
▁goujons 1
▁excitée 1
▁swing 1
▁plop 1
▁coopératifs 1
▁déviateur 1
▁thermique 1
▁brûlera 1
empire 1
▁romain 1
▁contrôla 1
▁GIRL 1
▁CAN 1
▁JUST 1
▁SIT 1
▁BACK 1
▁AND 1
▁SA 1
▁playboy 1
réalisateur 1
agente 1
ière 1
proprio 1
▁2.500 1
▁persuadée 1
▁alorsT 1
▁satisfactions 1
▁hallucination 1
▁fâché 1
▁questionné 1
esprits 1
▁pécheur 1
▁désolées 1
▁attrapaient 1
▁semences 1
▁émeraude 1
▁instrument 1
▁obligée 1
▁Vasso 1
pilule 1
▁affament 1
▁écoutant 1
▁perdait 1
▁Soudain 1
▁interviewer 1
out 1
▁Rastas 1
▁Amoy 1
escarboucle 1
▁rubis 1
▁Hudson 1
▁remettrons 1
▁suivrons 1
vue 1
▁visites 1
▁défection 1
▁ingrédients 1
▁splendides 1
▁cachez 1
▁cachera 1
▁Gloria 1
▁récupérerons 1
▁préoccupant 1
▁adversaires 1
▁tatouages 1
▁placés 1
▁Commandent 1
▁Bounty 1
▁indice 1
▁cachées 1
▁BONDISSENT 1
bâtards 1
exemple 1
▁schématisé 1
▁retenir 1
▁endommagent 1
eunuque 1
▁vaporisait 1
▁coquille 1
métier 1
▁sympathiques 1
▁planche 1
▁enveloppaient 1
▁réalisaient 1
▁Chandler 1
▁hurlent 1
récif 1
▁détesterait 1
▁6, 1
▁fusées 1
▁compartiment 1
▁Préparez 1
▁Phil 1
▁Mic 1
costards 1
adressent 1
syntaxe 1
▁délice 1
▁méditais 1
▁Rassemble 1
éther 1
▁turent 1
▁ô 1
▁redonnez 1
▁plaisante 1
▁grossier 1
allai 1
▁bienheureux 1
▁Viens 1
outrageant 1
▁redouté 1
▁envoyèrent 1
▁monstrueux 1
agitent 1
▁trouverons 1
▁resplendisse 1
▁amicale 1
ue 1
▁dévalisé 1
▁cogneront 1
impôts 1
embêter 1
▁lambeaux 1
Réduits 1
▁renieront 1
▁conservé 1
tourb 1
▁trompeur 1
▁engloutit 1
▁exténuante 1
innocence 1
blessée 1
▁Redoutant 1
▁espionne 1
▁poursuivirent 1
▁pirate 1
▁ambigu 1
meurtres 1
▁forcez 1
▁affronter 1
▁peurs 1
▁brule 1
▁Lewis 1
▁barque 1
▁salées 1
▁poivrées 1
▁bougre 1
▁visibilité 1
▁datait 1
▁usent 1
▁écologique 1
▁Bientôt 1
▁planter 1
▁Arctique 1
▁proposions 1
▁balafre 1
▁plonger 1
▁Buck 1
▁gigot 1
▁cramer 1
étale 1
▁fuseaux 1
▁virulent 1
▁0-2-0, 1
▁relancerez 1
▁vidaient 1
▁volèrent 1
▁photographie 1
▁murs 1
▁mystification 1
▁inorganique 1
infirmerie 1
▁vaguement 1
▁tronc 1
▁concrétise 1
▁dictature 1
▁réprimer 1
▁Salvador 1
▁Guatemala 1
▁Chili 1
▁moudjahid 1
▁RPG 1
apres 1
▁gripper 1
▁relief 1
▁host 1
marchandises 1
▁chères 1
grands 1
▁révolutionn 1
aires 1
otages 1
▁accompagneront 1
▁aviserons 1
▁circuler 1
▁millionnaires 1
▁Brogan 1
▁déménager 1
▁Malibu 1
▁merlan 1
▁renoncez 1
▁Toussaint 1
témoignages 1
▁Cheveux 1
▁clairs 1
▁casquette 1
▁rabats 1
▁visière 1
▁entaille 1
▁assénée 1
▁délicats 1
▁payées 1
▁carn 1
▁rejetons 1
juifs 1
▁pédés 1
patrons 1
activistes 1
▁ravages 1
▁renoncerais 1
unités 1
▁braquer 1
▁fantasmaient 1
▁Major 1
▁file 1
aspergés 1
▁dormaient 1
▁chewing 1
▁poussaient 1
▁cuve 1
▁crack 1
▁pinceront 1
▁rampait 1
▁photocopie 1
▁Section 1
▁Spéciale 1
▁Georgine 1
témoins 1
▁hongrois 1
▁fléchée 1
▁deals 1
▁estjeune 1
▁Attrapez 1
éparpillent 1
▁Toi 1
▁cramponner 1
accrocherait 1
▁lèvre 1
▁indésirables 1
▁suivez 1
▁aveuglément 1
▁fanatique 1
▁démoniaque 1
▁daté 1
accomplira 1
▁enquête 1
▁Johnny 1
▁Ryan 1
▁Adèle 1
abandonner 1
▁lèveront 1
▁étonnante 1
▁laisserons 1
Comment 1
▁dépouille 1
▁jouerait 1
▁inculqué 1
▁familiales 1
▁adéquates 1
▁reverront 1
▁respireront 1
▁parfums 1
▁familiers 1
▁déménage 1
Marie 1
entraîner 1
▁stabilisent 1
microbes 1
▁nerf 1
▁sciatique 1
▁grandissaient 1
▁née 1
▁recrutent 1
▁coupais 1
américains 1
▁apects 1
▁positifs 1
▁subtile 1
▁mobilise 1
▁Civile 1
fiers 1
très 1
▁spectaculaire 1
pathologie 1
▁tentatrice 1
▁gratifiante 1
▁prepares 1
▁Come 1
fermiers 1
▁sculpté 1
▁Bouddhas 1
▁charité 1
▁Biff 1
▁gymnase 1
▁plaisaient 1
pinceaux 1
▁soyeux 1
▁coupent 1
survivants 1
▁camps 1
▁fours 1
Nains 1
▁minière 1
▁offraient 1
▁ménagères 1
▁évitaient 1
▁prélèvements 1
▁fiscaux 1
▁statistique 1
▁bigette 1
▁écaille 1
▁nageoire 1
▁sainte 1
▁horreur 1
▁soupirer 1
▁moustaches 1
tue 1
▁Arroyo 1
▁satisfaire 1
tziganes 1
▁mas 1
▁survêtement 1
▁mineure 1
▁dérouleront 1
spectateurs 1
▁magasins 1
▁lapin 1
▁vendait 1
▁subtil 1
garçon 1
▁sor 1
▁Entre 1
gardiens 1
▁aptes 1
▁Touchez 1
▁colleront 1
▁Portent 1
adopteront 1
▁arrogant 1
apitoient 1
▁fortunés 1
plaignants 1
▁intéresse 1
▁servirait 1
Araignée 1
▁pigent 1
saloperie 1
drag 1
▁queens 1
▁tapin 1
▁13, 1
▁déguisais 1
attrappent 1
flêche 1
▁Bravo 1
▁marraient 1
▁jetés 1
insulter 1
Blacks 1
▁insultés 1
▁véridique 1
▁emportaient 1
écrivait 1
▁annoncèrent 1
▁divorçaient 1
▁émigré 1
▁Louisiane 1
▁rive 1
▁mensualités 1
vus 1
Hommes 1
▁perfides 1
▁pavanent 1
▁parcelle 1
▁Aveugles 1
▁déperdition 1
▁flambant 1
▁rencontreront 1
recrues 1
▁détrôner 1
▁Janssen 1
▁bruler 1
▁connaissance 1
▁mendicité 1
▁attirer 1
▁sirring 1
Démarre 1
▁crétin 1
▁déporter 1
▁Vladivostok 1
▁évolué 1
restaurant 1
▁épouses 1
▁tatas 1
▁nièces 1
▁neveux 1
▁plongés 1
▁civile 1
espèc 1
▁Moniteur 1
▁Hood 1
sonde 1
▁entrait 1
▁détecta 1
▁émissions 1
▁subspatiales 1
apporterait 1
▁réconfort 1
▁suive 1
▁procédures 1
▁buts 1
▁appuient 1
▁gachette 1
▁croirez 1
▁Respectez 1
▁respectera 1
▁démontrant 1
interviennent 1
▁baissaient 1
Sans 1
Non 1
▁sucé 1
▁brin 1
intelligence 1
▁proposeraient 1
▁1990 1
▁sensationnelle 1
chauffards 1
▁décrochent 1
▁merdique 1
▁vende 1
Oncle 1
▁Bud 1
▁soucier 1
▁espionner 1
▁perturbent 1
▁prêterai 1
grise 1
▁mascara 1
▁Tadgh 1
▁accumuler 1
▁cigale 1
▁méfiant 1
hypothèse 1
▁Mangiapan 1
▁absurde 1
▁examen 1
ombri 1
▁constatai 1
▁boutonnière 1
▁Hansel 1
▁Gretel 1
▁Pensant 1
▁sucerai 1
▁épousaient 1
▁engrossaient 1
▁trembleront 1
▁sons 1
▁Offense 1
offense 1
▁cheque 1
88 1
00. 1
▁lâchais 1
éleverait 1
▁sauteront 1
assiette 1
▁Saisissez 1
opportunités 1
K 1
▁accro 1
▁flingue 1
▁patrouiller 1
▁vélo 1
▁caribou 1
caribou 1
▁Hawa 1
▁foiraient 1
danseurs 1
▁fichés 1
▁complétement 1
▁méme 1
▁tournée 1
▁Ritz 1
▁téte 1
▁disgrace 1
inconnus 1
▁Grèce 1
▁rassembleront 1
éfugiés 1
▁Scotty 1
▁perquisitionner 1
▁fèlé 1
▁Gary 1
▁pyréthrine 1
▁fluorure 1
▁saupoudres 1
cafards 1
▁rareté 1
▁hissent 1
▁implorant 1
▁rugissait 1
▁soupirant 1
▁vents 1
▁soupiraient 1
▁malmenant 1
effraieront 1
▁sarabande 1
▁lutins 1
▁pousseront 1
égarer 1
▁englouti 1
mer 1
avale 1
▁soumettrait 1
▁Setebos 1
▁aryens 1
▁arriveraient 1
Hawa 1
ens 1
▁sacrifiaient 1
▁Schtroumpfs 1
▁Krishna 1
▁flottait 1
fermés 1
▁acheteurs 1
articles 1
▁lus 1
cons 1
▁jargonnant 1
▁reparu 1
premiers 1
▁Défaites 1
▁minimum 1
▁retourneraient 1
▁originel 1
▁unifiée 1
▁contraignante 1
▁Tancis 1
▁lisait 1
▁pointait 1
▁museau 1
▁Porky 1
amateurs 1
▁taule 1
▁circonstance 1
▁topless 1
▁casseroles 1
▁obtiendraient 1
▁Jeeves 1
▁maintenue 1
▁admirable 1
▁réalisable 1
▁Bittlesham 1
▁neveu 1
▁serveuse 1
▁Cecilia 1
▁retenue 1
▁donjon 1
aval 1
immob 1
▁hochent 1
▁grommelent 1
▁conteurs 1
▁zapper 1
▁ravissant 1
▁souhaiterions 1
▁déroulerait 1
radis 1
▁tordus 1
effondrer 1
antimatière 1
▁cloisons 1
ament 1
▁momentanément 1
Vulcains 1
▁concoction 1
▁menthe 1
Romuliens 1
Beaucoup 1
▁pardonnée 1
▁pendue 1
figurine 1
▁idole 1
▁intimide 1
▁tremblait 1
accent 1
▁"... 1
▁intouchables 1
▁plaira 1
▁inexprimable 1
▁Melissa 1
▁atelier 1
▁jetteront 1
▁scellée 1
▁égarée 1
▁épouvantables 1
détruisant 1
▁réveillés 1
moments 1
▁phrase 1
imite 1
▁sentimental 1
▁disparaîtrait 1
▁éliminons 1
▁offensive 1
▁Redskins 1
▁nains 1
▁convenance 1
▁oléique 1
étagère 1
▁rouvertes 1
▁soupçonné 1
exquis 1
▁Maisje 1
▁découvris 1
▁augurait 1
▁Mohamed 1
musulmans 1
▁embête 1
▁musulmans 1
▁dressaient 1
▁latine 1
Asie 1
▁hypocrites 1
ONU 1
africain 1
▁Trafiquer 1
▁mettrais 1
couverture 1
▁puissamment 1
▁tissée 1
▁bouclier 1
▁impénétrable 1
exception 1
dinosaure 1
▁transformèrent 1
▁stand 1
hamburgers 1
▁découvrîmes 1
▁Oklahoma 1
ayons 1
▁résumé 1
▁auxquels 1
▁confrontée 1
▁appauvrir 1
▁bouscule 1
▁Texas 1
H 1
▁30, 1
▁moto 1
▁montant 1
▁dépose 1
▁dédale 1
▁véritables 1
▁loup 1
▁Hilary 1
▁porc 1
▁françaises 1
▁Down 1
▁21. 1
poule 1
 1
ufs 1
▁luxueux 1
▁Francis 1
▁Kostrinski 1
▁dévoiler 1
▁divorcés 1
Lanie 1
▁désistera 1
▁vaine 1
▁Oublient 1
mariés 1
▁peignent 1
▁érigé 1
barricades 1
▁apaiser 1
▁tétanie 1
▁clubs 1
▁gym 1
▁vire 1
toxines 1
rayon 1
▁émetteur 1
▁bloquer 1
▁cornes 1
rhinocéros 1
▁cessa 1
▁heurtera 1
amplitude 1
▁soliton 1
▁ressemblant 1
▁taguans 1
motifs 1
▁recherchés 1
▁buranien 1
▁relevé 1
▁séquences 1
▁viroxiques 1
▁Répondrez 1
questions 1
▁annulé 1
▁déconnecté 1
▁autoréparé 1
▁instinct 1
▁Data 1
▁écoulée 1
▁propagera 1
▁Arts 1
▁Martiaux 1
▁capturée 1
enferment 1
cactus 1
▁frag 1
▁fertiles 1
nourrice 1
sœur 1
▁Caligula 1
▁combla 1
▁romains 1
poison 1
▁aimons 1
▁Chou 1
▁aztèque 1
▁sacrifiée 1
▁procéder 1
▁Sacramento 1
▁débarquent 1
▁opportunités 1
accepteront 1
certitude 1
▁éthiques 1
▁morales 1
orgueil 1
▁approchant 1
▁interrogé 1
▁lundis 1
▁vendredis 1
▁traîne 1
▁vieillis 1
▁rampent 1
▁atteignent 1
▁essait 1
▁couperont 1
▁inventées 1
▁apaches 1
▁ranchs 1
▁cherchèrent 1
▁ficus 1
émancipation 1
▁Mario 1
lustre 1
▁Dés 1
ouvrait 1
attachait 1
radiateur 1
ambassade 1
▁rouspètent 1
▁Marguerite 1
▁Ursule 1
▁grandement 1
trompées 1
libertins 1
▁Bénédict 1
engager 1
▁lutter 1
avouer 1
▁Béatrice 1
▁humilié 1
▁Cour 1
▁évidents 1
▁divulgué 1
▁réélu 1
▁animait 1
marionnettes 1
▁entretenons 1
▁devancent 1
▁armement 1
▁insu 1
ombres 1
▁duranium 1
▁Eliminons 1
cadres 1
▁fusillent 1
▁Charlene 1
▁cookies 1
ancienne 1
effaceraient 1
▁Drexl 1
▁brouillé 1
▁Blue 1
▁Lou 1
Maure 1
▁Cambridge 1
▁procède 1
maquereau 1
igzag 1
▁régnerai 1
▁suprême 1
▁Boules 1
Or 1
▁concluantes 1
▁fumoir 1
▁reposer 1
voie 1
▁bourbier 1
▁découragement 1
▁transport 1
▁routier 1
▁électricité 1
▁essentiels 1
apprécie 1
▁corned 1
▁beef 1
▁souillé 1
▁témoignages 1
▁veste 1
▁défonces 1
inium 1
▁gélera 1
▁psy 1
scan 1
▁grenade 1
▁recyclé 1
bière 1
▁hollandaise 1
serveuse 1
ajouterai 1
ravissantes 1
▁bretzels 1
▁cacahuètes 1
Meurs 1
▁Jadzia 1
▁93 1
▁union 1
▁violées 1
▁reconnaisse 1
trente 1
▁bayou 1
salade 1
▁ambrosia 1
etaient 1
▁Spécialement 1
▁droguées 1
▁hyperbolique 1
▁Rejetez 1
▁rejette 1
▁Siddal 1
▁ridiculise 1
▁assurée 1
Mes 1
▁Amerique 1
▁visas 1
▁tourismes 1
empoisonner 1
▁implante 1
▁piquant 1
▁écographie 1
▁Normal 1
▁attendons 1
▁tiendrons 1
▁informés 1
▁bravement 1
▁justes 1
▁forceraient 1
▁inacceptable 1
▁documentaire 1
▁émeutes 1
▁tirés 1
▁écrabouillées 1
▁agréable 1
▁ardemment 1
▁désirée 1
▁obsession 1
▁Bénie 1
union 1
épicerie 1
▁soumis 1
▁dep 1
uis 1
▁_____< 1
baleines 1
▁grises 1
▁épaulard 1
>___ 1
▁entent 1
barge 1
▁barrière 1
crête 1
épaissit 1
▁quantités 1
▁augmentant 1
▁extrêmes 1
▁Agressez 1
▁requis 1
▁convainquent 1
▁pareils 1
▁inventorier 1
anciennes 1
▁greffes 1
Echo 1
▁résiduel 1
15, 1
▁vérouillée 1
▁stagnante 1
▁grâcieux 1
▁pardon 1
▁Magesté 1
▁traitre 1
▁opinions 1
▁irritable 1
approprie 1
autant 1
kikis 1
▁affiliées 1
sauce 1
▁roubles 1
▁infecte 1
▁célébrer 1
▁étonnant 1
▁haies 1
▁productives 1
▁entourent 1
▁Chastity 1
▁caniche 1
▁récompensés 1
▁encouragé 1
▁fidélité 1
▁vouer 1
▁retouches 1
terrorisées 1
▁sanatoriums 1
▁contrariété 1
▁respirait 1
Rocky 1
▁réagisse 1
▁Double 1
bienfaisance 1
▁chêne 1
▁robur 1
▁confondre 1
▁cerrys 1
▁glands 1
▁hirsutes 1
▁déloger 1
▁Bois 1
thé 1
▁deuxième 1
▁addiction 1
▁irruption 1
▁radin 1
ampute 1
▁molester 1
▁crayon 1
▁Steve 1
▁dragon 1
▁Mord 1
▁Sith 1
▁Rahl 1
▁interprètent 1
ventouses 1
▁laisses 1
▁automne 1
chrysanthèmes 1
▁méritaient 1
▁généreuses 1
▁rads 1
▁radiations 1
▁échecs 1
Nul 1
.", 1
▁accentue 1
▁atouts 1
▁bunsen 1
▁panneau 1
▁contrôlant 1
te 1
▁rrain 1
▁violon 1
▁Piotr 1
▁manifestation 1
▁réjouit 1
berceuses 1
▁séchais 1
essayai 1
souche 1
▁Passe 1
▁pollueur 1
▁terrifieront 1
▁fines 1
▁découperont 1
▁changeant 1
▁transformant 1
▁cue 1
▁maquillent 1
▁indépendant 1
▁répares 1
▁Placez 1
chair 1
▁vraim 1
ent 1
▁persuad 1
▁ées 1
bonn 1
▁franche 1
▁intervenu 1
▁bienvenue 1
▁trempé 1
Epsom 1
▁EDE 1
▁plaident 1
▁inéligibles 1
oui 1
▁talentueuses 1
▁deviner 1
ingrédient 1
▁dégusterons 1
▁gencive 1
▁apprivoisez 1
▁brusquement 1
apportent 1
▁dattes 1
▁pousserez 1
▁sècherait 1
attentio 1
▁2005, 1
▁bandeau 1
▁déroulant 1
▁terrorisées 1
i 1
dée 1
▁Tenez 1
Quito 1
Tenez 1
▁,< 1
▁Quito 1
>____ 1
adhésion 1
parfait 1
▁prépares 1
▁portions 1
▁individu 1
▁orgueil 1
▁bouges 1
▁traversées 1
▁marquer 1
▁Wesson 1
▁Maya 1
▁métamorphosant 1
▁Styx 1
▁calcium 1
▁magnésium 1
comment 1
maqu 1
lots 1
▁école 1
▁aventures 1
▁homosexuelles 1
▁protocole 1
Innocence 1
▁Project 1
▁vaincront 1
▁Parfaitement 1
▁coordonnée 1
▁déroute 1
▁Eurasienne 1
▁voudriez 1
vedettes 1
▁moqueront 1
▁débile 1
▁mijaurée 1
▁coulèrent 1
▁tweet 1
▁officiel 1
▁sexuellement 1
▁explicite 1
▁hareng 1
▁fumé 1
refroidir 1
▁rangé 1
▁causerait 1
▁Machine 1
▁tumeur 1
gant 1
▁heureusement 1
proposition 1
▁parfaire 1
▁trucages 1
nostalgie 1
▁tamponné 1
feront 1
▁livrer 1
▁charmes 1
▁réussissent 1
▁quinze 1
▁maternelle 1
▁donnais 1
semblent 1
▁profs 1
▁punissent 1
fiIIes 1
Ià 1
▁profondes 1
imaginions 1
▁discernement 1
▁Appartenaient 1
▁Nam 1
▁Soong 1
oung 1
▁Wanee 1
▁achetés 1
étourdis 1
▁signent 1
▁Charte 1
▁fournissent 1
▁crédibilité 1
▁planifier 1
▁plausible 1
▁Mylord 1
▁déçus 1
▁subtils 1
▁Robert 1
▁plaquée 1
▁solidaires 1
ffondre 1
▁toxine 1
▁répandra 1
▁Raymond 1
▁désespérées 1
▁pif 1
▁gâter 1
heures 1
▁empêchée 1
mené 1
▁Mouvement 1
▁Morte 1
▁annoncer 1
brûle 1
▁Quai 1
▁21 1
▁Docks 1
▁étancher 1
par 1
boussole 1
indiquer 1
▁graine 1
pavot 1
▁vertèbres 1
poumon 1
▁zinc 1
titre 1
adorait 1
▁démissionner 1
▁Toby 1
douces 1
▁Afin 1
préfet 1
empirer 1
▁Laurie 1
espérais 1
▁travaillait 1
nanotechnologie 1
▁balbutiements 1
injection 1
▁synthétiser 1
Tarellien 1
▁populations 1
▁infectées 1
▁Rivan 1
▁estomacs 1
▁gemme 1
fréon 1
▁coutumes 1
▁embouti 1
▁morflé 1
▁vant 1
▁correspondaient 1
▁profil 1
▁cafetière 1
▁branchée 1
▁rédigeant 1
▁recommandations 1
▁précisé 1
jeux 1
▁occasions 1
▁cuisses 1
▁Agence 1
▁dessert 1
▁persistant 1
observaient 1
appauvries 1
▁obligations 1
▁relâcher 1
éclaboussure 1
▁Batista 1
▁col 1
▁Voulons 1
inventer 1
▁obsolète 1
Eh 1
soutient 1
▁insecte 1
asile 1
▁endoit 1
▁chauffez 1
▁support 1
▁chauffer 1
▁constater 1
▁recouvre 1
▁States 1
▁moulins 1
▁branchées 1
▁alimenteraient 1
▁Sommes 1
▁fugué 1
▁crucial 1
▁prévoyais 1
sarco 1
dose 1
fond 1
▁Langdon 1
▁Wise 1
▁annulez 1
-4, 1
Free 1
▁Bird 1
Let 1
▁Hear 1
▁It 1
▁For 1
▁redoutable 1
▁largeur 1
feuilles 1
▁captent 1
▁aies 1
▁refuses 1
▁fluorescent 1
devait 1
▁pointée 1
▁amener 1
▁Bree 1
beige 1
▁pâle 1
mentent 1
utiles 1
éloignera 1
▁Tiens 1
▁découvertes 1
Dolly 1
▁définir 1
▁nageait 1
▁Platecarpus 1
▁encas 1
▁Shore 1
démone 1
candidates 1
▁fabricant 1
inspirer 1
censée 1
appartienne 1
Â 1
▁occulte 1
alchimistes 1
▁brûlés 1
▁vifs 1
▁cartouche 1
▁nécessité 1
▁cirer 1
▁bruyante 1
Sa 1
▁version 1
▁Fiancée 1
▁Frankensync 1
▁synchronise 1
▁annales 1
▁purgé 1
▁réunies 1
▁tribunal 1
estiment 1
▁marquons 1
▁jetant 1
▁merdes 1
▁fosse 1
▁sautera 1
▁menaces 1
▁extérieures 1
étreindre 1
tes 1
▁ray 1
ures 1
▁.< 1
▁zigzags 1
▁tuerai 1
▁mépris 1
▁influençable 1
▁précipiter 1
▁vœu 1
▁alignées 1
▁douées 1
▁fonctions 1
▁veuilles 1
▁quer 1
▁Barnes 1
Ewing 1
affaiblir 1
▁Edna 1
▁Vincent 1
▁Millay 1
Notre 1
apparaisse 1
plusieurs 1
▁massives 1
▁molécule 1
▁chlorophylle 1
▁réactions 1
▁molécules 1
▁électrons 1
▁énergiques 1
▁absorbait 1
▁organique 1
▁Kennedy 1
▁électrifié 1
▁prophétique 1
▁mention 1
▁Lune 1
▁Feng 1
▁rondelettes 1
ide 1
ntifient 1
▁nées 1
▁appelons 1
jeunes 1
▁attendrait 1
▁métabolisme 1
▁STEVEN 1
mise 1
▁KEWPER 1
▁Cor 1
re 1
▁ctement 1
▁amorcée 1
▁déçu 1
▁réjouis 1
▁paquet 1
▁brisées 1
▁leçons 1
▁offertes 1
▁vibre 1
▁sévir 1
▁nourissez 1
▁Doré 1
▁substance 1
▁conte 1
▁fée 1
▁House 1
▁curatifs 1
▁Pa 1
▁conservait 1
▁siennes 1
▁app 1
▁malfaisant 1
▁marrant 1
▁diplomé 1
▁Charles 1
▁Durbin 1
▁déprimante 1
▁realisent 1
▁comprendrez 1
▁saignement 1
▁cesser 1
appât 1
▁hisse 1
arnaques 1
▁pervers 1
▁vif 1
▁lévrier 1
▁saut 1
irais 1
▁branlais 1
▁flou 1
▁préciser 1
▁négro 1
▁poupée 1
▁poursuive 1
▁particularités 1
lancements 1
▁anonymes 1
▁excepté 1
▁Gabby 1
▁sacs 1
▁drogues 1
ach 1
▁bâtards 1
ministre 1
▁honorable 1
▁goûts 1
intensité 1
impulsion 1
entraînement 1
▁neuro 1
électrique 1
▁piédestal 1
écrases 1
▁déterminés 1
▁punissez 1
▁sévèrement 1
rioters 1
idéaux 1
▁Vallegrande 1
expriment 1
▁élévé 1
▁affection 1
propre 1
▁assurance 1
agents 1
▁Déclaration 1
▁confettis 1
▁accordait 1
▁priv 1
ège 1
▁distribuées 1
▁diff 1
▁ic 1
▁décès 1
chariots 1
▁transportaient 1
▁Celesta 1
▁consumait 1
amorce 1
▁jaillit 1
▁cesserai 1
▁claquent 1
▁Parmi 1
▁enseignants 1
▁méprisé 1
▁mioches 1
▁poussez 1
dieux 1
▁déduction 1
▁taxes 1
évac 1
évacue 1
▁Reçois 1
▁Royaume 1
▁sainteté 1
▁embarquée 1
▁Melle 1
▁Froy 1
▁lâchent 1
beaux 1
▁Vite 1
moines 1
▁Compton 1
▁écrire 1
▁porteur 1
▁flambeau 1
flambeau 1
appartenaient 1
▁Tsar 1
▁Pleurent 1
▁pointilleux 1
▁tailleur 1
▁frappera 1
aimait 1
▁ignorants 1
▁trichant 1
▁achetaient 1
▁Oscar 1
▁idiots 1
▁carapace 1
voir 1
▁ù 1
▁déductibles 1
installèrent 1
▁cano 1
▁berge 1
complet 1
▁Golem 1
▁existera 1
▁soumets 1
▁scandaleux 1
▁viseront 1
▁carreaux 1
▁Prévenez 1
▁Ferme 1
▁laisseraient 1
▁gêneraient 1
▁chopes 1
▁Reconstitue 1
▁menteur 1
▁tricheur 1
▁vaurien 1
▁filou 1
▁escroqué 1
▁imaginé 1
argenterie 1
sentie 1
▁cornée 1
▁cristallin 1
▁rétine 1
planètes 1
tenue 1
▁parachutiste 1
▁récolter 1
▁capture 1
▁Pearl 1
▁Harbor 1
▁Midway 1
hameçon 1
▁tentent 1
▁pourrons 1
▁marine 1
▁oubliettes 1
▁figues 1
▁mourrait 1
▁William 1
▁conversion 1
▁stockage 1
▁surcharger 1
gêne 1
emplacement 1
▁mélodieux 1
▁Jeux 1
▁Olympiques 1
▁jointures 1
grecs 1
▁dissent 1
▁Révolution 1
▁soSialiste 1
▁Amériques 1
▁SonsSienSe 1
▁approfondies 1
▁amputé 1
em 1
▁uer 1
▁contribuent 1
▁éliminées 1
laissée 1
restriction 1
▁Lundi 1
▁four 1
▁traversait 1
▁zigzagué 1
▁traînent 1
▁cotes 1
▁hebdomadaire 1
écris 1
▁publient 1
▁magazine 1
▁sincère 1
parfaites 1
Eole 1
▁toison 1
▁garantissait 1
▁trouvai 1
accomplir 1
▁bonhomme 1
▁vexait 1
▁oe 1
▁prêtais 1
▁ricochets 1
▁battait 1
▁parois 1
▁gouffre 1
▁cales 1
▁uit 1
Na 1
po 1
▁léon 1
Napol 1
éon 1
laisse 1
lient 1
▁blanchies 1
▁collait 1
▁rais 1
ons 1
retrouvent 1
▁Port 1
▁Authority 1
▁rie 1
morce 1
éclaire 1
siffle 1
▁crachote 1
rrible 1
marche 1
écrivaine 1
▁tentée 1
ouvraient 1
▁jouie 1
▁bio 1
▁banalisée 1
▁millénaires 1
▁maligne 1
▁expliquée 1
▁Lyon 1
▁escale 1
▁causant 1
▁paralysie 1
▁quatorze 1
croquis 1
▁armoire 1
▁encaisser 1
▁supermarché 1
>1 1
▁30< 1
▁téléphoné 1
▁séqu 1
Elliot 1
▁repenser 1
▁traduisent 1
▁ressent 1
option 1
Sweet 1
▁Lining 1
▁obstacles 1
▁tensions 1
inconnu 1
▁perception 1
▁mobile 1
▁persistante 1
▁porno 1
▁rasé 1
▁libération 1
▁classeur 1
▁rappelé 1
fucking 1
▁sentant 1
▁cuisant 1
cuisine 1
▁Hank 1
▁décrépie 1
immerman 1
▁satisfaisante 1
▁accorderons 1
▁résidence 1
▁germer 1
▁chapardage 1
colibri 1
éclosion 1
▁bourgeons 1
▁réussie 1
▁symbolique 1
blason 1
mannequin 1
▁corpulence 1
"" 1
▁découvriraient 1
▁enfonçais 1
▁refroidi 1
▁dessinais 1
▁génitaux 1
▁décorations 1
▁rennes 1
▁Quitte 1
▁arrange 1
▁labrador 1
▁verrouillage 1
artère 1
▁basilaire 1
▁console 1
▁Durst 1
richesse 1
passage 1
▁étroit 1
▁œdème 1
elique 1
▁réunifiée 1
lyeh 1
▁émergera 1
▁formera 1
▁Cthulhu 1
demeure 1
▁inondées 1
▁endurer 1
▁déroutent 1
▁con 1
▁poursuivent 1
▁article 1
▁Dooly 1
▁aimable 1
▁conseils 1
envoleront 1
▁commandants 1
▁Serrez 1
rangs 1
▁réagiraient 1
▁bruyamment 1
▁rallieraient 1
▁caissières 1
drame 1
▁dédommagement 1
▁incendiaires 1
▁plasma 1
tests 1
▁opérationnels 1
accoucheuse 1
▁fées 1
▁agathe 1
▁trainée 1
▁atomes 1
▁endormis 1
trucs 1
▁lourds 1
▁dirigeants 1
▁université 1
▁échouait 1
▁incomberait 1
▁serrez 1
▁émettra 1
▁achevèrent 1
▁pastis 1
armagnac 1
▁cherry 1
▁brandy 1
▁cintrées 1
▁transparentes 1
▁barricades 1
nord 1
▁reluisantes 1
ébène 1
▁constaté 1
noirs 1
▁mendier 1
▁replongerait 1
anonymat 1
▁terminerait 1
Juifs 1
▁taxe 1
▁Temple 1
sicle 1
stocks 1
▁banquiers 1
▁Certes 1
▁cartel 1
banquiers 1
▁internationaux 1
opposera 1
▁constitué 1
▁contribué 1
▁remodelez 1
▁seau 1
épuisement 1
▁groupies 1
▁drone 1
▁renvoi 1
▁codée 1
▁Little 1
▁Sébastien 1
▁mâché 1
galaxies 1
▁induites 1
▁fêtes 1
▁Vegas 1
▁transportant 1
▁Pacific 1
▁Bonito 1
▁haleine 1
▁Blanche 1
▁191 1
▁1920, 1
▁devenons 1
▁Wessex 1
▁précieuse 1
▁ménage 1
▁enroulé 1
▁crotale 1
▁2,50 1
▁crochets 1
▁ruisselants 1
▁zappé 1
justice 1
▁rattrapera 1
▁pilote 1
▁automatique 1
▁soupçonneront 1
▁passez 1
▁Barclay 1
▁Mondas 1
▁nursery 1
▁tombant 1
▁roulaient 1
tenant 1
immobilisent 1
sentent 1
▁pa 1
rce 1
▁Vazquez 1
▁prévenu 1
▁sensées 1
▁frigos 1
gardent 1
>40 1
devient 1
durci 1
▁plastifie 1
débarrassera 1
amusaient 1
égar 1
▁ée 1
▁ramenée 1
pourront 1
achèterais 1
érifier 1
▁ON 1
▁EMBAUCHE 1
▁TOUJOURS 1
▁ant 1
contre 1
>___< 1
gran 1
▁hon 1
▁fourrage 1
▁intéressait 1
laissent 1
Laurie 1
▁monastères 1
▁marqués 1
arce 1
▁tirez 1
danse 1
▁ouest 1
▁judiciaires 1
▁voi 1
sinage 1
▁devenez 1
▁astronautes 1
▁remercierez 1
▁idéales 1
▁mutations 1
▁aléatoirement 1
▁richement 1
▁récompensées 1
essaient 1
▁paradoxale 1
▁découle 1
▁indéfectible 1
jouaient 1
▁boubou 1
▁fendre 1
▁31, 1
▁parure 1
▁latex 1
▁morphine 1
▁décliné 1
▁incarne 1
absence 1
▁ressoudé 1
▁Avoue 1
▁pratiques 1
▁sorcellerie 1
▁cuira 1
aurai 1
▁pétrin 1
><< 1
vo 1
▁neutres 1
▁impassibles 1
▁prouvant 1
inviter 1
▁cédé 1
▁leçon 1
▁paierai 1
▁ressortir 1
▁mûris 1
▁marquent 1
Noirs 1
▁haitiens 1
▁frontiére 1
▁contaminent 1
▁dominicaine 1
▁productive 1
▁posant 1
▁révèlerait 1
▁systéme 1
▁démontré 1
▁néa 1
▁ies 1
êmes 1
▁Mason 1
Cherry 1
▁sem 1
user 1
neutrinos 1
▁faiblement 1
▁réfléchissants 1
▁matériaux 1
▁Romains 1
▁Tel 1
▁sifflement 1
▁cobra 1
▁enveloppe 1
▁découvrirent 1
▁maléfiques 1
▁réincarnés 1
▁frottez 1
▁exaucer 1
▁voeux 1
étonnerait 1
▁éclore 1
▁négriers 1
▁partiraient 1
▁prénom 1
▁dexron 1
▁fluidifie 1
avançait 1
▁Brian 1
▁Clemonds 1
▁aigu 1
▁inaudible 1
▁entretien 1
▁expliquait 1
▁absences 1
▁répétées 1
▁cuirassé 1
▁Crichton 1
▁nuire 1
▁donneur 1
▁vaille 1
▁regardiez 1
▁passiez 1
▁subventionnées 1
▁talon 1
▁apprenions 1
▁salles 1
▁bourre 1
▁nova 1
▁rapportant 1
▁contagion 1
▁traînerais 1
▁Mackay 1
▁tribunaux 1
▁poursuivrai 1
dépositaires 1
▁Marcia 1
▁Blaine 1
étendis 1
▁tomba 1
▁lourdement 1
humide 1
▁Jiro 1
▁décommande 1
▁tisonnier 1
▁Athènes 1
effondrent 1
avèrent 1
▁convertit 1
▁pincent 1
▁Touche 1
boites 1
▁jaunes 1
▁pèsent 1
▁nanites 1
▁Greyson 1
▁pouvant 1
▁asphyxié 1
▁colonel 1
▁Cagle 1
▁ratée 1
améliore 1
Jette 1
▁volcan 1
entrera 1
▁10. 1
danseuses 1
▁exotiques 1
▁commences 1
▁ensevelis 1
attrape 1
▁insatisfait 1
▁reçue 1
▁remettais 1
▁annonces 1
▁médiévaux 1
▁glouton 1
▁environnante 1
▁vieillissant 1
▁enlaidi 1
▁zigzag 1
▁repositionner 1
incision 1
▁titubant 1
cave 1
▁Tres 1
▁Encinas 1
▁détourner 1
▁maquillées 1
▁63 1
▁réfréniez 1
▁Mords 1
merveille 1
▁saigner 1
▁impressionner 1
▁argen 1
▁nourri 1
▁chasseur 1
arrangeront 1
▁Bobbie 1
▁Roberts 1
énervait 1
▁aigus 1
▁cheva 1
▁sellé 1
▁chevauchiez 1
▁gravissent 1
▁échelons 1
▁monarchie 1
infecte 1
▁guimauve 1
▁napalm 1
▁soigne 1
▁chienne 1
évapore 1
ouragan 1
▁Canava 1
▁rectangulaire 1
▁tigre 1
▁courbe 1
▁Enfermez 1
▁meneurs 1
▁agissaient 1
▁rouvrais 1
▁Accablées 1
▁tristesse 1
▁rétabli 1
▁généraliser 1
▁Knightley 1
▁26 1
6 1
▁revinrent 1
▁Actuellement 1
introduire 1
▁noblesse 1
insultent 1
▁précédent 1
interprète 1
▁Gloucester 1
▁manœuvres 1
▁acteurs 1
▁classiques 1
▁immédiat 1
▁commençant 1
▁G 1
▁conclut 1
▁serrais 1
▁atterit 1
▁inguérissables 1
chevaux 1
▁valets 1
▁frissonnantes 1
▁imprimer 1
▁déposés 1
▁10.000 1
▁percevoir 1
▁supercherie 1
▁orfèvres 1
▁dollar 1
▁réformons 1
▁bancaire 1
▁contraction 1
▁FED 1
▁prochaines 1
▁Jimmy 1
▁ripostent 1
▁aiderai 1
