<unk>	0
<s>	0
</s>	0
<brk>	0
es	-0
on	-1
en	-2
▁<	-3
</	-4
▁d	-5
▁p	-6
ai	-7
▁l	-8
▁s	-9
qu	-10
ou	-11
ll	-12
ent	-13
▁c	-14
▁qu	-15
il	-16
re	-17
ho	-18
▁a	-19
ff	-20
er	-21
ell	-22
▁m	-23
hon	-24
hoff	-25
an	-26
▁t	-27
▁v	-28
▁n	-29
ont	-30
▁de	-31
eu	-32
et	-33
oi	-34
▁pa	-35
'<	-36
ais	-37
▁f	-38
elle	-39
est	-40
ils	-41
un	-42
ait	-43
is	-44
elles	-45
te	-46
our	-47
▁et	-48
▁la	-49
▁pas	-50
or	-51
ar	-52
in	-53
▁le	-54
ous	-55
▁j	-56
▁un	-57
om	-58
▁b	-59
▁r	-60
▁que	-61
▁les	-62
us	-63
▁à	-64
ét	-65
▁ne	-66
it	-67
me	-68
▁est	-69
▁en	-70
ant	-71
..	-72
▁sont	-73
le	-74
...	-75
ment	-76
eur	-77
au	-78
▁J	-79
ch	-80
▁pour	-81
ti	-82
aient	-83
Il	-84
ce	-85
tre	-86
and	-87
▁av	-88
ra	-89
▁L	-90
▁ce	-91
▁pr	-92
ien	-93
▁se	-94
ans	-95
ur	-96
▁com	-97
▁des	-98
▁par	-99
▁g	-100
se	-101
▁E	-102
▁ét	-103
ri	-104
▁M	-105
▁?	-106
▁pl	-107
▁C	-108
▁au	-109
ne	-110
▁re	-111
▁mais	-112
▁ont	-113
end	-114
▁si	-115
▁une	-116
ouv	-117
▁Je	-118
▁S	-119
al	-120
▁dans	-121
ons	-122
▁tr	-123
▁je	-124
ie	-125
os	-126
▁tou	-127
▁dé	-128
Ils	-129
que	-130
ir	-131
▁ch	-132
▁,	-133
▁vous	-134
av	-135
▁peu	-136
lles	-137
mp	-138
pp	-139
lle	-140
ui	-141
▁plus	-142
ag	-143
ée	-144
ain	-145
és	-146
▁P	-147
ois	-148
res	-149
onn	-150
as	-151
ec	-152
▁Et	-153
at	-154
de	-155
am	-156
ort	-157
oir	-158
ens	-159
▁o	-160
▁nous	-161
▁du	-162
▁leur	-163
▁sur	-164
▁quand	-165
▁-	-166
mes	-167
▁O	-168
être	-169
▁Mais	-170
ic	-171
ol	-172
eux	-173
Qu	-174
uis	-175
▁Qu	-176
oit	-177
▁comme	-178
ette	-179
▁qui	-180
ère	-181
ers	-182
ac	-183
▁A	-184
▁D	-185
si	-186
ez	-187
▁me	-188
aire	-189
▁était	-190
▁e	-191
▁tout	-192
▁T	-193
▁é	-194
▁tu	-195
vent	-196
bl	-197
▁in	-198
-<	-199
▁dev	-200
pr	-201
▁pro	-202
ble	-203
▁Les	-204
ès	-205
tion	-206
▁fait	-207
▁cr	-208
▁ser	-209
▁ré	-210
▁di	-211
▁avec	-212
▁te	-213
▁vi	-214
><	-215
▁où	-216
▁bien	-217
▁ar	-218
Elles	-219
em	-220
ang	-221
oin	-222
▁h	-223
ées	-224
ér	-225
▁Si	-226
▁dis	-227
▁mon	-228
tes	-229
▁cette	-230
▁sav	-231
eau	-232
▁V	-233
▁N	-234
ter	-235
▁peut	-236
che	-237
▁ou	-238
▁y	-239
▁i	-240
otre	-241
▁on	-242
té	-243
ses	-244
ême	-245
▁Il	-246
fi	-247
ci	-248
ure	-249
ue	-250
ors	-251
ard	-252
ça	-253
▁veu	-254
oy	-255
▁là	-256
▁être	-257
▁gr	-258
▁ça	-259
ig	-260
ours	-261
▁!	-262
▁dit	-263
Elle	-264
▁faire	-265
ve	-266
onc	-267
▁ex	-268
▁app	-269
▁ces	-270
oup	-271
rer	-272
ité	-273
oul	-274
nent	-275
▁Le	-276
▁cont	-277
sent	-278
▁jus	-279
▁sais	-280
▁étaient	-281
▁ma	-282
app	-283
▁moi	-284
pl	-285
▁quel	-286
▁Quand	-287
▁La	-288
▁"	-289
▁cho	-290
▁avant	-291
op	-292
ut	-293
lent	-294
▁parce	-295
par	-296
▁an	-297
ul	-298
omb	-299
um	-300
▁sa	-301
▁son	-302
▁même	-303
▁ent	-304
ond	-305
ouver	-306
age	-307
▁On	-308
aut	-309
ine	-310
co	-311
rait	-312
onne	-313
ten	-314
tent	-315
era	-316
▁va	-317
▁at	-318
▁su	-319
ation	-320
ill	-321
ux	-322
une	-323
▁arri	-324
ion	-325
ord	-326
▁as	-327
lors	-328
▁B	-329
ici	-330
les	-331
▁il	-332
emmes	-333
ap	-334
▁ai	-335
ot	-336
endre	-337
▁Tu	-338
ussi	-339
▁tra	-340
▁rest	-341
▁mar	-342
ge	-343
ier	-344
▁jam	-345
rai	-346
ique	-347
▁dire	-348
éc	-349
ess	-350
orte	-351
la	-352
eurs	-353
▁été	-354
▁pens	-355
lé	-356
▁peuvent	-357
tr	-358
▁car	-359
▁vie	-360
▁jamais	-361
▁veulent	-362
▁aux	-363
▁Vous	-364
vi	-365
cho	-366
jours	-367
quoi	-368
▁main	-369
▁aussi	-370
mps	-371
ques	-372
▁toujours	-373
hom	-374
eront	-375
ab	-376
▁font	-377
▁li	-378
▁vont	-379
▁lui	-380
▁.	-381
▁comm	-382
ro	-383
uit	-384
able	-385
▁soit	-386
st	-387
ête	-388
▁votre	-389
core	-390
gens	-391
erre	-392
gn	-393
▁encore	-394
▁Pour	-395
femmes	-396
▁avait	-397
▁leurs	-398
▁seu	-399
▁fois	-400
el	-401
▁co	-402
ants	-403
▁vrai	-404
én	-405
ser	-406
oient	-407
lement	-408
di	-409
ront	-410
▁U	-411
ance	-412
▁trouv	-413
esp	-414
▁...	-415
▁ici	-416
▁rien	-417
▁très	-418
ré	-419
vre	-420
▁grand	-421
▁R	-422
out	-423
oire	-424
▁per	-425
▁pouv	-426
▁ac	-427
▁dem	-428
éri	-429
enc	-430
▁Com	-431
▁tous	-432
▁comment	-433
tenant	-434
gent	-435
enir	-436
▁pet	-437
▁sem	-438
était	-439
▁all	-440
▁trav	-441
ace	-442
▁Ce	-443
tres	-444
▁imp	-445
▁sans	-446
ient	-447
▁con	-448
▁voir	-449
▁mal	-450
▁suis	-451
oc	-452
ert	-453
▁puis	-454
choses	-455
im	-456
▁sû	-457
▁deux	-458
▁att	-459
aux	-460
▁am	-461
ense	-462
ière	-463
▁En	-464
▁donn	-465
anc	-466
▁ca	-467
ex	-468
uc	-469
sé	-470
▁pré	-471
ati	-472
près	-473
▁Par	-474
▁br	-475
▁mes	-476
onnes	-477
▁veux	-478
ille	-479
▁fin	-480
▁mort	-481
ist	-482
iennent	-483
▁sera	-484
cher	-485
▁déc	-486
▁reg	-487
▁beau	-488
filles	-489
▁fer	-490
▁voul	-491
▁demand	-492
▁I	-493
raient	-494
id	-495
▁jusqu	-496
ad	-497
▁temps	-498
▁1	-499
oute	-500
▁aur	-501
▁tomb	-502
all	-503
▁éc	-504
ents	-505
▁lais	-506
ise	-507
▁conn	-508
▁alors	-509
oins	-510
▁Ils	-511
▁cons	-512
▁chose	-513
▁juste	-514
▁bes	-515
▁dét	-516
▁sou	-517
▁toi	-518
▁arriv	-519
rent	-520
▁parti	-521
▁ses	-522
air	-523
eure	-524
ence	-525
▁Non	-526
▁pers	-527
▁besoin	-528
▁notre	-529
ass	-530
ante	-531
▁comp	-532
ay	-533
▁Oui	-534
▁for	-535
▁met	-536
▁trop	-537
hommes	-538
▁monde	-539
bles	-540
coup	-541
ions	-542
00	-543
orp	-544
iens	-545
▁part	-546
oivent	-547
per	-548
sez	-549
ues	-550
argent	-551
▁mont	-552
▁avoir	-553
▁petit	-554
li	-555
ler	-556
▁pourquoi	-557
ème	-558
▁Ces	-559
▁coup	-560
▁jour	-561
▁veut	-562
▁pense	-563
agn	-564
endant	-565
▁maintenant	-566
mer	-567
▁nos	-568
▁ven	-569
ement	-570
▁toutes	-571
ché	-572
ies	-573
aque	-574
iste	-575
▁enf	-576
ong	-577
▁fr	-578
▁vu	-579
▁rev	-580
▁quoi	-581
▁compr	-582
▁moins	-583
▁pu	-584
▁sau	-585
▁fais	-586
▁savoir	-587
▁quelque	-588
ite	-589
▁doit	-590
▁savent	-591
og	-592
ém	-593
orps	-594
▁ton	-595
tement	-596
▁vraiment	-597
▁G	-598
▁H	-599
ale	-600
ver	-601
▁ta	-602
▁eu	-603
aine	-604
ains	-605
▁sui	-606
▁sent	-607
▁Alors	-608
▁crois	-609
ères	-610
▁ter	-611
▁F	-612
ole	-613
sem	-614
▁sûr	-615
▁prop	-616
▁beaucoup	-617
ras	-618
ches	-619
▁disent	-620
▁bou	-621
▁donc	-622
▁port	-623
éd	-624
▁vos	-625
anger	-626
▁pris	-627
fois	-628
endent	-629
rê	-630
▁2	-631
ieux	-632
puis	-633
▁Nous	-634
▁diff	-635
▁Comme	-636
▁doivent	-637
."	-638
aî	-639
ins	-640
itu	-641
▁env	-642
▁rec	-643
▁sous	-644
▁après	-645
▁regard	-646
ob	-647
ign	-648
arde	-649
▁ans	-650
▁cas	-651
illes	-652
▁voit	-653
▁avaient	-654
ire	-655
iss	-656
▁aut	-657
▁non	-658
▁Cette	-659
ange	-660
rais	-661
▁Une	-662
▁nouv	-663
bre	-664
▁ass	-665
▁rem	-666
▁rép	-667
▁Elle	-668
▁Pourquoi	-669
▁pourrait	-670
▁appar	-671
▁travai	-672
iv	-673
tu	-674
aines	-675
▁gens	-676
▁Elles	-677
▁entre	-678
ôt	-679
use	-680
éra	-681
▁sy	-682
ente	-683
pers	-684
▁vol	-685
▁cl	-686
jour	-687
▁der	-688
▁chez	-689
▁faut	-690
ellement	-691
cu	-692
▁Ou	-693
roit	-694
▁déj	-695
chent	-696
▁seront	-697
ieu	-698
rem	-699
tra	-700
orti	-701
▁pos	-702
▁meur	-703
▁vers	-704
▁sembl	-705
▁fl	-706
iend	-707
▁pay	-708
▁toute	-709
▁Av	-710
▁ess	-711
▁long	-712
▁commenc	-713
▁connais	-714
for	-715
▁bl	-716
▁acc	-717
▁expl	-718
▁rapp	-719
▁choses	-720
eut	-721
▁dû	-722
▁fa	-723
▁mom	-724
▁déjà	-725
▁perd	-726
issent	-727
pé	-728
▁im	-729
alis	-730
▁eux	-731
▁ref	-732
antes	-733
entre	-734
▁reste	-735
ég	-736
êt	-737
ide	-738
▁Un	-739
▁bon	-740
▁jeu	-741
▁Parce	-742
▁viennent	-743
ing	-744
▁Ch	-745
quer	-746
▁aff	-747
▁jou	-748
▁cher	-749
▁vois	-750
▁depuis	-751
▁dispar	-752
▁trouver	-753
▁:	-754
rit	-755
▁Au	-756
▁ret	-757
autre	-758
ennent	-759
▁mieux	-760
▁vient	-761
▁pendant	-762
>,	-763
oud	-764
emme	-765
ls	-766
Ça	-767
ach	-768
ars	-769
▁gu	-770
▁Ça	-771
▁cap	-772
homme	-773
èrent	-774
▁dont	-775
▁fonc	-776
▁autre	-777
▁pouvoir	-778
personnes	-779
ph	-780
él	-781
att	-782
der	-783
ifi	-784
ose	-785
▁dir	-786
▁cond	-787
▁cour	-788
▁vais	-789
▁assez	-790
▁moment	-791
▁soient	-792
dent	-793
▁hum	-794
▁appr	-795
▁elle	-796
▁sign	-797
▁sort	-798
▁autres	-799
▁serait	-800
▁quelques	-801
dé	-802
hui	-803
iez	-804
ile	-805
jet	-806
▁De	-807
icti	-808
▁gén	-809
aison	-810
jourd	-811
▁rend	-812
nement	-813
▁sorti	-814
▁seulement	-815
fl	-816
çon	-817
▁cou	-818
▁cré	-819
▁rés	-820
▁voy	-821
od	-822
aud	-823
auv	-824
ces	-825
erv	-826
inu	-827
ore	-828
▁ob	-829
▁ut	-830
fait	-831
ines	-832
ures	-833
vous	-834
▁ann	-835
▁cet	-836
▁man	-837
▁men	-838
▁Bien	-839
▁cert	-840
▁sait	-841
▁chaque	-842
▁personne	-843
met	-844
nes	-845
omp	-846
▁déb	-847
aires	-848
▁gros	-849
▁nuit	-850
▁pass	-851
▁tuer	-852
▁tête	-853
▁corps	-854
▁Comment	-855
▁3	-856
▁ab	-857
▁es	-858
êtes	-859
▁eff	-860
▁Peut	-861
▁peux	-862
▁tour	-863
ations	-864
▁femme	-865
if	-866
imp	-867
ner	-868
vie	-869
iers	-870
tein	-871
▁auc	-872
▁sol	-873
avais	-874
▁croy	-875
▁mour	-876
▁pensent	-877
emp	-878
éré	-879
▁mat	-880
▁res	-881
▁sec	-882
▁fort	-883
istoire	-884
▁prendre	-885
mé	-886
rô	-887
rir	-888
uite	-889
▁Que	-890
▁brû	-891
▁emp	-892
yp	-893
▁5	-894
acc	-895
ect	-896
oid	-897
sion	-898
▁nom	-899
▁viv	-900
▁Puis	-901
▁dess	-902
▁détr	-903
▁peur	-904
auvais	-905
étaient	-906
rez	-907
▁Eh	-908
▁ver	-909
quent	-910
▁arrê	-911
rement	-912
▁façon	-913
▁jours	-914
▁terre	-915
▁devant	-916
▁trouve	-917
▁mauvais	-918
▁tellement	-919
>.	-920
cep	-921
min	-922
été	-923
▁or	-924
▁déf	-925
▁savez	-926
ann	-927
pos	-928
ète	-929
asse	-930
ilis	-931
▁gen	-932
▁ren	-933
▁sens	-934
▁souv	-935
▁vivre	-936
▁grande	-937
▁quelqu	-938
mi	-939
▁st	-940
▁fac	-941
▁lib	-942
▁ple	-943
temps	-944
tient	-945
tions	-946
▁prés	-947
▁vite	-948
▁trois	-949
▁voient	-950
▁travaill	-951
vé	-952
hor	-953
raî	-954
vit	-955
▁Où	-956
▁ad	-957
ages	-958
part	-959
▁Même	-960
ouvert	-961
semble	-962
▁porte	-963
ct	-964
qué	-965
▁ni	-966
uire	-967
▁int	-968
▁plu	-969
▁tes	-970
ienne	-971
▁avez	-972
▁cela	-973
▁comb	-974
▁dern	-975
▁lors	-976
▁poin	-977
autres	-978
▁avons	-979
▁bonne	-980
▁probl	-981
▁arrive	-982
▁rester	-983
ats	-984
qui	-985
vis	-986
ène	-987
élé	-988
▁ba	-989
ales	-990
oule	-991
téri	-992
▁conc	-993
▁repr	-994
▁supp	-995
▁contre	-996
▁hommes	-997
▁maison	-998
ends	-999
▁ach	-1000
▁dur	-1001
▁ord	-1002
▁vis	-1003
ables	-1004
rière	-1005
▁loin	-1006
▁préf	-1007
▁père	-1008
▁resp	-1009
▁tant	-1010
▁trans	-1011
▁marche	-1012
▁parler	-1013
ouvernement	-1014
mb	-1015
des	-1016
œur	-1017
▁Oh	-1018
▁Re	-1019
isse	-1020
▁dés	-1021
▁mis	-1022
ombre	-1023
▁mill	-1024
▁import	-1025
▁aujourd	-1026
▁travers	-1027
où	-1028
lui	-1029
oci	-1030
oil	-1031
▁Ne	-1032
▁cô	-1033
▁pi	-1034
prit	-1035
▁Mon	-1036
ouill	-1037
▁Main	-1038
▁gard	-1039
▁prod	-1040
▁ferme	-1041
▁place	-1042
▁différ	-1043
▁donner	-1044
▁K	-1045
▁â	-1046
ves	-1047
▁Des	-1048
▁fai	-1049
▁feu	-1050
▁inc	-1051
▁mer	-1052
▁val	-1053
iques	-1054
▁deven	-1055
▁donné	-1056
▁genre	-1057
▁inter	-1058
▁mains	-1059
alement	-1060
▁enfants	-1061
▁commencé	-1062
▁Maintenant	-1063
moi	-1064
mon	-1065
▁ag	-1066
▁ri	-1067
ités	-1068
voit	-1069
ature	-1070
érité	-1071
▁plan	-1072
▁prem	-1073
▁petite	-1074
▁parfois	-1075
▁pourraient	-1076
__	-1077
bé	-1078
oie	-1079
oli	-1080
▁fi	-1081
rapp	-1082
▁dou	-1083
▁dép	-1084
▁esp	-1085
▁fil	-1086
ments	-1087
▁Dans	-1088
▁prév	-1089
▁aurait	-1090
▁femmes	-1091
▁trouvé	-1092
▁devrait	-1093
▁fonction	-1094
gu	-1095
là	-1096
000	-1097
tant	-1098
▁gar	-1099
eures	-1100
▁Donc	-1101
▁mère	-1102
▁prof	-1103
▁simp	-1104
▁aller	-1105
▁essay	-1106
▁heure	-1107
voiture	-1108
▁entend	-1109
▁semblent	-1110
opp	-1111
enne	-1112
▁ain	-1113
▁fam	-1114
▁éch	-1115
ettes	-1116
sembl	-1117
stème	-1118
▁truc	-1119
▁ainsi	-1120
▁chang	-1121
▁venir	-1122
▁croire	-1123
▁feront	-1124
".	-1125
ép	-1126
▁W	-1127
hot	-1128
mée	-1129
ret	-1130
éch	-1131
atre	-1132
euse	-1133
▁dès	-1134
▁dém	-1135
▁end	-1136
▁rac	-1137
ateur	-1138
▁lieu	-1139
▁pous	-1140
▁publ	-1141
▁tard	-1142
▁voud	-1143
▁yeux	-1144
avaient	-1145
▁dessus	-1146
▁mettre	-1147
▁retour	-1148
▁longtemps	-1149
oî	-1150
aie	-1151
enf	-1152
▁po	-1153
▁bat	-1154
amour	-1155
ances	-1156
sible	-1157
▁Dieu	-1158
▁aura	-1159
▁char	-1160
▁dois	-1161
▁seul	-1162
▁soir	-1163
encont	-1164
▁homme	-1165
▁matin	-1166
▁souff	-1167
▁trait	-1168
▁devait	-1169
▁semble	-1170
histoire	-1171
▁sûrement	-1172
va	-1173
▁6	-1174
cul	-1175
eté	-1176
ger	-1177
▁ép	-1178
uses	-1179
▁Est	-1180
entes	-1181
▁fond	-1182
▁nour	-1183
▁sang	-1184
▁terr	-1185
▁chois	-1186
▁donne	-1187
▁contrô	-1188
▁savais	-1189
▁demande	-1190
ba	-1191
gl	-1192
fin	-1193
omm	-1194
▁Ma	-1195
ande	-1196
ible	-1197
êmes	-1198
▁off	-1199
▁rap	-1200
avoir	-1201
heure	-1202
ience	-1203
ition	-1204
étais	-1205
▁cent	-1206
▁conv	-1207
▁pays	-1208
▁retr	-1209
▁télé	-1210
erveau	-1211
▁quatre	-1212
▁4	-1213
▁k	-1214
act	-1215
▁bi	-1216
▁pe	-1217
arri	-1218
▁cri	-1219
▁ins	-1220
▁mot	-1221
▁rep	-1222
▁tir	-1223
appar	-1224
chose	-1225
istes	-1226
tionn	-1227
▁coul	-1228
▁tend	-1229
▁seule	-1230
▁victi	-1231
▁constr	-1232
▁guerre	-1233
▁continu	-1234
▁nouveau	-1235
▁parfait	-1236
▁rencont	-1237
▁arrivent	-1238
▁fonctionne	-1239
gie	-1240
gra	-1241
iel	-1242
orm	-1243
agin	-1244
aime	-1245
érit	-1246
▁hab	-1247
▁Avec	-1248
▁conf	-1249
▁mari	-1250
▁mois	-1251
▁quit	-1252
▁sole	-1253
▁jeune	-1254
▁passé	-1255
▁explos	-1256
▁filles	-1257
▁partir	-1258
▁plupart	-1259
▁devraient	-1260
be	-1261
dre	-1262
▁mo	-1263
amis	-1264
inon	-1265
isme	-1266
ites	-1267
teau	-1268
ture	-1269
çons	-1270
éric	-1271
▁min	-1272
corps	-1273
erait	-1274
suite	-1275
tique	-1276
▁atta	-1277
umière	-1278
▁force	-1279
▁meurt	-1280
▁point	-1281
▁dirait	-1282
▁partie	-1283
▁réalis	-1284
inc	-1285
lus	-1286
rat	-1287
rés	-1288
▁sc	-1289
▁ait	-1290
▁ign	-1291
▁mét	-1292
▁rel	-1293
vient	-1294
▁près	-1295
espère	-1296
▁morts	-1297
▁pensé	-1298
▁sorte	-1299
▁tombe	-1300
eraient	-1301
parents	-1302
▁lorsqu	-1303
▁passer	-1304
▁rapide	-1305
▁Parfois	-1306
▁problème	-1307
amp	-1308
gne	-1309
olu	-1310
ule	-1311
igne	-1312
irer	-1313
reux	-1314
seau	-1315
▁Reg	-1316
▁bar	-1317
▁ris	-1318
▁tué	-1319
▁côté	-1320
▁oubl	-1321
▁Avant	-1322
▁compl	-1323
▁journ	-1324
▁prend	-1325
▁aiment	-1326
▁disait	-1327
▁combien	-1328
▁disparu	-1329
▁voiture	-1330
▁voulais	-1331
▁auraient	-1332
▁voulaient	-1333
az	-1334
ix	-1335
th	-1336
olé	-1337
èce	-1338
▁gl	-1339
▁sé	-1340
arrê	-1341
iles	-1342
mach	-1343
érer	-1344
▁Car	-1345
▁Mar	-1346
▁ban	-1347
▁cal	-1348
▁ram	-1349
oires	-1350
urité	-1351
veill	-1352
▁chem	-1353
▁fera	-1354
▁gagn	-1355
▁pres	-1356
▁serv	-1357
aiment	-1358
▁frapp	-1359
▁froid	-1360
▁meill	-1361
▁super	-1362
▁train	-1363
térieur	-1364
▁arrivé	-1365
▁commun	-1366
▁existe	-1367
▁raison	-1368
▁terror	-1369
▁croient	-1370
▁personnes	-1371
pe	-1372
chn	-1373
ets	-1374
mis	-1375
aiss	-1376
oign	-1377
▁che	-1378
▁cor	-1379
▁coû	-1380
▁pau	-1381
▁rég	-1382
▁sac	-1383
ambre	-1384
ences	-1385
ettre	-1386
euses	-1387
irent	-1388
orent	-1389
▁fall	-1390
iendra	-1391
▁Ouais	-1392
▁Votre	-1393
▁aucun	-1394
▁cause	-1395
▁droit	-1396
▁passe	-1397
▁attend	-1398
▁chance	-1399
▁compte	-1400
▁diffic	-1401
▁heures	-1402
▁représ	-1403
▁changer	-1404
▁devient	-1405
▁faisait	-1406
▁parlent	-1407
▁pensais	-1408
▁trouvent	-1409
ma	-1410
▁z	-1411
aît	-1412
ied	-1413
men	-1414
âce	-1415
ogra	-1416
oyer	-1417
rête	-1418
ules	-1419
▁cul	-1420
▁rou	-1421
▁séc	-1422
▁éle	-1423
aître	-1424
▁déci	-1425
▁ment	-1426
▁tort	-1427
▁vaut	-1428
▁êtes	-1429
esprit	-1430
▁celui	-1431
▁coeur	-1432
▁puiss	-1433
▁venus	-1434
machine	-1435
▁années	-1436
▁attein	-1437
▁permet	-1438
▁propre	-1439
▁racont	-1440
▁reconn	-1441
▁regarde	-1442
▁système	-1443
▁savaient	-1444
▁seraient	-1445
▁faisaient	-1446
cl	-1447
eff	-1448
ira	-1449
its	-1450
uss	-1451
riez	-1452
utôt	-1453
èmes	-1454
▁ils	-1455
▁réc	-1456
▁sal	-1457
aisse	-1458
olice	-1459
pérer	-1460
viter	-1461
▁Quel	-1462
▁Tout	-1463
▁exac	-1464
▁magn	-1465
▁prêt	-1466
▁remp	-1467
aissent	-1468
ouverte	-1469
▁aucune	-1470
▁auront	-1471
▁découv	-1472
▁laisse	-1473
▁manger	-1474
▁petits	-1475
▁utilis	-1476
▁Regarde	-1477
▁meurent	-1478
▁sortent	-1479
entendent	-1480
▁derrière	-1481
çu	-1482
aff	-1483
car	-1484
ges	-1485
hab	-1486
vel	-1487
▁id	-1488
eler	-1489
este	-1490
form	-1491
ises	-1492
onde	-1493
oîte	-1494
▁Pas	-1495
▁dos	-1496
▁inf	-1497
▁mor	-1498
▁oui	-1499
▁Cert	-1500
▁coll	-1501
▁dure	-1502
▁proc	-1503
accord	-1504
▁forme	-1505
▁remar	-1506
▁ville	-1507
▁plutôt	-1508
▁sortir	-1509
▁pouvait	-1510
▁voulait	-1511
▁commence	-1512
▁pouvaient	-1513
▁gouvernement	-1514
gr	-1515
art	-1516
cle	-1517
cup	-1518
one	-1519
reu	-1520
rée	-1521
tur	-1522
>...	-1523
ards	-1524
dans	-1525
hors	-1526
péci	-1527
vers	-1528
▁Dès	-1529
▁Mes	-1530
▁bas	-1531
▁hon	-1532
▁ouv	-1533
▁pai	-1534
▁tri	-1535
▁étr	-1536
abord	-1537
anche	-1538
avait	-1539
isent	-1540
itude	-1541
ières	-1542
ètres	-1543
▁desc	-1544
▁pied	-1545
▁prom	-1546
ientôt	-1547
▁marché	-1548
▁mourir	-1549
▁entendu	-1550
▁ensemble	-1551
▁ressembl	-1552
▁deviennent	-1553
▁exactement	-1554
by	-1555
fs	-1556
gan	-1557
oll	-1558
ple	-1559
son	-1560
ton	-1561
▁__	-1562
agne	-1563
orer	-1564
pect	-1565
ress	-1566
teur	-1567
tout	-1568
▁col	-1569
▁pap	-1570
ction	-1571
enait	-1572
▁Plus	-1573
▁dépl	-1574
▁faux	-1575
aurait	-1576
ignore	-1577
▁doute	-1578
▁fille	-1579
▁peine	-1580
▁bientôt	-1581
▁chambre	-1582
▁conduis	-1583
▁croyais	-1584
▁devenir	-1585
▁rapport	-1586
▁sécurité	-1587
▁simplement	-1588
sy	-1589
Les	-1590
hum	-1591
iti	-1592
▁50	-1593
ager	-1594
expl	-1595
olog	-1596
oque	-1597
▁cin	-1598
▁imm	-1599
▁jet	-1600
▁lég	-1601
▁neu	-1602
alité	-1603
essus	-1604
êtres	-1605
▁Tous	-1606
▁déch	-1607
▁rent	-1608
▁actes	-1609
▁dange	-1610
▁parle	-1611
▁perdu	-1612
▁plein	-1613
▁vieux	-1614
▁autant	-1615
▁répond	-1616
▁cerveau	-1617
▁endroit	-1618
▁passait	-1619
▁présent	-1620
▁devaient	-1621
▁laissent	-1622
▁appartient	-1623
La	-1624
Le	-1625
ade	-1626
are	-1627
tir	-1628
éro	-1629
▁..	-1630
▁An	-1631
▁nu	-1632
▁th	-1633
avez	-1634
iser	-1635
ombe	-1636
onné	-1637
phon	-1638
quel	-1639
▁dég	-1640
▁dév	-1641
▁exp	-1642
▁fou	-1643
▁moy	-1644
▁sex	-1645
▁sub	-1646
iront	-1647
orter	-1648
tenir	-1649
▁amis	-1650
▁ceux	-1651
▁décl	-1652
▁gars	-1653
▁inst	-1654
▁véri	-1655
estion	-1656
velopp	-1657
▁brûle	-1658
▁paraî	-1659
▁spéci	-1660
▁survi	-1661
▁voulu	-1662
ètement	-1663
▁changé	-1664
▁entrer	-1665
▁généra	-1666
▁laissé	-1667
iendront	-1668
▁ensuite	-1669
▁laisser	-1670
▁lumière	-1671
▁portent	-1672
▁travail	-1673
▁demander	-1674
▁dernière	-1675
▁prennent	-1676
ah	-1677
cé	-1678
oû	-1679
ud	-1680
èg	-1681
ari	-1682
bas	-1683
cer	-1684
iné	-1685
roy	-1686
aill	-1687
bres	-1688
même	-1689
réci	-1690
éner	-1691
▁bal	-1692
▁cru	-1693
▁emb	-1694
▁mus	-1695
▁sat	-1696
▁som	-1697
▁écl	-1698
aller	-1699
avant	-1700
hotos	-1701
mêmes	-1702
étend	-1703
▁Lors	-1704
▁afin	-1705
▁cœur	-1706
▁fini	-1707
▁préc	-1708
▁suff	-1709
▁vend	-1710
aurais	-1711
▁Après	-1712
▁aider	-1713
▁fasse	-1714
▁grâce	-1715
▁parmi	-1716
▁pours	-1717
▁proch	-1718
▁proté	-1719
▁refus	-1720
▁route	-1721
▁allait	-1722
▁arrêté	-1723
▁jeunes	-1724
▁pauvre	-1725
▁police	-1726
▁recher	-1727
▁rentre	-1728
▁tomber	-1729
▁montrer	-1730
▁partout	-1731
▁retrouv	-1732
▁regarder	-1733
ox	-1734
▁9	-1735
ern	-1736
exp	-1737
int	-1738
ris	-1739
▁10	-1740
▁Tr	-1741
▁vo	-1742
▁ég	-1743
▁év	-1744
enez	-1745
hait	-1746
leur	-1747
quip	-1748
rier	-1749
urer	-1750
▁gag	-1751
▁réf	-1752
appro	-1753
arras	-1754
onner	-1755
orité	-1756
ouche	-1757
▁bras	-1758
▁face	-1759
▁para	-1760
▁sour	-1761
▁tran	-1762
▁écou	-1763
ograph	-1764
reuses	-1765
vérité	-1766
▁accep	-1767
▁allum	-1768
▁plais	-1769
▁reven	-1770
ression	-1771
▁chemin	-1772
▁faites	-1773
▁grands	-1774
▁ouvert	-1775
▁penser	-1776
▁signif	-1777
▁vendre	-1778
▁vivent	-1779
iquement	-1780
▁arrivée	-1781
▁famille	-1782
▁gagnent	-1783
▁magnifi	-1784
▁marcher	-1785
▁petites	-1786
▁souhait	-1787
▁victime	-1788
▁première	-1789
▁rapidement	-1790
sc	-1791
ta	-1792
ys	-1793
env	-1794
ots	-1795
ric	-1796
▁em	-1797
▁oc	-1798
▁so	-1799
fier	-1800
lace	-1801
port	-1802
uits	-1803
vres	-1804
▁Mal	-1805
▁fas	-1806
▁mas	-1807
▁tue	-1808
aimer	-1809
ancer	-1810
après	-1811
ellig	-1812
iment	-1813
ivers	-1814
osent	-1815
phone	-1816
ureau	-1817
victi	-1818
▁bord	-1819
▁film	-1820
▁paix	-1821
▁parl	-1822
▁prob	-1823
▁prov	-1824
▁reti	-1825
▁suiv	-1826
▁vide	-1827
maison	-1828
▁assis	-1829
▁chaud	-1830
▁impos	-1831
▁suite	-1832
▁banque	-1833
▁bonnes	-1834
▁croyez	-1835
▁humain	-1836
▁propos	-1837
▁sentir	-1838
▁termin	-1839
▁garçons	-1840
▁mettent	-1841
▁presque	-1842
▁détruire	-1843
▁millions	-1844
▁fonctionn	-1845
▁comprendre	-1846
gé	-1847
bes	-1848
dis	-1849
erm	-1850
gré	-1851
ige	-1852
oix	-1853
oph	-1854
ype	-1855
zar	-1856
ève	-1857
▁ju	-1858
▁rê	-1859
aide	-1860
aman	-1861
oupe	-1862
pend	-1863
rest	-1864
truc	-1865
▁cer	-1866
▁fab	-1867
▁fus	-1868
▁fut	-1869
▁gra	-1870
▁jol	-1871
▁mec	-1872
▁rév	-1873
▁vas	-1874
▁vit	-1875
▁âme	-1876
inter	-1877
porte	-1878
rible	-1879
ville	-1880
▁haut	-1881
▁idée	-1882
▁mach	-1883
▁mang	-1884
▁preu	-1885
▁soci	-1886
▁test	-1887
iennes	-1888
rouill	-1889
teront	-1890
▁aient	-1891
▁confi	-1892
▁envir	-1893
▁payer	-1894
▁prévu	-1895
▁ramen	-1896
▁rempl	-1897
▁servi	-1898
endroit	-1899
▁autour	-1900
▁essayé	-1901
▁nature	-1902
▁nombre	-1903
▁secret	-1904
▁passent	-1905
▁poursui	-1906
▁restent	-1907
▁attendre	-1908
▁comprend	-1909
▁contrôle	-1910
▁intellig	-1911
▁souviens	-1912
▁certaines	-1913
▁demandent	-1914
▁travailler	-1915
▁complètement	-1916
gg	-1917
ib	-1918
ts	-1919
ane	-1920
ath	-1921
enn	-1922
jou	-1923
oti	-1924
rog	-1925
rét	-1926
sol	-1927
ute	-1928
ège	-1929
écu	-1930
▁Se	-1931
▁én	-1932
ague	-1933
auff	-1934
cles	-1935
ecte	-1936
gars	-1937
oilà	-1938
rons	-1939
érêt	-1940
▁Nos	-1941
▁Sur	-1942
▁anc	-1943
▁cha	-1944
▁div	-1945
▁goû	-1946
▁ind	-1947
▁tel	-1948
cieux	-1949
ibles	-1950
oulez	-1951
resse	-1952
route	-1953
ément	-1954
▁amou	-1955
▁chev	-1956
▁diri	-1957
▁disp	-1958
▁doll	-1959
▁faud	-1960
▁noir	-1961
▁pois	-1962
ellent	-1963
erreur	-1964
ombien	-1965
▁appro	-1966
▁malad	-1967
▁morte	-1968
▁pieds	-1969
▁sinon	-1970
ication	-1971
tention	-1972
usement	-1973
énergie	-1974
▁change	-1975
▁dedans	-1976
▁prison	-1977
▁propri	-1978
▁savait	-1979
▁valeur	-1980
▁voulez	-1981
▁vérité	-1982
victimes	-1983
▁demandé	-1984
▁heureux	-1985
▁sentent	-1986
▁souvent	-1987
▁surtout	-1988
▁certains	-1989
▁connaiss	-1990
▁développ	-1991
▁puissent	-1992
▁question	-1993
▁regardent	-1994
gouvernement	-1995
▁connaissent	-1996
▁travaillent	-1997
ow	-1998
abl	-1999
loi	-2000
lon	-2001
ock	-2002
pro	-2003
tat	-2004
ède	-2005
étr	-2006
▁20	-2007
▁Ia	-2008
▁bé	-2009
▁sp	-2010
cour	-2011
eter	-2012
mais	-2013
tait	-2014
tera	-2015
ypes	-2016
▁cra	-2017
▁exc	-2018
▁pol	-2019
▁vue	-2020
aider	-2021
ieurs	-2022
ordin	-2023
ressi	-2024
useby	-2025
ènent	-2026
▁anim	-2027
▁bais	-2028
▁bout	-2029
▁minu	-2030
▁mons	-2031
▁peau	-2032
▁pire	-2033
▁sauf	-2034
▁tent	-2035
▁viol	-2036
ateurs	-2037
atique	-2038
uisent	-2039
▁bizar	-2040
▁blanc	-2041
▁créer	-2042
▁garde	-2043
▁jouer	-2044
▁ligne	-2045
▁mérit	-2046
▁surpr	-2047
▁trava	-2048
▁échou	-2049
▁Huseby	-2050
▁acheté	-2051
▁améric	-2052
▁bouche	-2053
▁dehors	-2054
▁demain	-2055
▁détest	-2056
▁pleine	-2057
▁pouvez	-2058
▁tranqu	-2059
▁vraies	-2060
▁Combien	-2061
▁dollars	-2062
▁détruit	-2063
▁préféré	-2064
▁revient	-2065
intérieur	-2066
▁allaient	-2067
▁possible	-2068
▁signifie	-2069
▁Certaines	-2070
▁finissent	-2071
▁meurtrier	-2072
▁représent	-2073
▁conduisait	-2074
,<	-2075
Un	-2076
ke	-2077
▁'	-2078
aig	-2079
amb	-2080
cev	-2081
dio	-2082
emb	-2083
eue	-2084
man	-2085
tif	-2086
uer	-2087
étu	-2088
▁Fr	-2089
▁Pr	-2090
▁no	-2091
agit	-2092
aint	-2093
arer	-2094
arti	-2095
chée	-2096
cole	-2097
gram	-2098
iner	-2099
resp	-2100
rifi	-2101
ttes	-2102
▁Cet	-2103
▁New	-2104
▁Vos	-2105
▁gaz	-2106
▁gri	-2107
▁mil	-2108
▁néc	-2109
▁put	-2110
aille	-2111
alent	-2112
balle	-2113
chait	-2114
chant	-2115
chien	-2116
ierre	-2117
outes	-2118
▁alle	-2119
▁boul	-2120
▁coin	-2121
▁exis	-2122
▁faim	-2123
▁fant	-2124
▁flot	-2125
▁gent	-2126
▁lour	-2127
▁priv	-2128
▁type	-2129
▁venu	-2130
▁volé	-2131
▁énor	-2132
ennemi	-2133
existe	-2134
itions	-2135
émoire	-2136
▁Terre	-2137
▁atter	-2138
▁boîte	-2139
▁contr	-2140
▁ident	-2141
▁laiss	-2142
▁livre	-2143
▁organ	-2144
▁rendu	-2145
▁rouge	-2146
▁sujet	-2147
▁techn	-2148
▁tirer	-2149
▁voler	-2150
▁voyez	-2151
▁allumé	-2152
▁contin	-2153
▁esprit	-2154
▁essaie	-2155
▁montre	-2156
▁projet	-2157
▁remont	-2158
▁arriver	-2159
▁dernier	-2160
▁explose	-2161
▁planète	-2162
▁revenir	-2163
▁histoire	-2164
▁pourront	-2165
▁transfor	-2166
▁voudrais	-2167
▁attendent	-2168
▁mauvaises	-2169
▁problèmes	-2170
▁différentes	-2171
>-	-2172
An	-2173
hy	-2174
ié	-2175
pi	-2176
acé	-2177
lex	-2178
mus	-2179
oig	-2180
reg	-2181
tié	-2182
▁30	-2183
▁Gr	-2184
▁In	-2185
▁ru	-2186
▁él	-2187
acer	-2188
ancé	-2189
anne	-2190
appr	-2191
aute	-2192
chés	-2193
cide	-2194
ffre	-2195
once	-2196
ouer	-2197
vité	-2198
▁Bon	-2199
▁Dis	-2200
▁bri	-2201
▁but	-2202
▁doc	-2203
▁dér	-2204
▁eng	-2205
▁fen	-2206
▁foi	-2207
▁gui	-2208
▁méd	-2209
▁pén	-2210
▁tap	-2211
▁thé	-2212
appel	-2213
armes	-2214
istre	-2215
monde	-2216
ument	-2217
ètent	-2218
▁1000	-2219
▁Deux	-2220
▁Sans	-2221
▁aper	-2222
▁cass	-2223
▁caus	-2224
▁cuis	-2225
▁dest	-2226
▁déte	-2227
▁four	-2228
▁nage	-2229
▁prix	-2230
▁soup	-2231
cident	-2232
espace	-2233
▁Sinon	-2234
▁attra	-2235
▁chant	-2236
▁dites	-2237
▁envoy	-2238
▁gagné	-2239
▁quant	-2240
▁sépar	-2241
▁tombé	-2242
enaient	-2243
▁captur	-2244
▁consid	-2245
▁lequel	-2246
▁manque	-2247
▁moitié	-2248
▁mortes	-2249
▁paraît	-2250
▁pattes	-2251
▁pensez	-2252
▁porter	-2253
▁puisse	-2254
▁rendre	-2255
▁soleil	-2256
▁sommes	-2257
▁suivre	-2258
▁venait	-2259
▁voyage	-2260
aimerais	-2261
▁Pendant	-2262
▁descend	-2263
▁donnent	-2264
▁grosses	-2265
▁importe	-2266
▁journal	-2267
▁partent	-2268
▁program	-2269
▁mauvaise	-2270
▁oublient	-2271
▁probable	-2272
▁rappeler	-2273
▁apprendre	-2274
▁découvert	-2275
▁préfèrent	-2276
▁ressemble	-2277
▁comprennent	-2278
>'	-2279
DN	-2280
ty	-2281
uy	-2282
▁î	-2283
ate	-2284
auf	-2285
cre	-2286
cée	-2287
elé	-2288
feu	-2289
isé	-2290
mar	-2291
tée	-2292
uel	-2293
uir	-2294
urg	-2295
èle	-2296
▁19	-2297
▁Sa	-2298
▁bu	-2299
▁bâ	-2300
▁fo	-2301
anim	-2302
cell	-2303
empl	-2304
idée	-2305
inst	-2306
liqu	-2307
mine	-2308
médi	-2309
oles	-2310
ompl	-2311
onom	-2312
peau	-2313
plan	-2314
rant	-2315
èces	-2316
èche	-2317
écou	-2318
érie	-2319
▁000	-2320
▁100	-2321
▁Jus	-2322
▁Moi	-2323
▁bus	-2324
▁drô	-2325
▁hor	-2326
▁jur	-2327
▁lab	-2328
▁mag	-2329
▁nég	-2330
▁stu	-2331
▁évi	-2332
agent	-2333
agnie	-2334
angue	-2335
coute	-2336
inqui	-2337
ision	-2338
lever	-2339
mpire	-2340
oiles	-2341
oudre	-2342
ouvre	-2343
rique	-2344
types	-2345
école	-2346
▁Leur	-2347
▁Sont	-2348
▁aide	-2349
▁bois	-2350
▁bons	-2351
▁empê	-2352
▁indi	-2353
▁inté	-2354
▁mess	-2355
▁prot	-2356
▁rede	-2357
▁symp	-2358
▁tiré	-2359
▁trem	-2360
▁vert	-2361
▁écra	-2362
années	-2363
cience	-2364
dessus	-2365
ection	-2366
imagin	-2367
uction	-2368
vement	-2369
étique	-2370
▁armes	-2371
▁frère	-2372
▁remet	-2373
▁seuls	-2374
▁table	-2375
▁tenir	-2376
▁trucs	-2377
respond	-2378
ération	-2379
▁apport	-2380
▁appris	-2381
▁associ	-2382
▁choisi	-2383
▁facile	-2384
▁garder	-2385
▁imagin	-2386
▁invent	-2387
▁lisent	-2388
▁penses	-2389
▁pourra	-2390
▁sombre	-2391
▁énorme	-2392
ituation	-2393
ographie	-2394
tiennent	-2395
êtements	-2396
▁arrière	-2397
▁arrêter	-2398
▁compris	-2399
▁contact	-2400
▁devenue	-2401
▁humains	-2402
▁nourrit	-2403
▁parents	-2404
▁profond	-2405
▁regardé	-2406
▁rendent	-2407
▁restera	-2408
▁semaine	-2409
▁chercher	-2410
▁continue	-2411
▁pourriez	-2412
▁victimes	-2413
▁connaître	-2414
▁plusieurs	-2415
▁commencent	-2416
▁correspond	-2417
▁importante	-2418
▁impossible	-2419
",	-2420
Tu	-2421
cs	-2422
ok	-2423
su	-2424
ub	-2425
cri	-2426
cré	-2427
eil	-2428
inf	-2429
iée	-2430
mos	-2431
off	-2432
tez	-2433
toi	-2434
ult	-2435
▁Ar	-2436
▁At	-2437
▁Pe	-2438
▁op	-2439
▁ra	-2440
acti	-2441
comp	-2442
erne	-2443
erté	-2444
heur	-2445
ides	-2446
ieur	-2447
ires	-2448
mère	-2449
oids	-2450
oite	-2451
opul	-2452
otid	-2453
oyez	-2454
sang	-2455
titu	-2456
▁Dés	-2457
▁Mer	-2458
▁abs	-2459
▁dra	-2460
▁dél	-2461
▁lit	-2462
▁log	-2463
▁loi	-2464
▁mur	-2465
▁pét	-2466
▁rav	-2467
▁tot	-2468
▁vir	-2469
andes	-2470
autom	-2471
emple	-2472
iquer	-2473
vière	-2474
éraux	-2475
▁Sauf	-2476
▁base	-2477
▁bles	-2478
▁bond	-2479
▁bébé	-2480
▁ciel	-2481
▁dist	-2482
▁doul	-2483
▁honn	-2484
▁mord	-2485
▁nerv	-2486
▁neuf	-2487
▁norm	-2488
▁prin	-2489
▁ress	-2490
▁roul	-2491
▁réun	-2492
▁surf	-2493
▁tire	-2494
▁trou	-2495
issait	-2496
éviter	-2497
▁Notre	-2498
▁accro	-2499
▁aimer	-2500
▁année	-2501
▁brûlé	-2502
▁colle	-2503
▁cours	-2504
▁devez	-2505
▁effet	-2506
▁emmen	-2507
▁envie	-2508
▁fallu	-2509
▁justi	-2510
▁libre	-2511
▁refer	-2512
▁répar	-2513
▁telle	-2514
▁tourn	-2515
▁tuent	-2516
▁écrit	-2517
appelle	-2518
importe	-2519
univers	-2520
▁assass	-2521
▁aurais	-2522
▁bureau	-2523
▁danger	-2524
▁devons	-2525
▁grosse	-2526
▁groupe	-2527
▁menace	-2528
▁milieu	-2529
▁partis	-2530
▁perdre	-2531
▁quotid	-2532
▁recomm	-2533
▁seules	-2534
▁tendue	-2535
▁touche	-2536
▁éviter	-2537
▁Lorsque	-2538
▁affaire	-2539
▁capable	-2540
▁fallait	-2541
▁musique	-2542
▁ordonne	-2543
▁prouver	-2544
▁rentrer	-2545
▁repérer	-2546
▁ressent	-2547
▁tendues	-2548
▁vivants	-2549
▁autorité	-2550
▁débarras	-2551
▁malheure	-2552
▁pourtant	-2553
▁protéger	-2554
▁semaines	-2555
▁cherchent	-2556
▁débrouill	-2557
▁important	-2558
▁paraissent	-2559
▁rencontrer	-2560
▁terroristes	-2561
bu	-2562
je	-2563
év	-2564
arr	-2565
bra	-2566
cas	-2567
cha	-2568
cte	-2569
ime	-2570
imm	-2571
ode	-2572
onf	-2573
ork	-2574
pit	-2575
ven	-2576
écl	-2577
éli	-2578
▁24	-2579
▁Th	-2580
▁dr	-2581
▁ha	-2582
▁is	-2583
▁mé	-2584
▁rô	-2585
apon	-2586
arme	-2587
auté	-2588
char	-2589
cœur	-2590
exis	-2591
léch	-2592
nous	-2593
onse	-2594
orts	-2595
pent	-2596
rein	-2597
sole	-2598
télé	-2599
tête	-2600
ètes	-2601
▁Peu	-2602
▁Ton	-2603
▁bra	-2604
▁can	-2605
▁dén	-2606
▁fig	-2607
▁fré	-2608
▁fum	-2609
▁loc	-2610
▁mut	-2611
▁nez	-2612
▁obl	-2613
▁ras	-2614
▁règ	-2615
▁sus	-2616
▁tém	-2617
ament	-2618
coeur	-2619
glais	-2620
ident	-2621
ilité	-2622
mosph	-2623
méric	-2624
reuse	-2625
uméro	-2626
urent	-2627
▁Quoi	-2628
▁aill	-2629
▁chac	-2630
▁hier	-2631
▁indé	-2632
▁laqu	-2633
▁mène	-2634
▁méch	-2635
▁papa	-2636
▁pare	-2637
▁pros	-2638
▁réag	-2639
▁récu	-2640
▁sauv	-2641
▁sert	-2642
▁temp	-2643
▁vain	-2644
▁vent	-2645
▁voie	-2646
arrête	-2647
cevoir	-2648
taient	-2649
▁amour	-2650
▁appel	-2651
▁belle	-2652
▁bouge	-2653
▁coûte	-2654
▁douce	-2655
▁déter	-2656
▁effic	-2657
▁enreg	-2658
▁fabri	-2659
▁habit	-2660
▁mêmes	-2661
▁pages	-2662
▁parlé	-2663
▁pièce	-2664
▁poids	-2665
▁prouv	-2666
▁prête	-2667
▁prêts	-2668
▁redev	-2669
▁riche	-2670
▁verre	-2671
▁vraie	-2672
▁étein	-2673
arrêter	-2674
cerveau	-2675
ctement	-2676
ilement	-2677
imètres	-2678
▁Toutes	-2679
▁appelé	-2680
▁combat	-2681
▁immédi	-2682
▁inform	-2683
▁jolies	-2684
▁nécess	-2685
▁peuple	-2686
▁photos	-2687
▁preuve	-2688
▁quelle	-2689
▁retard	-2690
▁répand	-2691
▁servir	-2692
▁signal	-2693
▁simple	-2694
▁sortie	-2695
▁trente	-2696
▁vieill	-2697
▁vivant	-2698
▁étrang	-2699
auraient	-2700
habitude	-2701
iendrait	-2702
mosphère	-2703
▁apprend	-2704
▁arrivés	-2705
▁atteint	-2706
▁couleur	-2707
▁intérêt	-2708
▁mariage	-2709
▁minutes	-2710
▁ouverte	-2711
▁parties	-2712
▁pousser	-2713
▁ramener	-2714
▁respect	-2715
▁respons	-2716
▁réalisé	-2717
▁réfléch	-2718
▁société	-2719
▁surface	-2720
▁tombent	-2721
▁toucher	-2722
▁apparten	-2723
▁certaine	-2724
▁changent	-2725
▁contient	-2726
▁feraient	-2727
▁milliers	-2728
▁attaquent	-2729
▁confiance	-2730
▁dangereux	-2731
▁quotidien	-2732
▁retrouver	-2733
▁viendront	-2734
▁différents	-2735
▁centimètres	-2736
▁magnifiques	-2737
ca	-2738
hô	-2739
lu	-2740
pt	-2741
ss	-2742
ze	-2743
œu	-2744
▁>	-2745
Sus	-2746
ack	-2747
aim	-2748
ays	-2749
cop	-2750
dic	-2751
dém	-2752
fam	-2753
fie	-2754
gar	-2755
let	-2756
ran	-2757
ray	-2758
éma	-2759
▁Sh	-2760
▁lu	-2761
▁os	-2762
aces	-2763
aign	-2764
cons	-2765
erve	-2766
hoto	-2767
icro	-2768
insi	-2769
inté	-2770
ivre	-2771
onge	-2772
orde	-2773
rées	-2774
uels	-2775
umes	-2776
âche	-2777
èque	-2778
ètre	-2779
▁Sel	-2780
▁ami	-2781
▁cir	-2782
▁civ	-2783
▁cél	-2784
▁inn	-2785
▁pur	-2786
▁reç	-2787
▁rue	-2788
▁siè	-2789
▁syn	-2790
▁vin	-2791
▁élé	-2792
amies	-2793
anité	-2794
année	-2795
arbre	-2796
armée	-2797
flits	-2798
gment	-2799
inion	-2800
mment	-2801
occup	-2802
parti	-2803
rimer	-2804
teurs	-2805
équip	-2806
▁allé	-2807
▁camp	-2808
▁chal	-2809
▁cinq	-2810
▁fati	-2811
▁fraî	-2812
▁gant	-2813
▁goût	-2814
▁joue	-2815
▁lire	-2816
▁symb	-2817
▁séri	-2818
▁sûre	-2819
▁tiss	-2820
▁état	-2821
▁îles	-2822
action	-2823
amment	-2824
arrive	-2825
attend	-2826
oigner	-2827
pendez	-2828
rétien	-2829
▁Ainsi	-2830
▁aband	-2831
▁bombe	-2832
▁cache	-2833
▁capit	-2834
▁carte	-2835
▁clair	-2836
▁croit	-2837
▁désir	-2838
▁elles	-2839
▁enfer	-2840
▁enfin	-2841
▁extra	-2842
▁fermé	-2843
▁forte	-2844
▁front	-2845
▁glace	-2846
▁malin	-2847
▁morce	-2848
▁nulle	-2849
▁ordin	-2850
▁parie	-2851
▁repos	-2852
▁roule	-2853
▁salle	-2854
▁satis	-2855
▁tient	-2856
▁étais	-2857
appréci	-2858
automne	-2859
enfants	-2860
olution	-2861
pendant	-2862
système	-2863
▁Chaque	-2864
▁Depuis	-2865
▁arrête	-2866
▁battre	-2867
▁chiens	-2868
▁coupez	-2869
▁diront	-2870
▁durant	-2871
▁déclen	-2872
▁ferait	-2873
▁frappe	-2874
▁jouent	-2875
▁libres	-2876
▁longue	-2877
▁prépar	-2878
▁public	-2879
▁riches	-2880
▁réussi	-2881
▁visage	-2882
airement	-2883
▁Aujourd	-2884
▁environ	-2885
▁exemple	-2886
▁fassent	-2887
▁humaine	-2888
▁journée	-2889
▁liberté	-2890
▁maladie	-2891
▁manière	-2892
▁message	-2893
▁obtenir	-2894
▁premier	-2895
▁publiée	-2896
▁réveill	-2897
▁signifi	-2898
▁vieille	-2899
Suspendez	-2900
▁Regardez	-2901
▁arrivera	-2902
▁capturés	-2903
▁conflits	-2904
▁couverte	-2905
▁intéress	-2906
▁particul	-2907
▁soucieux	-2908
atmosphère	-2909
ordinateur	-2910
▁pensaient	-2911
▁prochaine	-2912
▁récupérer	-2913
▁téléphone	-2914
▁représente	-2915
▁débrouillés	-2916
▁ressemblent	-2917
▁changeraient	-2918
▁probablement	-2919
--	-2920
bi	-2921
cr	-2922
du	-2923
go	-2924
hi	-2925
oh	-2926
ru	-2927
èn	-2928
▁Q	-2929
agé	-2930
ank	-2931
ick	-2932
ili	-2933
iqu	-2934
jus	-2935
nom	-2936
och	-2937
ope	-2938
ote	-2939
peu	-2940
ros	-2941
tal	-2942
équ	-2943
▁12	-2944
▁15	-2945
▁Al	-2946
▁Bl	-2947
▁ir	-2948
▁ém	-2949
alle	-2950
anté	-2951
assi	-2952
atta	-2953
dats	-2954
erge	-2955
essi	-2956
fais	-2957
ices	-2958
oile	-2959
orce	-2960
pays	-2961
rage	-2962
sont	-2963
ulti	-2964
éros	-2965
▁200	-2966
▁600	-2967
▁Ont	-2968
▁Son	-2969
▁air	-2970
▁cam	-2971
▁clé	-2972
▁cop	-2973
▁ill	-2974
▁kil	-2975
▁mod	-2976
▁pou	-2977
▁rat	-2978
▁reb	-2979
▁rét	-2980
▁six	-2981
▁soi	-2982
agine	-2983
boîte	-2984
cette	-2985
chans	-2986
enant	-2987
igine	-2988
ignes	-2989
mères	-2990
probl	-2991
tence	-2992
▁Char	-2993
▁anti	-2994
▁brûl	-2995
▁cens	-2996
▁crée	-2997
▁doux	-2998
▁fich	-2999
▁fils	-3000
▁géni	-3001
▁juge	-3002
▁mené	-3003
▁mots	-3004
▁méri	-3005
▁nord	-3006
▁plac	-3007
▁pleu	-3008
▁pure	-3009
▁zone	-3010
allais	-3011
ension	-3012
eurent	-3013
explos	-3014
iciens	-3015
ierres	-3016
inture	-3017
oiseau	-3018
ologie	-3019
ouille	-3020
ouvrir	-3021
▁Selon	-3022
▁brill	-3023
▁bruit	-3024
▁cesse	-3025
▁champ	-3026
▁choix	-3027
▁défin	-3028
▁espér	-3029
▁faits	-3030
▁finir	-3031
▁fleur	-3032
▁menac	-3033
▁moyen	-3034
▁popul	-3035
▁relig	-3036
▁réuss	-3037
▁signe	-3038
▁suivi	-3039
▁étant	-3040
assurer	-3041
astique	-3042
érience	-3043
▁Malgré	-3044
▁aperçu	-3045
▁cassée	-3046
▁certes	-3047
▁devenu	-3048
▁devoir	-3049
▁décidé	-3050
▁départ	-3051
▁faible	-3052
▁fatigu	-3053
▁gagner	-3054
▁ignore	-3055
▁menait	-3056
▁mouche	-3057
▁précis	-3058
▁revenu	-3059
▁risque	-3060
▁sauver	-3061
▁tourne	-3062
▁valent	-3063
▁vérifi	-3064
cellules	-3065
eusement	-3066
imposent	-3067
issaient	-3068
istoires	-3069
▁Ensuite	-3070
▁adorent	-3071
▁affecte	-3072
▁bizarre	-3073
▁content	-3074
▁entière	-3075
▁fenêtre	-3076
▁machine	-3077
▁meurtre	-3078
▁nerveux	-3079
▁nourrir	-3080
▁personn	-3081
▁produit	-3082
▁remonte	-3083
▁suicide	-3084
▁suppose	-3085
▁volumes	-3086
▁Pourtant	-3087
▁associés	-3088
▁chrétien	-3089
▁détermin	-3090
▁efficace	-3091
▁essaient	-3092
▁horrible	-3093
▁méritent	-3094
▁nouvelle	-3095
▁publique	-3096
▁puissant	-3097
▁quantité	-3098
▁refermée	-3099
▁survivre	-3100
▁tortures	-3101
appartient	-3102
approchent	-3103
impression	-3104
▁compagnie	-3105
▁construit	-3106
▁contraire	-3107
▁difficile	-3108
▁détestent	-3109
▁meilleure	-3110
▁propriété	-3111
▁apparences	-3112
▁conscience	-3113
▁reviennent	-3114
▁représentera	-3115
FF	-3116
Je	-3117
fr	-3118
gi	-3119
ni	-3120
pu	-3121
ry	-3122
éh	-3123
ala	-3124
anç	-3125
ast	-3126
cin	-3127
ett	-3128
gle	-3129
ics	-3130
lez	-3131
ppe	-3132
ron	-3133
vin	-3134
xim	-3135
ôme	-3136
▁Ah	-3137
▁Là	-3138
▁Mi	-3139
▁St	-3140
▁pê	-3141
▁us	-3142
amus	-3143
appe	-3144
bébé	-3145
empê	-3146
ggot	-3147
iter	-3148
ject	-3149
ocra	-3150
oirs	-3151
onie	-3152
qués	-3153
rine	-3154
rist	-3155
tats	-3156
tron	-3157
uclé	-3158
uira	-3159
uler	-3160
édie	-3161
érée	-3162
▁caf	-3163
▁dig	-3164
▁dim	-3165
▁dor	-3166
▁euh	-3167
▁maî	-3168
▁mys	-3169
▁ray	-3170
▁suc	-3171
▁étu	-3172
accep	-3173
andis	-3174
belle	-3175
cuper	-3176
emain	-3177
essay	-3178
idées	-3179
iller	-3180
journ	-3181
ondes	-3182
prise	-3183
trait	-3184
tront	-3185
▁Cela	-3186
▁Pers	-3187
▁____	-3188
▁avis	-3189
▁bleu	-3190
▁crit	-3191
▁dési	-3192
▁fous	-3193
▁impl	-3194
▁oeil	-3195
▁péri	-3196
▁rôle	-3197
▁sale	-3198
▁surv	-3199
▁éner	-3200
flouer	-3201
ggotty	-3202
iciers	-3203
orités	-3204
photos	-3205
timent	-3206
vaient	-3207
vision	-3208
çaient	-3209
▁Dites	-3210
▁allez	-3211
▁cassé	-3212
▁celle	-3213
▁chien	-3214
▁conse	-3215
▁coups	-3216
▁crise	-3217
▁début	-3218
▁démar	-3219
▁films	-3220
▁givre	-3221
▁ignor	-3222
▁mange	-3223
▁nuclé	-3224
▁occup	-3225
▁polit	-3226
▁rejet	-3227
▁résis	-3228
▁sonne	-3229
▁tueur	-3230
▁venue	-3231
▁élect	-3232
▁équip	-3233
atement	-3234
lations	-3235
lumière	-3236
remment	-3237
terrest	-3238
ussures	-3239
èrement	-3240
▁argent	-3241
▁charge	-3242
▁chauff	-3243
▁cherch	-3244
▁client	-3245
▁coffre	-3246
▁colère	-3247
▁commen	-3248
▁couper	-3249
▁dirige	-3250
▁disant	-3251
▁dispos	-3252
▁déclar	-3253
▁enfant	-3254
▁envoyé	-3255
▁habitu	-3256
▁lettre	-3257
▁montré	-3258
▁mérite	-3259
▁nation	-3260
▁noires	-3261
▁portes	-3262
▁prends	-3263
▁princi	-3264
▁proche	-3265
▁putain	-3266
▁quitte	-3267
▁rendez	-3268
▁respec	-3269
▁source	-3270
▁touché	-3271
▁trembl	-3272
▁écrasé	-3273
arrivent	-3274
créature	-3275
humanité	-3276
ouvement	-3277
▁accompl	-3278
▁boivent	-3279
▁bonheur	-3280
▁certain	-3281
▁chaleur	-3282
▁complex	-3283
▁convain	-3284
▁devrais	-3285
▁essayer	-3286
▁faciles	-3287
▁gardent	-3288
▁grandes	-3289
▁impliqu	-3290
▁justice	-3291
▁mangent	-3292
▁mémoire	-3293
▁plaisir	-3294
▁pouvais	-3295
▁restait	-3296
▁sacrifi	-3297
▁service	-3298
▁tourner	-3299
▁viendra	-3300
▁étrange	-3301
méricains	-3302
▁Peggotty	-3303
▁accepter	-3304
▁achètent	-3305
▁devienne	-3306
▁disaient	-3307
▁entendre	-3308
▁faudrait	-3309
▁merveill	-3310
▁venaient	-3311
▁voudront	-3312
▁appellent	-3313
▁comprends	-3314
▁continuer	-3315
▁direction	-3316
▁nouvelles	-3317
▁renflouer	-3318
▁réalisent	-3319
▁vêtements	-3320
▁terrorisme	-3321
▁traitement	-3322
▁appartenait	-3323
▁choisissent	-3324
▁directement	-3325
▁débarrasser	-3326
▁certainement	-3327
▁connaissaient	-3328
▁immédiatement	-3329
ak	-3330
lo	-3331
we	-3332
>'<	-3333
ADN	-3334
Une	-3335
aly	-3336
ame	-3337
aul	-3338
ban	-3339
col	-3340
con	-3341
déc	-3342
eng	-3343
her	-3344
his	-3345
ley	-3346
lig	-3347
net	-3348
nés	-3349
ood	-3350
oré	-3351
oux	-3352
tri	-3353
uté	-3354
yth	-3355
âme	-3356
▁"<	-3357
▁40	-3358
▁60	-3359
▁al	-3360
▁ho	-3361
▁mû	-3362
▁vô	-3363
anch	-3364
drog	-3365
eaux	-3366
ende	-3367
erai	-3368
itif	-3369
oici	-3370
omac	-3371
opri	-3372
orie	-3373
oubl	-3374
pati	-3375
pour	-3376
péri	-3377
role	-3378
sesp	-3379
sons	-3380
tect	-3381
uise	-3382
étés	-3383
▁Att	-3384
▁Ici	-3385
▁Pro	-3386
▁Qui	-3387
▁bén	-3388
▁cre	-3389
▁fan	-3390
▁jal	-3391
▁lar	-3392
▁lim	-3393
▁nav	-3394
▁ore	-3395
▁pla	-3396
▁pun	-3397
▁tax	-3398
▁tre	-3399
apolé	-3400
auche	-3401
aîtra	-3402
effet	-3403
erais	-3404
fique	-3405
ilise	-3406
otion	-3407
ouses	-3408
quant	-3409
tière	-3410
èbres	-3411
▁Chez	-3412
▁Très	-3413
▁aidé	-3414
▁aime	-3415
▁amen	-3416
▁atti	-3417
▁batt	-3418
▁chim	-3419
▁créé	-3420
▁doig	-3421
▁enle	-3422
▁ferm	-3423
▁form	-3424
▁fout	-3425
▁grat	-3426
▁hors	-3427
▁jeté	-3428
▁labo	-3429
▁lait	-3430
▁mens	-3431
▁modi	-3432
▁nett	-3433
▁noms	-3434
▁poss	-3435
▁ramp	-3436
▁refr	-3437
▁soin	-3438
▁stup	-3439
▁sugg	-3440
▁vies	-3441
▁émet	-3442
ailles	-3443
alités	-3444
ancent	-3445
atures	-3446
espoir	-3447
ieuses	-3448
import	-3449
istait	-3450
nation	-3451
ortent	-3452
peuple	-3453
époque	-3454
▁Voilà	-3455
▁balle	-3456
▁beaux	-3457
▁caché	-3458
▁conçu	-3459
▁coule	-3460
▁coupe	-3461
▁coûté	-3462
▁crime	-3463
▁finit	-3464
▁gardé	-3465
▁innoc	-3466
▁iront	-3467
▁maman	-3468
▁micro	-3469
▁métal	-3470
▁oblig	-3471
▁plans	-3472
▁plaît	-3473
▁poign	-3474
▁repar	-3475
▁sache	-3476
▁seins	-3477
▁selon	-3478
▁verra	-3479
▁voilà	-3480
▁éclat	-3481
▁étiez	-3482
apoléon	-3483
aponais	-3484
itaires	-3485
musique	-3486
origine	-3487
▁Laisse	-3488
▁animal	-3489
▁bateau	-3490
▁boulot	-3491
▁cinéma	-3492
▁condam	-3493
▁confir	-3494
▁devais	-3495
▁disais	-3496
▁droite	-3497
▁dépend	-3498
▁dépens	-3499
▁désesp	-3500
▁entraî	-3501
▁essent	-3502
▁faudra	-3503
▁fermée	-3504
▁fleurs	-3505
▁frappé	-3506
▁incroy	-3507
▁langue	-3508
▁mesure	-3509
▁mourra	-3510
▁mètres	-3511
▁numéro	-3512
▁oublié	-3513
▁passée	-3514
▁pierre	-3515
▁pousse	-3516
▁suffis	-3517
▁suppos	-3518
▁tombée	-3519
▁échoué	-3520
arrêtent	-3521
avantage	-3522
familles	-3523
onnement	-3524
▁Quelque	-3525
▁atterri	-3526
▁bougent	-3527
▁cherche	-3528
▁couvert	-3529
▁devenus	-3530
▁entrent	-3531
▁envoyer	-3532
▁faibles	-3533
▁lorsque	-3534
▁matière	-3535
▁pouvons	-3536
▁prisonn	-3537
▁protège	-3538
▁quitter	-3539
▁rivière	-3540
▁sachant	-3541
▁sauront	-3542
▁servent	-3543
▁siècles	-3544
▁tombées	-3545
▁évident	-3546
téléphone	-3547
▁Certains	-3548
▁Personne	-3549
▁accident	-3550
▁affaires	-3551
▁ailleurs	-3552
▁comptent	-3553
▁concerne	-3554
▁ignorent	-3555
▁laquelle	-3556
▁meilleur	-3557
▁monsieur	-3558
▁montagne	-3559
▁pourrais	-3560
▁refusent	-3561
▁retourne	-3562
▁semblait	-3563
▁souvenir	-3564
▁voitures	-3565
▁vérifier	-3566
▁demandais	-3567
▁explosent	-3568
▁recherche	-3569
▁traverser	-3570
▁utilisent	-3571
▁également	-3572
▁amoureuses	-3573
▁construire	-3574
▁facilement	-3575
▁magnifique	-3576
▁meilleures	-3577
▁nourriture	-3578
▁nécessaire	-3579
▁recherches	-3580
.<	-3581
0,	-3582
2,	-3583
_<	-3584
aj	-3585
bâ	-3586
ia	-3587
ik	-3588
no	-3589
né	-3590
yn	-3591
yr	-3592
apa	-3593
bon	-3594
com	-3595
cus	-3596
dit	-3597
dra	-3598
emm	-3599
gué	-3600
gée	-3601
lie	-3602
lin	-3603
méd	-3604
orc	-3605
oth	-3606
oxy	-3607
pet	-3608
plu	-3609
ref	-3610
riv	-3611
tel	-3612
val	-3613
vir	-3614
âge	-3615
éan	-3616
écr	-3617
▁11	-3618
▁Ca	-3619
▁Du	-3620
▁Ex	-3621
▁eh	-3622
▁gê	-3623
▁ja	-3624
▁mi	-3625
▁ve	-3626
Unis	-3627
atif	-3628
atri	-3629
aura	-3630
clav	-3631
erie	-3632
gées	-3633
ionn	-3634
istr	-3635
lois	-3636
mand	-3637
mbre	-3638
mons	-3639
mort	-3640
oise	-3641
orci	-3642
ouff	-3643
oyés	-3644
ribu	-3645
rois	-3646
sier	-3647
stat	-3648
temp	-3649
usse	-3650
voix	-3651
éant	-3652
éral	-3653
érez	-3654
îner	-3655
ômes	-3656
▁Ess	-3657
▁Jam	-3658
▁Seu	-3659
▁arm	-3660
▁chi	-3661
▁cit	-3662
▁enc	-3663
▁enl	-3664
▁enn	-3665
▁fav	-3666
▁fix	-3667
▁gel	-3668
▁har	-3669
▁lac	-3670
▁mob	-3671
▁niv	-3672
▁pal	-3673
▁pra	-3674
▁psy	-3675
▁pue	-3676
▁rob	-3677
▁rée	-3678
▁sim	-3679
▁sud	-3680
▁tar	-3681
▁tas	-3682
▁ten	-3683
▁âge	-3684
apper	-3685
arriv	-3686
avère	-3687
cient	-3688
enfer	-3689
eries	-3690
ester	-3691
euble	-3692
extra	-3693
forme	-3694
ifier	-3695
issez	-3696
moins	-3697
objet	-3698
oduit	-3699
ogram	-3700
onses	-3701
orais	-3702
ottes	-3703
oules	-3704
photo	-3705
pièce	-3706
ption	-3707
quipe	-3708
riers	-3709
rités	-3710
sions	-3711
uient	-3712
ultés	-3713
urant	-3714
verse	-3715
étudi	-3716
▁Faut	-3717
▁agit	-3718
▁arme	-3719
▁assi	-3720
▁bour	-3721
▁carb	-3722
▁cell	-3723
▁chas	-3724
▁chau	-3725
▁dise	-3726
▁dorm	-3727
▁extr	-3728
▁guer	-3729
▁joli	-3730
▁lois	-3731
▁lune	-3732
▁mets	-3733
▁mign	-3734
▁mise	-3735
▁moin	-3736
▁parv	-3737
▁payé	-3738
▁poll	-3739
▁rais	-3740
▁sept	-3741
▁soud	-3742
▁tels	-3743
▁toit	-3744
▁trés	-3745
▁voix	-3746
▁vues	-3747
▁vécu	-3748
▁élec	-3749
▁élev	-3750
anches	-3751
attein	-3752
avenir	-3753
bateau	-3754
client	-3755
essaie	-3756
guerre	-3757
igneur	-3758
itaire	-3759
lettre	-3760
mettre	-3761
ordonn	-3762
tiques	-3763
utilis	-3764
▁Enfin	-3765
▁Jusqu	-3766
▁Maman	-3767
▁achet	-3768
▁arrêt	-3769
▁assur	-3770
▁avais	-3771
▁boire	-3772
▁boute	-3773
▁calme	-3774
▁casse	-3775
▁connu	-3776
▁côtes	-3777
▁drôle	-3778
▁détec	-3779
▁envah	-3780
▁forcé	-3781
▁forêt	-3782
▁gross	-3783
▁lieux	-3784
▁lourd	-3785
▁menti	-3786
▁monte	-3787
▁multi	-3788
▁ouvre	-3789
▁panne	-3790
▁piste	-3791
▁pluie	-3792
▁repas	-3793
▁santé	-3794
▁senti	-3795
▁serai	-3796
▁soeur	-3797
▁soupç	-3798
▁tromp	-3799
▁étern	-3800
abilité	-3801
eaucoup	-3802
nements	-3803
occuper	-3804
ruction	-3805
▁Christ	-3806
▁Désolé	-3807
▁accord	-3808
▁allons	-3809
▁avance	-3810
▁beauté	-3811
▁cacher	-3812
▁centre	-3813
▁contam	-3814
▁craint	-3815
▁crimes	-3816
▁entier	-3817
▁erreur	-3818
▁espèce	-3819
▁figure	-3820
▁gauche	-3821
▁marque	-3822
▁paient	-3823
▁permis	-3824
▁potent	-3825
▁profit	-3826
▁rempli	-3827
▁renfor	-3828
▁résist	-3829
▁savons	-3830
▁suffit	-3831
▁tortue	-3832
▁venues	-3833
▁écoute	-3834
▁époque	-3835
entement	-3836
entendre	-3837
ouillent	-3838
ouvertes	-3839
écoutent	-3840
▁anglais	-3841
▁appeler	-3842
▁appelle	-3843
▁appréci	-3844
▁assurer	-3845
▁attaque	-3846
▁blanche	-3847
▁chances	-3848
▁chanter	-3849
▁chaudes	-3850
▁civilis	-3851
▁contrat	-3852
▁courant	-3853
▁devront	-3854
▁docteur	-3855
▁drapeau	-3856
▁défense	-3857
▁explosé	-3858
▁grandir	-3859
▁général	-3860
▁indique	-3861
▁jettent	-3862
▁mentent	-3863
▁mystéri	-3864
▁organis	-3865
▁passera	-3866
▁pauvres	-3867
▁prendra	-3868
▁prétend	-3869
▁refroid	-3870
▁retirer	-3871
▁réparer	-3872
▁vampire	-3873
▁verront	-3874
▁visible	-3875
apprendre	-3876
extérieur	-3877
opération	-3878
uellement	-3879
▁Seigneur	-3880
▁amoureux	-3881
▁arrivées	-3882
▁capables	-3883
▁comporte	-3884
▁déplacer	-3885
▁généraux	-3886
▁nombreux	-3887
▁nouveaux	-3888
▁paraître	-3889
▁parfaite	-3890
▁plaisent	-3891
▁poubelle	-3892
▁produire	-3893
▁présence	-3894
▁présente	-3895
▁prévenir	-3896
▁rappelle	-3897
▁trouvait	-3898
▁utilisée	-3899
▁vaisseau	-3900
▁vivantes	-3901
apprécient	-3902
atiquement	-3903
▁abandonné	-3904
▁atteindre	-3905
▁différent	-3906
▁découvrir	-3907
▁mouvement	-3908
▁processus	-3909
▁redevenir	-3910
▁relations	-3911
▁remarquer	-3912
▁reçoivent	-3913
▁sentiment	-3914
▁situation	-3915
▁continuent	-3916
▁produisent	-3917
▁totalement	-3918
▁tranquille	-3919
▁merveilleux	-3920
▁parfaitement	-3921
Ce	-3922
En	-3923
In	-3924
na	-3925
xu	-3926
Ces	-3927
auc	-3928
cal	-3929
cam	-3930
eug	-3931
fum	-3932
gén	-3933
gés	-3934
hof	-3935
ica	-3936
ich	-3937
ict	-3938
iré	-3939
ium	-3940
jeu	-3941
lib	-3942
mal	-3943
mét	-3944
ome	-3945
pes	-3946
pol	-3947
rac	-3948
rép	-3949
thé	-3950
tin	-3951
tis	-3952
uge	-3953
ulé	-3954
èse	-3955
▁--	-3956
▁14	-3957
▁23	-3958
▁<<	-3959
▁?"	-3960
▁Dr	-3961
▁Su	-3962
▁Te	-3963
▁ay	-3964
▁fâ	-3965
▁gâ	-3966
▁hô	-3967
▁km	-3968
▁lâ	-3969
▁lé	-3970
▁mê	-3971
▁ok	-3972
acle	-3973
anes	-3974
appé	-3975
ates	-3976
avec	-3977
cent	-3978
chem	-3979
chez	-3980
cont	-3981
dieu	-3982
erci	-3983
ffit	-3984
glet	-3985
gène	-3986
hysi	-3987
issé	-3988
isée	-3989
ième	-3990
joux	-3991
ling	-3992
main	-3993
ocat	-3994
oide	-3995
olet	-3996
olée	-3997
orge	-3998
père	-3999
quée	-4000
rera	-4001
reur	-4002
rète	-4003
sign	-4004
soci	-4005
tenu	-4006
tive	-4007
tort	-4008
turb	-4009
tère	-4010
umin	-4011
unes	-4012
éléb	-4013
émin	-4014
état	-4015
êter	-4016
▁500	-4017
▁Tes	-4018
▁asp	-4019
▁cad	-4020
▁cla	-4021
▁dat	-4022
▁dix	-4023
▁idi	-4024
▁inv	-4025
▁ira	-4026
▁liv	-4027
▁lut	-4028
▁mou	-4029
▁mèn	-4030
▁obé	-4031
▁pil	-4032
▁pom	-4033
▁pri	-4034
▁péd	-4035
▁sil	-4036
▁séd	-4037
Cette	-4038
accus	-4039
agnes	-4040
asion	-4041
bless	-4042
bombe	-4043
cours	-4044
crise	-4045
esses	-4046
flics	-4047
glise	-4048
gédie	-4049
hodes	-4050
iards	-4051
ingue	-4052
isait	-4053
mains	-4054
oigne	-4055
onies	-4056
ordre	-4057
organ	-4058
ouler	-4059
oîtes	-4060
pects	-4061
pital	-4062
pleut	-4063
quées	-4064
rance	-4065
roche	-4066
table	-4067
talie	-4068
techn	-4069
tiens	-4070
train	-4071
vants	-4072
virus	-4073
èdent	-4074
étein	-4075
▁Paul	-4076
▁Sais	-4077
▁Tant	-4078
▁Voir	-4079
▁agir	-4080
▁cade	-4081
▁ceci	-4082
▁chat	-4083
▁chef	-4084
▁code	-4085
▁enne	-4086
▁flam	-4087
▁fête	-4088
▁heur	-4089
▁hoff	-4090
▁lend	-4091
▁liqu	-4092
▁maqu	-4093
▁pard	-4094
▁pati	-4095
▁poit	-4096
▁prét	-4097
▁rang	-4098
▁renv	-4099
▁réve	-4100
▁sexe	-4101
▁sois	-4102
▁spir	-4103
▁suit	-4104
▁trad	-4105
▁vole	-4106
artier	-4107
auront	-4108
charge	-4109
chauff	-4110
ellite	-4111
embras	-4112
icules	-4113
inform	-4114
issant	-4115
itesse	-4116
liquer	-4117
onnent	-4118
ouleur	-4119
ouvoir	-4120
pierre	-4121
quence	-4122
ration	-4123
serait	-4124
suffit	-4125
tortue	-4126
ulaire	-4127
érable	-4128
étaire	-4129
▁Grâce	-4130
▁Voyez	-4131
▁accus	-4132
▁allés	-4133
▁amies	-4134
▁autom	-4135
▁biens	-4136
▁boule	-4137
▁coute	-4138
▁dents	-4139
▁dirai	-4140
▁décla	-4141
▁déser	-4142
▁enter	-4143
▁faute	-4144
▁folle	-4145
▁forts	-4146
▁fumée	-4147
▁grimp	-4148
▁gérer	-4149
▁idées	-4150
▁image	-4151
▁invis	-4152
▁jette	-4153
▁jolie	-4154
▁kilom	-4155
▁lancé	-4156
▁mangé	-4157
▁march	-4158
▁mener	-4159
▁monté	-4160
▁mères	-4161
▁noire	-4162
▁obser	-4163
▁ordre	-4164
▁perte	-4165
▁physi	-4166
▁plant	-4167
▁possé	-4168
▁provo	-4169
▁spect	-4170
▁tours	-4171
▁trous	-4172
▁vérit	-4173
▁écout	-4174
▁étudi	-4175
acheter	-4176
actions	-4177
clients	-4178
copines	-4179
faisait	-4180
iraient	-4181
mémoire	-4182
oration	-4183
reintes	-4184
ressent	-4185
étoiles	-4186
▁Ecoute	-4187
▁Lorsqu	-4188
▁Prenez	-4189
▁avenir	-4190
▁brûler	-4191
▁calcul	-4192
▁chacun	-4193
▁cheval	-4194
▁chérie	-4195
▁diable	-4196
▁diffus	-4197
▁dispon	-4198
▁drôles	-4199
▁décide	-4200
▁démont	-4201
▁effond	-4202
▁effray	-4203
▁emmené	-4204
▁folles	-4205
▁fortes	-4206
▁froide	-4207
▁garant	-4208
▁gouver	-4209
▁libère	-4210
▁lourde	-4211
▁monter	-4212
▁niveau	-4213
▁ordres	-4214
▁papier	-4215
▁parole	-4216
▁pointe	-4217
▁privée	-4218
▁produc	-4219
▁prêtes	-4220
▁refusé	-4221
▁récomp	-4222
▁sauter	-4223
▁solide	-4224
▁taille	-4225
▁unique	-4226
▁votent	-4227
▁voyons	-4228
▁économ	-4229
▁écouté	-4230
aimaient	-4231
aissance	-4232
aremment	-4233
gleterre	-4234
ignorais	-4235
issement	-4236
jectoire	-4237
ologique	-4238
problème	-4239
▁animaux	-4240
▁arrêtée	-4241
▁attrapé	-4242
▁augment	-4243
▁battent	-4244
▁cachent	-4245
▁chemise	-4246
▁command	-4247
▁confort	-4248
▁connaît	-4249
▁culture	-4250
▁faisant	-4251
▁fichent	-4252
▁inventé	-4253
▁localis	-4254
▁moindre	-4255
▁moyenne	-4256
▁paradis	-4257
▁pierres	-4258
▁portait	-4259
▁preuves	-4260
▁propres	-4261
▁putains	-4262
▁période	-4263
▁pétrole	-4264
▁raconte	-4265
▁sembler	-4266
▁souffle	-4267
▁suivant	-4268
▁suivent	-4269
▁tueront	-4270
▁vitesse	-4271
▁vivante	-4272
▁écouter	-4273
▁éteinte	-4274
▁étoiles	-4275
existence	-4276
histoires	-4277
situation	-4278
▁ancêtres	-4279
▁carrière	-4280
▁existent	-4281
▁morceaux	-4282
▁mourront	-4283
▁physique	-4284
▁pleurent	-4285
▁poissons	-4286
▁prochain	-4287
▁produits	-4288
▁provient	-4289
▁raconter	-4290
▁rassembl	-4291
▁religion	-4292
▁remarqué	-4293
▁revienne	-4294
▁semblant	-4295
▁souffrir	-4296
▁surveill	-4297
▁terrible	-4298
▁vieilles	-4299
▁écoutent	-4300
Américains	-4301
chaussures	-4302
▁attention	-4303
▁commencer	-4304
▁contrôler	-4305
▁deviendra	-4306
▁enregistr	-4307
▁expliquer	-4308
▁lendemain	-4309
▁milliards	-4310
▁nucléaire	-4311
▁puissance	-4312
▁racontent	-4313
▁rencontre	-4314
▁repartent	-4315
▁reviendra	-4316
▁répondent	-4317
▁supporter	-4318
monographie	-4319
▁apprennent	-4320
▁arriveront	-4321
▁connaissez	-4322
▁dangereuse	-4323
▁finalement	-4324
▁incroyable	-4325
▁population	-4326
▁respectent	-4327
▁réveillent	-4328
▁signifient	-4329
▁trouveront	-4330
▁voudraient	-4331
▁contiennent	-4332
▁descendants	-4333
▁destruction	-4334
▁fonctionner	-4335
▁trajectoire	-4336
▁comprendront	-4337
▁vieillissent	-4338
AN	-4339
aw	-4340
io	-4341
ky	-4342
ly	-4343
nt	-4344
po	-4345
sh	-4346
vu	-4347
éf	-4348
▁0	-4349
▁w	-4350
>__	-4351
agu	-4352
arc	-4353
ave	-4354
aér	-4355
bar	-4356
bés	-4357
cid	-4358
clé	-4359
cès	-4360
dam	-4361
duc	-4362
dée	-4363
gen	-4364
gue	-4365
ifs	-4366
ind	-4367
nos	-4368
old	-4369
oss	-4370
osé	-4371
own	-4372
pôt	-4373
tie	-4374
tim	-4375
ume	-4376
uré	-4377
vez	-4378
yst	-4379
île	-4380
▁16	-4381
▁Am	-4382
▁Co	-4383
▁Di	-4384
▁El	-4385
▁Im	-4386
▁Vu	-4387
▁he	-4388
▁lo	-4389
▁lè	-4390
▁mâ	-4391
▁nô	-4392
▁oh	-4393
▁pé	-4394
▁sè	-4395
aise	-4396
alon	-4397
anci	-4398
anou	-4399
ayer	-4400
aîne	-4401
bite	-4402
bout	-4403
bête	-4404
cein	-4405
cens	-4406
deur	-4407
dire	-4408
ecté	-4409
erse	-4410
fond	-4411
hent	-4412
hier	-4413
hons	-4414
igin	-4415
ince	-4416
inge	-4417
itié	-4418
lage	-4419
lait	-4420
late	-4421
lect	-4422
mari	-4423
mecs	-4424
neur	-4425
obsc	-4426
oies	-4427
oncé	-4428
onté	-4429
osse	-4430
otte	-4431
ouse	-4432
pens	-4433
pois	-4434
quis	-4435
race	-4436
rich	-4437
romp	-4438
sera	-4439
sule	-4440
âmes	-4441
çant	-4442
ènes	-4443
élic	-4444
érés	-4445
ésus	-4446
éter	-4447
▁300	-4448
▁App	-4449
▁Auc	-4450
▁Aux	-4451
▁Gre	-4452
▁Joh	-4453
▁Luc	-4454
▁Mad	-4455
▁Mme	-4456
▁Rob	-4457
▁aim	-4458
▁ali	-4459
▁cab	-4460
▁cos	-4461
▁dom	-4462
▁dro	-4463
▁due	-4464
▁emm	-4465
▁fra	-4466
▁inh	-4467
▁job	-4468
▁lav	-4469
▁lun	-4470
▁mir	-4471
▁mun	-4472
▁nul	-4473
▁opp	-4474
▁por	-4475
▁rej	-4476
▁roy	-4477
▁tox	-4478
▁vul	-4479
acité	-4480
ainte	-4481
annie	-4482
ardes	-4483
assur	-4484
aviez	-4485
aérop	-4486
bague	-4487
ecter	-4488
endue	-4489
estin	-4490
ettez	-4491
femme	-4492
fleur	-4493
glace	-4494
iaque	-4495
icale	-4496
iciel	-4497
icule	-4498
isant	-4499
ligne	-4500
mbres	-4501
odeur	-4502
onges	-4503
onnel	-4504
opper	-4505
osses	-4506
ouest	-4507
oupée	-4508
oyons	-4509
quera	-4510
radio	-4511
rions	-4512
sière	-4513
trons	-4514
udier	-4515
uelle	-4516
unité	-4517
urope	-4518
érées	-4519
étude	-4520
▁Honn	-4521
▁Jack	-4522
▁Miss	-4523
▁Papa	-4524
▁adap	-4525
▁arra	-4526
▁bite	-4527
▁bête	-4528
▁chap	-4529
▁chir	-4530
▁cité	-4531
▁corp	-4532
▁cous	-4533
▁côte	-4534
▁dipl	-4535
▁diss	-4536
▁drog	-4537
▁engl	-4538
▁ense	-4539
▁gang	-4540
▁glac	-4541
▁insp	-4542
▁jure	-4543
▁lien	-4544
▁lève	-4545
▁médi	-4546
▁parc	-4547
▁pinc	-4548
▁pira	-4549
▁poul	-4550
▁prim	-4551
▁race	-4552
▁reli	-4553
▁reçu	-4554
▁ryth	-4555
▁rêve	-4556
▁subs	-4557
▁syst	-4558
▁trib	-4559
▁trom	-4560
▁vill	-4561
▁écri	-4562
▁égal	-4563
▁élim	-4564
▁évid	-4565
actéri	-4566
aissez	-4567
angers	-4568
animal	-4569
appare	-4570
avance	-4571
avions	-4572
balles	-4573
bureau	-4574
enfant	-4575
entend	-4576
entraî	-4577
homose	-4578
illent	-4579
onomie	-4580
orable	-4581
prises	-4582
ribles	-4583
statue	-4584
teigne	-4585
visage	-4586
échant	-4587
écoute	-4588
érence	-4589
étoile	-4590
▁Juste	-4591
▁Jésus	-4592
▁Merci	-4593
▁Saint	-4594
▁Savez	-4595
▁agent	-4596
▁ayant	-4597
▁bière	-4598
▁bless	-4599
▁bleue	-4600
▁bouff	-4601
▁bêtes	-4602
▁cessé	-4603
▁chair	-4604
▁charm	-4605
▁coupé	-4606
▁court	-4607
▁dieux	-4608
▁durer	-4609
▁dépos	-4610
▁faite	-4611
▁fonde	-4612
▁franç	-4613
▁fémin	-4614
▁grave	-4615
▁guéri	-4616
▁honte	-4617
▁idiot	-4618
▁illus	-4619
▁immun	-4620
▁jeter	-4621
▁laver	-4622
▁lever	-4623
▁liens	-4624
▁lueur	-4625
▁mille	-4626
▁mûres	-4627
▁nourr	-4628
▁offre	-4629
▁persu	-4630
▁plage	-4631
▁prier	-4632
▁privé	-4633
▁péché	-4634
▁queue	-4635
▁rayon	-4636
▁rense	-4637
▁réglé	-4638
▁révél	-4639
▁sauvé	-4640
▁scène	-4641
▁sorci	-4642
▁souti	-4643
▁sympa	-4644
▁tissu	-4645
▁utile	-4646
▁verte	-4647
▁vôtre	-4648
▁êtres	-4649
affaire	-4650
aignent	-4651
animaux	-4652
chanson	-4653
entends	-4654
imagine	-4655
intérêt	-4656
istolet	-4657
itation	-4658
journal	-4659
oignent	-4660
program	-4661
rapport	-4662
soldats	-4663
tempête	-4664
tituées	-4665
utation	-4666
écouter	-4667
▁France	-4668
▁Jamais	-4669
▁baiser	-4670
▁balles	-4671
▁belles	-4672
▁blancs	-4673
▁bouger	-4674
▁camion	-4675
▁casser	-4676
▁champs	-4677
▁chaude	-4678
▁compét	-4679
▁couche	-4680
▁couler	-4681
▁danser	-4682
▁diminu	-4683
▁dirais	-4684
▁disons	-4685
▁dormir	-4686
▁doulou	-4687
▁décomp	-4688
▁dégage	-4689
▁démons	-4690
▁dénonc	-4691
▁détect	-4692
▁encein	-4693
▁encour	-4694
▁enlevé	-4695
▁envoie	-4696
▁flotte	-4697
▁forces	-4698
▁frères	-4699
▁grandi	-4700
▁jambes	-4701
▁malgré	-4702
▁marier	-4703
▁mariés	-4704
▁matéri	-4705
▁moyens	-4706
▁nettoy	-4707
▁origin	-4708
▁ouvrir	-4709
▁pareil	-4710
▁perdue	-4711
▁poussé	-4712
▁prenne	-4713
▁promis	-4714
▁puisqu	-4715
▁pédoph	-4716
▁quitté	-4717
▁ralent	-4718
▁rebond	-4719
▁restau	-4720
▁règles	-4721
▁satisf	-4722
▁serais	-4723
▁soirée	-4724
▁supéri	-4725
▁tirent	-4726
▁vierge	-4727
▁visite	-4728
▁voisin	-4729
▁voudra	-4730
▁échang	-4731
Napoléon	-4732
attendre	-4733
aéroport	-4734
bâtiment	-4735
elleront	-4736
employés	-4737
existait	-4738
immeuble	-4739
inquiète	-4740
solution	-4741
éanmoins	-4742
▁authent	-4743
▁cheveux	-4744
▁choisir	-4745
▁compren	-4746
▁compréh	-4747
▁concert	-4748
▁convers	-4749
▁couvrir	-4750
▁cuisine	-4751
▁données	-4752
▁douleur	-4753
▁démocra	-4754
▁déteste	-4755
▁dévorer	-4756
▁ferment	-4757
▁frapper	-4758
▁fraîche	-4759
▁gravité	-4760
▁honnête	-4761
▁install	-4762
▁instant	-4763
▁laissez	-4764
▁malades	-4765
▁marient	-4766
▁moments	-4767
▁monstre	-4768
▁multipl	-4769
▁pleurer	-4770
▁poisson	-4771
▁prenait	-4772
▁proches	-4773
▁procure	-4774
▁raisons	-4775
▁retourn	-4776
▁retrait	-4777
▁risques	-4778
▁réalité	-4779
▁solaire	-4780
▁soudain	-4781
▁symbole	-4782
▁terrifi	-4783
▁vouloir	-4784
▁vérifié	-4785
anchement	-4786
attention	-4787
autorités	-4788
ordinaire	-4789
▁Beaucoup	-4790
▁Malheure	-4791
▁assassin	-4792
▁attaquer	-4793
▁bizarres	-4794
▁brillent	-4795
▁conduire	-4796
▁conserve	-4797
▁contenir	-4798
▁contents	-4799
▁convient	-4800
▁détecter	-4801
▁exploser	-4802
▁familles	-4803
▁fraîches	-4804
▁impressi	-4805
▁indépend	-4806
▁jalouses	-4807
▁machines	-4808
▁méchants	-4809
▁oreilles	-4810
▁peinture	-4811
▁poitrine	-4812
▁poursuiv	-4813
▁pouvoirs	-4814
▁pratique	-4815
▁professi	-4816
▁quartier	-4817
▁répondre	-4818
▁souffert	-4819
▁stupides	-4820
▁surprise	-4821
▁systèmes	-4822
▁tendance	-4823
▁tiennent	-4824
▁traitent	-4825
▁traversé	-4826
expérience	-4827
semblerait	-4828
terrestres	-4829
université	-4830
▁Seulement	-4831
▁américain	-4832
▁atteindra	-4833
▁capitaine	-4834
▁centaines	-4835
▁condition	-4836
▁contenait	-4837
▁dernières	-4838
▁déclenché	-4839
▁développe	-4840
▁explosera	-4841
▁lentement	-4842
▁parfaites	-4843
▁plastique	-4844
▁premières	-4845
▁programme	-4846
▁regardait	-4847
▁réfléchir	-4848
▁transport	-4849
▁véritable	-4850
appartement	-4851
attendaient	-4852
▁américains	-4853
▁clairement	-4854
▁communauté	-4855
▁découvrent	-4856
▁déterminer	-4857
▁enregistre	-4858
▁importants	-4859
▁reconnaiss	-4860
▁ressembler	-4861
▁retrouvent	-4862
▁souhaitent	-4863
▁spécifique	-4864
▁terroriste	-4865
▁transforme	-4866
▁trouvaient	-4867
▁difficultés	-4868
▁disparaîtra	-4869
▁prisonniers	-4870
▁reconnaître	-4871
▁rencontrent	-4872
▁civilisation	-4873
▁informations	-4874
▁intelligents	-4875
▁profondément	-4876
▁correspondent	-4877
▁intelligentes	-4878
▁extraordinaire	-4879
▁Malheureusement	-4880
!"	-4881
30	-4882
50	-4883
Ar	-4884
BI	-4885
IS	-4886
On	-4887
Si	-4888
bo	-4889
da	-4890
dh	-4891
ju	-4892
oe	-4893
ps	-4894
sa	-4895
so	-4896
sp	-4897
uh	-4898
zz	-4899
ût	-4900
abe	-4901
ana	-4902
ano	-4903
arm	-4904
ash	-4905
bat	-4906
bis	-4907
bli	-4908
cad	-4909
cet	-4910
chi	-4911
cis	-4912
cue	-4913
dac	-4914
doc	-4915
dét	-4916
els	-4917
euf	-4918
exc	-4919
fec	-4920
flu	-4921
gir	-4922
gyp	-4923
hol	-4924
ice	-4925
ina	-4926
ive	-4927
jol	-4928
mag	-4929
mat	-4930
nav	-4931
née	-4932
oue	-4933
pom	-4934
rad	-4935
rec	-4936
red	-4937
rel	-4938
rie	-4939
rin	-4940
rix	-4941
run	-4942
règ	-4943
réf	-4944
sac	-4945
sté	-4946
tic	-4947
tru	-4948
tte	-4949
urb	-4950
vol	-4951
âne	-4952
éfi	-4953
égl	-4954
▁90	-4955
▁Br	-4956
▁Bu	-4957
▁Is	-4958
▁Li	-4959
▁Mc	-4960
▁Mr	-4961
▁My	-4962
▁OK	-4963
▁Ok	-4964
▁Ta	-4965
▁Va	-4966
▁cm	-4967
▁ff	-4968
▁hu	-4969
▁hy	-4970
▁ly	-4971
▁ph	-4972
...<	-4973
abat	-4974
acte	-4975
agir	-4976
alax	-4977
anth	-4978
aper	-4979
asin	-4980
aume	-4981
aval	-4982
avre	-4983
ball	-4984
chat	-4985
coll	-4986
comm	-4987
cool	-4988
dera	-4989
dies	-4990
ecin	-4991
esse	-4992
grés	-4993
icon	-4994
ifié	-4995
iger	-4996
inos	-4997
jets	-4998
lant	-4999
laud	-5000
lons	-5001
meur	-5002
nels	-5003
ocal	-5004
olly	-5005
oléc	-5006
ones	-5007
oris	-5008
orée	-5009
oton	-5010
ouss	-5011
outi	-5012
ouve	-5013
peur	-5014
pris	-5015
prés	-5016
puce	-5017
quin	-5018
rase	-5019
robe	-5020
rure	-5021
ster	-5022
uifs	-5023
utes	-5024
vait	-5025
viol	-5026
wing	-5027
wood	-5028
çait	-5029
ègne	-5030
èner	-5031
écri	-5032
érém	-5033
▁400	-5034
▁ADN	-5035
▁All	-5036
▁Bar	-5037
▁Bro	-5038
▁Dav	-5039
▁Dev	-5040
▁Gen	-5041
▁Gén	-5042
▁Ind	-5043
▁Jan	-5044
▁Mex	-5045
▁Mil	-5046
▁Red	-5047
▁Rem	-5048
▁Rép	-5049
▁Ses	-5050
▁Val	-5051
▁___	-5052
▁abî	-5053
▁arr	-5054
▁bav	-5055
▁bât	-5056
▁cac	-5057
▁cat	-5058
▁coc	-5059
▁déd	-5060
▁fid	-5061
▁fri	-5062
▁féd	-5063
▁gal	-5064
▁gam	-5065
▁ger	-5066
▁hur	-5067
▁jun	-5068
▁mél	-5069
▁nid	-5070
▁pel	-5071
▁pes	-5072
▁pis	-5073
▁rad	-5074
▁red	-5075
▁sty	-5076
▁sér	-5077
▁tat	-5078
▁tun	-5079
▁tyr	-5080
▁tél	-5081
▁tôt	-5082
▁uni	-5083
▁émo	-5084
Quand	-5085
ablir	-5086
alisé	-5087
amant	-5088
améli	-5089
analy	-5090
ancée	-5091
astre	-5092
chats	-5093
const	-5094
dicat	-5095
dront	-5096
endez	-5097
habit	-5098
hiver	-5099
ieuse	-5100
ifiés	-5101
inent	-5102
inois	-5103
istor	-5104
iteur	-5105
lable	-5106
lande	-5107
leurs	-5108
minel	-5109
morce	-5110
neige	-5111
onnés	-5112
ortex	-5113
oupes	-5114
perte	-5115
quait	-5116
queue	-5117
résil	-5118
scène	-5119
ssent	-5120
teaux	-5121
terie	-5122
tible	-5123
trava	-5124
ulter	-5125
utent	-5126
vache	-5127
vités	-5128
èlent	-5129
èvent	-5130
élect	-5131
érait	-5132
▁...<	-5133
▁Alle	-5134
▁Ange	-5135
▁John	-5136
▁Lang	-5137
▁Rien	-5138
▁Rome	-5139
▁acti	-5140
▁airs	-5141
▁atom	-5142
▁bain	-5143
▁banc	-5144
▁bill	-5145
▁bomb	-5146
▁boug	-5147
▁bref	-5148
▁cach	-5149
▁café	-5150
▁cart	-5151
▁cool	-5152
▁coté	-5153
▁demi	-5154
▁exam	-5155
▁fasc	-5156
▁fric	-5157
▁fusi	-5158
▁gonf	-5159
▁gout	-5160
▁géné	-5161
▁insu	-5162
▁inut	-5163
▁isol	-5164
▁jard	-5165
▁joie	-5166
▁joué	-5167
▁mien	-5168
▁mine	-5169
▁mira	-5170
▁miss	-5171
▁moti	-5172
▁myst	-5173
▁occu	-5174
▁pain	-5175
▁pant	-5176
▁pend	-5177
▁phot	-5178
▁plat	-5179
▁pose	-5180
▁prog	-5181
▁préd	-5182
▁renf	-5183
▁ride	-5184
▁rire	-5185
▁romp	-5186
▁rues	-5187
▁saut	-5188
▁sinc	-5189
▁site	-5190
▁solu	-5191
▁somb	-5192
▁stat	-5193
▁susp	-5194
▁taux	-5195
▁traî	-5196
▁vamp	-5197
▁vidé	-5198
▁vuln	-5199
▁zéro	-5200
aident	-5201
aisses	-5202
alisme	-5203
anneau	-5204
assass	-5205
atoire	-5206
cheval	-5207
claves	-5208
dedans	-5209
enfuir	-5210
frique	-5211
iction	-5212
iences	-5213
ington	-5214
iquent	-5215
laient	-5216
marché	-5217
partie	-5218
ricité	-5219
riture	-5220
règles	-5221
sieurs	-5222
signal	-5223
ternet	-5224
tituer	-5225
vation	-5226
église	-5227
▁Aussi	-5228
▁Chine	-5229
▁Grand	-5230
▁Porte	-5231
▁Quant	-5232
▁Techn	-5233
▁Toute	-5234
▁absor	-5235
▁accue	-5236
▁accél	-5237
▁allée	-5238
▁artif	-5239
▁avion	-5240
▁censé	-5241
▁chute	-5242
▁chère	-5243
▁cible	-5244
▁coins	-5245
▁conne	-5246
▁creus	-5247
▁crâne	-5248
▁cérém	-5249
▁danse	-5250
▁devra	-5251
▁discu	-5252
▁doigt	-5253
▁démol	-5254
▁dépas	-5255
▁dîner	-5256
▁effec	-5257
▁ennuy	-5258
▁exter	-5259
▁frais	-5260
▁fuite	-5261
▁guide	-5262
▁héros	-5263
▁immor	-5264
▁imper	-5265
▁infin	-5266
▁infos	-5267
▁jaune	-5268
▁liste	-5269
▁lycée	-5270
▁maris	-5271
▁maxim	-5272
▁merde	-5273
▁mondi	-5274
▁navig	-5275
▁neige	-5276
▁neuve	-5277
▁odeur	-5278
▁perds	-5279
▁pires	-5280
▁poser	-5281
▁prise	-5282
▁quest	-5283
▁radio	-5284
▁remer	-5285
▁resté	-5286
▁récol	-5287
▁récup	-5288
▁régul	-5289
▁sable	-5290
▁sales	-5291
▁serez	-5292
▁serre	-5293
▁simul	-5294
▁stock	-5295
▁sucre	-5296
▁synth	-5297
▁systé	-5298
▁sèche	-5299
▁terme	-5300
▁tremp	-5301
▁vague	-5302
▁vente	-5303
▁vides	-5304
▁virus	-5305
▁voici	-5306
▁volée	-5307
▁vrais	-5308
▁énerg	-5309
▁étonn	-5310
▁évolu	-5311
adresse	-5312
agement	-5313
arrière	-5314
attaque	-5315
attends	-5316
aujourd	-5317
ception	-5318
chaient	-5319
douleur	-5320
empêche	-5321
enlever	-5322
envoyer	-5323
garçons	-5324
ictions	-5325
instant	-5326
ituelle	-5327
manente	-5328
mission	-5329
onnelle	-5330
ouillée	-5331
personn	-5332
plantes	-5333
quences	-5334
restait	-5335
rochent	-5336
serpent	-5337
session	-5338
uyaient	-5339
vitable	-5340
émotion	-5341
érature	-5342
▁Pourvu	-5343
▁Quelle	-5344
▁Tandis	-5345
▁Voyons	-5346
▁arbres	-5347
▁assure	-5348
▁aurons	-5349
▁avions	-5350
▁baisse	-5351
▁bijoux	-5352
▁bloque	-5353
▁cachés	-5354
▁cancer	-5355
▁cartes	-5356
▁centra	-5357
▁chasse	-5358
▁chaîne	-5359
▁claire	-5360
▁classe	-5361
▁coincé	-5362
▁conser	-5363
▁consum	-5364
▁courir	-5365
▁course	-5366
▁créati	-5367
▁créent	-5368
▁degrés	-5369
▁destin	-5370
▁drogue	-5371
▁défend	-5372
▁déroul	-5373
▁détour	-5374
▁endomm	-5375
▁enferm	-5376
▁entrée	-5377
▁entrés	-5378
▁envers	-5379
▁fanent	-5380
▁fantas	-5381
▁fausse	-5382
▁ferais	-5383
▁fermer	-5384
▁garçon	-5385
▁glissé	-5386
▁guider	-5387
▁images	-5388
▁inconn	-5389
▁lignes	-5390
▁malade	-5391
▁mienne	-5392
▁minuit	-5393
▁minute	-5394
▁modèle	-5395
▁moteur	-5396
▁mènera	-5397
▁neuves	-5398
▁néglig	-5399
▁oiseau	-5400
▁ordonn	-5401
▁parois	-5402
▁passés	-5403
▁placée	-5404
▁plante	-5405
▁poudre	-5406
▁procès	-5407
▁proies	-5408
▁promet	-5409
▁prouve	-5410
▁prévoy	-5411
▁psycho	-5412
▁recons	-5413
▁regret	-5414
▁reprod	-5415
▁restes	-5416
▁retire	-5417
▁rythme	-5418
▁région	-5419
▁régler	-5420
▁répète	-5421
▁réseau	-5422
▁résolu	-5423
▁rêvent	-5424
▁scient	-5425
▁soeurs	-5426
▁studio	-5427
▁succès	-5428
▁tandis	-5429
▁tenait	-5430
▁traité	-5431
▁transp	-5432
▁vaincu	-5433
▁valait	-5434
▁verres	-5435
▁volent	-5436
▁éclair	-5437
▁équipe	-5438
activité	-5439
audience	-5440
chansons	-5441
décision	-5442
empêcher	-5443
entrepôt	-5444
ications	-5445
imaginer	-5446
issantes	-5447
méthodes	-5448
occupent	-5449
relation	-5450
sociétés	-5451
tructure	-5452
utiliser	-5453
visibles	-5454
viétique	-5455
économie	-5456
équences	-5457
▁Attends	-5458
▁Honneur	-5459
▁Laissez	-5460
▁Puisque	-5461
▁acheter	-5462
▁aliment	-5463
▁apparue	-5464
▁applaud	-5465
▁apporté	-5466
▁bateaux	-5467
▁besoins	-5468
▁carbone	-5469
▁cassent	-5470
▁cherché	-5471
▁concent	-5472
▁coulait	-5473
▁courage	-5474
▁couteau	-5475
▁devriez	-5476
▁diamant	-5477
▁donnait	-5478
▁dorment	-5479
▁déchire	-5480
▁déclaré	-5481
▁déplace	-5482
▁enlever	-5483
▁enterre	-5484
▁envahir	-5485
▁estomac	-5486
▁extrême	-5487
▁fantôme	-5488
▁graines	-5489
▁grandit	-5490
▁géniale	-5491
▁immense	-5492
▁libérer	-5493
▁liquide	-5494
▁légende	-5495
▁maisons	-5496
▁maîtres	-5497
▁mission	-5498
▁morceau	-5499
▁papiers	-5500
▁parlait	-5501
▁passées	-5502
▁patient	-5503
▁pensait	-5504
▁pensées	-5505
▁perdent	-5506
▁persuad	-5507
▁pleines	-5508
▁prenant	-5509
▁préfère	-5510
▁pénètre	-5511
▁refaire	-5512
▁remarqu	-5513
▁renseig	-5514
▁restées	-5515
▁risquer	-5516
▁réponse	-5517
▁réussir	-5518
▁seconde	-5519
▁secrets	-5520
▁servira	-5521
▁soldats	-5522
▁stopper	-5523
▁support	-5524
▁survécu	-5525
▁séparés	-5526
▁terrain	-5527
▁théorie	-5528
▁tombera	-5529
▁tremble	-5530
▁tristes	-5531
▁trouves	-5532
▁vendent	-5533
▁village	-5534
▁voulons	-5535
▁élément	-5536
▁énergie	-5537
appellent	-5538
explosion	-5539
obscurité	-5540
partement	-5541
policiers	-5542
programme	-5543
vêtements	-5544
▁accroché	-5545
▁apporter	-5546
▁approche	-5547
▁appropri	-5548
▁blanches	-5549
▁circonst	-5550
▁collines	-5551
▁complexe	-5552
▁confront	-5553
▁contente	-5554
▁contribu	-5555
▁couchent	-5556
▁criminel	-5557
▁créature	-5558
▁célèbres	-5559
▁devenues	-5560
▁distance	-5561
▁découvre	-5562
▁découvri	-5563
▁désastre	-5564
▁détruira	-5565
▁embarras	-5566
▁engendre	-5567
▁envoient	-5568
▁espérant	-5569
▁fatigués	-5570
▁fenêtres	-5571
▁français	-5572
▁fréquent	-5573
▁habitent	-5574
▁honnêtes	-5575
▁interdit	-5576
▁intérêts	-5577
▁marchent	-5578
▁montrent	-5579
▁normales	-5580
▁occupées	-5581
▁partager	-5582
▁principe	-5583
▁précieux	-5584
▁respirer	-5585
▁retrouvé	-5586
▁risquent	-5587
▁réaliser	-5588
▁réponses	-5589
▁secondes	-5590
▁souhaite	-5591
▁suivante	-5592
▁tourment	-5593
▁vampires	-5594
▁violents	-5595
Angleterre	-5596
▁Cependant	-5597
▁autrefois	-5598
▁bouteille	-5599
▁cependant	-5600
▁chimiques	-5601
▁commandes	-5602
▁complexes	-5603
▁couvertes	-5604
▁craignent	-5605
▁davantage	-5606
▁descendre	-5607
▁défendent	-5608
▁fabriquer	-5609
▁frontière	-5610
▁gentilles	-5611
▁invisible	-5612
▁maintenir	-5613
▁mensonges	-5614
▁montagnes	-5615
▁naissance	-5616
▁officiers	-5617
▁parlaient	-5618
▁permettra	-5619
▁personnel	-5620
▁politique	-5621
▁portaient	-5622
▁possèdent	-5623
▁potentiel	-5624
▁prenaient	-5625
▁président	-5626
▁puissante	-5627
▁recommand	-5628
▁remplacer	-5629
▁resteront	-5630
▁retourner	-5631
▁retrouvée	-5632
▁satellite	-5633
▁scientifi	-5634
▁souffrent	-5635
▁spectacle	-5636
▁transform	-5637
▁travaille	-5638
▁étrangers	-5639
eureusement	-5640
intéressent	-5641
▁aimeraient	-5642
▁américaine	-5643
▁continuait	-5644
▁contrôlent	-5645
▁descendent	-5646
▁différente	-5647
▁empreintes	-5648
▁expérience	-5649
▁malheureux	-5650
▁ordinaires	-5651
▁poursuivre	-5652
▁ressentent	-5653
▁réellement	-5654
▁réputation	-5655
▁semblaient	-5656
▁sentiments	-5657
▁signifiait	-5658
▁électrique	-5659
▁attendaient	-5660
▁dangereuses	-5661
▁immunitaire	-5662
▁refroidisse	-5663
▁remplissent	-5664
▁responsable	-5665
▁ressemblait	-5666
▁tranquilles	-5667
▁conséquences	-5668
▁propriétaire	-5669
▁spécialement	-5670
▁suffisamment	-5671
▁sérieusement	-5672
▁disparaissent	-5673
▁environnement	-5674
▁travaillaient	-5675
▁malheureusement	-5676
1.	-5677
19	-5678
29	-5679
45	-5680
>>	-5681
AR	-5682
Ch	-5683
EN	-5684
Et	-5685
II	-5686
Ma	-5687
af	-5688
br	-5689
eb	-5690
ee	-5691
ga	-5692
ht	-5693
ki	-5694
ks	-5695
ms	-5696
ov	-5697
pa	-5698
sg	-5699
ug	-5700
xe	-5701
ât	-5702
çà	-5703
éb	-5704
▁q	-5705
2,2	-5706
Ira	-5707
Vos	-5708
ail	-5709
ald	-5710
alé	-5711
ami	-5712
amm	-5713
ara	-5714
bal	-5715
bec	-5716
bus	-5717
caf	-5718
cap	-5719
cie	-5720
cos	-5721
cts	-5722
dat	-5723
dem	-5724
dos	-5725
dox	-5726
dro	-5727
dés	-5728
fen	-5729
fil	-5730
gon	-5731
gri	-5732
ham	-5733
hée	-5734
hém	-5735
idn	-5736
igz	-5737
inn	-5738
ino	-5739
ita	-5740
ito	-5741
ker	-5742
lap	-5743
lir	-5744
lob	-5745
log	-5746
lor	-5747
loy	-5748
lys	-5749
lée	-5750
lég	-5751
mir	-5752
mot	-5753
mur	-5754
ney	-5755
nie	-5756
nob	-5757
ott	-5758
plé	-5759
rim	-5760
rob	-5761
rum	-5762
rég	-5763
sie	-5764
ugi	-5765
uns	-5766
urr	-5767
urs	-5768
van	-5769
vid	-5770
véh	-5771
way	-5772
xte	-5773
yon	-5774
çus	-5775
êne	-5776
œil	-5777
▁Ac	-5778
▁Ad	-5779
▁Cl	-5780
▁Do	-5781
▁Em	-5782
▁Hé	-5783
▁II	-5784
▁Ie	-5785
▁Me	-5786
▁Mo	-5787
▁Ni	-5788
▁No	-5789
▁Ob	-5790
▁cu	-5791
▁né	-5792
▁oû	-5793
▁tâ	-5794
▁çà	-5795
▁œu	-5796
"...	-5797
..."	-5798
Irak	-5799
Tout	-5800
abol	-5801
abri	-5802
adie	-5803
agen	-5804
agée	-5805
aibl	-5806
ajor	-5807
alib	-5808
alie	-5809
alla	-5810
ames	-5811
ancs	-5812
arch	-5813
ario	-5814
arra	-5815
arre	-5816
ater	-5817
atom	-5818
auph	-5819
aure	-5820
auto	-5821
comb	-5822
crit	-5823
cuit	-5824
cule	-5825
delà	-5826
enus	-5827
etre	-5828
evin	-5829
exam	-5830
fant	-5831
flam	-5832
grès	-5833
iche	-5834
ifor	-5835
inch	-5836
inde	-5837
ings	-5838
ingt	-5839
insp	-5840
irme	-5841
isez	-5842
isti	-5843
itoy	-5844
ives	-5845
king	-5846
lien	-5847
lieu	-5848
llet	-5849
lune	-5850
lure	-5851
mets	-5852
mire	-5853
mpos	-5854
oeil	-5855
oiff	-5856
oint	-5857
omph	-5858
ouch	-5859
oure	-5860
oyen	-5861
plus	-5862
poul	-5863
quet	-5864
rain	-5865
rice	-5866
ride	-5867
rira	-5868
sant	-5869
site	-5870
sort	-5871
sœur	-5872
tate	-5873
tous	-5874
trou	-5875
tuer	-5876
tume	-5877
ulte	-5878
ulté	-5879
vais	-5880
vidu	-5881
vidé	-5882
voir	-5883
èler	-5884
èves	-5885
èvre	-5886
écra	-5887
émis	-5888
érif	-5889
érus	-5890
êtir	-5891
▁Cal	-5892
▁Cap	-5893
▁Che	-5894
▁Col	-5895
▁Cor	-5896
▁Dem	-5897
▁Dom	-5898
▁Euh	-5899
▁Féd	-5900
▁Gra	-5901
▁Har	-5902
▁Jon	-5903
▁Mic	-5904
▁Ray	-5905
▁Sal	-5906
▁Sam	-5907
▁Sil	-5908
▁Sui	-5909
▁Tom	-5910
▁Tra	-5911
▁__<	-5912
▁aid	-5913
▁amb	-5914
▁amp	-5915
▁bad	-5916
▁blo	-5917
▁bol	-5918
▁cav	-5919
▁cue	-5920
▁cui	-5921
▁don	-5922
▁eau	-5923
▁fau	-5924
▁fol	-5925
▁fur	-5926
▁fût	-5927
▁gay	-5928
▁has	-5929
▁hyp	-5930
▁iné	-5931
▁lis	-5932
▁lou	-5933
▁loy	-5934
▁mac	-5935
▁obs	-5936
▁out	-5937
▁pot	-5938
▁rit	-5939
▁roi	-5940
▁ros	-5941
▁réd	-5942
▁sab	-5943
▁sel	-5944
▁sho	-5945
▁sir	-5946
▁spl	-5947
▁sén	-5948
▁sév	-5949
▁tor	-5950
▁tuy	-5951
▁vex	-5952
▁vus	-5953
▁équ	-5954
192,2	-5955
adore	-5956
ageux	-5957
agues	-5958
allée	-5959
alons	-5960
ancis	-5961
andez	-5962
anson	-5963
arter	-5964
asses	-5965
athan	-5966
ative	-5967
attra	-5968
avion	-5969
avons	-5970
bande	-5971
brale	-5972
carte	-5973
cheur	-5974
cible	-5975
démon	-5976
emmen	-5977
encer	-5978
encre	-5979
endor	-5980
ennis	-5981
envir	-5982
estes	-5983
estig	-5984
estre	-5985
euvre	-5986
faire	-5987
fille	-5988
gique	-5989
gnité	-5990
graph	-5991
grave	-5992
gypte	-5993
halla	-5994
hisky	-5995
hérit	-5996
icier	-5997
idité	-5998
ierté	-5999
igner	-6000
ilier	-6001
image	-6002
incar	-6003
inier	-6004
irait	-6005
itent	-6006
itive	-6007
lions	-6008
livre	-6009
llite	-6010
lueur	-6011
marin	-6012
médic	-6013
ocats	-6014
oglob	-6015
oncez	-6016
ondre	-6017
onnez	-6018
oppos	-6019
orait	-6020
ortho	-6021
ouage	-6022
ouddh	-6023
ouvez	-6024
oxyde	-6025
perme	-6026
piste	-6027
place	-6028
pluie	-6029
quels	-6030
quins	-6031
quête	-6032
roger	-6033
royez	-6034
seaux	-6035
souff	-6036
terre	-6037
ugiés	-6038
uites	-6039
uster	-6040
ustri	-6041
verre	-6042
versé	-6043
vette	-6044
âteau	-6045
écart	-6046
écomm	-6047
▁Conc	-6048
▁Conn	-6049
▁Mons	-6050
▁Mère	-6051
▁Norm	-6052
▁Prem	-6053
▁Soit	-6054
▁Souv	-6055
▁Vont	-6056
▁abri	-6057
▁ache	-6058
▁aimé	-6059
▁ajou	-6060
▁amus	-6061
▁aveu	-6062
▁bass	-6063
▁boit	-6064
▁bous	-6065
▁bran	-6066
▁card	-6067
▁choc	-6068
▁clar	-6069
▁clav	-6070
▁couv	-6071
▁croî	-6072
▁céré	-6073
▁date	-6074
▁domm	-6075
▁dort	-6076
▁déta	-6077
▁dévi	-6078
▁enra	-6079
▁fans	-6080
▁fert	-6081
▁filé	-6082
▁flui	-6083
▁frot	-6084
▁fuir	-6085
▁gras	-6086
▁gueu	-6087
▁gèle	-6088
▁hall	-6089
▁hein	-6090
▁huit	-6091
▁intr	-6092
▁jeux	-6093
▁jury	-6094
▁juré	-6095
▁kidn	-6096
▁lavé	-6097
▁lits	-6098
▁loup	-6099
▁maig	-6100
▁mass	-6101
▁mecs	-6102
▁miel	-6103
▁monn	-6104
▁méth	-6105
▁obsc	-6106
▁paie	-6107
▁prie	-6108
▁prol	-6109
▁péch	-6110
▁pétr	-6111
▁raté	-6112
▁remb	-6113
▁robe	-6114
▁rond	-6115
▁réal	-6116
▁réel	-6117
▁régn	-6118
▁révé	-6119
▁sain	-6120
▁sanc	-6121
▁sein	-6122
▁situ	-6123
▁snob	-6124
▁soph	-6125
▁sors	-6126
▁soul	-6127
▁subt	-6128
▁sûrs	-6129
▁sœur	-6130
▁tape	-6131
▁taxi	-6132
▁toil	-6133
▁tord	-6134
▁trau	-6135
▁tuée	-6136
▁vari	-6137
▁vaud	-6138
▁vict	-6139
▁vote	-6140
▁âgés	-6141
▁élég	-6142
▁épau	-6143
Europe	-6144
Italie	-6145
adorer	-6146
agence	-6147
aimais	-6148
aisser	-6149
alcool	-6150
aliens	-6151
alisée	-6152
amuser	-6153
ancien	-6154
assées	-6155
atrice	-6156
aution	-6157
banque	-6158
boîtes	-6159
caméra	-6160
chiens	-6161
coutez	-6162
drogue	-6163
effond	-6164
ements	-6165
ernant	-6166
esseur	-6167
ession	-6168
eugles	-6169
fleurs	-6170
former	-6171
frères	-6172
idable	-6173
ieront	-6174
ignait	-6175
inscri	-6176
istent	-6177
istère	-6178
itudes	-6179
langue	-6180
lignes	-6181
lément	-6182
membre	-6183
numéro	-6184
ompagn	-6185
onnera	-6186
opport	-6187
optère	-6188
ormais	-6189
ouillé	-6190
pièces	-6191
plique	-6192
police	-6193
portes	-6194
poupée	-6195
projet	-6196
raires	-6197
resque	-6198
reuves	-6199
rières	-6200
soeurs	-6201
taches	-6202
unique	-6203
urgers	-6204
ussure	-6205
vaches	-6206
veille	-6207
vitent	-6208
épanou	-6209
érique	-6210
éteint	-6211
▁Bajor	-6212
▁Garde	-6213
▁Impos	-6214
▁Japon	-6215
▁Leurs	-6216
▁Paris	-6217
▁Pense	-6218
▁Peter	-6219
▁_____	-6220
▁accès	-6221
▁admet	-6222
▁ailes	-6223
▁amené	-6224
▁analy	-6225
▁armés	-6226
▁attir	-6227
▁audac	-6228
▁brise	-6229
▁bébés	-6230
▁chaos	-6231
▁chass	-6232
▁chers	-6233
▁cland	-6234
▁corre	-6235
▁croch	-6236
▁cruci	-6237
▁crème	-6238
▁créée	-6239
▁céléb	-6240
▁cœurs	-6241
▁divis	-6242
▁dress	-6243
▁décri	-6244
▁embar	-6245
▁enfil	-6246
▁entré	-6247
▁etait	-6248
▁fiche	-6249
▁fichu	-6250
▁fourn	-6251
▁fusée	-6252
▁futur	-6253
▁gants	-6254
▁gorge	-6255
▁goûté	-6256
▁géant	-6257
▁génie	-6258
▁impec	-6259
▁incap	-6260
▁influ	-6261
▁injus	-6262
▁jambe	-6263
▁joues	-6264
▁laide	-6265
▁large	-6266
▁lente	-6267
▁maire	-6268
▁manœu	-6269
▁massi	-6270
▁match	-6271
▁meurs	-6272
▁mince	-6273
▁nager	-6274
▁oubli	-6275
▁pause	-6276
▁photo	-6277
▁poche	-6278
▁pollu	-6279
▁poste	-6280
▁prote	-6281
▁préci	-6282
▁pénis	-6283
▁pénét	-6284
▁quels	-6285
▁recra	-6286
▁règne	-6287
▁réagi	-6288
▁résol	-6289
▁rêves	-6290
▁sages	-6291
▁saign	-6292
▁salon	-6293
▁salop	-6294
▁sauté	-6295
▁sauve	-6296
▁scell	-6297
▁signé	-6298
▁somme	-6299
▁soyez	-6300
▁stade	-6301
▁stres	-6302
▁sucer	-6303
▁taire	-6304
▁testé	-6305
▁tirée	-6306
▁touch	-6307
▁tracé	-6308
▁usées	-6309
▁vache	-6310
▁vendu	-6311
▁viend	-6312
▁zones	-6313
▁élevé	-6314
▁établ	-6315
Afrique	-6316
abeille	-6317
accepte	-6318
actérie	-6319
aissait	-6320
aliment	-6321
arrivée	-6322
article	-6323
aîtront	-6324
banques	-6325
chambre	-6326
demment	-6327
essence	-6328
geaient	-6329
hôpital	-6330
iconque	-6331
ination	-6332
inspect	-6333
interpr	-6334
itoyens	-6335
lettres	-6336
menaces	-6337
monstre	-6338
morceau	-6339
navette	-6340
olument	-6341
opinion	-6342
othèque	-6343
oublier	-6344
oxygène	-6345
parties	-6346
pierres	-6347
planète	-6348
poisson	-6349
queront	-6350
rivière	-6351
ruption	-6352
tableau	-6353
tenaire	-6354
théorie	-6355
trement	-6356
uleuses	-6357
vampire	-6358
xualité	-6359
érément	-6360
▁Aucune	-6361
▁Brésil	-6362
▁Croyez	-6363
▁Disons	-6364
▁Madame	-6365
▁Prends	-6366
▁Puisqu	-6367
▁achète	-6368
▁anéant	-6369
▁attent	-6370
▁barbec	-6371
▁battus	-6372
▁bouché	-6373
▁bouton	-6374
▁briser	-6375
▁brèche	-6376
▁cadeau	-6377
▁causer	-6378
▁cercue	-6379
▁collec	-6380
▁confié	-6381
▁consom	-6382
▁courte	-6383
▁crache	-6384
▁crains	-6385
▁croise	-6386
▁debout	-6387
▁dessin	-6388
▁dingue	-6389
▁disque	-6390
▁divorc	-6391
▁doigts	-6392
▁double	-6393
▁débord	-6394
▁déchir	-6395
▁défaut	-6396
▁défonc	-6397
▁délici	-6398
▁déplac	-6399
▁désert	-6400
▁désolé	-6401
▁dévoil	-6402
▁emploi	-6403
▁emport	-6404
▁endorm	-6405
▁engend	-6406
▁espoir	-6407
▁essaye	-6408
▁faveur	-6409
▁façons	-6410
▁fierté	-6411
▁firent	-6412
▁fruits	-6413
▁furent	-6414
▁garage	-6415
▁gentil	-6416
▁glisse	-6417
▁guérit	-6418
▁génial	-6419
▁habits	-6420
▁hasard	-6421
▁histor	-6422
▁infect	-6423
▁inféri	-6424
▁intens	-6425
▁intent	-6426
▁jouait	-6427
▁jungle	-6428
▁lancer	-6429
▁larmes	-6430
▁lavage	-6431
▁libéré	-6432
▁masque	-6433
▁modifi	-6434
▁mordre	-6435
▁morgue	-6436
▁normal	-6437
▁nouvel	-6438
▁nuages	-6439
▁nôtres	-6440
▁objets	-6441
▁offrir	-6442
▁orange	-6443
▁palais	-6444
▁parfum	-6445
▁parles	-6446
▁parlez	-6447
▁pertin	-6448
▁pièces	-6449
▁pleins	-6450
▁portée	-6451
▁posent	-6452
▁posséd	-6453
▁prenez	-6454
▁procéd	-6455
▁racine	-6456
▁rangée	-6457
▁refuge	-6458
▁relais	-6459
▁remède	-6460
▁renonc	-6461
▁repose	-6462
▁repéré	-6463
▁restée	-6464
▁restés	-6465
▁retiré	-6466
▁retomb	-6467
▁rideau	-6468
▁risqué	-6469
▁rouler	-6470
▁réconf	-6471
▁réserv	-6472
▁saison	-6473
▁second	-6474
▁semblé	-6475
▁soldat	-6476
▁sortes	-6477
▁sortis	-6478
▁sperme	-6479
▁survie	-6480
▁symbol	-6481
▁systém	-6482
▁sèches	-6483
▁séduis	-6484
▁tenter	-6485
▁tester	-6486
▁tissus	-6487
▁tonnes	-6488
▁totale	-6489
▁tracer	-6490
▁trahis	-6491
▁traite	-6492
▁triplé	-6493
▁vapeur	-6494
▁ventre	-6495
▁verras	-6496
▁vertes	-6497
▁viande	-6498
▁vienne	-6499
▁vivait	-6500
▁voyait	-6501
▁éteint	-6502
▁étions	-6503
affaires	-6504
ailleurs	-6505
allaient	-6506
apparten	-6507
arrivera	-6508
arrêtera	-6509
blessure	-6510
ceinture	-6511
exploser	-6512
istaient	-6513
olécules	-6514
portable	-6515
tivement	-6516
vaisseau	-6517
véhicule	-6518
échapper	-6519
émission	-6520
équipage	-6521
▁Charlie	-6522
▁Essayer	-6523
▁Imagine	-6524
▁Peuvent	-6525
▁Surtout	-6526
▁abrités	-6527
▁agressi	-6528
▁aillent	-6529
▁anciens	-6530
▁apporte	-6531
▁attendu	-6532
▁baisent	-6533
▁banques	-6534
▁bavards	-6535
▁cadavre	-6536
▁chacune	-6537
▁chinois	-6538
▁chirurg	-6539
▁coincée	-6540
▁compagn	-6541
▁composé	-6542
▁concurr	-6543
▁conduit	-6544
▁constat	-6545
▁coucher	-6546
▁courent	-6547
▁croyait	-6548
▁dansent	-6549
▁dessins	-6550
▁dessous	-6551
▁destiné	-6552
▁dignité	-6553
▁donnera	-6554
▁décider	-6555
▁démarre	-6556
▁efforts	-6557
▁ennemis	-6558
▁entrera	-6559
▁esprits	-6560
▁essenti	-6561
▁faisais	-6562
▁fichier	-6563
▁financi	-6564
▁flotter	-6565
▁gardien	-6566
▁glandes	-6567
▁générer	-6568
▁ignorer	-6569
▁inverse	-6570
▁justifi	-6571
▁logique	-6572
▁magasin	-6573
▁manquer	-6574
▁maquill	-6575
▁mineurs	-6576
▁moquent	-6577
▁moteurs	-6578
▁mystère	-6579
▁médecin	-6580
▁nourris	-6581
▁obtient	-6582
▁opinion	-6583
▁ouverts	-6584
▁ouvrent	-6585
▁parlera	-6586
▁passage	-6587
▁paysans	-6588
▁perturb	-6589
▁portant	-6590
▁possède	-6591
▁pourrai	-6592
▁pourrez	-6593
▁princip	-6594
▁propage	-6595
▁prêtres	-6596
▁pétales	-6597
▁raconté	-6598
▁reconnu	-6599
▁réappar	-6600
▁réincar	-6601
▁répondu	-6602
▁réserve	-6603
▁résiste	-6604
▁résisté	-6605
▁sauriez	-6606
▁science	-6607
▁secteur	-6608
▁sentait	-6609
▁sexuels	-6610
▁silence	-6611
▁simples	-6612
▁soigner	-6613
▁sortira	-6614
▁spécial	-6615
▁station	-6616
▁suggère	-6617
▁sérieux	-6618
▁termine	-6619
▁terminé	-6620
▁traiter	-6621
▁triomph	-6622
▁tromper	-6623
▁trouvés	-6624
▁univers	-6625
▁utilise	-6626
▁utilisé	-6627
▁voyager	-6628
▁échappé	-6629
▁éclaire	-6630
▁écoutez	-6631
affection	-6632
attaquent	-6633
attendent	-6634
compagnie	-6635
endorment	-6636
ification	-6637
intention	-6638
terrestre	-6639
étrangers	-6640
étudiants	-6641
▁Attendez	-6642
▁Demandez	-6643
▁Dominion	-6644
▁Japonais	-6645
▁Monsieur	-6646
▁Valhalla	-6647
▁aimaient	-6648
▁allemand	-6649
▁apparaît	-6650
▁aspirent	-6651
▁assiette	-6652
▁attraper	-6653
▁bataille	-6654
▁chassent	-6655
▁chimique	-6656
▁colonies	-6657
▁commande	-6658
▁commandé	-6659
▁commerci	-6660
▁comptait	-6661
▁conduite	-6662
▁continué	-6663
▁coordonn	-6664
▁couleurs	-6665
▁couronne	-6666
▁diraient	-6667
▁discours	-6668
▁discuter	-6669
▁durerait	-6670
▁décident	-6671
▁décision	-6672
▁détruise	-6673
▁envelopp	-6674
▁explique	-6675
▁exprimer	-6676
▁faillite	-6677
▁gentille	-6678
▁générale	-6679
▁humaines	-6680
▁individu	-6681
▁indétect	-6682
▁intercep	-6683
▁internet	-6684
▁invasion	-6685
▁journaux	-6686
▁laissant	-6687
▁marchait	-6688
▁menacent	-6689
▁mettront	-6690
▁montrera	-6691
▁méritait	-6692
▁pantalon	-6693
▁parvenir	-6694
▁pensions	-6695
▁pistolet	-6696
▁portable	-6697
▁position	-6698
▁premiers	-6699
▁pression	-6700
▁quittent	-6701
▁recevoir	-6702
▁regardez	-6703
▁relation	-6704
▁remarque	-6705
▁remonter	-6706
▁rendront	-6707
▁renvoyer	-6708
▁ressorti	-6709
▁retraite	-6710
▁retrouve	-6711
▁richesse	-6712
▁répandre	-6713
▁services	-6714
▁solitude	-6715
▁sophisti	-6716
▁superbes	-6717
▁syndicat	-6718
▁terminée	-6719
▁touchent	-6720
▁tragédie	-6721
▁traverse	-6722
▁trouvera	-6723
▁tyrannie	-6724
▁vendredi	-6725
▁violence	-6726
▁voyaient	-6727
▁électron	-6728
▁évidente	-6729
accusation	-6730
apprennent	-6731
entreprise	-6732
importance	-6733
médicament	-6734
élicoptère	-6735
▁Néanmoins	-6736
▁apportera	-6737
▁apprécier	-6738
▁assassiné	-6739
▁attendant	-6740
▁combattre	-6741
▁considéré	-6742
▁créatures	-6743
▁cérémonie	-6744
▁disparues	-6745
▁doucement	-6746
▁entraîner	-6747
▁essentiel	-6748
▁existence	-6749
▁explosion	-6750
▁fondament	-6751
▁foutaient	-6752
▁histoires	-6753
▁identique	-6754
▁poussière	-6755
▁psycholog	-6756
▁questions	-6757
▁quiconque	-6758
▁regardais	-6759
▁remettent	-6760
▁renforcer	-6761
▁récompens	-6762
▁satisfait	-6763
▁sortaient	-6764
▁survivent	-6765
▁travaillé	-6766
▁vaisseaux	-6767
▁verrouill	-6768
▁viendrait	-6769
entreprises	-6770
imagination	-6771
information	-6772
personnages	-6773
technologie	-6774
électricité	-6775
▁Impossible	-6776
▁absolument	-6777
▁chantaient	-6778
▁conduisent	-6779
▁continuera	-6780
▁disponible	-6781
▁découverte	-6782
▁démocratie	-6783
▁développer	-6784
▁enregistré	-6785
▁fonctionné	-6786
▁génération	-6787
▁identiques	-6788
▁ignoraient	-6789
▁impliquant	-6790
▁importance	-6791
▁inévitable	-6792
▁laisseront	-6793
▁mourraient	-6794
▁mouvements	-6795
▁obtiennent	-6796
▁permanente	-6797
▁permettant	-6798
▁possession	-6799
▁programmer	-6800
▁protection	-6801
▁présentent	-6802
▁résistance	-6803
▁soviétique	-6804
▁survivants	-6805
▁transformé	-6806
▁traversent	-6807
▁télévision	-6808
▁Apparemment	-6809
▁authentique	-6810
▁disparaisse	-6811
▁disparition	-6812
▁département	-6813
▁entendaient	-6814
▁entièrement	-6815
▁extrêmement	-6816
▁fantastique	-6817
▁franchement	-6818
▁grandissent	-6819
▁importantes	-6820
▁information	-6821
▁monographie	-6822
▁particulier	-6823
▁professionn	-6824
▁proviennent	-6825
▁quelquefois	-6826
▁recommencer	-6827
▁regardaient	-6828
▁remarquable	-6829
▁reviendrait	-6830
▁reviendront	-6831
▁sincèrement	-6832
▁spirituelle	-6833
▁technologie	-6834
▁température	-6835
▁Heureusement	-6836
▁comportement	-6837
▁fonctionnait	-6838
▁fonctionnent	-6839
▁généralement	-6840
▁maintiennent	-6841
▁malheureuses	-6842
▁particulière	-6843
▁personnalité	-6844
▁représentent	-6845
▁responsables	-6846
▁retourneront	-6847
▁risqueraient	-6848
▁satisfaction	-6849
▁Techniquement	-6850
▁circonstances	-6851
▁compréhension	-6852
▁techniquement	-6853
▁renseignements	-6854
▁automatiquement	-6855
.,	-6856
15	-6857
>?	-6858
Am	-6859
Hé	-6860
ck	-6861
dr	-6862
fe	-6863
he	-6864
ês	-6865
▁ô	-6866
,..	-6867
Ara	-6868
HFF	-6869
Sur	-6870
als	-6871
anh	-6872
bou	-6873
cia	-6874
cro	-6875
cut	-6876
dge	-6877
enl	-6878
eud	-6879
flé	-6880
gae	-6881
gin	-6882
gum	-6883
idé	-6884
iga	-6885
isc	-6886
ize	-6887
jah	-6888
ket	-6889
key	-6890
nel	-6891
nez	-6892
nte	-6893
ody	-6894
oté	-6895
pte	-6896
ryp	-6897
sou	-6898
suc	-6899
cô	-6900
hu	-6901
vo	-6902
idi	-6903
neu	-6904
rut	-6905
sus	-6906
ubl	-6907
udg	-6908
vah	-6909
voy	-6910
vér	-6911
zig	-6912
zza	-6913
âts	-6914
ône	-6915
▁!"	-6916
▁00	-6917
▁22	-6918
▁25	-6919
▁45	-6920
▁Ag	-6921
▁Ed	-6922
▁Ge	-6923
▁Gi	-6924
▁Gu	-6925
▁Kn	-6926
▁Or	-6927
▁_<	-6928
▁ap	-6929
▁gé	-6930
▁hi	-6931
▁hé	-6932
▁om	-6933
▁py	-6934
▁ro	-6935
.000	-6936
Inde	-6937
Pour	-6938
adap	-6939
ades	-6940
adis	-6941
affe	-6942
aies	-6943
alog	-6944
ands	-6945
ardé	-6946
arez	-6947
arma	-6948
aube	-6949
audi	-6950
cHFF	-6951
cass	-6952
cier	-6953
cipl	-6954
cité	-6955
cong	-6956
croy	-6957
cure	-6958
dict	-6959
ding	-6960
déqu	-6961
enue	-6962
erez	-6963
erts	-6964
ferm	-6965
gren	-6966
guer	-6967
hode	-6968
ibre	-6969
icip	-6970
ifie	-6971
iges	-6972
illi	-6973
immy	-6974
intr	-6975
inés	-6976
itre	-6977
itue	-6978
kist	-6979
lame	-6980
lets	-6981
lées	-6982
mage	-6983
mble	-6984
mené	-6985
moul	-6986
obby	-6987
odie	-6988
olis	-6989
ossé	-6990
oter	-6991
otée	-6992
pass	-6993
pied	-6994
pros	-6995
prês	-6996
ries	-6997
rime	-6998
rimé	-6999
Que	-7000
ama	-7001
ary	-7002
cou	-7003
eun	-7004
gos	-7005
lam	-7006
lec	-7007
lés	-7008
olf	-7009
ram	-7010
uie	-7011
âle	-7012
▁Ph	-7013
▁Ut	-7014
▁câ	-7015
Vous	-7016
anny	-7017
ason	-7018
atte	-7019
iale	-7020
iker	-7021
lera	-7022
mens	-7023
neau	-7024
onel	-7025
reau	-7026
roup	-7027
serv	-7028
sgiv	-7029
soit	-7030
tien	-7031
tiez	-7032
tifs	-7033
tons	-7034
trap	-7035
téra	-7036
uces	-7037
ueux	-7038
ulse	-7039
vaut	-7040
venu	-7041
vies	-7042
ycle	-7043
yeux	-7044
yson	-7045
çois	-7046
çues	-7047
édit	-7048
émet	-7049
énis	-7050
érir	-7051
évac	-7052
▁199	-7053
▁Aut	-7054
▁Ber	-7055
▁Bou	-7056
▁Boy	-7057
▁Dan	-7058
▁Env	-7059
▁FBI	-7060
▁For	-7061
▁Hum	-7062
▁Ies	-7063
▁Jac	-7064
▁Lau	-7065
▁Maj	-7066
▁McG	-7067
▁Met	-7068
▁Raj	-7069
▁Roi	-7070
▁Sah	-7071
▁Sid	-7072
▁Sud	-7073
▁The	-7074
▁Thé	-7075
▁arb	-7076
▁art	-7077
▁bel	-7078
▁blâ	-7079
▁bow	-7080
▁bêt	-7081
▁cub	-7082
▁dil	-7083
▁eue	-7084
▁flu	-7085
▁flé	-7086
▁foc	-7087
▁gên	-7088
▁hid	-7089
▁hés	-7090
▁idé	-7091
▁jud	-7092
▁let	-7093
▁lux	-7094
▁maj	-7095
▁noc	-7096
▁not	-7097
▁noy	-7098
▁pan	-7099
AT	-7100
Ori	-7101
Ton	-7102
ber	-7103
cra	-7104
dom	-7105
ilo	-7106
irm	-7107
ith	-7108
itt	-7109
ono	-7110
ori	-7111
ren	-7112
sal	-7113
uff	-7114
yme	-7115
▁Cr	-7116
▁it	-7117
abou	-7118
apho	-7119
ctes	-7120
indi	-7121
info	-7122
issi	-7123
land	-7124
nues	-7125
ores	-7126
tend	-7127
tier	-7128
zard	-7129
èles	-7130
▁Joe	-7131
▁Lou	-7132
▁Pal	-7133
▁Sch	-7134
▁Ser	-7135
▁Ste	-7136
▁anx	-7137
▁bec	-7138
▁fon	-7139
▁num	-7140
▁pen	-7141
▁pér	-7142
▁rar	-7143
▁riv	-7144
▁rom	-7145
▁rug	-7146
▁sép	-7147
▁tol	-7148
▁top	-7149
▁vib	-7150
▁vén	-7151
▁vêt	-7152
▁édu	-7153
▁évé	-7154
▁île	-7155
Holly	-7156
accin	-7157
accès	-7158
acide	-7159
adieu	-7160
adway	-7161
agera	-7162
agnol	-7163
aides	-7164
aigui	-7165
aiser	-7166
allég	-7167
alter	-7168
ambri	-7169
andid	-7170
anner	-7171
annis	-7172
assad	-7173
attan	-7174
autel	-7175
autes	-7176
avane	-7177
ayons	-7178
açant	-7179
boule	-7180
boute	-7181
cable	-7182
celer	-7183
chael	-7184
colle	-7185
compr	-7186
corde	-7187
credi	-7188
cteur	-7189
cusez	-7190
céléb	-7191
dique	-7192
ectre	-7193
enade	-7194
ennui	-7195
envah	-7196
ereur	-7197
ertes	-7198
esser	-7199
1,	-7200
4,	-7201
ft	-7202
ka	-7203
ny	-7204
pê	-7205
Oui	-7206
ial	-7207
inj	-7208
kin	-7209
mom	-7210
pou	-7211
rys	-7212
émo	-7213
▁So	-7214
▁Sû	-7215
ator	-7216
atti	-7217
eute	-7218
fans	-7219
ffle	-7220
fils	-7221
four	-7222
inet	-7223
mous	-7224
orph	-7225
prix	-7226
réer	-7227
tour	-7228
téro	-7229
user	-7230
vant	-7231
veux	-7232
çais	-7233
étit	-7234
ôtés	-7235
▁..<	-7236
▁Ben	-7237
▁Hen	-7238
▁Mel	-7239
▁Min	-7240
▁ble	-7241
▁bét	-7242
▁cle	-7243
▁vac	-7244
autod	-7245
etait	-7246
expos	-7247
fient	-7248
genre	-7249
herbe	-7250
hôtel	-7251
iance	-7252
ielle	-7253
ifest	-7254
igzag	-7255
illez	-7256
illés	-7257
inées	-7258
ismes	-7259
isser	-7260
itime	-7261
itter	-7262
liers	-7263
liqué	-7264
magie	-7265
maman	-7266
micro	-7267
morts	-7268
médec	-7269
oleil	-7270
opéra	-7271
orant	-7272
ordes	-7273
osité	-7274
otter	-7275
oulot	-7276
ousse	-7277
outez	-7278
outon	-7279
petit	-7280
pture	-7281
putes	-7282
rable	-7283
rente	-7284
ressé	-7285
rette	-7286
reuve	-7287
riter	-7288
roses	-7289
sance	-7290
sangs	-7291
secte	-7292
servi	-7293
siens	-7294
siers	-7295
série	-7296
sœurs	-7297
tense	-7298
tenue	-7299
ON	-7300
UC	-7301
UR	-7302
iI	-7303
yt	-7304
Mon	-7305
arg	-7306
lay	-7307
lot	-7308
pil	-7309
vos	-7310
▁He	-7311
▁nt	-7312
amie	-7313
esté	-7314
iere	-7315
irai	-7316
lier	-7317
nour	-7318
onze	-7319
outh	-7320
pain	-7321
sous	-7322
test	-7323
xion	-7324
éris	-7325
▁Can	-7326
▁Tou	-7327
▁fem	-7328
▁gou	-7329
▁sar	-7330
aitre	-7331
arque	-7332
bille	-7333
bêtes	-7334
envol	-7335
essie	-7336
expéd	-7337
gnent	-7338
occas	-7339
pport	-7340
terai	-7341
tesse	-7342
tiend	-7343
trais	-7344
traté	-7345
trent	-7346
tures	-7347
tômes	-7348
ulent	-7349
urait	-7350
usine	-7351
usses	-7352
ustra	-7353
venue	-7354
venus	-7355
écout	-7356
écriv	-7357
énage	-7358
épuis	-7359
érale	-7360
érant	-7361
éries	-7362
étant	-7363
êteté	-7364
▁Avez	-7365
▁Bref	-7366
▁Card	-7367
▁Carl	-7368
▁Cont	-7369
▁Dean	-7370
▁Face	-7371
▁Fred	-7372
▁Hier	-7373
▁Inde	-7374
▁Juge	-7375
▁Manh	-7376
▁Mets	-7377
▁Mick	-7378
▁Mike	-7379
▁Mont	-7380
▁Mord	-7381
▁Mort	-7382
▁Nord	-7383
▁Pard	-7384
▁Prés	-7385
▁Père	-7386
▁Rich	-7387
▁Sept	-7388
▁Sera	-7389
▁Sous	-7390
▁Stan	-7391
▁Supp	-7392
▁Tony	-7393
▁Vrai	-7394
▁Wash	-7395
▁___<	-7396
▁acqu	-7397
▁adop	-7398
▁ajus	-7399
BA	-7400
▁Lib	-7401
▁Tur	-7402
▁lum	-7403
▁vil	-7404
admin	-7405
aises	-7406
culer	-7407
mises	-7408
▁Gard	-7409
▁amie	-7410
▁auto	-7411
▁aval	-7412
▁aver	-7413
▁bagn	-7414
▁bals	-7415
▁band	-7416
▁bloc	-7417
▁budg	-7418
▁bâti	-7419
▁caca	-7420
▁cham	-7421
▁chou	-7422
▁cire	-7423
▁clim	-7424
▁clin	-7425
▁club	-7426
▁coca	-7427
▁coqu	-7428
▁cras	-7429
▁céli	-7430
▁célè	-7431
▁dieu	-7432
▁dira	-7433
▁down	-7434
▁durs	-7435
▁duré	-7436
▁eaux	-7437
▁etre	-7438
▁exer	-7439
▁flic	-7440
▁flux	-7441
▁foie	-7442
▁frag	-7443
▁gare	-7444
▁grec	-7445
▁gris	-7446
▁hard	-7447
▁inti	-7448
▁jupe	-7449
▁lamp	-7450
▁lang	-7451
▁lave	-7452
▁loué	-7453
▁mers	-7454
▁muté	-7455
▁obst	-7456
▁page	-7457
▁piét	-7458
▁poil	-7459
▁pomp	-7460
▁pond	-7461
▁pont	-7462
▁post	-7463
▁posé	-7464
▁prép	-7465
▁puce	-7466
▁pull	-7467
▁pèse	-7468
▁quer	-7469
▁radi	-7470
▁rare	-7471
▁relâ	-7472
▁rock	-7473
▁rose	-7474
▁réce	-7475
▁sach	-7476
▁sage	-7477
▁secr	-7478
▁sexy	-7479
▁show	-7480
▁spac	-7481
▁stab	-7482
▁surm	-7483
▁tais	-7484
▁tamp	-7485
▁tang	-7486
▁tenu	-7487
▁tick	-7488
▁trah	-7489
▁tues	-7490
▁tués	-7491
▁unes	-7492
▁âmes	-7493
▁émer	-7494
▁évac	-7495
Empire	-7496
Orient	-7497
acités	-7498
acteur	-7499
admire	-7500
aginez	-7501
agisse	-7502
aindre	-7503
alarme	-7504
alaxie	-7505
aleine	-7506
alises	-7507
allait	-7508
améric	-7509
andise	-7510
anteau	-7511
arrang	-7512
ascens	-7513
attent	-7514
aucune	-7515
avocat	-7516
blague	-7517
cHFFFF	-7518
cartes	-7519
cherie	-7520
cheurs	-7521
chèque	-7522
cinéma	-7523
colère	-7524
combin	-7525
conque	-7526
daient	-7527
dition	-7528
détect	-7529
ectera	-7530
enance	-7531
engage	-7532
ensifs	-7533
entrer	-7534
entrée	-7535
envoie	-7536
ercice	-7537
essaye	-7538
essent	-7539
estine	-7540
estins	-7541
faites	-7542
flèche	-7543
graphe	-7544
groupe	-7545
hydrog	-7546
idents	-7547
idiots	-7548
igeant	-7549
ignent	-7550
ilibre	-7551
illons	-7552
images	-7553
impact	-7554
ingues	-7555
inière	-7556
invent	-7557
iteurs	-7558
jolies	-7559
kistan	-7560
liques	-7561
lusion	-7562
menace	-7563
minels	-7564
minent	-7565
miroir	-7566
mouche	-7567
nequin	-7568
offrir	-7569
oignée	-7570
omplet	-7571
onnait	-7572
onseil	-7573
ources	-7574
ouvant	-7575
pitaux	-7576
plante	-7577
poules	-7578
propri	-7579
quante	-7580
quérir	-7581
rables	-7582
raison	-7583
rances	-7584
rateur	-7585
reinte	-7586
riches	-7587
riment	-7588
routes	-7589
tenues	-7590
tienne	-7591
tuaire	-7592
ucteur	-7593
uisant	-7594
unités	-7595
vertir	-7596
ximité	-7597
écrire	-7598
écuter	-7599
épaiss	-7600
équipe	-7601
▁Anton	-7602
▁Charl	-7603
▁Crois	-7604
▁Etats	-7605
▁Juifs	-7606
▁Kevin	-7607
▁Maria	-7608
▁Mexic	-7609
▁Mieux	-7610
▁Moyen	-7611
▁Quels	-7612
▁Reste	-7613
▁Riker	-7614
▁Super	-7615
▁Thank	-7616
▁Théor	-7617
▁Trois	-7618
▁Voici	-7619
▁Vérif	-7620
▁abîmé	-7621
▁accéd	-7622
▁adoré	-7623
▁adéqu	-7624
▁affam	-7625
▁aggra	-7626
▁allem	-7627
▁anges	-7628
▁angle	-7629
▁atout	-7630
▁aupar	-7631
▁avale	-7632
▁aveux	-7633
▁aviez	-7634
▁avéré	-7635
▁balad	-7636
▁bande	-7637
▁bleus	-7638
▁boite	-7639
▁bonus	-7640
▁cancé	-7641
▁canon	-7642
▁causé	-7643
▁cents	-7644
▁chier	-7645
▁clign	-7646
▁coiff	-7647
▁collé	-7648
▁combl	-7649
▁congé	-7650
▁const	-7651
▁coque	-7652
▁coulé	-7653
▁couru	-7654
▁crevé	-7655
▁croir	-7656
▁créés	-7657
▁côtés	-7658
▁dames	-7659
▁dauph	-7660
▁diffé	-7661
▁digne	-7662
▁direz	-7663
▁drogu	-7664
▁duper	-7665
▁durée	-7666
▁débar	-7667
▁décor	-7668
▁défie	-7669
▁dégoû	-7670
▁délic	-7671
▁démon	-7672
▁escal	-7673
▁exact	-7674
▁excit	-7675
▁ferai	-7676
▁ferez	-7677
▁fiers	-7678
▁filer	-7679
▁fixée	-7680
▁flics	-7681
▁formé	-7682
▁foule	-7683
▁foyer	-7684
▁fraud	-7685
▁frigo	-7686
▁fruit	-7687
▁gagne	-7688
▁griff	-7689
▁grise	-7690
▁génét	-7691
▁haine	-7692
▁haute	-7693
▁hyper	-7694
▁illég	-7695
▁imite	-7696
▁impré	-7697
▁inhib	-7698
▁inond	-7699
▁inqui	-7700
▁intim	-7701
▁isolé	-7702
▁jetée	-7703
▁joint	-7704
▁karma	-7705
▁kilos	-7706
▁lance	-7707
▁lesqu	-7708
▁liées	-7709
▁lumin	-7710
▁lâche	-7711
▁légal	-7712
▁léger	-7713
▁manig	-7714
▁marre	-7715
▁masse	-7716
▁meure	-7717
▁monop	-7718
▁mutil	-7719
▁mètre	-7720
▁médic	-7721
▁nappe	-7722
▁nommé	-7723
▁noyer	-7724
▁obsol	-7725
▁oncle	-7726
▁outre	-7727
▁pacte	-7728
▁paire	-7729
▁parte	-7730
▁pique	-7731
▁piqué	-7732
▁pitié	-7733
▁piège	-7734
▁placé	-7735
▁pleur	-7736
▁porté	-7737
▁pouss	-7738
▁press	-7739
▁proie	-7740
▁pères	-7741
▁pêche	-7742
▁ramas	-7743
▁rampe	-7744
▁ravis	-7745
▁recul	-7746
▁rende	-7747
▁rends	-7748
▁resta	-7749
▁ripos	-7750
▁robes	-7751
▁rompu	-7752
▁ronde	-7753
▁roulé	-7754
▁ruche	-7755
▁règle	-7756
▁réces	-7757
▁réels	-7758
▁régén	-7759
▁rétro	-7760
▁saine	-7761
▁saute	-7762
▁seras	-7763
▁serve	-7764
▁soirs	-7765
▁sourc	-7766
▁style	-7767
▁subst	-7768
▁taill	-7769
▁tante	-7770
▁taper	-7771
▁tasse	-7772
▁tatou	-7773
▁taxis	-7774
▁tente	-7775
▁tenté	-7776
▁tests	-7777
▁thème	-7778
▁tiens	-7779
▁trace	-7780
▁tuyau	-7781
▁types	-7782
▁têtes	-7783
▁vagin	-7784
▁vaste	-7785
▁venez	-7786
▁verts	-7787
▁viens	-7788
▁vingt	-7789
▁voter	-7790
▁épous	-7791
▁épuis	-7792
▁étage	-7793
▁étinc	-7794
▁évent	-7795
adorent	-7796
alifiés	-7797
alisent	-7798
analyse	-7799
anément	-7800
appeler	-7801
arrache	-7802
arricad	-7803
atoires	-7804
augment	-7805
chauffe	-7806
chiffre	-7807
cidents	-7808
collier	-7809
contrat	-7810
courant	-7811
dossier	-7812
emmener	-7813
emmèner	-7814
enquête	-7815
envahir	-7816
essayer	-7817
estomac	-7818
exister	-7819
famille	-7820
fenêtre	-7821
feuille	-7822
fourmis	-7823
honneur	-7824
humains	-7825
ignorer	-7826
ilisent	-7827
itution	-7828
journée	-7829
liquent	-7830
maisons	-7831
maladie	-7832
mariage	-7833
meurtre	-7834
nations	-7835
ographe	-7836
oiseaux	-7837
olières	-7838
onnaire	-7839
ophètes	-7840
oreille	-7841
ouement	-7842
ouettes	-7843
ouiller	-7844
pouvoir	-7845
produit	-7846
présent	-7847
ressées	-7848
retagne	-7849
royaume	-7850
réponse	-7851
sgiving	-7852
traient	-7853
trument	-7854
ucteurs	-7855
urgence	-7856
utilise	-7857
version	-7858
voleurs	-7859
ziganes	-7860
èlement	-7861
èlerins	-7862
échange	-7863
échappe	-7864
énèbres	-7865
équipes	-7866
érables	-7867
ériment	-7868
étiques	-7869
êtement	-7870
▁Allons	-7871
▁Améric	-7872
▁Arrête	-7873
▁Berlin	-7874
▁Bouddh	-7875
▁Demain	-7876
▁Devine	-7877
▁Durant	-7878
▁Egypte	-7879
▁Encore	-7880
▁Italie	-7881
▁Nature	-7882
▁Norman	-7883
▁Puisse	-7884
▁Quelqu	-7885
▁Soleil	-7886
▁Trente	-7887
▁agents	-7888
▁allées	-7889
▁ancien	-7890
▁annonc	-7891
▁apparu	-7892
▁astron	-7893
▁atterr	-7894
▁attire	-7895
▁auprès	-7896
▁auquel	-7897
▁avancé	-7898
▁avocat	-7899
▁avouer	-7900
▁baissé	-7901
▁blessé	-7902
▁boîtes	-7903
▁braves	-7904
▁brisée	-7905
▁bronze	-7906
▁brûlée	-7907
▁bénéfi	-7908
▁cafard	-7909
▁calmer	-7910
▁casier	-7911
▁casino	-7912
▁celles	-7913
▁chargé	-7914
▁charme	-7915
▁clarté	-7916
▁coller	-7917
▁commis	-7918
▁conclu	-7919
▁confus	-7920
▁connue	-7921
▁connus	-7922
▁contac	-7923
▁contra	-7924
▁copine	-7925
▁cordes	-7926
▁crient	-7927
▁cruels	-7928
▁crédit	-7929
▁créées	-7930
▁datent	-7931
▁deviez	-7932
▁devint	-7933
▁donnez	-7934
▁drogué	-7935
▁déchaî	-7936
▁découp	-7937
▁décrit	-7938
▁déguis	-7939
▁dégâts	-7940
▁déploy	-7941
▁désire	-7942
▁effacé	-7943
▁effort	-7944
▁embras	-7945
▁employ	-7946
▁emprun	-7947
▁encomb	-7948
▁ennuis	-7949
▁esclav	-7950
▁exprès	-7951
▁fabric	-7952
▁fascin	-7953
▁fesses	-7954
▁fiable	-7955
▁finira	-7956
▁flamme	-7957
▁fondre	-7958
▁forcer	-7959
▁former	-7960
▁formes	-7961
▁genoux	-7962
▁gonfle	-7963
▁gosses	-7964
▁gueule	-7965
▁gâteau	-7966
▁géante	-7967
▁harmon	-7968
▁heurte	-7969
▁humide	-7970
▁incend	-7971
▁inspir	-7972
▁interd	-7973
▁intéri	-7974
▁jaloux	-7975
▁jardin	-7976
▁jouais	-7977
▁judici	-7978
▁jusque	-7979
▁livres	-7980
▁lâcher	-7981
▁lèvres	-7982
▁manœuv	-7983
▁marais	-7984
▁masqué	-7985
▁maître	-7986
▁menacé	-7987
▁mentir	-7988
▁mettez	-7989
▁mettra	-7990
▁mignon	-7991
▁miroir	-7992
▁mondes	-7993
▁morale	-7994
▁mordra	-7995
▁mortel	-7996
▁mourut	-7997
▁mènent	-7998
▁médias	-7999
▁métaux	-8000
▁navire	-8001
▁nobles	-8002
▁obscur	-8003
▁obtenu	-8004
▁occupé	-8005
▁orbite	-8006
▁patron	-8007
▁pincer	-8008
▁pleure	-8009
▁plonge	-8010
▁points	-8011
▁poison	-8012
▁poteau	-8013
▁poulet	-8014
▁presse	-8015
▁prient	-8016
▁prises	-8017
▁probab	-8018
▁pureté	-8019
▁refuse	-8020
▁reggae	-8021
▁renver	-8022
▁repart	-8023
▁repous	-8024
▁retenu	-8025
▁routes	-8026
▁royale	-8027
▁récent	-8028
▁récits	-8029
▁régime	-8030
▁réparé	-8031
▁rétabl	-8032
▁révolu	-8033
▁sacrée	-8034
▁saisir	-8035
▁saturé	-8036
▁sexuel	-8037
▁sienne	-8038
▁signez	-8039
▁siècle	-8040
▁social	-8041
▁sonner	-8042
▁soucis	-8043
▁splend	-8044
▁statut	-8045
▁straté	-8046
▁subsis	-8047
▁suicid	-8048
▁suivis	-8049
▁survit	-8050
▁sévère	-8051
▁talent	-8052
▁talons	-8053
▁telles	-8054
▁tempor	-8055
▁tenues	-8056
▁tienne	-8057
▁tourné	-8058
▁traces	-8059
▁transc	-8060
▁transf	-8061
▁treize	-8062
▁triste	-8063
▁trésor	-8064
▁tâches	-8065
▁usines	-8066
▁vaches	-8067
▁valoir	-8068
▁venant	-8069
▁verrai	-8070
▁volont	-8071
▁vortex	-8072
▁voyant	-8073
▁vôtres	-8074
▁whisky	-8075
▁échoue	-8076
▁éclate	-8077
▁écrite	-8078
▁église	-8079
▁épouse	-8080
▁étoile	-8081
▁étudié	-8082
Amérique	-8083
Pourquoi	-8084
accident	-8085
admettre	-8086
administ	-8087
appelait	-8088
athiques	-8089
attaquer	-8090
autodétr	-8091
autorité	-8092
bactérie	-8093
cHFFFFFF	-8094
cassette	-8095
ceptible	-8096
chauffer	-8097
chemises	-8098
docteurs	-8099
encontre	-8100
ennuient	-8101
ensemble	-8102
envoient	-8103
exercice	-8104
explique	-8105
exprimer	-8106
identité	-8107
ièmement	-8108
occasion	-8109
onneront	-8110
ouraient	-8111
patients	-8112
personne	-8113
possible	-8114
pourrait	-8115
pression	-8116
question	-8117
tragédie	-8118
écriture	-8119
écrouler	-8120
édiction	-8121
énervent	-8122
éteindre	-8123
▁Anglais	-8124
▁Command	-8125
▁Désolée	-8126
▁Francis	-8127
▁Général	-8128
▁Indiens	-8129
▁Michael	-8130
▁Presque	-8131
▁Trouvez	-8132
▁absence	-8133
▁absorbé	-8134
▁accepté	-8135
▁accusés	-8136
▁adresse	-8137
▁affaibl	-8138
▁affecté	-8139
▁affreux	-8140
▁appelée	-8141
▁appliqu	-8142
▁arraché	-8143
▁assises	-8144
▁attaché	-8145
▁attaqué	-8146
▁avancer	-8147
▁balance	-8148
▁barrage	-8149
▁billets	-8150
▁blesser	-8151
▁bowling	-8152
▁branche	-8153
▁bêtises	-8154
▁cadeaux	-8155
▁calibre	-8156
▁capsule	-8157
▁capture	-8158
▁censées	-8159
▁central	-8160
▁chanson	-8161
▁chapeau	-8162
▁chargée	-8163
▁chasser	-8164
▁chevaux	-8165
▁choisit	-8166
▁chéries	-8167
▁circuit	-8168
▁cliente	-8169
▁colonne	-8170
▁comprom	-8171
▁comptes	-8172
▁conditi	-8173
▁conseil	-8174
▁conserv	-8175
▁contour	-8176
▁convert	-8177
▁corromp	-8178
▁couches	-8179
▁cousine	-8180
▁crochet	-8181
▁croître	-8182
▁céleste	-8183
▁célibat	-8184
▁devions	-8185
▁devrons	-8186
▁diplôme	-8187
▁diriger	-8188
▁dispose	-8189
▁divines	-8190
▁dociles	-8191
▁donnant	-8192
▁dossier	-8193
▁déclare	-8194
▁démarré	-8195
▁démolir	-8196
▁dépensé	-8197
▁déroule	-8198
▁emporté	-8199
▁empêche	-8200
▁entrées	-8201
▁espèces	-8202
▁espérer	-8203
▁espérez	-8204
▁excités	-8205
▁expliqu	-8206
▁falloir	-8207
▁fausses	-8208
▁fermera	-8209
▁flammes	-8210
▁fondent	-8211
▁fortune	-8212
▁foutent	-8213
▁froides	-8214
▁fâchent	-8215
▁gouttes	-8216
▁grimper	-8217
▁guerres	-8218
▁imposer	-8219
▁indices	-8220
▁instruc	-8221
▁interpr	-8222
▁intouch	-8223
▁laissés	-8224
▁lettres	-8225
▁liaison	-8226
▁libérés	-8227
▁limites	-8228
▁longues	-8229
▁maigres	-8230
▁manteau	-8231
▁mariées	-8232
▁marteau	-8233
▁masques	-8234
▁maximum	-8235
▁membres	-8236
▁menacés	-8237
▁mettait	-8238
▁miennes	-8239
▁million	-8240
▁minable	-8241
▁modifie	-8242
▁mordent	-8243
▁municip	-8244
▁muscles	-8245
▁méchant	-8246
▁métabol	-8247
▁métapho	-8248
▁naturel	-8249
▁normale	-8250
▁négatif	-8251
▁ordonné	-8252
▁organes	-8253
▁parking	-8254
▁paroles	-8255
▁partage	-8256
▁partici	-8257
▁patrons	-8258
▁pensant	-8259
▁placard	-8260
▁plafond	-8261
▁plaider	-8262
▁plantes	-8263
▁poignée	-8264
▁pointes	-8265
▁positif	-8266
▁pourras	-8267
▁prestig	-8268
▁progrès	-8269
▁prédire	-8270
▁préparé	-8271
▁prétent	-8272
▁prévoir	-8273
▁publier	-8274
▁racisme	-8275
▁reculer	-8276
▁refuser	-8277
▁remplie	-8278
▁remplir	-8279
▁rendait	-8280
▁rentrés	-8281
▁reprend	-8282
▁retombe	-8283
▁revenue	-8284
▁réalise	-8285
▁réparée	-8286
▁répéter	-8287
▁résonne	-8288
▁réunion	-8289
▁réussit	-8290
▁sachent	-8291
▁sagesse	-8292
▁saurais	-8293
▁saurait	-8294
▁sauvage	-8295
▁savants	-8296
▁scanner	-8297
▁secrète	-8298
▁signale	-8299
▁sonnent	-8300
▁sortant	-8301
▁surpris	-8302
▁sécrète	-8303
▁séparer	-8304
▁tableau	-8305
▁taisent	-8306
▁tempête	-8307
▁tension	-8308
▁terreur	-8309
▁touches	-8310
▁traîner	-8311
▁troupes	-8312
▁trésors	-8313
▁tunnels	-8314
▁témoign	-8315
▁témoins	-8316
▁variété	-8317
▁veiller	-8318
▁viennes	-8319
▁vitrine	-8320
▁voisins	-8321
▁volonté	-8322
▁vérifie	-8323
▁échange	-8324
▁épaules	-8325
▁équipes	-8326
▁étendue	-8327
▁étudier	-8328
aissaient	-8329
amburgers	-8330
aponaises	-8331
apparence	-8332
appliquer	-8333
approcher	-8334
assurance	-8335
atteindre	-8336
attendais	-8337
bouteille	-8338
criminels	-8339
croyances	-8340
créatures	-8341
hydrogène	-8342
important	-8343
infection	-8344
intéresse	-8345
iversaire	-8346
musiciens	-8347
organisme	-8348
patientes	-8349
problèmes	-8350
utilisent	-8351
videmment	-8352
écommande	-8353
▁Bajorans	-8354
▁Broadway	-8355
▁Internet	-8356
▁Martiens	-8357
▁Napoléon	-8358
▁Quelques	-8359
▁Vraiment	-8360
▁Vérifiez	-8361
▁accompli	-8362
▁accéléré	-8363
▁admettre	-8364
▁aideront	-8365
▁arranger	-8366
▁arrivait	-8367
▁atomique	-8368
▁attaqués	-8369
▁atteigne	-8370
▁barbecue	-8371
▁batterie	-8372
▁buvaient	-8373
▁bâtiment	-8374
▁cachette	-8375
▁calculer	-8376
▁capacité	-8377
▁caresser	-8378
▁cellules	-8379
▁chambres	-8380
▁chialent	-8381
▁chouette	-8382
▁clinique	-8383
▁colonnes	-8384
▁compliqu	-8385
▁conclure	-8386
▁condamné	-8387
▁conduits	-8388
▁confirme	-8389
▁consiste	-8390
▁coupable	-8391
▁critique	-8392
▁dauphins	-8393
▁derniers	-8394
▁descende	-8395
▁devenait	-8396
▁devrions	-8397
▁diminuer	-8398
▁dirigent	-8399
▁document	-8400
▁dossiers	-8401
▁déchirer	-8402
▁déclarer	-8403
▁défendre	-8404
▁désirent	-8405
▁emmènent	-8406
▁empêcher	-8407
▁enceinte	-8408
▁endroits	-8409
▁engendré	-8410
▁ennuyeux	-8411
▁espèrent	-8412
▁existait	-8413
▁feuilles	-8414
▁financer	-8415
▁finirait	-8416
▁fixement	-8417
▁garantir	-8418
▁glaciale	-8419
▁généreux	-8420
▁imaginer	-8421
▁implique	-8422
▁instable	-8423
▁jugement	-8424
▁laissera	-8425
▁lesquels	-8426
▁logiciel	-8427
▁lumières	-8428
▁manquent	-8429
▁matériel	-8430
▁menacées	-8431
▁mensonge	-8432
▁mercredi	-8433
▁messages	-8434
▁meurtres	-8435
▁miracles	-8436
▁mondiale	-8437
▁monument	-8438
▁médicale	-8439
▁paieront	-8440
▁paraisse	-8441
▁pareille	-8442
▁patients	-8443
▁plancher	-8444
▁pleuvoir	-8445
▁policier	-8446
▁portefeu	-8447
▁poussera	-8448
▁propager	-8449
▁prospère	-8450
▁prouvent	-8451
▁provoqué	-8452
▁qualités	-8453
▁racheter	-8454
▁rapports	-8455
▁rapporté	-8456
▁rarement	-8457
▁registre	-8458
▁rembours	-8459
▁remercie	-8460
▁remettra	-8461
▁remettre	-8462
▁renverse	-8463
▁reposent	-8464
▁respecte	-8465
▁réaction	-8466
▁réserves	-8467
▁résoudre	-8468
▁révèlent	-8469
▁sensible	-8470
▁serveurs	-8471
▁solution	-8472
▁sorcière	-8473
▁souffler	-8474
▁soutenir	-8475
▁spéciale	-8476
▁surprend	-8477
▁synthèse	-8478
▁séparent	-8479
▁trompent	-8480
▁téléphon	-8481
▁utiliser	-8482
▁victoire	-8483
▁vivaient	-8484
▁voteront	-8485
▁voyagent	-8486
▁éclatent	-8487
▁éloigner	-8488
▁émotions	-8489
▁épreuves	-8490
▁étranger	-8491
▁étranges	-8492
appartiens	-8493
appelaient	-8494
bliothèque	-8495
conscience	-8496
célébrités	-8497
embrassent	-8498
expliquent	-8499
expression	-8500
grenouille	-8501
inquiètent	-8502
inspecteur	-8503
occupation	-8504
souffrance	-8505
traitement	-8506
téralement	-8507
étudiantes	-8508
▁Manhattan	-8509
▁Président	-8510
▁accompagn	-8511
▁amusantes	-8512
▁anticorps	-8513
▁apportent	-8514
▁approprié	-8515
▁assassine	-8516
▁attitudes	-8517
▁autorités	-8518
▁boulanger	-8519
▁capacités	-8520
▁carburant	-8521
▁cardiaque	-8522
▁champagne	-8523
▁cherchait	-8524
▁chinoises	-8525
▁cinquante	-8526
▁collision	-8527
▁commettre	-8528
▁compagnon	-8529
▁conférait	-8530
▁conneries	-8531
▁construis	-8532
▁courageux	-8533
▁critiques	-8534
▁croyaient	-8535
▁croyances	-8536
▁demandait	-8537
▁demandant	-8538
▁donnaient	-8539
▁donnerait	-8540
▁donneront	-8541
▁déplacent	-8542
▁désespoir	-8543
▁déterminé	-8544
▁détruites	-8545
▁effondrée	-8546
▁empêchait	-8547
▁enceintes	-8548
▁encourage	-8549
▁enseigner	-8550
▁extérieur	-8551
▁fantasmes	-8552
▁favorable	-8553
▁financier	-8554
▁fréquence	-8555
▁féminines	-8556
▁grossesse	-8557
▁habitants	-8558
▁imaginent	-8559
▁importait	-8560
▁inconnues	-8561
▁indiquant	-8562
▁installer	-8563
▁insupport	-8564
▁intérieur	-8565
▁jouissent	-8566
▁justement	-8567
▁kilomètre	-8568
▁librement	-8569
▁localiser	-8570
▁meilleurs	-8571
▁mettaient	-8572
▁ministère	-8573
▁monteront	-8574
▁munitions	-8575
▁obéissent	-8576
▁originale	-8577
▁pardonner	-8578
▁parleront	-8579
▁penseront	-8580
▁permettre	-8581
▁populaire	-8582
▁porterait	-8583
▁positions	-8584
▁pourrions	-8585
▁poursuivi	-8586
▁prendront	-8587
▁printemps	-8588
▁prochains	-8589
▁procureur	-8590
▁provenait	-8591
▁provoquer	-8592
▁proximité	-8593
▁prédateur	-8594
▁puissions	-8595
▁racontait	-8596
▁rapproche	-8597
▁rejettent	-8598
▁rencontré	-8599
▁reprendre	-8600
▁resterait	-8601
▁récemment	-8602
▁référence	-8603
▁résistent	-8604
▁sauraient	-8605
▁sensation	-8606
▁sensibles	-8607
▁servaient	-8608
▁signature	-8609
▁sorcières	-8610
▁sortiront	-8611
▁soufflait	-8612
▁souvenirs	-8613
▁supprimer	-8614
▁symptômes	-8615
▁technique	-8616
▁technolog	-8617
▁terminera	-8618
▁terribles	-8619
▁toilettes	-8620
▁tourments	-8621
▁tremblent	-8622
▁troisième	-8623
▁échangent	-8624
appelleront	-8625
atteindront	-8626
combinaison	-8627
opportunité	-8628
prostituées	-8629
▁Américains	-8630
▁Washington	-8631
▁appelaient	-8632
▁approchait	-8633
▁auparavant	-8634
▁cellulaire	-8635
▁charmantes	-8636
▁chaussures	-8637
▁chirurgien	-8638
▁combattent	-8639
▁comportent	-8640
▁comprenons	-8641
▁conditions	-8642
▁conservent	-8643
▁construite	-8644
▁convaincre	-8645
▁créativité	-8646
▁différence	-8647
▁détecteurs	-8648
▁entreprise	-8649
▁expériment	-8650
▁fabriquent	-8651
▁formidable	-8652
▁fréquences	-8653
▁gouverneur	-8654
▁impeccable	-8655
▁innocentes	-8656
▁intentions	-8657
▁intérieure	-8658
▁japonaises	-8659
▁kilomètres	-8660
▁lesquelles	-8661
▁légèrement	-8662
▁magnétique	-8663
▁motivation	-8664
▁nucléaires	-8665
▁ordinateur	-8666
▁organismes	-8667
▁oublieront	-8668
▁partenaire	-8669
▁particules	-8670
▁photograph	-8671
▁poursuivra	-8672
▁profondeur	-8673
▁programmes	-8674
▁promouvoir	-8675
▁propriétés	-8676
▁préoccuper	-8677
▁prétendent	-8678
▁puissantes	-8679
▁quelconque	-8680
▁quitteront	-8681
▁rappellent	-8682
▁refusaient	-8683
▁rencontrés	-8684
▁ressources	-8685
▁restaurant	-8686
▁retournent	-8687
▁revenaient	-8688
▁récompense	-8689
▁réparation	-8690
▁résistants	-8691
▁sanctuaire	-8692
▁satisfaits	-8693
▁souffrance	-8694
▁supplément	-8695
▁supportent	-8696
▁surveiller	-8697
▁séparation	-8698
▁équipement	-8699
apprécierais	-8700
▁apparemment	-8701
▁cherchaient	-8702
▁communiquer	-8703
▁communistes	-8704
▁connaîtront	-8705
▁convictions	-8706
▁demanderont	-8707
▁disparaître	-8708
▁disponibles	-8709
▁donneraient	-8710
▁déclaration	-8711
▁délicieuses	-8712
▁générations	-8713
▁historiques	-8714
▁imagination	-8715
▁intelligent	-8716
▁internation	-8717
▁intéressant	-8718
▁nourrissent	-8719
▁parleraient	-8720
▁paroissiens	-8721
▁prestigieux	-8722
▁prostituées	-8723
▁précisément	-8724
▁prévisibles	-8725
▁pétrolières	-8726
▁rapprochent	-8727
▁recherchent	-8728
▁religieuses	-8729
▁réparations	-8730
▁révolutionn	-8731
▁secrètement	-8732
▁surviennent	-8733
▁transformer	-8734
▁vulnérables	-8735
homosexualité	-8736
▁Thanksgiving	-8737
▁commençaient	-8738
▁confortables	-8739
▁construisent	-8740
▁conversation	-8741
▁correctement	-8742
▁différemment	-8743
▁expliquerait	-8744
▁indétectable	-8745
▁intelligente	-8746
▁pratiquement	-8747
▁reproduisent	-8748
▁scientifique	-8749
▁trouveraient	-8750
▁électronique	-8751
administration	-8752
▁Théoriquement	-8753
▁appartiennent	-8754
▁concentration	-8755
▁connaissances	-8756
▁difficilement	-8757
▁désespérément	-8758
▁développement	-8759
▁effectivement	-8760
▁génétiquement	-8761
▁reconnaissent	-8762
▁ressemblaient	-8763
▁réfléchissent	-8764
▁signification	-8765
▁habituellement	-8766
▁responsabilité	-8767
▁éventuellement	-8768
▁correspondances	-8769
▁extraterrestres	-8770
▁mystérieusement	-8771
Pr	-8772
ek	-8773
45.	-8774
45:	-8775
DIS	-8776
ENT	-8777
FBI	-8778
aII	-8779
bio	-8780
cen	-8781
ely	-8782
hib	-8783
ity	-8784
lax	-8785
low	-8786
loé	-8787
nak	-8788
ogg	-8789
ree	-8790
rov	-8791
syn	-8792
wey	-8793
ycl	-8794
▁9.	-8795
▁FE	-8796
▁ue	-8797
▁we	-8798
:45:	-8799
Ex	-8800
oa	-8801
uke	-8802
vet	-8803
aida	-8804
anon	-8805
arna	-8806
arry	-8807
blic	-8808
bras	-8809
café	-8810
cien	-8811
cock	-8812
doxe	-8813
décl	-8814
erry	-8815
film	-8816
fric	-8817
hlet	-8818
inji	-8819
iris	-8820
labo	-8821
mala	-8822
mâle	-8823
oeuf	-8824
ohen	-8825
ophy	-8826
ouTu	-8827
path	-8828
préh	-8829
rick	-8830
ryan	-8831
sexu	-8832
shir	-8833
weet	-8834
ylon	-8835
èges	-8836
évap	-8837
▁191	-8838
▁24,	-8839
▁250	-8840
▁30.	-8841
▁Alb	-8842
▁Ass	-8843
▁Ast	-8844
▁Bah	-8845
▁Del	-8846
▁Déf	-8847
▁Edw	-8848
▁Goa	-8849
▁Kel	-8850
▁Los	-8851
▁Sar	-8852
▁Tob	-8853
▁Whe	-8854
▁asy	-8855
▁jui	-8856
▁nat	-8857
▁osé	-8858
▁the	-8859
▁égo	-8860
>____	-8861
Union	-8862
aboum	-8863
actif	-8864
agone	-8865
agrin	-8866
aigre	-8867
anium	-8868
aptis	-8869
armac	-8870
assia	-8871
astle	-8872
ather	-8873
athie	-8874
aucun	-8875
berge	-8876
cargo	-8877
cedes	-8878
clier	-8879
côtes	-8880
dague	-8881
dames	-8882
dinos	-8883
effac	-8884
effic	-8885
elots	-8886
enreg	-8887
ersey	-8888
escal	-8889
exorc	-8890
froid	-8891
frère	-8892
geste	-8893
girls	-8894
gorge	-8895
grand	-8896
gross	-8897
hyper	-8898
icros	-8899
Al	-8900
azz	-8901
las	-8902
pin	-8903
tap	-8904
▁TV	-8905
,...	-8906
azis	-8907
camp	-8908
incy	-8909
rats	-8910
tube	-8911
utur	-8912
▁Dix	-8913
Anank	-8914
arrêt	-8915
azine	-8916
champ	-8917
ernés	-8918
futur	-8919
grade	-8920
icône	-8921
idote	-8922
imono	-8923
irafe	-8924
ittle	-8925
juana	-8926
lapin	-8927
lumin	-8928
muler	-8929
musée	-8930
océan	-8931
oiter	-8932
ommes	-8933
omède	-8934
oston	-8935
otide	-8936
ottir	-8937
oubli	-8938
oward	-8939
perru	-8940
puces	-8941
raign	-8942
raine	-8943
raits	-8944
rants	-8945
raqué	-8946
rayer	-8947
rivés	-8948
résul	-8949
salle	-8950
singe	-8951
sorci	-8952
stone	-8953
tache	-8954
tiver	-8955
toile	-8956
uirai	-8957
urgés	-8958
vidus	-8959
vidéo	-8960
vilis	-8961
ylons	-8962
ègues	-8963
ènera	-8964
élarg	-8965
ômage	-8966
œuvre	-8967
▁1929	-8968
▁Adam	-8969
▁Ally	-8970
▁Anna	-8971
▁Appe	-8972
▁Bart	-8973
▁Cous	-8974
▁Diff	-8975
▁Dool	-8976
▁Gene	-8977
▁Hear	-8978
▁Hong	-8979
▁Iran	-8980
▁Libé	-8981
▁Lucy	-8982
▁Luke	-8983
▁Mary	-8984
▁Nouv	-8985
▁Prix	-8986
▁Prof	-8987
▁Sant	-8988
▁Stat	-8989
▁Veng	-8990
▁Vois	-8991
▁Volé	-8992
▁actu	-8993
▁ange	-8994
▁bled	-8995
▁bruy	-8996
▁cerf	-8997
▁ciga	-8998
▁cost	-8999
câ	-9000
bun	-9001
oke	-9002
sau	-9003
uba	-9004
glée	-9005
gueu	-9006
jeux	-9007
rett	-9008
▁Tha	-9009
▁War	-9010
▁Wic	-9011
▁ard	-9012
▁bip	-9013
▁véh	-9014
Enter	-9015
câble	-9016
ectif	-9017
enter	-9018
occul	-9019
échec	-9020
▁3000	-9021
▁Cuba	-9022
▁West	-9023
▁béta	-9024
▁coût	-9025
▁cuir	-9026
▁dévo	-9027
▁encl	-9028
▁fane	-9029
▁flex	-9030
▁golf	-9031
▁géré	-9032
▁gêne	-9033
▁inci	-9034
▁ital	-9035
▁loge	-9036
▁lâch	-9037
▁lége	-9038
▁mute	-9039
▁mélo	-9040
▁obsè	-9041
▁oeuf	-9042
▁past	-9043
▁pneu	-9044
▁prud	-9045
▁ravi	-9046
▁rept	-9047
▁roch	-9048
▁rêvé	-9049
▁sexu	-9050
▁siff	-9051
▁soif	-9052
▁sott	-9053
▁séch	-9054
▁tapé	-9055
▁tirs	-9056
▁ulti	-9057
▁voté	-9058
▁week	-9059
▁éduc	-9060
▁élas	-9061
▁éplu	-9062
▁œufs	-9063
192,22	-9064
Ananka	-9065
Arabes	-9066
achine	-9067
achève	-9068
acture	-9069
actère	-9070
admets	-9071
aillée	-9072
airage	-9073
allume	-9074
alogue	-9075
ambeau	-9076
anatom	-9077
angler	-9078
angois	-9079
ançait	-9080
ardeau	-9081
arrett	-9082
aurons	-9083
bijoux	-9084
blancs	-9085
bottes	-9086
boulot	-9087
braham	-9088
centra	-9089
chemin	-9090
cisses	-9091
comité	-9092
commun	-9093
compos	-9094
contre	-9095
ctique	-9096
cureur	-9097
cément	-9098
demois	-9099
▁mm	-9100
ffér	-9101
nies	-9102
ocks	-9103
olib	-9104
oppé	-9105
urés	-9106
éduc	-9107
épic	-9108
▁Kos	-9109
▁agi	-9110
▁ang	-9111
▁deu	-9112
▁pép	-9113
▁riz	-9114
athol	-9115
cités	-9116
moign	-9117
ourse	-9118
étéor	-9119
▁cave	-9120
▁espi	-9121
▁holl	-9122
▁queu	-9123
▁soie	-9124
activé	-9125
démons	-9126
effrai	-9127
emmène	-9128
emprun	-9129
enferm	-9130
enrich	-9131
espèce	-9132
essite	-9133
ginité	-9134
girafe	-9135
gosses	-9136
ichons	-9137
illiam	-9138
iments	-9139
infant	-9140
intens	-9141
isible	-9142
itives	-9143
jectif	-9144
joutez	-9145
lapins	-9146
liards	-9147
lifier	-9148
masses	-9149
moulin	-9150
médias	-9151
niquer	-9152
nêteté	-9153
ocence	-9154
oeuvre	-9155
offens	-9156
olibri	-9157
ologne	-9158
ompréh	-9159
orisés	-9160
ouTube	-9161
oublie	-9162
outeur	-9163
parole	-9164
petite	-9165
phrase	-9166
poulet	-9167
public	-9168
pérera	-9169
ramide	-9170
rituel	-9171
robots	-9172
rumeur	-9173
région	-9174
sectes	-9175
supéri	-9176
tables	-9177
tenons	-9178
terait	-9179
tirper	-9180
trices	-9181
triser	-9182
tuerie	-9183
ultant	-9184
ustrie	-9185
vaires	-9186
verser	-9187
vessie	-9188
vidéos	-9189
ètrent	-9190
éclair	-9191
écroul	-9192
éfique	-9193
énario	-9194
étende	-9195
étrole	-9196
▁10000	-9197
▁Accep	-9198
▁Allem	-9199
RE	-9200
>.<	-9201
iff	-9202
opl	-9203
oro	-9204
ulm	-9205
ura	-9206
inct	-9207
itub	-9208
midi	-9209
posé	-9210
uqué	-9211
visi	-9212
▁Rus	-9213
▁sti	-9214
Marti	-9215
acier	-9216
assey	-9217
indes	-9218
itais	-9219
miner	-9220
quets	-9221
tages	-9222
unien	-9223
▁....	-9224
▁Gold	-9225
▁Hann	-9226
▁Moro	-9227
▁Reid	-9228
▁Sœur	-9229
▁dent	-9230
▁stip	-9231
▁stér	-9232
bouche	-9233
dindes	-9234
hémati	-9235
truire	-9236
ulmans	-9237
écoule	-9238
▁Allez	-9239
▁Aprês	-9240
▁Aucun	-9241
▁Buvez	-9242
▁Canad	-9243
▁Croix	-9244
▁David	-9245
▁Frank	-9246
▁Frapp	-9247
▁Henri	-9248
▁Jamie	-9249
▁Jonas	-9250
▁Jérus	-9251
▁Louis	-9252
▁Marie	-9253
▁McGee	-9254
▁Milan	-9255
▁Obama	-9256
▁Pedro	-9257
▁Plate	-9258
▁Rappe	-9259
▁Timmy	-9260
▁Valle	-9261
▁Vince	-9262
▁Winst	-9263
▁achev	-9264
▁actif	-9265
▁aimez	-9266
▁arbit	-9267
▁artis	-9268
▁balai	-9269
▁basse	-9270
▁biper	-9271
▁bonté	-9272
▁braqu	-9273
▁brisé	-9274
▁bruns	-9275
▁bénir	-9276
▁calif	-9277
▁canap	-9278
▁chiff	-9279
▁chron	-9280
▁class	-9281
▁clean	-9282
▁colon	-9283
▁consé	-9284
▁corne	-9285
▁coton	-9286
▁crash	-9287
▁creux	-9288
▁crier	-9289
▁croix	-9290
▁cruel	-9291
▁crève	-9292
▁cycle	-9293
▁digit	-9294
▁dimin	-9295
▁divor	-9296
▁domin	-9297
▁dormi	-9298
▁doubl	-9299
',	-9300
mn	-9301
mod	-9302
sar	-9303
tha	-9304
▁33	-9305
▁35	-9306
▁36	-9307
illé	-9308
minu	-9309
odge	-9310
aures	-9311
euner	-9312
eutes	-9313
ordel	-9314
oyeux	-9315
▁Kane	-9316
▁Prom	-9317
▁Sean	-9318
▁armé	-9319
▁brav	-9320
▁meug	-9321
▁omni	-9322
▁verr	-9323
accent	-9324
forces	-9325
uriers	-9326
uscule	-9327
▁Contr	-9328
▁douze	-9329
▁drain	-9330
▁défec	-9331
▁défic	-9332
▁délib	-9333
▁engin	-9334
▁enlev	-9335
▁faibl	-9336
▁filet	-9337
▁fléau	-9338
▁fonce	-9339
▁fonds	-9340
▁fondu	-9341
▁fumer	-9342
▁fâche	-9343
▁gaffe	-9344
▁gamin	-9345
▁garée	-9346
▁gelée	-9347
▁grapp	-9348
▁gravé	-9349
▁haric	-9350
▁hiver	-9351
▁hôtel	-9352
▁immob	-9353
▁impun	-9354
▁infec	-9355
▁inhum	-9356
▁intri	-9357
▁invin	-9358
▁jaill	-9359
▁juger	-9360
▁kling	-9361
▁lampe	-9362
▁lisse	-9363
▁livré	-9364
▁lobby	-9365
▁longs	-9366
▁loups	-9367
▁lundi	-9368
▁lutte	-9369
▁lèche	-9370
▁macho	-9371
▁mamie	-9372
▁marti	-9373
▁mette	-9374
▁minim	-9375
▁mises	-9376
▁moder	-9377
▁morde	-9378
▁motos	-9379
▁musée	-9380
▁mêlés	-9381
▁noble	-9382
▁noces	-9383
▁nuque	-9384
▁nôtre	-9385
▁offri	-9386
▁ombre	-9387
▁osent	-9388
▁pilot	-9389
▁pisse	-9390
▁pizza	-9391
▁pleut	-9392
▁plong	-9393
▁poing	-9394
▁poker	-9395
▁pomme	-9396
▁ponde	-9397
▁porcs	-9398
▁poule	-9399
déb	-9400
nus	-9401
pha	-9402
phy	-9403
sph	-9404
élo	-9405
Mais	-9406
achè	-9407
atie	-9408
iels	-9409
phyx	-9410
phém	-9411
▁ing	-9412
achet	-9413
achez	-9414
asper	-9415
ciens	-9416
envie	-9417
geons	-9418
homps	-9419
ifiée	-9420
march	-9421
onald	-9422
orifi	-9423
ulder	-9424
éléph	-9425
étiez	-9426
étrit	-9427
▁Matt	-9428
▁bars	-9429
▁hach	-9430
▁inco	-9431
▁perf	-9432
▁yach	-9433
anites	-9434
ifient	-9435
▁Venez	-9436
▁délit	-9437
▁exige	-9438
▁guère	-9439
▁gêner	-9440
▁noter	-9441
▁punir	-9442
▁quart	-9443
▁rabat	-9444
▁raide	-9445
▁ranch	-9446
▁rares	-9447
▁recev	-9448
▁redéc	-9449
▁retir	-9450
▁retou	-9451
▁rides	-9452
▁récla	-9453
▁réhab	-9454
▁réjou	-9455
▁répét	-9456
▁résid	-9457
▁sacri	-9458
▁saint	-9459
▁sarin	-9460
▁sensé	-9461
▁sente	-9462
▁silen	-9463
▁singe	-9464
▁situe	-9465
▁siège	-9466
▁sourn	-9467
▁stand	-9468
▁stars	-9469
▁surgi	-9470
▁sélec	-9471
▁sérum	-9472
▁tapez	-9473
▁tarif	-9474
▁teste	-9475
▁texte	-9476
▁théor	-9477
▁tiers	-9478
▁tires	-9479
▁titub	-9480
▁tonne	-9481
▁total	-9482
▁tourb	-9483
▁toxic	-9484
▁tâche	-9485
▁verse	-9486
▁versé	-9487
▁vertu	-9488
▁verté	-9489
▁vexés	-9490
▁vibra	-9491
▁vidéo	-9492
▁vives	-9493
▁vivra	-9494
▁vêtir	-9495
▁yacht	-9496
▁écart	-9497
▁éclos	-9498
▁épais	-9499
cir	-9500
lut	-9501
otr	-9502
por	-9503
ôts	-9504
Dieu	-9505
amer	-9506
arte	-9507
desc	-9508
incu	-9509
mées	-9510
peut	-9511
▁faç	-9512
▁gob	-9513
▁imb	-9514
▁urb	-9515
▁vég	-9516
balis	-9517
ortif	-9518
tarte	-9519
trace	-9520
ultra	-9521
viser	-9522
▁6000	-9523
▁Oubl	-9524
▁blas	-9525
▁clés	-9526
▁fine	-9527
▁gouj	-9528
▁hôte	-9529
▁nect	-9530
▁oser	-9531
▁refl	-9532
▁scie	-9533
Enfant	-9534
aliser	-9535
effort	-9536
formes	-9537
illité	-9538
ordide	-9539
oulard	-9540
érales	-9541
▁Laiss	-9542
▁Simon	-9543
▁Unies	-9544
▁amuse	-9545
▁essai	-9546
▁genou	-9547
▁impur	-9548
▁longu	-9549
▁possi	-9550
▁revue	-9551
▁ultra	-9552
▁volés	-9553
▁végét	-9554
▁équiv	-9555
▁étiqu	-9556
192,220	-9557
Anglais	-9558
Surtout	-9559
accorde	-9560
achètes	-9561
acteurs	-9562
actives	-9563
affront	-9564
agoules	-9565
alaxies	-9566
alibans	-9567
alisées	-9568
anchies	-9569
annonce	-9570
antenne	-9571
appétit	-9572
arement	-9573
arrange	-9574
arriver	-9575
asunien	-9576
ataires	-9577
attache	-9578
attants	-9579
auberge	-9580
auvages	-9581
açaient	-9582
aîtrais	-9583
aîtriez	-9584
blagues	-9585
camionn	-9586
capsule	-9587
cellule	-9588
cherait	-9589
cieuses	-9590
civilis	-9591
compagn	-9592
copains	-9593
diction	-9594
doivent	-9595
drogues	-9596
démocra	-9597
efforts	-9598
elgique	-9599
Sud	-9600
ané	-9601
nam	-9602
obb	-9603
tôt	-9604
▁2,	-9605
▁95	-9606
▁na	-9607
ival	-9608
kins	-9609
mign	-9610
onds	-9611
ples	-9612
égot	-9613
▁Amy	-9614
▁gif	-9615
▁iss	-9616
▁pig	-9617
bébés	-9618
etnam	-9619
iches	-9620
ignée	-9621
obser	-9622
rassé	-9623
rasés	-9624
tlant	-9625
tueux	-9626
écras	-9627
étire	-9628
ôture	-9629
▁Ford	-9630
▁astu	-9631
▁boum	-9632
▁recr	-9633
▁recy	-9634
Atlant	-9635
arbres	-9636
bonbon	-9637
issons	-9638
unifor	-9639
ureaux	-9640
éserve	-9641
▁arbre	-9642
▁dénig	-9643
▁loint	-9644
▁proph	-9645
▁recon	-9646
▁russe	-9647
▁seign	-9648
avancer	-9649
emparer	-9650
enfance	-9651
entoure	-9652
entretu	-9653
environ	-9654
envoler	-9655
ermique	-9656
estival	-9657
faisant	-9658
flammes	-9659
foulard	-9660
graines	-9661
gration	-9662
groupes	-9663
homosex	-9664
hompson	-9665
icieuse	-9666
ifornie	-9667
ingants	-9668
inistre	-9669
inquiet	-9670
insecte	-9671
inspire	-9672
interro	-9673
isseurs	-9674
istique	-9675
ivement	-9676
luminol	-9677
matique	-9678
membres	-9679
onateur	-9680
onniers	-9681
ontaine	-9682
organis	-9683
orisées	-9684
oussait	-9685
outrage	-9686
pensées	-9687
ptembre	-9688
pétrole	-9689
quettes	-9690
racines	-9691
ritoire	-9692
rumeurs	-9693
rôlable	-9694
section	-9695
signifi	-9696
simuler	-9697
ublique	-9698
vietnam	-9699
féd	-9700
▁Gl	-9701
▁Pl	-9702
alem	-9703
bagn	-9704
cale	-9705
iage	-9706
lice	-9707
lite	-9708
ogan	-9709
ogne	-9710
▁Fis	-9711
▁Ham	-9712
▁Hil	-9713
▁Hit	-9714
▁Nil	-9715
▁fun	-9716
▁mij	-9717
▁pub	-9718
adies	-9719
enver	-9720
estra	-9721
irmer	-9722
ories	-9723
pères	-9724
verti	-9725
▁Long	-9726
▁aler	-9727
▁hais	-9728
▁mend	-9729
▁repl	-9730
▁scol	-9731
aliste	-9732
emploi	-9733
vières	-9734
▁Logan	-9735
▁enfou	-9736
▁enfui	-9737
▁expéd	-9738
▁linge	-9739
▁moche	-9740
▁pirat	-9741
▁protè	-9742
▁revol	-9743
▁salut	-9744
▁soule	-9745
▁subir	-9746
▁tache	-9747
▁viole	-9748
bagnole	-9749
formule	-9750
visions	-9751
vivants	-9752
vérités	-9753
éclater	-9754
écroule	-9755
élateur	-9756
éloigne	-9757
établir	-9758
▁Avenue	-9759
▁Barack	-9760
▁Canada	-9761
▁Chérie	-9762
▁Cylons	-9763
▁Dennis	-9764
▁Donnez	-9765
▁Entend	-9766
▁Europe	-9767
▁Grande	-9768
▁Havane	-9769
▁Jersey	-9770
▁Kelvin	-9771
▁Lauren	-9772
▁Maison	-9773
▁Maître	-9774
▁Melody	-9775
▁Mexico	-9776
▁Mickey	-9777
▁Mulder	-9778
▁Nathan	-9779
▁Pardon	-9780
▁Pensez	-9781
▁Police	-9782
▁Quatre	-9783
▁Reggie	-9784
▁Robert	-9785
▁Ronald	-9786
▁Sahara	-9787
▁Sainte	-9788
▁Shinji	-9789
▁Suivez	-9790
▁Trouve	-9791
▁Walter	-9792
▁abouti	-9793
▁absent	-9794
▁accent	-9795
▁active	-9796
▁adulte	-9797
▁affect	-9798
▁affirm	-9799
add	-9800
erd	-9801
ida	-9802
rue	-9803
adop	-9804
ador	-9805
conn	-9806
mise	-9807
mots	-9808
oulé	-9809
tage	-9810
épée	-9811
▁Lex	-9812
▁May	-9813
▁Oli	-9814
▁Rad	-9815
▁Way	-9816
▁far	-9817
▁rid	-9818
aculé	-9819
apier	-9820
ompét	-9821
orise	-9822
rosez	-9823
roulé	-9824
étaie	-9825
▁Fait	-9826
▁Flor	-9827
▁clou	-9828
▁crot	-9829
▁grav	-9830
▁logo	-9831
▁rass	-9832
▁tien	-9833
▁évap	-9834
assaut	-9835
assoir	-9836
bilité	-9837
couple	-9838
igrent	-9839
iliens	-9840
isions	-9841
istrat	-9842
jaculé	-9843
papier	-9844
poudre	-9845
resser	-9846
talgie	-9847
▁24...	-9848
▁Wayne	-9849
▁déten	-9850
▁expos	-9851
▁grève	-9852
▁jurid	-9853
▁noyau	-9854
▁paras	-9855
allique	-9856
assiens	-9857
costume	-9858
issante	-9859
liberté	-9860
persées	-9861
ériques	-9862
▁aident	-9863
▁amitié	-9864
▁annule	-9865
▁antiqu	-9866
▁appriv	-9867
▁arrest	-9868
▁asphyx	-9869
▁assise	-9870
▁astéro	-9871
▁aveugl	-9872
▁baptis	-9873
▁basket	-9874
▁bassin	-9875
▁billet	-9876
▁blesse	-9877
▁bleues	-9878
▁blâmer	-9879
▁bombes	-9880
▁bondit	-9881
▁bordel	-9882
▁bougie	-9883
▁brille	-9884
▁broyer	-9885
▁brutes	-9886
▁budget	-9887
▁bullet	-9888
▁cabine	-9889
▁calife	-9890
▁caméra	-9891
▁canapé	-9892
▁candid	-9893
▁causes	-9894
▁censée	-9895
▁chants	-9896
▁chevau	-9897
▁chirur	-9898
▁chèque	-9899
-2	-9900
-5	-9901
Ir	-9902
Où	-9903
fré	-9904
pai	-9905
éte	-9906
▁Kh	-9907
▁êt	-9908
Fond	-9909
dite	-9910
medi	-9911
mite	-9912
paix	-9913
recs	-9914
rité	-9915
stes	-9916
vert	-9917
▁Jim	-9918
▁Tex	-9919
▁fal	-9920
▁jum	-9921
▁tab	-9922
▁évo	-9923
▁êtê	-9924
eneur	-9925
force	-9926
ienté	-9927
indis	-9928
istal	-9929
outte	-9930
reine	-9931
sants	-9932
uteur	-9933
▁Fais	-9934
▁Hall	-9935
▁Hans	-9936
▁amic	-9937
▁lanc	-9938
▁mous	-9939
▁plas	-9940
▁revi	-9941
▁semi	-9942
assure	-9943
etière	-9944
goutte	-9945
orient	-9946
étouff	-9947
▁Winch	-9948
▁démén	-9949
▁falsi	-9950
▁final	-9951
▁finie	-9952
▁nient	-9953
▁préte	-9954
▁vider	-9955
▁vital	-9956
Irlande	-9957
chewing	-9958
enfonce	-9959
ondance	-9960
robable	-9961
▁amours	-9962
▁armure	-9963
▁ciment	-9964
▁citron	-9965
▁claqué	-9966
▁collée	-9967
▁compli	-9968
▁corpor	-9969
▁créant	-9970
▁design	-9971
▁devrez	-9972
▁digest	-9973
▁digère	-9974
▁dirent	-9975
▁disiez	-9976
▁divers	-9977
▁donnée	-9978
▁douces	-9979
▁douche	-9980
▁douter	-9981
▁dressé	-9982
▁droits	-9983
▁débite	-9984
▁débuté	-9985
▁décent	-9986
▁déchar	-9987
▁décoll	-9988
▁décryp	-9989
▁défens	-9990
▁défier	-9991
▁déshab	-9992
▁détach	-9993
▁détein	-9994
▁détéri	-9995
▁dévore	-9996
▁embard	-9997
▁emmène	-9998
▁empire	-9999
Est	-10000
abs	-10001
cor	-10002
ull	-10003
via	-10004
▁ST	-10005
▁fœ	-10006
▁pô	-10007
Sole	-10008
abus	-10009
arie	-10010
bord	-10011
carb	-10012
host	-10013
ompe	-10014
rose	-10015
tice	-10016
▁Cel	-10017
▁Rec	-10018
▁Roy	-10019
▁Sén	-10020
▁ete	-10021
▁lls	-10022
▁rot	-10023
▁vét	-10024
▁éro	-10025
▁éto	-10026
aband	-10027
andro	-10028
dieux	-10029
lance	-10030
▁Jedi	-10031
▁adul	-10032
▁anon	-10033
▁cogn	-10034
▁coop	-10035
▁cuit	-10036
▁culp	-10037
▁fuit	-10038
▁meme	-10039
▁moul	-10040
▁osez	-10041
▁pest	-10042
▁rall	-10043
acable	-10044
aignée	-10045
altère	-10046
itable	-10047
orphel	-10048
ériens	-10049
▁Lucas	-10050
▁Rempl	-10051
▁State	-10052
▁adieu	-10053
▁baign	-10054
▁butin	-10055
▁laser	-10056
▁rance	-10057
▁sueur	-10058
▁vieil	-10059
▁étude	-10060
audière	-10061
facture	-10062
oseront	-10063
rétaire	-10064
▁commer	-10065
▁dissol	-10066
▁empiré	-10067
▁empois	-10068
▁enduré	-10069
▁englou	-10070
▁ennemi	-10071
▁envahi	-10072
▁envolé	-10073
▁espéré	-10074
▁existé	-10075
▁expert	-10076
▁expire	-10077
▁faille	-10078
▁fanées	-10079
▁filets	-10080
▁fières	-10081
▁foirer	-10082
▁folies	-10083
▁fortun	-10084
▁fourch	-10085
▁fourni	-10086
▁foutra	-10087
▁franch	-10088
▁francs	-10089
▁fument	-10090
▁gangst	-10091
▁gardes	-10092
▁goutte	-10093
▁grange	-10094
▁grille	-10095
▁grippe	-10096
▁gronde	-10097
▁guérir	-10098
▁gèlent	-10099
Na	-10100
riz	-10101
▁Ré	-10102
bier	-10103
chet	-10104
gera	-10105
gles	-10106
mera	-10107
uste	-10108
écie	-10109
▁Bal	-10110
▁Ger	-10111
▁féc	-10112
▁lig	-10113
▁méc	-10114
▁tim	-10115
▁ved	-10116
▁vot	-10117
Alors	-10118
Votre	-10119
acles	-10120
agère	-10121
arder	-10122
isera	-10123
olées	-10124
ortez	-10125
urine	-10126
êtent	-10127
▁Jess	-10128
▁cage	-10129
▁marr	-10130
▁pots	-10131
▁rétr	-10132
▁sard	-10133
▁vase	-10134
oteurs	-10135
ultats	-10136
▁aurez	-10137
▁bougé	-10138
▁direc	-10139
▁dévas	-10140
▁guidé	-10141
▁paies	-10142
▁resto	-10143
▁royal	-10144
▁squel	-10145
▁suent	-10146
apporte	-10147
pharmac	-10148
éclaire	-10149
▁Boston	-10150
▁Island	-10151
▁Little	-10152
▁Seront	-10153
▁agence	-10154
▁ailles	-10155
▁brosse	-10156
▁compar	-10157
▁fameux	-10158
▁fontes	-10159
▁halluc	-10160
▁heurté	-10161
▁humeur	-10162
▁impati	-10163
▁impuis	-10164
▁incite	-10165
▁incont	-10166
▁inhalé	-10167
▁instru	-10168
▁interm	-10169
▁inters	-10170
▁isoler	-10171
▁isolés	-10172
▁jambon	-10173
▁kimono	-10174
▁lignée	-10175
▁limite	-10176
▁lisiez	-10177
▁livrer	-10178
▁légere	-10179
▁légère	-10180
▁manche	-10181
▁marqué	-10182
▁massac	-10183
▁mercen	-10184
▁micros	-10185
▁millén	-10186
▁misère	-10187
▁moches	-10188
▁montés	-10189
▁mourez	-10190
▁mouton	-10191
▁mutent	-10192
▁mérité	-10193
▁métier	-10194
▁naître	-10195
▁nectar	-10196
▁notion	-10197
▁nourri	-10198
▁occupe	-10199
/2	-10200
IV	-10201
▁_	-10202
Aut	-10203
opé	-10204
sum	-10205
tum	-10206
ula	-10207
utu	-10208
▁Dé	-10209
▁GP	-10210
nera	-10211
prop	-10212
sage	-10213
urée	-10214
▁196	-10215
▁GPS	-10216
▁Mos	-10217
▁Put	-10218
▁Sue	-10219
▁act	-10220
▁nut	-10221
autor	-10222
illir	-10223
oines	-10224
onnec	-10225
ulien	-10226
▁FaII	-10227
▁Will	-10228
▁cong	-10229
▁herm	-10230
▁obéi	-10231
▁plai	-10232
apport	-10233
essous	-10234
gouver	-10235
intent	-10236
ombres	-10237
possum	-10238
tumeur	-10239
▁alent	-10240
▁décev	-10241
▁labor	-10242
▁mines	-10243
▁plomb	-10244
▁reine	-10245
▁remue	-10246
▁saisi	-10247
dessous	-10248
gouvern	-10249
message	-10250
paroles	-10251
▁Moscou	-10252
▁Putain	-10253
▁accabl	-10254
▁actuel	-10255
▁bancal	-10256
▁botter	-10257
▁cesser	-10258
▁couvre	-10259
▁craign	-10260
▁débute	-10261
▁effets	-10262
▁entour	-10263
▁ferons	-10264
▁insati	-10265
▁insolu	-10266
▁négoci	-10267
▁oeuvre	-10268
▁offert	-10269
▁option	-10270
▁organe	-10271
▁otages	-10272
▁parach	-10273
▁paraly	-10274
▁parier	-10275
▁partez	-10276
▁payait	-10277
▁payent	-10278
▁pelage	-10279
▁penche	-10280
▁pendre	-10281
▁pensée	-10282
▁percer	-10283
▁perdus	-10284
▁pertur	-10285
▁pesait	-10286
▁piquer	-10287
▁pisser	-10288
▁placer	-10289
▁planté	-10290
▁pleurs	-10291
▁plumes	-10292
▁poches	-10293
▁pointé	-10294
▁pollen	-10295
▁priais	-10296
▁prions	-10297
▁privés	-10298
▁proble	-10299
awa	-10300
boy	-10301
fia	-10302
fié	-10303
lan	-10304
meu	-10305
ulc	-10306
êve	-10307
▁iI	-10308
agan	-10309
andy	-10310
ardi	-10311
ceau	-10312
cond	-10313
fice	-10314
fite	-10315
gard	-10316
igre	-10317
olig	-10318
▁,..	-10319
▁Jes	-10320
▁alg	-10321
▁gir	-10322
▁rig	-10323
atter	-10324
icité	-10325
imeux	-10326
inond	-10327
rases	-10328
tives	-10329
▁erre	-10330
▁gren	-10331
▁sure	-10332
▁unan	-10333
chance	-10334
nombre	-10335
ultent	-10336
▁Jesus	-10337
▁mardi	-10338
▁moque	-10339
▁surve	-10340
▁troup	-10341
▁virer	-10342
aillent	-10343
ennemis	-10344
grandes	-10345
onnante	-10346
osition	-10347
respons	-10348
rysanth	-10349
▁alliez	-10350
▁appell	-10351
▁assiég	-10352
▁bannis	-10353
▁durera	-10354
▁guéris	-10355
▁promen	-10356
▁précéd	-10357
▁préfér	-10358
▁prêter	-10359
▁péchés	-10360
▁pêcher	-10361
▁queues	-10362
▁quitta	-10363
▁quoiqu	-10364
▁ramper	-10365
▁ramène	-10366
▁rayons	-10367
▁rechar	-10368
▁recous	-10369
▁refait	-10370
▁relève	-10371
▁rendra	-10372
▁rendus	-10373
▁rentré	-10374
▁repens	-10375
▁ressus	-10376
▁revend	-10377
▁revoir	-10378
▁reçoit	-10379
▁rituel	-10380
▁rompre	-10381
▁ruelle	-10382
▁ruines	-10383
▁réagir	-10384
▁réagit	-10385
▁réduit	-10386
▁répare	-10387
▁réunir	-10388
▁saints	-10389
▁saleté	-10390
▁salope	-10391
▁samedi	-10392
▁saurez	-10393
▁sauvée	-10394
▁saviez	-10395
▁serrée	-10396
▁servis	-10397
▁signer	-10398
▁sirène	-10399
"?	-10400
mm	-10401
xy	-10402
eci	-10403
çue	-10404
▁DE	-10405
▁Tw	-10406
▁Ve	-10407
▁hâ	-10408
▁ya	-10409
agez	-10410
appl	-10411
code	-10412
inez	-10413
osés	-10414
sour	-10415
ureu	-10416
uter	-10417
view	-10418
▁Bab	-10419
▁Big	-10420
▁Dun	-10421
▁Mac	-10422
▁Vol	-10423
▁inj	-10424
▁oxy	-10425
▁tex	-10426
▁éra	-10427
aimez	-10428
chées	-10429
couru	-10430
erson	-10431
gueil	-10432
llère	-10433
notes	-10434
super	-10435
tards	-10436
vente	-10437
▁Mang	-10438
▁cris	-10439
▁hant	-10440
▁sché	-10441
Eglise	-10442
adrant	-10443
ageurs	-10444
entité	-10445
oudron	-10446
souris	-10447
▁Spéci	-10448
▁devis	-10449
▁exist	-10450
▁frein	-10451
▁rient	-10452
▁salit	-10453
▁souci	-10454
accompl	-10455
activer	-10456
aleines	-10457
avocats	-10458
▁aimais	-10459
▁conçue	-10460
▁eurent	-10461
▁mirent	-10462
▁réflex	-10463
▁sommet	-10464
▁soumet	-10465
▁stable	-10466
▁stress	-10467
▁sucres	-10468
▁sujets	-10469
▁surnom	-10470
▁surviv	-10471
▁sympas	-10472
▁sécher	-10473
▁séries	-10474
▁tables	-10475
▁taches	-10476
▁tartes	-10477
▁tendre	-10478
▁tennis	-10479
▁terres	-10480
▁ticket	-10481
▁tireur	-10482
▁tombes	-10483
▁traque	-10484
▁tribun	-10485
▁trompé	-10486
▁truqué	-10487
▁tuerie	-10488
▁témoin	-10489
▁utiles	-10490
▁vaudra	-10491
▁vendra	-10492
▁vendue	-10493
▁venger	-10494
▁ventes	-10495
▁verrez	-10496
▁veuves	-10497
▁vibrer	-10498
▁virent	-10499
zi	-10500
Cam	-10501
Pas	-10502
Pét	-10503
cot	-10504
enz	-10505
eps	-10506
hyp	-10507
kat	-10508
obé	-10509
oto	-10510
rib	-10511
sat	-10512
tox	-10513
▁of	-10514
deux	-10515
imes	-10516
inat	-10517
plat	-10518
tais	-10519
teas	-10520
▁Séc	-10521
▁aig	-10522
▁dic	-10523
▁eut	-10524
attre	-10525
ormes	-10526
piter	-10527
rifie	-10528
vague	-10529
érais	-10530
▁Good	-10531
▁Port	-10532
▁Tomb	-10533
▁Voul	-10534
▁forc	-10535
▁gain	-10536
▁lamb	-10537
▁quas	-10538
▁ring	-10539
dispos	-10540
inerie	-10541
isseur	-10542
moment	-10543
quiers	-10544
▁Cohen	-10545
▁améli	-10546
▁brace	-10547
▁chats	-10548
▁décro	-10549
▁gazon	-10550
▁virés	-10551
▁âgées	-10552
atteint	-10553
oreuses	-10554
outarde	-10555
▁Autant	-10556
▁circul	-10557
▁claque	-10558
▁cueill	-10559
▁foudre	-10560
▁ingéré	-10561
▁lancée	-10562
▁office	-10563
▁prêtre	-10564
▁réelle	-10565
▁résout	-10566
▁vision	-10567
▁visité	-10568
▁vitale	-10569
▁volant	-10570
▁votant	-10571
▁voyagé	-10572
▁vêtues	-10573
▁zigzag	-10574
▁échapp	-10575
▁éclaté	-10576
▁électr	-10577
▁élevée	-10578
▁élevés	-10579
▁épines	-10580
▁étouff	-10581
▁évanou	-10582
Japonais	-10583
accepter	-10584
aguettes	-10585
aidaient	-10586
aillible	-10587
ainement	-10588
aisément	-10589
analyser	-10590
angoisse	-10591
antidote	-10592
aperçois	-10593
apporter	-10594
approche	-10595
appuient	-10596
araignée	-10597
arranger	-10598
asseront	-10599
ué	-10600
App	-10601
Cet	-10602
Sic	-10603
Tes	-10604
ago	-10605
cui	-10606
lla	-10607
non	-10608
sen	-10609
tue	-10610
égu	-10611
▁Oû	-10612
Cela	-10613
anie	-10614
chel	-10615
chim	-10616
erte	-10617
vois	-10618
vons	-10619
▁pul	-10620
aland	-10621
anien	-10622
eling	-10623
inons	-10624
oison	-10625
orcel	-10626
osons	-10627
tenez	-10628
treet	-10629
vitre	-10630
écran	-10631
▁carg	-10632
▁diab	-10633
▁irré	-10634
▁lesb	-10635
▁midi	-10636
▁sers	-10637
▁théâ	-10638
▁vins	-10639
aissée	-10640
baiser	-10641
envole	-10642
eureux	-10643
ilding	-10644
nonnes	-10645
quette	-10646
éraire	-10647
▁écran	-10648
amènent	-10649
ensuite	-10650
omètres	-10651
ouvrent	-10652
prendre	-10653
science	-10654
érences	-10655
érifier	-10656
▁Street	-10657
▁cuivre	-10658
▁malins	-10659
▁montée	-10660
▁neiger	-10661
▁ramené	-10662
▁surgir	-10663
▁tirera	-10664
▁trauma	-10665
Martiens	-10666
atomique	-10667
bataille	-10668
centrale	-10669
citoyens	-10670
colonies	-10671
comprend	-10672
connards	-10673
couronne	-10674
document	-10675
ellaires	-10676
embrasse	-10677
embêtent	-10678
enrichir	-10679
ensibles	-10680
entagone	-10681
escalier	-10682
esclaves	-10683
essayais	-10684
estibles	-10685
examiner	-10686
fections	-10687
fontaine	-10688
fédéraux	-10689
généraux	-10690
habiller	-10691
humidité	-10692
héritage	-10693
hôpitaux	-10694
icateurs	-10695
iendrons	-10696
ignorent	-10697
iliation	-10698
installe	-10699
IE	-10700
ds	-10701
ît	-10702
alu	-10703
bur	-10704
igh	-10705
mie	-10706
rip	-10707
sur	-10708
uck	-10709
ugn	-10710
▁CD	-10711
▁Sm	-10712
▁kg	-10713
anom	-10714
embl	-10715
fées	-10716
pons	-10717
pres	-10718
▁Cur	-10719
▁Cés	-10720
▁Ram	-10721
▁ara	-10722
▁big	-10723
▁dri	-10724
atifs	-10725
isées	-10726
lujah	-10727
onnée	-10728
outit	-10729
ouvri	-10730
shirt	-10731
strip	-10732
ésion	-10733
▁doué	-10734
▁gâte	-10735
▁paru	-10736
▁requ	-10737
avaler	-10738
cibles	-10739
euvres	-10740
▁Bryan	-10741
▁César	-10742
▁armée	-10743
▁cadre	-10744
▁culte	-10745
▁drame	-10746
▁drive	-10747
▁décid	-10748
▁hypoc	-10749
▁incul	-10750
▁porti	-10751
▁série	-10752
▁terne	-10753
obtenir	-10754
otonine	-10755
▁climat	-10756
▁donnes	-10757
▁intact	-10758
▁mépris	-10759
▁nulles	-10760
▁prouvé	-10761
▁répugn	-10762
▁réside	-10763
▁établi	-10764
▁éterne	-10765
anatomie	-10766
intercep	-10767
intéress	-10768
issables	-10769
itionner	-10770
ièrement	-10771
mensonge	-10772
mination	-10773
médecine	-10774
ociation	-10775
oduction	-10776
oglobine	-10777
oitation	-10778
onnaires	-10779
onnantes	-10780
onnerait	-10781
ordonnée	-10782
ortaient	-10783
ouillard	-10784
parieurs	-10785
patiales	-10786
pistolet	-10787
ressives	-10788
réponses	-10789
résultat	-10790
sangsues	-10791
sauvages	-10792
suspects	-10793
tatouage	-10794
ventions	-10795
viennent	-10796
violence	-10797
écrasait	-10798
écrasent	-10799
TI	-10800
ym	-10801
aco	-10802
ape	-10803
fac	-10804
tom	-10805
uri	-10806
êle	-10807
▁JU	-10808
acon	-10809
cupe	-10810
erme	-10811
ibou	-10812
itte	-10813
ocky	-10814
prem	-10815
rish	-10816
▁Bad	-10817
▁Bay	-10818
▁Dro	-10819
▁Esp	-10820
▁Lis	-10821
▁Ros	-10822
▁gym	-10823
▁mit	-10824
angle	-10825
établ	-10826
êques	-10827
▁Maud	-10828
▁acte	-10829
▁dons	-10830
▁enqu	-10831
▁noté	-10832
▁rati	-10833
andent	-10834
remède	-10835
tibles	-10836
vaccin	-10837
▁Monde	-10838
▁Robin	-10839
▁fouet	-10840
▁ouais	-10841
▁paroi	-10842
▁révol	-10843
▁vainc	-10844
couvert	-10845
mentent	-10846
élément	-10847
▁Castle	-10848
▁Silver	-10849
▁devine	-10850
▁divine	-10851
▁hurler	-10852
▁incarc	-10853
▁minces	-10854
▁nagent	-10855
▁remuer	-10856
▁spirit	-10857
emmènent	-10858
existent	-10859
impressi	-10860
itations	-10861
lacement	-10862
ouillées	-10863
éloigner	-10864
émotions	-10865
équateur	-10866
ériences	-10867
étranger	-10868
▁Abraham	-10869
▁Angeles	-10870
▁Babylon	-10871
▁Bouddha	-10872
▁Carlton	-10873
▁Colonel	-10874
▁Conseil	-10875
▁Défense	-10876
▁Ecoutez	-10877
▁Envoyez	-10878
▁Etaient	-10879
▁Excusez	-10880
▁Gardien	-10881
▁Islande	-10882
▁Jackson	-10883
▁Jessica	-10884
▁Libérez	-10885
▁Majesté	-10886
▁Mexique	-10887
▁Missour	-10888
▁Pologne	-10889
▁Richard	-10890
▁Silence	-10891
▁Souvent	-10892
▁Twitter	-10893
▁Vengeur	-10894
▁Winston	-10895
▁achetez	-10896
▁actionn	-10897
▁adaptée	-10898
▁adultes	-10899
10	-10900
De	-10901
Oh	-10902
gh	-10903
Dém	-10904
Eux	-10905
fus	-10906
lab	-10907
pus	-10908
ung	-10909
blig	-10910
clef	-10911
dité	-10912
etit	-10913
gner	-10914
infl	-10915
ousp	-10916
rand	-10917
sées	-10918
▁50,	-10919
▁Bur	-10920
▁fit	-10921
▁grâ	-10922
▁lat	-10923
▁nus	-10924
▁rus	-10925
chard	-10926
chute	-10927
erges	-10928
oirés	-10929
oises	-10930
pénis	-10931
usent	-10932
▁Cons	-10933
▁Sire	-10934
▁Soud	-10935
▁bros	-10936
▁disc	-10937
▁jazz	-10938
▁lame	-10939
▁mamm	-10940
aimiez	-10941
centre	-10942
décret	-10943
iliser	-10944
inconn	-10945
preuve	-10946
▁Dewey	-10947
▁Petit	-10948
▁Seuls	-10949
▁avent	-10950
▁excep	-10951
▁fossé	-10952
▁orage	-10953
▁peste	-10954
▁rousp	-10955
▁écrab	-10956
192,230	-10957
amusait	-10958
aqueduc	-10959
caisses	-10960
iration	-10961
▁Mettre	-10962
▁crimin	-10963
▁flotté	-10964
▁sentez	-10965
angement	-10966
atherine	-10967
onnettes	-10968
ortement	-10969
▁affirme	-10970
▁affront	-10971
▁ajouter	-10972
▁amenées	-10973
▁amicaux	-10974
▁amènent	-10975
▁annonce	-10976
▁annuler	-10977
▁anéanti	-10978
▁apparus	-10979
▁arrache	-10980
▁arrives	-10981
▁aspects	-10982
▁aspirer	-10983
▁associé	-10984
▁assurés	-10985
▁attends	-10986
▁avances	-10987
▁avertir	-10988
▁aveugle	-10989
▁avocats	-10990
▁baisser	-10991
▁balayer	-10992
▁banales	-10993
▁blottir	-10994
▁boisson	-10995
▁bombard	-10996
▁boucles	-10997
▁brisant	-10998
▁brûlait	-10999
nu	-11000
Des	-11001
Peu	-11002
bro	-11003
déf	-11004
eth	-11005
inv	-11006
▁SA	-11007
▁Sp	-11008
▁Sé	-11009
▁Vi	-11010
ceux	-11011
gies	-11012
hone	-11013
itôt	-11014
ller	-11015
▁Bén	-11016
▁Kar	-11017
▁Oly	-11018
▁Tôt	-11019
▁bur	-11020
▁fui	-11021
▁san	-11022
▁véc	-11023
astas	-11024
films	-11025
index	-11026
onnie	-11027
opsie	-11028
orcée	-11029
pares	-11030
pieds	-11031
seuse	-11032
▁Andr	-11033
▁Cher	-11034
▁Phil	-11035
▁exag	-11036
▁subi	-11037
estent	-11038
ittent	-11039
queurs	-11040
tation	-11041
éloign	-11042
▁Olymp	-11043
▁Temps	-11044
▁Vient	-11045
▁copie	-11046
▁dansé	-11047
▁moral	-11048
▁scêne	-11049
ouvrait	-11050
quement	-11051
société	-11052
station	-11053
▁bottes	-11054
▁commet	-11055
▁estime	-11056
▁filmer	-11057
▁lézard	-11058
▁plisse	-11059
▁reculé	-11060
▁remode	-11061
▁souple	-11062
Histoire	-11063
▁Appelez	-11064
▁Langley	-11065
▁Nations	-11066
▁brûlant	-11067
▁bureaux	-11068
▁cabinet	-11069
▁calculé	-11070
▁caresse	-11071
▁casiers	-11072
▁causent	-11073
▁cellule	-11074
▁centime	-11075
▁centres	-11076
▁chacals	-11077
▁chagrin	-11078
▁charger	-11079
▁chauffe	-11080
▁chemins	-11081
▁choquer	-11082
▁château	-11083
▁civiles	-11084
▁claquer	-11085
▁clients	-11086
▁clôture	-11087
▁cochons	-11088
▁cognent	-11089
▁coiffer	-11090
▁collent	-11091
▁colline	-11092
▁compter	-11093
▁concrét	-11094
▁confess	-11095
▁connard	-11096
▁connues	-11097
▁consomm	-11098
▁contrac	-11099
,3	-11100
3,	-11101
ER	-11102
LD	-11103
▁x	-11104
Bon	-11105
Ses	-11106
rév	-11107
tor	-11108
tus	-11109
veu	-11110
éon	-11111
▁ll	-11112
▁pâ	-11113
▁ty	-11114
alys	-11115
iton	-11116
oger	-11117
parp	-11118
urst	-11119
▁Fin	-11120
▁Per	-11121
▁San	-11122
▁Tim	-11123
▁mém	-11124
▁nés	-11125
▁sor	-11126
assés	-11127
désir	-11128
estim	-11129
immob	-11130
ourir	-11131
èvres	-11132
▁Geor	-11133
▁Vers	-11134
▁atte	-11135
▁brul	-11136
▁exéc	-11137
▁mode	-11138
▁pans	-11139
▁pron	-11140
▁tres	-11141
▁voil	-11142
▁évit	-11143
archie	-11144
emball	-11145
riques	-11146
▁abrut	-11147
▁amène	-11148
▁cuite	-11149
▁deuil	-11150
▁dinde	-11151
▁focal	-11152
▁souri	-11153
aissera	-11154
espèces	-11155
horreur	-11156
ouillés	-11157
èneront	-11158
▁agneau	-11159
▁ascens	-11160
▁boules	-11161
▁cochon	-11162
▁coupée	-11163
▁gelait	-11164
▁neiges	-11165
accroche	-11166
veillant	-11167
ventionn	-11168
▁capital	-11169
▁caserne	-11170
▁contras	-11171
▁copines	-11172
▁corpore	-11173
▁costaud	-11174
▁costume	-11175
▁couchée	-11176
▁couloir	-11177
▁coupait	-11178
▁coupées	-11179
▁coûtait	-11180
▁coûtent	-11181
▁cracher	-11182
▁critère	-11183
▁croisés	-11184
▁cruauté	-11185
▁cuisiné	-11186
▁célèbre	-11187
▁demeure	-11188
▁deviend	-11189
▁diabète	-11190
▁diffusé	-11191
▁digérer	-11192
▁diminue	-11193
▁dingues	-11194
▁dioxyde	-11195
▁discipl	-11196
▁disques	-11197
▁dissout	-11198
▁disting	-11199
IC	-11200
RO	-11201
mo	-11202
▁œ	-11203
gas	-11204
lac	-11205
▁DO	-11206
▁ur	-11207
Etat	-11208
Puis	-11209
atan	-11210
avin	-11211
espè	-11212
haut	-11213
tard	-11214
▁gré	-11215
▁nou	-11216
pouce	-11217
relig	-11218
reste	-11219
▁Bomb	-11220
▁Dale	-11221
▁ruis	-11222
▁supr	-11223
▁écar	-11224
braves	-11225
grippe	-11226
otages	-11227
▁Livre	-11228
▁South	-11229
▁plate	-11230
▁roses	-11231
▁scand	-11232
abattre	-11233
requins	-11234
▁00:45:	-11235
▁allais	-11236
▁cambri	-11237
▁contag	-11238
▁devrai	-11239
▁dirigé	-11240
▁grossi	-11241
▁locale	-11242
▁remise	-11243
moutarde	-11244
ouvriers	-11245
réfugiés	-11246
▁aperçus	-11247
▁brûlent	-11248
▁divorce	-11249
▁dommage	-11250
▁donnons	-11251
▁droites	-11252
▁déborde	-11253
▁déceler	-11254
▁déchiré	-11255
▁décolle	-11256
▁définie	-11257
▁dégager	-11258
▁démissi	-11259
▁démolie	-11260
▁dépassé	-11261
▁déplacé	-11262
▁déposée	-11263
▁dérange	-11264
▁détecte	-11265
▁détecté	-11266
▁emmenée	-11267
▁emmenés	-11268
▁emplois	-11269
▁employé	-11270
▁emporte	-11271
▁empêché	-11272
▁enfermé	-11273
▁enfiler	-11274
▁enfoncé	-11275
▁enlèves	-11276
▁enragés	-11277
▁enterré	-11278
▁entiers	-11279
▁entrain	-11280
▁envolée	-11281
▁envoyée	-11282
▁envoyés	-11283
▁espoirs	-11284
▁essence	-11285
▁exercée	-11286
▁exister	-11287
▁externe	-11288
▁facteur	-11289
▁faculté	-11290
▁faiblit	-11291
▁fardeau	-11292
▁fascine	-11293
▁fatigué	-11294
▁femelle	-11295
▁fermier	-11296
▁feuille	-11297
▁fiables	-11298
▁fidèles	-11299
▁flétrit	-11300
▁fondées	-11301
▁forment	-11302
▁furieux	-11303
▁futures	-11304
▁fédéral	-11305
▁gagnant	-11306
▁galaxie	-11307
▁glisser	-11308
▁grandis	-11309
▁grappin	-11310
▁gratuit	-11311
▁grossir	-11312
▁grossit	-11313
▁grottes	-11314
▁guinées	-11315
▁habitée	-11316
▁hauteur	-11317
▁hésiter	-11318
▁hôpital	-11319
▁ignorés	-11320
▁imitent	-11321
▁implant	-11322
▁imprimé	-11323
▁infecté	-11324
▁infinie	-11325
▁injuste	-11326
▁inspire	-11327
▁institu	-11328
▁intense	-11329
▁interne	-11330
▁intimes	-11331
▁intimid	-11332
▁inutile	-11333
▁invités	-11334
▁lancent	-11335
▁langues	-11336
▁libérée	-11337
▁locales	-11338
▁lourdes	-11339
▁loyauté	-11340
▁luttant	-11341
▁légiste	-11342
▁malheur	-11343
▁malmené	-11344
▁marques	-11345
▁massive	-11346
▁masturb	-11347
▁matrice	-11348
▁mentale	-11349
▁mesures	-11350
▁mignons	-11351
▁miracle	-11352
▁miroirs	-11353
▁modeste	-11354
▁monnaie	-11355
▁montées	-11356
▁mortels	-11357
▁médical	-11358
▁mélodie	-11359
▁méthane	-11360
▁méthode	-11361
▁nations	-11362
▁nettoie	-11363
▁nichons	-11364
▁numéros	-11365
▁négligé	-11366
▁obligés	-11367
▁observé	-11368
▁occuper	-11369
▁occupés	-11370
▁offrent	-11371
▁oiseaux	-11372
▁options	-11373
▁origine	-11374
▁ouvrait	-11375
▁ouvrant	-11376
▁ouvrira	-11377
▁ovaires	-11378
▁palette	-11379
▁paralys	-11380
▁parlons	-11381
▁partait	-11382
▁parvenu	-11383
▁pensons	-11384
▁percent	-11385
▁perdues	-11386
▁persist	-11387
▁pervers	-11388
▁perçues	-11389
▁pilules	-11390
▁piétiné	-11391
▁placées	-11392
▁plantés	-11393
▁plateau	-11394
▁portera	-11395
▁poulets	-11396
▁poumons	-11397
▁pourrir	-11398
▁prirent	-11399
▁prières	-11400
▁profite	-11401
▁projets	-11402
▁prolong	-11403
▁proposé	-11404
▁protect	-11405
▁prouvée	-11406
▁puisque	-11407
▁qualité	-11408
▁quercus	-11409
▁ramenés	-11410
▁rapatri	-11411
▁rapides	-11412
▁rations	-11413
▁rattrap	-11414
▁recours	-11415
▁recréer	-11416
▁referme	-11417
▁regards	-11418
▁regroup	-11419
▁rejeter	-11420
▁reliant	-11421
▁reliées	-11422
▁relâche	-11423
▁renonce	-11424
▁ressort	-11425
▁restiez	-11426
▁retardé	-11427
▁retient	-11428
▁retrans	-11429
▁revenus	-11430
▁revêtir	-11431
▁routeur	-11432
▁rupture	-11433
▁règlent	-11434
▁réagira	-11435
▁réforme	-11436
▁résolue	-11437
▁révéler	-11438
▁salaire	-11439
▁sautent	-11440
▁sauvent	-11441
▁secours	-11442
▁sensati	-11443
▁sentais	-11444
▁sentier	-11445
▁sentira	-11446
▁sergent	-11447
▁serpent	-11448
▁serrure	-11449
▁servant	-11450
▁serveur	-11451
▁signaux	-11452
▁sociale	-11453
▁soignée	-11454
▁soirées	-11455
▁soleils	-11456
▁sombrer	-11457
▁sombres	-11458
▁sommeil	-11459
▁sonnera	-11460
▁sordide	-11461
▁sorties	-11462
▁souches	-11463
▁soulage	-11464
▁soutien	-11465
▁spectre	-11466
▁stables	-11467
▁starter	-11468
▁stressé	-11469
▁stupide	-11470
▁suffire	-11471
▁suggéré	-11472
▁suivait	-11473
▁superbe	-11474
▁supplie	-11475
▁surchar	-11476
▁survive	-11477
▁suspect	-11478
▁synthét	-11479
▁taillés	-11480
▁tendres	-11481
▁tentant	-11482
▁théière	-11483
▁tiendra	-11484
▁tiennes	-11485
▁tintent	-11486
▁tombait	-11487
▁tombeau	-11488
▁toxique	-11489
▁trachée	-11490
▁traditi	-11491
▁traînée	-11492
▁trompés	-11493
▁trophée	-11494
▁trouvez	-11495
▁trouvée	-11496
▁urbaine	-11497
▁valeurs	-11498
▁vendues	-11499
▁vierges	-11500
▁violent	-11501
▁vivront	-11502
▁voyages	-11503
▁écarter	-11504
▁échappe	-11505
▁éclater	-11506
▁écraser	-11507
▁écrasés	-11508
▁éjaculé	-11509
▁éliminé	-11510
▁épaisse	-11511
▁équipés	-11512
▁évacuer	-11513
▁évoluer	-11514
Hollywood	-11515
Prophètes	-11516
Siciliens	-11517
acheteurs	-11518
adorerais	-11519
aiguilles	-11520
approvisi	-11521
arricades	-11522
ascenseur	-11523
assadeurs	-11524
assassins	-11525
assiettes	-11526
augmenter	-11527
autoroute	-11528
blessures	-11529
chaudière	-11530
chaussure	-11531
cidentaux	-11532
détecteur	-11533
empreinte	-11534
essentiel	-11535
explosera	-11536
habitants	-11537
honnêteté	-11538
horribles	-11539
imaginent	-11540
individus	-11541
industrie	-11542
installer	-11543
interromp	-11544
introduit	-11545
issements	-11546
itivement	-11547
mignonnes	-11548
molécules	-11549
moustache	-11550
ombrables	-11551
ompétents	-11552
personnel	-11553
pharmacie	-11554
relations	-11555
reusement	-11556
résidents	-11557
satellite	-11558
sorcières	-11559
teaseuses	-11560
tueraient	-11561
uniformes	-11562
violettes	-11563
éclairage	-11564
écroulera	-11565
éducation	-11566
égotistes	-11567
épaisseur	-11568
étrangler	-11569
▁Belgique	-11570
▁Bretagne	-11571
▁Ensemble	-11572
▁Essayons	-11573
▁Explique	-11574
▁Fédérale	-11575
▁Imaginez	-11576
▁Iraniens	-11577
▁Jonathan	-11578
▁Mercedes	-11579
▁Missouri	-11580
▁Première	-11581
▁Puissent	-11582
▁Rappelez	-11583
▁Regardes	-11584
▁Remettre	-11585
▁Seraient	-11586
▁Sûrement	-11587
▁Thompson	-11588
▁Toujours	-11589
▁acceptez	-11590
▁accorder	-11591
▁accusent	-11592
▁achaland	-11593
▁affamées	-11594
▁agissent	-11595
▁agressif	-11596
▁aimerais	-11597
▁aisément	-11598
▁alliance	-11599
▁analyses	-11600
▁ancienne	-11601
▁annuelle	-11602
▁apparues	-11603
▁appelait	-11604
▁apprécié	-11605
▁arrivant	-11606
▁arrêtent	-11607
▁artifici	-11608
▁assister	-11609
▁attacher	-11610
▁attendra	-11611
▁atterrir	-11612
▁atterrit	-11613
▁attirant	-11614
▁attitude	-11615
▁attrapes	-11616
▁avancent	-11617
▁avantage	-11618
▁aveugles	-11619
▁badaboum	-11620
▁bagnoles	-11621
▁baladent	-11622
▁baseball	-11623
▁bassines	-11624
▁blessure	-11625
▁boisseau	-11626
▁bouffent	-11627
▁boutique	-11628
▁bravoure	-11629
▁bénéfice	-11630
▁cagoules	-11631
▁campagne	-11632
▁capitale	-11633
▁capturer	-11634
▁carotide	-11635
▁centrale	-11636
▁champion	-11637
▁chantent	-11638
▁chargées	-11639
▁chiffres	-11640
▁clignoté	-11641
▁collecte	-11642
▁combattu	-11643
▁commença	-11644
▁complète	-11645
▁concours	-11646
▁consomme	-11647
▁constitu	-11648
▁contrari	-11649
▁couilles	-11650
▁couloirs	-11651
▁courants	-11652
▁courrier	-11653
▁couvrait	-11654
▁craindre	-11655
▁creusent	-11656
▁critères	-11657
▁croiront	-11658
▁croyance	-11659
▁cruciale	-11660
▁créatifs	-11661
▁cultiver	-11662
▁demandes	-11663
▁demandez	-11664
▁dessiner	-11665
▁dimanche	-11666
▁disparus	-11667
▁disparut	-11668
▁disposés	-11669
▁disputer	-11670
▁distribu	-11671
▁divertir	-11672
▁dommages	-11673
▁décevoir	-11674
▁déchirée	-11675
▁déconnec	-11676
▁déformer	-11677
▁déguster	-11678
▁déjeuner	-11679
▁démarrer	-11680
▁démontre	-11681
▁dénigrer	-11682
▁dénoncés	-11683
▁dépenser	-11684
▁déranger	-11685
▁dérouler	-11686
▁désireux	-11687
▁désordre	-11688
▁détraqué	-11689
▁détruite	-11690
▁détruits	-11691
▁dévaster	-11692
▁dévorait	-11693
▁dévorent	-11694
▁effondré	-11695
▁effrayés	-11696
▁embardée	-11697
▁empirent	-11698
▁emporter	-11699
▁empêchés	-11700
▁endormie	-11701
▁englouti	-11702
▁enlèvent	-11703
▁entendus	-11704
▁entières	-11705
▁entraîne	-11706
▁environs	-11707
▁esclaves	-11708
▁espérait	-11709
▁espérons	-11710
▁essayant	-11711
▁essayent	-11712
▁examiner	-11713
▁extraire	-11714
▁exécuter	-11715
▁fabriqué	-11716
▁familier	-11717
▁fantômes	-11718
▁finiront	-11719
▁flexible	-11720
▁focalisé	-11721
▁fourrure	-11722
▁frottent	-11723
▁fusionné	-11724
▁fuyaient	-11725
▁féminine	-11726
▁garantie	-11727
▁gardiens	-11728
▁gazettes	-11729
▁grandeur	-11730
▁grandira	-11731
▁gratuite	-11732
▁griffent	-11733
▁grimpent	-11734
▁géniales	-11735
▁habillés	-11736
▁haricots	-11737
▁harmonie	-11738
▁heureuse	-11739
▁honneurs	-11740
▁horaires	-11741
▁humanité	-11742
▁ignorant	-11743
▁illusion	-11744
▁imaginée	-11745
▁immeuble	-11746
▁immoraux	-11747
▁incendie	-11748
▁industri	-11749
▁infecter	-11750
▁informer	-11751
▁innocent	-11752
▁insectes	-11753
▁insurgés	-11754
▁intrigué	-11755
▁inutiles	-11756
▁inventer	-11757
▁inventée	-11758
▁invitent	-11759
▁jeunesse	-11760
▁jouaient	-11761
▁kidnappé	-11762
▁laissées	-11763
▁levaient	-11764
▁libèrent	-11765
▁libérées	-11766
▁logement	-11767
▁lumineux	-11768
▁lunettes	-11769
▁légitime	-11770
▁magiques	-11771
▁majorité	-11772
▁maladies	-11773
▁malignes	-11774
▁manifest	-11775
▁manières	-11776
▁maquette	-11777
▁menaçant	-11778
▁mettrait	-11779
▁missiles	-11780
▁modestes	-11781
▁moniteur	-11782
▁monstres	-11783
▁montrait	-11784
▁moralité	-11785
▁mouchard	-11786
▁mourrons	-11787
▁mutation	-11788
▁mèneront	-11789
▁méthodes	-11790
▁naviguer	-11791
▁nerveuse	-11792
▁nettoyée	-11793
▁observer	-11794
▁obstacle	-11795
▁obsèques	-11796
▁ordonnée	-11797
▁oubliées	-11798
▁pakistan	-11799
▁parasite	-11800
▁parcouru	-11801
▁parfaits	-11802
▁patience	-11803
▁perdront	-11804
▁persuadé	-11805
▁perturbe	-11806
▁plantent	-11807
▁pompiers	-11808
▁porterai	-11809
▁posséder	-11810
▁poussent	-11811
▁pressent	-11812
▁primaire	-11813
▁priorité	-11814
▁profiter	-11815
▁profonde	-11816
▁prolonge	-11817
▁proposer	-11818
▁propulse	-11819
▁protégée	-11820
▁provoque	-11821
▁prudence	-11822
▁préférer	-11823
▁préférez	-11824
▁préférée	-11825
▁préparer	-11826
▁préparés	-11827
▁présents	-11828
▁prétendu	-11829
▁prétexte	-11830
▁préviens	-11831
▁punition	-11832
▁pyramide	-11833
▁pèlerins	-11834
▁pénétrer	-11835
▁quadrant	-11836
▁ralentir	-11837
▁ramènent	-11838
▁rebondit	-11839
▁reculons	-11840
▁regardes	-11841
▁rejoigne	-11842
▁remarche	-11843
▁remplacé	-11844
▁rendrait	-11845
▁renforce	-11846
▁renforts	-11847
▁rentrent	-11848
▁renversé	-11849
▁repèrent	-11850
▁resserre	-11851
▁retourné	-11852
▁revanche	-11853
▁revenait	-11854
▁revenues	-11855
▁revolver	-11856
▁réformes	-11857
▁réplique	-11858
▁répondit	-11859
▁répudier	-11860
▁résister	-11861
▁rétablie	-11862
▁rétablir	-11863
▁réunions	-11864
▁révision	-11865
▁révélant	-11866
▁sacrifié	-11867
▁sardines	-11868
▁sauvages	-11869
▁scellées	-11870
▁scolaire	-11871
▁scénario	-11872
▁sexuelle	-11873
▁sinistre	-11874
▁snobisme	-11875
▁sottises	-11876
▁souhaits	-11877
▁soulager	-11878
▁sourcils	-11879
▁soutient	-11880
▁souvient	-11881
▁stockait	-11882
▁supporte	-11883
▁supposer	-11884
▁surement	-11885
▁survenue	-11886
▁suspects	-11887
▁symboles	-11888
▁sénateur	-11889
▁séparées	-11890
▁tableaux	-11891
▁teignait	-11892
▁tenaient	-11893
▁terminer	-11894
▁tiraient	-11895
▁tournait	-11896
▁tournent	-11897
▁tournées	-11898
▁trahison	-11899
▁traitait	-11900
▁trembler	-11901
▁troubles	-11902
▁troupeau	-11903
▁trouvais	-11904
▁trouvons	-11905
▁trouvées	-11906
▁téléchar	-11907
▁télépath	-11908
▁témoigne	-11909
▁ténèbres	-11910
▁uniforme	-11911
▁vacances	-11912
▁valaient	-11913
▁vaudrait	-11914
▁vautours	-11915
▁vendront	-11916
▁venimeux	-11917
▁vieillir	-11918
▁viendrai	-11919
▁vilaines	-11920
▁vinaigre	-11921
▁vénèrent	-11922
▁vérifiée	-11923
▁écartent	-11924
▁écartées	-11925
▁échanges	-11926
▁échapper	-11927
▁échappée	-11928
▁échouent	-11929
▁échouera	-11930
▁éclairer	-11931
▁éléments	-11932
▁émotionn	-11933
▁épaisses	-11934
▁épouvant	-11935
▁équipage	-11936
▁équivaut	-11937
▁éruption	-11938
▁étudiant	-11939
Enterprise	-11940
Fondateurs	-11941
allégation	-11942
apercevoir	-11943
approchait	-11944
arrêterait	-11945
arrêteront	-11946
atoirement	-11947
communauté	-11948
compagnies	-11949
dispositif	-11950
empreintes	-11951
ennuyaient	-11952
enregistre	-11953
entendront	-11954
entraînent	-11955
entretuent	-11956
existaient	-11957
expédition	-11958
inquiétude	-11959
interroger	-11960
nourriture	-11961
obtiennent	-11962
occuperont	-11963
pectateurs	-11964
plicateurs	-11965
production	-11966
sentiments	-11967
serviettes	-11968
supérieurs	-11969
épanouisse	-11970
équipement	-11971
▁Allemagne	-11972
▁Américain	-11973
▁Attention	-11974
▁Autrement	-11975
▁Cardassia	-11976
▁Désormais	-11977
▁Forcément	-11978
▁Francisco	-11979
▁Jérusalem	-11980
▁Messieurs	-11981
▁Procureur	-11982
▁Supposons	-11983
▁Tombstone	-11984
▁acceptent	-11985
▁accidents	-11986
▁accomplir	-11987
▁accrochée	-11988
▁activités	-11989
▁affectera	-11990
▁affreuses	-11991
▁alimenter	-11992
▁allemande	-11993
▁allemands	-11994
▁anciennes	-11995
▁apparence	-11996
▁appartenu	-11997
▁appellera	-11998
▁applaudir	-11999
▁appliquer	-12000
▁approcher	-12001
▁approfond	-12002
▁attaquera	-12003
▁attendait	-12004
▁attrapent	-12005
▁audacieux	-12006
▁baignoire	-12007
▁bienvenus	-12008
▁bougeront	-12009
▁boulevers	-12010
▁bousculer	-12011
▁bracelets	-12012
▁campagnes	-12013
▁cassaient	-12014
▁catalogue	-12015
▁causeront	-12016
▁charmante	-12017
▁chasseurs	-12018
▁chauffage	-12019
▁chauffeur	-12020
▁chaussure	-12021
▁cherchais	-12022
▁chirurgie	-12023
▁cigarette	-12024
▁collègues	-12025
▁commencée	-12026
▁compliqué	-12027
▁comporter	-12028
▁comprenez	-12029
▁concevoir	-12030
▁condamnés	-12031
▁confronté	-12032
▁connaisse	-12033
▁connexion	-12034
▁conserver	-12035
▁considère	-12036
▁consulter	-12037
▁contacter	-12038
▁contamine	-12039
▁convaincu	-12040
▁convertis	-12041
▁convienne	-12042
▁coupables	-12043
▁croiseurs	-12044
▁cuisinier	-12045
▁célébrité	-12046
▁cérébrale	-12047
▁dansaient	-12048
▁demeurent	-12049
▁diminuent	-12050
▁disparaît	-12051
▁disposées	-12052
▁disputent	-12053
▁dissoudre	-12054
▁déchirent	-12055
▁décisions	-12056
▁déclenche	-12057
▁décompose	-12058
▁découpait	-12059
▁décrivent	-12060
▁défoncent	-12061
▁dénoncent	-12062
▁dépendait	-12063
▁dépendent	-12064
▁dépensent	-12065
▁dépriment	-12066
▁désormais	-12067
▁détruirai	-12068
▁développé	-12069
▁effectuer	-12070
▁efficaces	-12071
▁effrayées	-12072
▁embrasser	-12073
▁endommagé	-12074
▁enfermées	-12075
▁entendent	-12076
▁enterrées	-12077
▁entreront	-12078
▁escaliers	-12079
▁esclavage	-12080
▁fabriquée	-12081
▁faiblesse	-12082
▁fascinant	-12083
▁fatiguent	-12084
▁filmaient	-12085
▁fleuriste	-12086
▁fonçaient	-12087
▁forcément	-12088
▁fringants	-12089
▁fusionner	-12090
▁fédérales	-12091
▁gagnaient	-12092
▁gangsters	-12093
▁garderont	-12094
▁gouvernés	-12095
▁grandiose	-12096
▁guerriers	-12097
▁heureuses	-12098
▁illusions	-12099
▁immorales	-12100
▁immédiate	-12101
▁impliquée	-12102
▁impliqués	-12103
▁incapable	-12104
▁incomplet	-12105
▁incompréh	-12106
▁indiquait	-12107
▁inférieur	-12108
▁innocente	-12109
▁insignifi	-12110
▁insistent	-12111
▁insoluble	-12112
▁instables	-12113
▁installés	-12114
▁interagit	-12115
▁interdite	-12116
▁interview	-12117
▁intestins	-12118
▁introduit	-12119
▁inventent	-12120
▁italienne	-12121
▁justifiée	-12122
▁livraison	-12123
▁machettes	-12124
▁magistrat	-12125
▁maintient	-12126
▁maléfique	-12127
▁mannequin	-12128
▁manœuvrer	-12129
▁marrantes	-12130
▁mathémati	-12131
▁maîtresse	-12132
▁maîtriser	-12133
▁mentionné	-12134
▁messieurs	-12135
▁microscop	-12136
▁mignonnes	-12137
▁minuscule	-12138
▁mondiales	-12139
▁moniteurs	-12140
▁mouraient	-12141
▁multiplie	-12142
▁municipal	-12143
▁mutinerie	-12144
▁méchantes	-12145
▁nageaient	-12146
▁naturelle	-12147
▁nettoyage	-12148
▁nourrisse	-12149
▁néanmoins	-12150
▁nécessite	-12151
▁observent	-12152
▁obsolètes	-12153
▁opération	-12154
▁ordinaire	-12155
▁ouvrières	-12156
▁parapluie	-12157
▁partaient	-12158
▁partiront	-12159
▁passeport	-12160
▁passeront	-12161
▁pendaison	-12162
▁perdaient	-12163
▁porteront	-12164
▁possédait	-12165
▁prendrais	-12166
▁procédure	-12167
▁promesses	-12168
▁promènent	-12169
▁protester	-12170
▁protègent	-12171
▁protégées	-12172
▁précision	-12173
▁préparent	-12174
▁présentez	-12175
▁présentés	-12176
▁prévoient	-12177
▁prévoyait	-12178
▁puissants	-12179
▁pédophile	-12180
▁pénètrent	-12181
▁pépinière	-12182
▁qualifiés	-12183
▁rabattent	-12184
▁reconnais	-12185
▁recouvert	-12186
▁recrachés	-12187
▁redevient	-12188
▁regardant	-12189
▁remercier	-12190
▁remettait	-12191
▁renvoient	-12192
▁repartait	-12193
▁repassées	-12194
▁repousser	-12195
▁respecter	-12196
▁ressentir	-12197
▁retraités	-12198
▁retrouvés	-12199
▁ringardes	-12200
▁roulerait	-12201
▁règlement	-12202
▁réception	-12203
▁récession	-12204
▁réclament	-12205
▁récoltent	-12206
▁régénérer	-12207
▁résultats	-12208
▁réveiller	-12209
▁sacrifice	-12210
▁sacrifier	-12211
▁saucisses	-12212
▁seigneurs	-12213
▁sentaient	-12214
▁septembre	-12215
▁solutions	-12216
▁soupçonne	-12217
▁splendide	-12218
▁spéciales	-12219
▁squelette	-12220
▁stratégie	-12221
▁structure	-12222
▁subsister	-12223
▁suicidées	-12224
▁supposons	-12225
▁surcharge	-12226
▁surmènent	-12227
▁surveille	-12228
▁suspendre	-12229
▁symbolise	-12230
▁sénateurs	-12231
▁tentative	-12232
▁terminait	-12233
▁terrestre	-12234
▁terrifiée	-12235
▁tiendront	-12236
▁tombaient	-12237
▁tomberait	-12238
▁tomberont	-12239
▁transféré	-12240
▁triompher	-12241
▁tromperie	-12242
▁trouveras	-12243
▁témoigner	-12244
▁utilisées	-12245
▁vendaient	-12246
▁verraient	-12247
▁virginité	-12248
▁voisinage	-12249
▁économies	-12250
▁éducation	-12251
▁électeurs	-12252
▁élevèrent	-12253
▁élégantes	-12254
▁équilibre	-12255
▁érotiques	-12256
▁étasunien	-12257
américaines	-12258
appartenait	-12259
camionnette	-12260
engageaient	-12261
ertissement	-12262
explication	-12263
exploration	-12264
homosexuels	-12265
humiliation	-12266
hyperespace	-12267
hélicoptère	-12268
hémoglobine	-12269
imaginaient	-12270
inscription	-12271
institution	-12272
interpréter	-12273
intégration	-12274
lementation	-12275
malédiction	-12276
orthographe	-12277
prisonniers	-12278
rastructure	-12279
rysanthèmes	-12280
supermarché	-12281
techniciens	-12282
▁Angleterre	-12283
▁Californie	-12284
▁Commandant	-12285
▁Concernant	-12286
▁Finalement	-12287
▁Pourraient	-12288
▁Professeur	-12289
▁Remplissez	-12290
▁République	-12291
▁Winchester	-12292
▁abandonner	-12293
▁accrochent	-12294
▁ajustement	-12295
▁antiquités	-12296
▁apercevoir	-12297
▁appartiend	-12298
▁arriverait	-12299
▁arrivèrent	-12300
▁artificiel	-12301
▁assurances	-12302
▁astronaute	-12303
▁attendions	-12304
▁audacieuse	-12305
▁augmentent	-12306
▁bouleversé	-12307
▁bouteilles	-12308
▁brouillard	-12309
▁choisissez	-12310
▁clavicules	-12311
▁commencera	-12312
▁commençait	-12313
▁communique	-12314
▁communisme	-12315
▁comprenais	-12316
▁comptaient	-12317
▁concernant	-12318
▁conducteur	-12319
▁confirment	-12320
▁confirmera	-12321
▁conférence	-12322
▁considérez	-12323
▁considérée	-12324
▁constituer	-12325
▁construits	-12326
▁conséquent	-12327
▁contaminer	-12328
▁contentent	-12329
▁contrainte	-12330
▁contrôlait	-12331
▁convaincus	-12332
▁conviction	-12333
▁croissance	-12334
▁demanderai	-12335
▁difficiles	-12336
▁difficulté	-12337
▁dispersées	-12338
▁dissimuler	-12339
▁défectueux	-12340
▁définitive	-12341
▁dénouement	-12342
▁désiraient	-12343
▁encourager	-12344
▁essayaient	-12345
▁existantes	-12346
▁exterminer	-12347
▁fabuleuses	-12348
▁fourchette	-12349
▁habituelle	-12350
▁hamburgers	-12351
▁hermétique	-12352
▁identifier	-12353
▁identifiés	-12354
▁implacable	-12355
▁impliquées	-12356
▁improbable	-12357
▁impunément	-12358
▁inférieure	-12359
▁instrument	-12360
▁intercepté	-12361
▁interroger	-12362
▁intéressés	-12363
▁invincible	-12364
▁invisibles	-12365
▁justifiées	-12366
▁limitation	-12367
▁militaires	-12368
▁mystérieux	-12369
▁métallique	-12370
▁navigation	-12371
▁nombreuses	-12372
▁ordonnance	-12373
▁organiques	-12374
▁originaire	-12375
▁participer	-12376
▁perfection	-12377
▁permettent	-12378
▁personnage	-12379
▁pilotaient	-12380
▁politiques	-12381
▁poseraient	-12382
▁principale	-12383
▁producteur	-12384
▁production	-12385
▁professeur	-12386
▁promettent	-12387
▁proprement	-12388
▁provenance	-12389
▁précaution	-12390
▁rapportent	-12391
▁rapportera	-12392
▁rassemblés	-12393
▁recommande	-12394
▁recommence	-12395
▁recrachent	-12396
▁rejoignent	-12397
▁repoussait	-12398
▁retiennent	-12399
▁réchauffer	-12400
▁récupèrent	-12401
▁révolution	-12402
▁révélation	-12403
▁sacrifiées	-12404
▁saloperies	-12405
▁secrétaire	-12406
▁signatures	-12407
▁simulaient	-12408
▁soupçonnés	-12409
▁souviendra	-12410
▁spacieuses	-12411
▁suffisante	-12412
▁supérieure	-12413
▁supérieurs	-12414
▁surchauffe	-12415
▁surprenant	-12416
▁sérotonine	-12417
▁temporaire	-12418
▁territoire	-12419
▁testicules	-12420
▁tourneront	-12421
▁traditions	-12422
▁trouverait	-12423
▁télécharge	-12424
▁uniquement	-12425
▁vertébrale	-12426
▁vibrations	-12427
▁violemment	-12428
▁vulnérable	-12429
▁écoutaient	-12430
▁élastiques	-12431
▁épuisement	-12432
▁étonnantes	-12433
▁étrangères	-12434
▁événements	-12435
amélioration	-12436
autodétruira	-12437
effondrement	-12438
exploitation	-12439
informations	-12440
organisation	-12441
▁Franchement	-12442
▁Quelquefois	-12443
▁appartement	-12444
▁apprendront	-12445
▁arbitraires	-12446
▁arrestation	-12447
▁assassinats	-12448
▁baptisèrent	-12449
▁cancéreuses	-12450
▁changements	-12451
▁chercheront	-12452
▁clandestine	-12453
▁comestibles	-12454
▁concurrence	-12455
▁connaissais	-12456
▁connaissait	-12457
▁considèrent	-12458
▁constamment	-12459
▁coordonnées	-12460
▁craignaient	-12461
▁culpabilité	-12462
▁demandaient	-12463
▁demanderais	-12464
▁disposaient	-12465
▁douloureuse	-12466
▁dépressives	-12467
▁désordonnée	-12468
▁détestaient	-12469
▁embarrasser	-12470
▁enregistrée	-12471
▁entreprises	-12472
▁explication	-12473
▁fabrication	-12474
▁fleurissent	-12475
▁fréquentait	-12476
▁gentillesse	-12477
▁hélicoptère	-12478
▁impuissants	-12479
▁incroyables	-12480
▁infaillible	-12481
▁insatiables	-12482
▁instruments	-12483
▁intouchable	-12484
▁journaliste	-12485
▁laboratoire	-12486
▁malveillant	-12487
▁marchandent	-12488
▁multiplient	-12489
▁nécessaires	-12490
▁ordinateurs	-12491
▁penseraient	-12492
▁permettrait	-12493
▁personnelle	-12494
▁politiciens	-12495
▁potentielle	-12496
▁prisonnière	-12497
▁producteurs	-12498
▁projetèrent	-12499
▁proposition	-12500
▁préféraient	-12501
▁préparaient	-12502
▁prétendants	-12503
▁prétentieux	-12504
▁prévoyaient	-12505
▁ravissantes	-12506
▁reconquérir	-12507
▁redeviendra	-12508
▁remarquerez	-12509
▁rencontrées	-12510
▁réalisèrent	-12511
▁réconforter	-12512
▁sophistiqué	-12513
▁souffrances	-12514
▁soutiennent	-12515
▁susceptible	-12516
▁séduisantes	-12517
▁techniciens	-12518
▁transporter	-12519
▁travaillant	-12520
▁tremblement	-12521
▁viendraient	-12522
▁économisent	-12523
environnement	-12524
établissement	-12525
▁Deuxièmement	-12526
▁Gouvernement	-12527
▁anniversaire	-12528
▁apparaissent	-12529
▁atterrissait	-12530
▁bibliothèque	-12531
▁communiquent	-12532
▁comportaient	-12533
▁comprenaient	-12534
▁concouraient	-12535
▁consentement	-12536
▁construction	-12537
▁contentaient	-12538
▁contrepartie	-12539
▁conviendrait	-12540
▁conviendront	-12541
▁célibataires	-12542
▁devaientnous	-12543
▁douloureuses	-12544
▁débrouillent	-12545
▁découvriront	-12546
▁efficacement	-12547
▁embarrassées	-12548
▁frauduleuses	-12549
▁horriblement	-12550
▁indépendance	-12551
▁indépendants	-12552
▁instructions	-12553
▁intelligence	-12554
▁intermittent	-12555
▁intéressante	-12556
▁localisation	-12557
▁manuellement	-12558
▁maquillaient	-12559
▁mystérieuses	-12560
▁organisation	-12561
▁paraissaient	-12562
▁protégeaient	-12563
▁rappelleront	-12564
▁reconstituer	-12565
▁reconstruire	-12566
▁soudainement	-12567
▁technologies	-12568
▁tranquillité	-12569
▁transforment	-12570
▁travailleurs	-12571
▁télécommande	-12572
▁verrouillées	-12573
extraterrestre	-12574
identification	-12575
responsabilité	-12576
▁Contrairement	-12577
▁communication	-12578
▁complications	-12579
▁comportements	-12580
▁compréhensifs	-12581
▁constructeurs	-12582
▁contamination	-12583
▁conversations	-12584
▁demanderaient	-12585
▁divorceraient	-12586
▁fondamentales	-12587
▁gouvernements	-12588
▁imperfections	-12589
▁imprévisibles	-12590
▁incontrôlable	-12591
▁littéralement	-12592
▁organisations	-12593
▁poursuivaient	-12594
▁reconnaissant	-12595
▁reconnaîtrais	-12596
▁réincarnation	-12597
▁scientifiques	-12598
▁toxicologique	-12599
▁éternellement	-12600
extraterrestres	-12601
▁construisaient	-12602
▁contenteraient	-12603
▁définitivement	-12604
▁fonctionnement	-12605
▁individualités	-12606
▁insupportables	-12607
▁principalement	-12608
▁psychologiques	-12609
▁reconnaissants	-12610
▁revendications	-12611
▁supplémentaire	-12612
▁tranquillement	-12613
▁volontairement	-12614
▁applaudissaient	-12615
▁essentiellement	-12616
-54	-12617
/10	-12618
/24	-12619
HIE	-12620
ICI	-12621
LDM	-12622
TIF	-12623
lmo	-12624
▁œd	-12625
/10.	-12626
/20,	-12627
29,3	-12628
Alma	-12629
Appr	-12630
DISS	-12631
Free	-12632
ICAT	-12633
ICIL	-12634
IVAN	-12635
Oura	-12636
TION	-12637
Vulc	-12638
addy	-12639
corn	-12640
ghke	-12641
hadd	-12642
iago	-12643
iotr	-12644
jida	-12645
kura	-12646
meuh	-12647
opéz	-12648
saum	-12649
votr	-12650
zizi	-12651
œung	-12652
▁DOC	-12653
▁DOM	-12654
▁FED	-12655
▁Hmm	-12656
▁NRO	-12657
▁SAM	-12658
▁gît	-12659
▁hmm	-12660
Alger	-12661
Camry	-12662
Catan	-12663
Chloé	-12664
ERTIF	-12665
Excal	-12666
HIELD	-12667
ICILE	-12668
IVANT	-12669
LDMAN	-12670
Lanie	-12671
Marie	-12672
Oural	-12673
Pétri	-12674
Sweet	-12675
absor	-12676
achel	-12677
achèv	-12678
anaco	-12679
aptor	-12680
artha	-12681
arutu	-12682
burne	-12683
circu	-12684
cotty	-12685
elvet	-12686
epsie	-12687
erdie	-12688
ferme	-12689
grecs	-12690
hibie	-12691
hosph	-12692
hosto	-12693
hurst	-12694
iglas	-12695
igula	-12696
incub	-12697
katar	-12698
labor	-12699
meufs	-12700
monds	-12701
mptom	-12702
obbie	-12703
oblig	-12704
ogner	-12705
porno	-12706
sarco	-12707
senal	-12708
synta	-12709
tapis	-12710
trêve	-12711
uckie	-12712
uctue	-12713
ungju	-12714
urlow	-12715
uropé	-12716
égueu	-12717
éguin	-12718
étape	-12719
évalu	-12720
▁1966	-12721
▁2,50	-12722
▁Astu	-12723
▁Bayl	-12724
▁Biff	-12725
▁Bree	-12726
▁Buck	-12727
▁Burj	-12728
▁CENT	-12729
▁City	-12730
▁Curt	-12731
▁DOCT	-12732
▁Dogg	-12733
▁Dunn	-12734
▁Glou	-12735
▁Hawa	-12736
▁Hobb	-12737
▁Khar	-12738
▁Lisa	-12739
▁Macy	-12740
▁Mayf	-12741
▁Mull	-12742
▁Prév	-12743
▁Rosw	-12744
▁Rush	-12745
▁Réve	-12746
▁Tobi	-12747
▁Tsar	-12748
▁Viêt	-12749
▁Vols	-12750
▁Wicc	-12751
▁bigl	-12752
▁farf	-12753
▁girl	-12754
▁high	-12755
▁jogg	-12756
▁loto	-12757
▁pâtu	-12758
▁rusé	-12759
▁topl	-12760
▁tymp	-12761
▁téte	-12762
▁vlan	-12763
▁vélo	-12764
Ancien	-12765
Appris	-12766
Araign	-12767
Autant	-12768
Europé	-12769
Howard	-12770
Julien	-12771
Konnie	-12772
ONDISS	-12773
Pétrié	-12774
Quincy	-12775
UCTION	-12776
abcock	-12777
absorb	-12778
alerte	-12779
anomal	-12780
atterr	-12781
aînera	-12782
belots	-12783
bunker	-12784
béguin	-12785
castor	-12786
chcock	-12787
cuivre	-12788
déclen	-12789
dégueu	-12790
enzera	-12791
fféren	-12792
foirés	-12793
fusill	-12794
fèvres	-12795
hésion	-12796
iciels	-12797
kinson	-12798
lleros	-12799
BAUC	-12800
BAUCH	-12801
BAUCHE	-12802
minuti	-12803
moines	-12804
mphlet	-12805
ménage	-12806
météor	-12807
naknak	-12808
nuante	-12809
occupe	-12810
ophyse	-12811
oplait	-12812
oughke	-12813
pièges	-12814
quéfié	-12815
randie	-12816
reller	-12817
rizont	-12818
réglée	-12819
sorcel	-12820
toxine	-12821
trepus	-12822
uccale	-12823
ustral	-12824
veuves	-12825
voisin	-12826
vêques	-12827
xiglas	-12828
yptage	-12829
ythmie	-12830
écureu	-12831
▁1911.	-12832
▁1964,	-12833
▁1966.	-12834
▁Achet	-12835
▁Adams	-12836
▁Alpha	-12837
▁Baden	-12838
▁Bahre	-12839
▁Bayes	-12840
▁Bligh	-12841
▁Bénie	-12842
▁Bénéd	-12843
▁Celui	-12844
▁Chloé	-12845
▁DOCTE	-12846
▁Dalek	-12847
▁Dodge	-12848
▁Dooly	-12849
▁Drogu	-12850
▁Eparp	-12851
▁Ferme	-12852
▁Fredd	-12853
▁Gavin	-12854
▁Gerda	-12855
▁Glass	-12856
▁Karen	-12857
▁Katie	-12858
▁Koslo	-12859
▁Kostr	-12860
▁Krish	-12861
▁Liban	-12862
▁Libby	-12863
▁Matty	-12864
▁Mords	-12865
▁Nazis	-12866
▁Perri	-12867
▁Placé	-12868
▁Porta	-12869
▁Relax	-12870
▁Rusty	-12871
▁Santa	-12872
▁Sarou	-12873
▁Satan	-12874
▁Small	-12875
▁Séoul	-12876
▁Turcs	-12877
▁Turin	-12878
▁Viêts	-12879
▁Volks	-12880
▁Wicke	-12881
▁afric	-12882
▁aigus	-12883
▁algor	-12884
▁ardue	-12885
▁asexu	-12886
▁bacon	-12887
▁burka	-12888
▁clubs	-12889
▁célèb	-12890
▁dicte	-12891
▁duvet	-12892
▁funér	-12893
▁fœtal	-12894
▁fœtus	-12895
▁holly	-12896
▁imbib	-12897
▁incoh	-12898
▁issue	-12899
OUR	-12900
UCK	-12901
JOUR	-12902
ytoc	-12903
ytok	-12904
ANUCK	-12905
JOURS	-12906
tourb	-12907
UJOURS	-12908
argonn	-12909
fixion	-12910
ocytoc	-12911
ottery	-12912
pilule	-12913
pousse	-12914
▁Henry	-12915
▁biere	-12916
▁cytok	-12917
▁jeeps	-12918
▁légué	-12919
▁mijau	-12920
▁mécan	-12921
▁natur	-12922
▁neveu	-12923
▁nutri	-12924
▁pneus	-12925
▁pâles	-12926
▁pôles	-12927
▁reviv	-12928
▁rigou	-12929
▁sapin	-12930
▁sarab	-12931
▁tanga	-12932
▁trêve	-12933
▁tweet	-12934
▁tyran	-12935
▁varie	-12936
▁véhém	-12937
▁évacu	-12938
▁œdème	-12939
Atlanta	-12940
Babcock	-12941
Machine	-12942
OUJOURS	-12943
absence	-12944
achèter	-12945
actéris	-12946
alyseur	-12947
amènera	-12948
angebro	-12949
antelmo	-12950
anthéon	-12951
arrangé	-12952
arrosez	-12953
atemala	-12954
baleine	-12955
biopsie	-12956
bâtards	-12957
chaises	-12958
colibri	-12959
complet	-12960
convert	-12961
costéro	-12962
cristal	-12963
descend	-12964
drocarb	-12965
défonce	-12966
effraie	-12967
elburne	-12968
enterré	-12969
estimer	-12970
ethnies	-12971
exposer	-12972
gardent	-12973
gnorant	-12974
goudron	-12975
grossie	-12976
inconnu	-12977
irmerie	-12978
irriter	-12979
labouss	-12980
laissée	-12981
lorophy	-12982
maginez	-12983
mirable	-12984
nocence	-12985
odorant	-12986
oeuvres	-12987
oligans	-12988
ophosph	-12989
orgueil	-12990
orifice	-12991
orraine	-12992
ourbier	-12993
peuples	-12994
phémère	-12995
pilules	-12996
roquets	-12997
ruriers	-12998
service	-12999
oft	-13000
chka	-13001
odka	-13002
▁31,	-13003
awkin	-13004
kinis	-13005
pêche	-13006
énial	-13007
▁Skin	-13008
▁mémo	-13009
Génial	-13010
attire	-13011
baffle	-13012
candid	-13013
ereurs	-13014
igator	-13015
ischka	-13016
nautes	-13017
poumon	-13018
rosoft	-13019
siffle	-13020
émeute	-13021
▁Corny	-13022
▁Soong	-13023
▁meute	-13024
▁morph	-13025
▁tolér	-13026
▁vibré	-13027
▁vodka	-13028
atorium	-13029
attirer	-13030
celerés	-13031
comprom	-13032
ffaçant	-13033
iminons	-13034
isolées	-13035
moments	-13036
mpereur	-13037
pêcheur	-13038
sionnée	-13039
spectre	-13040
stacles	-13041
straits	-13042
syntaxe	-13043
tomates	-13044
témoign	-13045
ullaire	-13046
umulent	-13047
uranium	-13048
ureuils	-13049
ussitôt	-13050
valises	-13051
verties	-13052
voisine	-13053
éclairc	-13054
édoises	-13055
égories	-13056
épreuve	-13057
étagère	-13058
étirera	-13059
▁10/10.	-13060
▁15/20,	-13061
▁Albert	-13062
▁Albion	-13063
▁Androm	-13064
▁Assure	-13065
▁Astres	-13066
▁Aurait	-13067
▁Bayesi	-13068
▁Bobbie	-13069
▁Bombay	-13070
▁Boulot	-13071
▁Burger	-13072
▁CERTIF	-13073
▁Cathol	-13074
▁Celest	-13075
▁Consid	-13076
▁Contin	-13077
▁Cousin	-13078
▁Denver	-13079
▁Diffus	-13080
▁Drogué	-13081
▁Fisher	-13082
▁Genevi	-13083
▁Golden	-13084
▁Greely	-13085
▁Hallow	-13086
▁Hannah	-13087
▁Hannig	-13088
▁Hawkin	-13089
▁Hilary	-13090
▁Hitler	-13091
▁Howard	-13092
▁Johnny	-13093
▁Kanebo	-13094
▁Koslov	-13095
▁Louisi	-13096
▁Maudet	-13097
▁Michel	-13098
▁Mitter	-13099
Bono	-13100
uffé	-13101
àcra	-13102
▁CAT	-13103
crava	-13104
eàcra	-13105
▁1990	-13106
▁1995	-13107
▁Boyd	-13108
▁Danu	-13109
▁Joey	-13110
▁Metz	-13111
▁Muff	-13112
▁Schm	-13113
▁Sith	-13114
▁luxe	-13115
effilo	-13116
issipp	-13117
ittles	-13118
oriété	-13119
renouv	-13120
ronyme	-13121
salade	-13122
salope	-13123
uffins	-13124
évacue	-13125
▁1995.	-13126
▁Autho	-13127
▁Crane	-13128
▁Humus	-13129
▁Jacob	-13130
▁Major	-13131
▁abdom	-13132
▁dilat	-13133
▁fluor	-13134
▁fluvi	-13135
cravate	-13136
domaine	-13137
issippi	-13138
itectes	-13139
muffins	-13140
▁Danube	-13141
▁Moines	-13142
▁Montre	-13143
▁Mortes	-13144
▁Mulluc	-13145
▁Newbur	-13146
▁Palais	-13147
▁Privés	-13148
▁Prohib	-13149
▁Promét	-13150
▁Quincy	-13151
▁Rachel	-13152
▁Radley	-13153
▁Raptor	-13154
▁Rastas	-13155
▁Reagan	-13156
▁Reconn	-13157
▁Recons	-13158
▁Royale	-13159
▁SHIELD	-13160
▁Saroum	-13161
▁Schmid	-13162
▁Scotty	-13163
▁Sherry	-13164
▁Sidney	-13165
▁Sommes	-13166
▁Sortez	-13167
▁Soudan	-13168
▁Staten	-13169
▁Steven	-13170
▁Vianne	-13171
▁Warhol	-13172
▁Warlow	-13173
▁Westch	-13174
▁Westph	-13175
▁abuser	-13176
▁adopté	-13177
▁analys	-13178
▁atouts	-13179
▁avaler	-13180
▁avalée	-13181
▁averti	-13182
▁bander	-13183
▁blasés	-13184
▁bétail	-13185
▁cernés	-13186
▁dilate	-13187
▁draine	-13188
▁dégoût	-13189
▁dégueu	-13190
▁délice	-13191
▁détenu	-13192
▁encycl	-13193
▁enfoui	-13194
▁façcon	-13195
▁freine	-13196
▁fécond	-13197
▁gobent	-13198
▁goujon	-13199
-4,	-13200
LIE	-13201
agram	-13202
aprês	-13203
cycle	-13204
prime	-13205
roupi	-13206
▁Golf	-13207
▁Leun	-13208
▁fuie	-13209
apolis	-13210
blason	-13211
cargos	-13212
enfuie	-13213
euners	-13214
fermés	-13215
ffries	-13216
opolis	-13217
ratifs	-13218
trapez	-13219
▁Bénis	-13220
▁JULIE	-13221
▁Jason	-13222
▁Jimmy	-13223
▁Killi	-13224
▁Leung	-13225
▁Manny	-13226
▁Phili	-13227
▁câble	-13228
▁islam	-13229
▁titre	-13230
agramme	-13231
astuces	-13232
auvries	-13233
bastien	-13234
experts	-13235
fermées	-13236
hommage	-13237
napolis	-13238
ouragan	-13239
ropolis	-13240
évacuer	-13241
▁Philip	-13242
▁Reçois	-13243
▁alerté	-13244
▁aminés	-13245
▁anneau	-13246
▁asserv	-13247
▁coucou	-13248
▁câbles	-13249
▁enfuie	-13250
▁flatte	-13251
▁grenou	-13252
▁griffé	-13253
▁grogne	-13254
▁grâces	-13255
▁hautes	-13256
▁hyperb	-13257
▁idéaux	-13258
▁imbues	-13259
▁impôts	-13260
▁inclut	-13261
▁incogn	-13262
▁inquié	-13263
▁intime	-13264
▁jailli	-13265
▁juives	-13266
▁jupons	-13267
▁lampes	-13268
▁latine	-13269
▁levons	-13270
▁luxuri	-13271
▁lésion	-13272
▁mammif	-13273
▁merlan	-13274
▁meuglé	-13275
▁méconn	-13276
▁mélodi	-13277
▁ménage	-13278
▁météor	-13279
▁noctur	-13280
▁nouent	-13281
▁nutrit	-13282
▁ongles	-13283
▁oxydés	-13284
▁pigent	-13285
▁pièges	-13286
▁plaira	-13287
▁plasma	-13288
▁pleuré	-13289
▁porcel	-13290
▁priori	-13291
▁pulmon	-13292
▁périss	-13293
▁quartz	-13294
▁quator	-13295
▁radiom	-13296
▁raides	-13297
▁ranchs	-13298
▁raréfi	-13299
côté	-13300
pisc	-13301
ulhu	-13302
▁22.	-13303
▁hip	-13304
congé	-13305
ginie	-13306
huile	-13307
idéal	-13308
neutr	-13309
voeux	-13310
ython	-13311
▁Cody	-13312
▁Gisc	-13313
▁Gizz	-13314
▁Guin	-13315
▁Inez	-13316
▁liga	-13317
▁omet	-13318
grands	-13319
ithson	-13320
keting	-13321
mparez	-13322
ogadis	-13323
oudjah	-13324
rutées	-13325
thulhu	-13326
udding	-13327
voyage	-13328
▁0.000	-13329
▁25000	-13330
▁Dokey	-13331
▁Geoff	-13332
▁Giuse	-13333
▁Jaffe	-13334
▁Orson	-13335
▁aptes	-13336
▁jadis	-13337
▁roche	-13338
aloguer	-13339
audible	-13340
cipline	-13341
irginie	-13342
piscine	-13343
pudding	-13344
réparez	-13345
tionnel	-13346
verdict	-13347
▁10.000	-13348
▁Guinée	-13349
▁Python	-13350
▁dégoté	-13351
▁glands	-13352
▁hésité	-13353
▁morflé	-13354
▁rassas	-13355
▁ratios	-13356
▁replon	-13357
▁reptil	-13358
▁roches	-13359
▁rondel	-13360
▁réglée	-13361
▁républ	-13362
▁rétros	-13363
▁rétréc	-13364
▁rêgles	-13365
▁satané	-13366
▁schéma	-13367
▁scores	-13368
▁stoppé	-13369
▁stéril	-13370
▁sudori	-13371
▁suprém	-13372
▁sérums	-13373
▁tabous	-13374
▁tampon	-13375
▁textes	-13376
▁toison	-13377
▁truffé	-13378
▁tunnel	-13379
▁ultime	-13380
▁urgent	-13381
▁verrou	-13382
▁éduque	-13383
▁élabor	-13384
▁émerau	-13385
▁émises	-13386
Algernon	-13387
Araignée	-13388
Arctique	-13389
Bretagne	-13390
Empereur	-13391
Puissant	-13392
aboteurs	-13393
accentue	-13394
accouple	-13395
achèvera	-13396
adaptera	-13397
adhésion	-13398
affirmer	-13399
Arake	-13400
Hépar	-13401
calfe	-13402
enlève	-13403
percut	-13404
▁deals	-13405
▁escro	-13406
▁noeud	-13407
Arakeen	-13408
croquis	-13409
enlèves	-13410
▁Gerald	-13411
▁acquit	-13412
▁bridge	-13413
▁fascia	-13414
▁menthe	-13415
▁percut	-13416
Héparine	-13417
ambridge	-13418
anarchie	-13419
anderson	-13420
anomalie	-13421
applique	-13422
apportes	-13423
apprécie	-13424
arfaites	-13425
arnaques	-13426
asperger	-13427
aspergés	-13428
asseyait	-13429
ateliers	-13430
atoriums	-13431
autopsie	-13432
avançait	-13433
avorisés	-13434
baleines	-13435
békistan	-13436
campagne	-13437
caravane	-13438
chaînera	-13439
chimique	-13440
conduite	-13441
costards	-13442
couverts	-13443
cuillère	-13444
culpture	-13445
dibilité	-13446
drouille	-13447
débauche	-13448
effacera	-13449
effrayer	-13450
elvetica	-13451
embarque	-13452
empathie	-13453
emprunts	-13454
enterrer	-13455
espèrais	-13456
espérais	-13457
estrazza	-13458
exposent	-13459
fférents	-13460
flambeau	-13461
gardiens	-13462
guerites	-13463
holiques	-13464
inconnus	-13465
indiquer	-13466
invasion	-13467
inverser	-13468
investig	-13469
inéraire	-13470
jouterai	-13471
katarina	-13472
lamistes	-13473
lectionn	-13474
leration	-13475
llelujah	-13476
magazine	-13477
maladies	-13478
manifest	-13479
marchand	-13480
mensionn	-13481
microbes	-13482
minuteur	-13483
mouettes	-13484
nombrede	-13485
nourrice	-13486
observer	-13487
obéiront	-13488
occulter	-13489
ooligans	-13490
opéziens	-13491
oubliera	-13492
oudjahid	-13493
ouvrirai	-13494
perruque	-13495
pirateur	-13496
porisait	-13497
prescrit	-13498
pèlerins	-13499
▁massif	-13500
▁matchs	-13501
▁précip	-13502
▁sauveg	-13503
▁scellé	-13504
▁séchez	-13505
alimente	-13506
religion	-13507
riandise	-13508
rorisées	-13509
rétienté	-13510
sanglier	-13511
serveuse	-13512
services	-13513
séminent	-13514
théories	-13515
tziganes	-13516
ténuante	-13517
ubitable	-13518
uriosité	-13519
ustralie	-13520
vertueux	-13521
yncheurs	-13522
yptienne	-13523
âtraient	-13524
écoutais	-13525
écoutait	-13526
écrivais	-13527
éléphant	-13528
épaissit	-13529
épicerie	-13530
▁00:45:3	-13531
▁Accepte	-13532
▁Alberto	-13533
▁Arrosez	-13534
▁Assurer	-13535
▁BONDISS	-13536
▁Badenov	-13537
▁Bayliss	-13538
▁Bittles	-13539
▁Celesta	-13540
▁Cheroke	-13541
▁Cheveux	-13542
▁Chuckie	-13543
▁Chungju	-13544
▁Cthulhu	-13545
▁Curieux	-13546
▁Déplace	-13547
▁Edwards	-13548
▁Emeutes	-13549
▁Enferme	-13550
▁Envoyer	-13551
▁Espagne	-13552
▁Evêques	-13553
▁FaIIope	-13554
▁Fischer	-13555
▁Frappez	-13556
▁Freddie	-13557
▁Georges	-13558
▁Giscard	-13559
▁Goldman	-13560
▁Hallowe	-13561
▁Hobbits	-13562
▁Hongrie	-13563
▁Humaine	-13564
▁Jarrett	-13565
▁Killian	-13566
▁Marguer	-13567
▁Mayfair	-13568
▁Mogadis	-13569
▁Nouveau	-13570
▁Obtenez	-13571
▁Paradis	-13572
▁Philade	-13573
▁Pottery	-13574
▁Poughke	-13575
▁Reconst	-13576
▁Royaume	-13577
▁Rushlig	-13578
▁Réserve	-13579
▁Schtrou	-13580
▁Sergent	-13581
▁Skinner	-13582
▁Soudain	-13583
▁Specter	-13584
▁Sportif	-13585
▁Stanley	-13586
▁Suivons	-13587
▁Suppose	-13588
▁Thurlow	-13589
▁Touchez	-13590
▁Veillez	-13591
▁abattre	-13592
▁absents	-13593
▁accéder	-13594
▁acquies	-13595
▁adopter	-13596
▁affamée	-13597
▁aggravé	-13598
▁ajoutez	-13599
-52	-13600
-52...	-13601
▁ronds	-13602
▁sœurs	-13603
caisser	-13604
donnera	-13605
presque	-13606
éatrice	-13607
▁Gardez	-13608
▁enfilé	-13609
▁intrin	-13610
▁introd	-13611
▁maigre	-13612
▁monnay	-13613
▁pétrin	-13614
▁rallie	-13615
▁révéla	-13616
▁snobes	-13617
▁subtil	-13618
▁tordue	-13619
▁tordus	-13620
▁épaule	-13621
aveugles	-13622
eburgers	-13623
invitent	-13624
épreuves	-13625
▁Lassées	-13626
▁Vallegr	-13627
▁ajustée	-13628
▁amorcée	-13629
▁apaiser	-13630
▁appétit	-13631
▁artères	-13632
▁attardé	-13633
▁austral	-13634
▁aériens	-13635
▁baleine	-13636
▁bigette	-13637
▁bigleux	-13638
▁bikinis	-13639
▁brosser	-13640
▁brossez	-13641
▁brulant	-13642
▁buccale	-13643
▁cadreur	-13644
▁cargais	-13645
▁caribou	-13646
▁caution	-13647
▁cheroke	-13648
▁classée	-13649
▁clignot	-13650
▁cliques	-13651
▁cognait	-13652
▁colibri	-13653
▁combler	-13654
▁conclut	-13655
▁coopéré	-13656
▁coûteux	-13657
▁crucial	-13658
▁cubique	-13659
▁devinez	-13660
▁dictent	-13661
▁dilater	-13662
▁distrib	-13663
▁doublée	-13664
▁drainer	-13665
▁drogués	-13666
▁durable	-13667
▁déchiff	-13668
▁décollé	-13669
▁décrire	-13670
▁décrite	-13671
▁déloger	-13672
▁déménag	-13673
▁déploya	-13674
▁dérivés	-13675
▁enclins	-13676
▁enfouie	-13677
▁enfuies	-13678
▁engagez	-13679
▁enlevés	-13680
▁enroulé	-13681
▁entamer	-13682
▁exagéré	-13683
▁excepté	-13684
▁experts	-13685
▁exposée	-13686
▁fautifs	-13687
▁flatter	-13688
▁fluctue	-13689
▁fluores	-13690
▁fluvial	-13691
▁fléchée	-13692
▁freller	-13693
▁giflent	-13694
▁glouton	-13695
▁goudron	-13696
▁gouffre	-13697
▁gravées	-13698
▁grogner	-13699
yoto	-13700
emmena	-13701
▁Kyoto	-13702
▁shoot	-13703
▁speci	-13704
▁splen	-13705
▁torse	-13706
▁vexer	-13707
abinier	-13708
attrape	-13709
attrapp	-13710
chestre	-13711
ffondre	-13712
graphie	-13713
nequins	-13714
odestes	-13715
oglobul	-13716
opposer	-13717
▁Connav	-13718
▁Connor	-13719
▁Custer	-13720
▁Foncez	-13721
▁Normal	-13722
▁Whisky	-13723
▁abrite	-13724
▁ajouté	-13725
▁fluide	-13726
▁pulvér	-13727
▁torche	-13728
▁vexait	-13729
abinieri	-13730
héritier	-13731
écommand	-13732
▁Château	-13733
▁Concell	-13734
▁Gizzard	-13735
▁aggrave	-13736
▁boitent	-13737
▁boiteux	-13738
▁branché	-13739
▁cardass	-13740
▁cérébra	-13741
▁délivre	-13742
▁détaché	-13743
▁enquête	-13744
▁enracin	-13745
▁grondez	-13746
▁gênante	-13747
▁hachées	-13748
▁holland	-13749
▁hommage	-13750
▁idéales	-13751
▁inactif	-13752
▁incendi	-13753
▁inestim	-13754
▁infecti	-13755
▁inhibée	-13756
▁inhumés	-13757
▁injecte	-13758
▁injecté	-13759
▁inoubli	-13760
▁irrépro	-13761
▁jaillit	-13762
▁jargonn	-13763
▁jogging	-13764
▁juillet	-13765
▁klingon	-13766
▁ligoter	-13767
▁liquidé	-13768
▁loupent	-13769
▁luxueux	-13770
▁massage	-13771
▁mendier	-13772
▁mercure	-13773
▁mettais	-13774
▁migrent	-13775
▁mijoter	-13776
▁modifié	-13777
▁monopol	-13778
▁mouvant	-13779
▁mutiler	-13780
▁méfient	-13781
▁nageurs	-13782
▁nanites	-13783
▁nombres	-13784
▁notoire	-13785
▁nounous	-13786
▁oeuvres	-13787
▁opossum	-13788
▁opposés	-13789
▁opprime	-13790
▁orgueil	-13791
▁osseuse	-13792
▁oxygène	-13793
▁pansage	-13794
▁peloter	-13795
▁peuples	-13796
▁plastif	-13797
▁plombes	-13798
▁plonger	-13799
bride	-13800
joint	-13801
▁Chef	-13802
▁Salv	-13803
alchim	-13804
aureen	-13805
chèvre	-13806
etings	-13807
flamme	-13808
hosant	-13809
lieues	-13810
lièvre	-13811
oiffée	-13812
osquet	-13813
prings	-13814
rideau	-13815
ucking	-13816
utérus	-13817
éraure	-13818
▁Calyp	-13819
▁Capis	-13820
▁Pride	-13821
▁Vingt	-13822
▁ambig	-13823
▁folie	-13824
▁louis	-13825
▁rives	-13826
Anciens	-13827
accouch	-13828
allings	-13829
biscuit	-13830
détenus	-13831
examine	-13832
fantôme	-13833
flammer	-13834
fucking	-13835
incheux	-13836
ouvrira	-13837
èlerait	-13838
écraser	-13839
▁Capote	-13840
▁Graves	-13841
▁Harmon	-13842
▁Plutôt	-13843
▁Traque	-13844
▁ambigu	-13845
▁amputé	-13846
▁fauché	-13847
▁fautes	-13848
▁hypoth	-13849
▁loyaux	-13850
▁obstru	-13851
▁outils	-13852
▁patate	-13853
inspirer	-13854
meetings	-13855
▁Calypso	-13856
▁Capisce	-13857
▁Diomède	-13858
▁Maureen	-13859
▁Springs	-13860
▁ampoule	-13861
▁banquet	-13862
▁bascule	-13863
▁bloquer	-13864
▁bosquet	-13865
▁citoyen	-13866
▁congrès	-13867
▁cueille	-13868
▁inscrit	-13869
▁loyalis	-13870
▁polluée	-13871
▁potable	-13872
▁pressée	-13873
▁pressés	-13874
▁pubiens	-13875
▁purifie	-13876
▁pénétré	-13877
▁raclure	-13878
▁rallier	-13879
▁raréfié	-13880
▁raviver	-13881
▁recousu	-13882
▁reculés	-13883
▁repensé	-13884
▁replong	-13885
▁reptile	-13886
▁ressusc	-13887
▁retenez	-13888
▁retenue	-13889
▁retombé	-13890
▁retrace	-13891
▁revivre	-13892
▁riposte	-13893
▁rituels	-13894
▁rosario	-13895
▁rouillé	-13896
▁réactif	-13897
▁régnant	-13898
▁réjouit	-13899
Alys	-13900
lvan	-13901
uinn	-13902
évid	-13903
▁Add	-13904
▁Ady	-13905
▁Moz	-13906
▁cup	-13907
▁œil	-13908
abney	-13909
cabri	-13910
hagen	-13911
loria	-13912
odney	-13913
rimés	-13914
unyon	-13915
urski	-13916
wagen	-13917
▁Asie	-13918
▁Clar	-13919
▁Emma	-13920
▁Lyon	-13921
▁Mere	-13922
▁Sita	-13923
▁buns	-13924
Alyssa	-13925
Péters	-13926
Rodney	-13927
agarre	-13928
aiblir	-13929
exprim	-13930
idéaux	-13931
lvanie	-13932
légend	-13933
rimées	-13934
vanent	-13935
▁Chino	-13936
▁Dauph	-13937
▁Emmen	-13938
▁Meade	-13939
▁Megan	-13940
▁Quinn	-13941
▁chêne	-13942
▁cupca	-13943
▁déçus	-13944
▁tâter	-13945
▁œuvre	-13946
Pétersb	-13947
athalie	-13948
bagarre	-13949
démarre	-13950
loyauté	-13951
légions	-13952
rimante	-13953
régions	-13954
uinness	-13955
▁Burski	-13956
▁Claire	-13957
▁Clarke	-13958
▁Dabney	-13959
▁Gloria	-13960
▁Marnie	-13961
▁Mordor	-13962
▁Mozart	-13963
▁Parker	-13964
▁Runyon	-13965
▁Selvan	-13966
▁bunsen	-13967
▁canyon	-13968
▁conçus	-13969
▁crayon	-13970
▁cupcak	-13971
▁enflée	-13972
▁impurs	-13973
▁vaccin	-13974
aboliser	-13975
archiste	-13976
arracher	-13977
genhagen	-13978
infliger	-13979
légendes	-13980
sylvanie	-13981
évidence	-13982
▁Addario	-13983
▁Dauphin	-13984
▁Emmenez	-13985
▁Greyson	-13986
▁Krishna	-13987
▁Meredit	-13988
▁Obtient	-13989
▁engagée	-13990
▁recalib	-13991
▁rétabli	-13992
▁rétrosp	-13993
▁réviser	-13994
▁sabotée	-13995
▁sachets	-13996
▁sachiez	-13997
▁saigner	-13998
▁scandal	-13999
ARS	-14000
afe	-14001
eef	-14002
fug	-14003
ski	-14004
IIes	-14005
Kamm	-14006
Safe	-14007
arov	-14008
brou	-14009
debr	-14010
eteb	-14011
gham	-14012
irât	-14013
lara	-14014
omsg	-14015
rhée	-14016
stov	-14017
wald	-14018
▁Apa	-14019
▁DAR	-14020
▁Déb	-14021
▁Hug	-14022
▁PAR	-14023
▁apa	-14024
▁héb	-14025
Chris	-14026
Kammo	-14027
appât	-14028
balay	-14029
baldi	-14030
droge	-14031
gonor	-14032
hting	-14033
htley	-14034
rifug	-14035
ugais	-14036
ébène	-14037
▁DARR	-14038
▁MARS	-14039
▁beef	-14040
annexe	-14041
augham	-14042
cafard	-14043
doxale	-14044
drogel	-14045
ebster	-14046
etebos	-14047
fiIIes	-14048
liarov	-14049
omsgro	-14050
onscie	-14051
rystov	-14052
étirât	-14053
▁Klara	-14054
▁Marga	-14055
▁Stamm	-14056
▁abdos	-14057
▁aigri	-14058
▁appât	-14059
▁codés	-14060
▁innov	-14061
Christi	-14062
Safehol	-14063
amiante	-14064
cafards	-14065
capteur	-14066
debrand	-14067
grilles	-14068
horwald	-14069
ightley	-14070
▁Apache	-14071
▁Hugues	-14072
▁Maddox	-14073
▁dragon	-14074
▁décalé	-14075
Safehold	-14076
aribaldi	-14077
balances	-14078
hydrogel	-14079
omsgrove	-14080
ortugais	-14081
otliarov	-14082
▁Krystov	-14083
▁Maugham	-14084
▁Setebos	-14085
▁Webster	-14086
▁aigries	-14087
▁apaches	-14088
▁héberge	-14089
▁schémat	-14090
▁siffler	-14091
▁signent	-14092
▁situait	-14093
▁sonnait	-14094
▁sonores	-14095
▁soucier	-14096
▁souillé	-14097
▁soulevé	-14098
▁soumets	-14099
▁21.	-14100
▁Brick	-14101
ungrand	-14102
▁défendu	-14103
▁fantasm	-14104
▁inconnu	-14105
▁soumise	-14106
▁sportif	-14107
▁statuts	-14108
▁stipule	-14109
▁stipulé	-14110
▁subtile	-14111
▁sucerai	-14112
▁surmont	-14113
▁surpass	-14114
▁sélecti	-14115
▁talentu	-14116
▁tampons	-14117
▁théâtra	-14118
▁tickets	-14119
▁tireurs	-14120
▁topless	-14121
▁ultimat	-14122
▁unanime	-14123
▁urgente	-14124
▁vaincra	-14125
▁valises	-14126
▁vedette	-14127
▁vilaine	-14128
▁voiloir	-14129
▁vétuste	-14130
▁éduqués	-14131
▁élégant	-14132
▁émeutes	-14133
▁éminent	-14134
▁épouser	-14135
▁éternel	-14136
▁éternué	-14137
▁évanoui	-14138
▁évitent	-14139
Européens	-14140
Helvetica	-14141
Portugais	-14142
abondance	-14143
absorbent	-14144
ajouterai	-14145
alimenter	-14146
alimentés	-14147
allergies	-14148
alouettes	-14149
animosité	-14150
anomalies	-14151
baguettes	-14152
balayette	-14153
banquiers	-14154
cabriolet	-14155
carburant	-14156
casquette	-14157
ceptibles	-14158
chitectes	-14159
chouettes	-14160
citations	-14161
cographie	-14162
composant	-14163
compromis	-14164
descendre	-14165
dictature	-14166
dictoires	-14167
dinosaure	-14168
directeur	-14169
divisions	-14170
ductibles	-14171
détaillée	-14172
effondrer	-14173
emballage	-14174
emballent	-14175
emmèneras	-14176
empereurs	-14177
empestent	-14178
emprunter	-14179
exorciser	-14180
exorcisez	-14181
hiophosph	-14182
hostilité	-14183
impliques	-14184
infectera	-14185
inosaures	-14186
inspirent	-14187
intensité	-14188
inventeur	-14189
lionnaire	-14190
ministère	-14191
moustique	-14192
obstacles	-14193
ocytocine	-14194
offensait	-14195
offensifs	-14196
offensive	-14197
oligarque	-14198
omination	-14199
ciences	-14200
refroid	-14201
vanneau	-14202
▁absorb	-14203
▁connex	-14204
▁navigu	-14205
▁questi	-14206
▁timbre	-14207
Internet	-14208
assassin	-14209
dictions	-14210
enlèvent	-14211
novation	-14212
▁Afrique	-14213
▁anxieux	-14214
▁assurez	-14215
▁discuté	-14216
▁illégal	-14217
▁impermé	-14218
▁récolté	-14219
▁suprême	-14220
▁tremper	-14221
▁trempée	-14222
arrington	-14223
messieurs	-14224
ompkinson	-14225
onnalisme	-14226
orchestre	-14227
orientent	-14228
ormidable	-14229
ottissent	-14230
ouvrirait	-14231
parfaites	-14232
perdition	-14233
premières	-14234
propriété	-14235
refroidir	-14236
rencontre	-14237
renouveau	-14238
rocherait	-14239
saboteurs	-14240
seringues	-14241
spatiales	-14242
structure	-14243
séquement	-14244
trouiller	-14245
usquement	-14246
usqueront	-14247
vissantes	-14248
voyageurs	-14249
écommandé	-14250
écrivaine	-14251
élargisse	-14252
éloignait	-14253
éloquence	-14254
éléphants	-14255
érouillée	-14256
éteignait	-14257
étonnante	-14258
étouffait	-14259
étouffent	-14260
▁Acceptez	-14261
▁Achetées	-14262
▁Arctique	-14263
▁Authorit	-14264
▁Aveugles	-14265
▁Baltique	-14266
▁Bayesian	-14267
▁Bouddhas	-14268
▁Bourbier	-14269
▁Building	-14270
▁Béatrice	-14271
▁Bénédict	-14272
▁Comtesse	-14273
▁Concello	-14274
▁Connaver	-14275
▁Cousteau	-14276
▁Défaites	-14277
▁Effaçant	-14278
▁Enfermez	-14279
▁Eparpill	-14280
▁Festival	-14281
▁Florrick	-14282
▁Frankens	-14283
▁Giuseppe	-14284
▁Hannigan	-14285
▁Ignorant	-14286
▁Jeffries	-14287
▁Kostrins	-14288
▁Laissons	-14289
▁Langebro	-14290
▁Libérant	-14291
▁Margaret	-14292
▁Meredith	-14293
▁Metcalfe	-14294
▁Mexicain	-14295
▁Ministre	-14296
▁Modestes	-14297
▁Mullucks	-14298
▁Nouvelle	-14299
sauce	-14300
▁Meme	-14301
▁pelu	-14302
▁pisc	-14303
▁tung	-14304
Brésil	-14305
Rendez	-14306
clable	-14307
cortex	-14308
vortex	-14309
▁Langd	-14310
▁mienn	-14311
▁missk	-14312
▁peser	-14313
▁redou	-14314
▁télés	-14315
invités	-14316
isterie	-14317
ustible	-14318
▁activé	-14319
▁bougre	-14320
▁cartil	-14321
▁examen	-14322
▁examin	-14323
▁insuff	-14324
▁pendus	-14325
▁pesant	-14326
▁photoc	-14327
▁renfer	-14328
▁traîne	-14329
▁tungst	-14330
habituel	-14331
insulter	-14332
itiquait	-14333
neigeait	-14334
parleurs	-14335
▁Chinois	-14336
▁Langdon	-14337
▁affiche	-14338
▁avancée	-14339
▁bougera	-14340
▁bougies	-14341
▁cachera	-14342
▁fasciné	-14343
▁peloton	-14344
▁peluche	-14345
▁piscine	-14346
▁portiez	-14347
▁redouté	-14348
▁renferm	-14349
▁renfort	-14350
▁rideaux	-14351
▁sautais	-14352
▁sincère	-14353
▁élèvent	-14354
▁établir	-14355
▁Allemand	-14356
▁Khariton	-14357
▁Philadel	-14358
▁Platecar	-14359
▁Préparez	-14360
▁Prévenez	-14361
▁Salvador	-14362
▁Santiago	-14363
▁Smithson	-14364
▁Souviens	-14365
▁Spéciale	-14366
▁Sécurité	-14367
▁Tziganes	-14368
▁Ténèbres	-14369
▁Wheeling	-14370
▁Wiccanes	-14371
▁abaisser	-14372
▁absorber	-14373
▁accentue	-14374
▁accroupi	-14375
▁accédait	-14376
▁accélère	-14377
▁acronyme	-14378
▁actrices	-14379
▁actuelle	-14380
▁adéquats	-14381
▁affiches	-14382
▁aggraver	-14383
▁agrandie	-14384
▁algorith	-14385
▁ambassad	-14386
▁amphibie	-14387
▁analyser	-14388
▁annoncer	-14389
▁annonces	-14390
▁anxieuse	-14391
▁apprécie	-14392
▁arborent	-14393
▁artisans	-14394
▁artistes	-14395
▁arythmie	-14396
▁asphyxié	-14397
▁assiéger	-14398
▁assiégée	-14399
crase	-14400
juifs	-14401
laser	-14402
▁Barn	-14403
▁Milo	-14404
▁cock	-14405
▁frig	-14406
aminez	-14407
amèner	-14408
devait	-14409
euvait	-14410
oussée	-14411
écrase	-14412
▁Barbe	-14413
▁Boris	-14414
▁Brook	-14415
▁Corée	-14416
▁Genes	-14417
▁Indon	-14418
▁Janet	-14419
▁Janus	-14420
▁catég	-14421
▁fidél	-14422
▁gamme	-14423
▁germe	-14424
▁haies	-14425
▁hurlé	-14426
puceaux	-14427
quiquin	-14428
serrure	-14429
sterdam	-14430
xaminez	-14431
ènerait	-14432
▁Barnes	-14433
▁Brogan	-14434
▁Devant	-14435
▁Devlin	-14436
▁Ecrase	-14437
▁Perrin	-14438
▁Répond	-14439
▁Valois	-14440
▁adorée	-14441
▁brouss	-14442
▁bâtard	-14443
▁bâtons	-14444
▁chutes	-14445
▁cockta	-14446
▁dédain	-14447
▁dédale	-14448
▁déduis	-14449
▁fidèle	-14450
▁germer	-14451
▁levait	-14452
▁mélang	-14453
▁phrase	-14454
▁requin	-14455
▁suçait	-14456
amènerai	-14457
ollywood	-14458
pleuvait	-14459
présence	-14460
présente	-14461
violette	-14462
écrivent	-14463
▁Genesis	-14464
▁Indonés	-14465
▁Janette	-14466
▁arrange	-14467
▁bâtards	-14468
▁catégor	-14469
▁embouti	-14470
▁forçait	-14471
▁galerie	-14472
▁galions	-14473
▁gamines	-14474
▁Brooklin	-14475
▁Indienne	-14476
▁approuve	-14477
▁asymptom	-14478
▁attirées	-14479
▁aussitôt	-14480
▁autorise	-14481
▁auxquels	-14482
▁aveuglés	-14483
▁baissera	-14484
▁baleines	-14485
▁bancaire	-14486
▁barricad	-14487
▁bavarder	-14488
▁bibelots	-14489
▁blasphém	-14490
▁bouillir	-14491
▁bouquets	-14492
▁bouquins	-14493
▁bourbier	-14494
▁bourreau	-14495
▁bouscule	-14496
▁branchée	-14497
▁braquage	-14498
▁brouillé	-14499
bama	-14500
▁McM	-14501
▁Mrs	-14502
▁Myl	-14503
Obama	-14504
binos	-14505
local	-14506
réfut	-14507
urbin	-14508
urtic	-14509
voleu	-14510
èdera	-14511
égrin	-14512
▁Isra	-14513
▁Okay	-14514
▁Okla	-14515
▁Play	-14516
▁Préf	-14517
▁bred	-14518
▁hubl	-14519
▁huil	-14520
▁phil	-14521
▁stru	-14522
aidera	-14523
anthra	-14524
apocal	-14525
arctic	-14526
ballon	-14527
erturb	-14528
gédies	-14529
lanter	-14530
neiger	-14531
ourred	-14532
rairie	-14533
trueux	-14534
▁90...	-14535
▁Brend	-14536
▁Jones	-14537
▁Roger	-14538
▁dette	-14539
abattra	-14540
adorait	-14541
agirait	-14542
anthrax	-14543
chelons	-14544
errette	-14545
estompe	-14546
impacte	-14547
magasin	-14548
médecin	-14549
olécule	-14550
perturb	-14551
tarctic	-14552
ticisme	-14553
éfiques	-14554
▁Brenda	-14555
▁Durbin	-14556
▁McMart	-14557
▁Merrin	-14558
▁Mylord	-14559
▁Préfet	-14560
▁cèdera	-14561
▁exiger	-14562
▁gonflé	-14563
▁hublot	-14564
▁strude	-14565
▁tumeur	-14566
▁vertic	-14567
apocalyp	-14568
commande	-14569
meurtres	-14570
onomicon	-14571
▁Angelus	-14572
▁Nourred	-14573
▁Oklahom	-14574
▁Parlons	-14575
▁Playboy	-14576
▁albinos	-14577
▁guidera	-14578
▁irréfut	-14579
▁purifié	-14580
▁royaume	-14581
Antarctic	-14582
cooliques	-14583
implanter	-14584
orteresse	-14585
ouddhisme	-14586
ronomicon	-14587
urticaire	-14588
▁McMartin	-14589
▁Oklahoma	-14590
▁bruyante	-14591
▁cambriol	-14592
▁captives	-14593
▁centimes	-14594
▁cercueil	-14595
▁cesserai	-14596
▁classées	-14597
▁colonial	-14598
▁comtesse	-14599
Euh	-14600
LIS	-14601
boa	-14602
ddh	-14603
uzz	-14604
ALIS	-14605
alda	-14606
girl	-14607
ravo	-14608
roue	-14609
sida	-14610
uzzi	-14611
xels	-14612
zels	-14613
aiano	-14614
aibli	-14615
avoue	-14616
ciano	-14617
excav	-14618
excur	-14619
fectu	-14620
influ	-14621
jolie	-14622
juges	-14623
olina	-14624
orrec	-14625
pomme	-14626
épice	-14627
▁Lana	-14628
▁laps	-14629
▁nana	-14630
▁nano	-14631
▁schi	-14632
Molina	-14633
armagn	-14634
armure	-14635
armées	-14636
blimes	-14637
brebis	-14638
cadres	-14639
ingrad	-14640
navire	-14641
▁Avoue	-14642
▁Bravo	-14643
▁archi	-14644
▁cajol	-14645
▁cessa	-14646
▁gênée	-14647
▁rubis	-14648
▁rédac	-14649
▁salsa	-14650
▁schiz	-14651
ddhiste	-14652
défectu	-14653
matisme	-14654
meralda	-14655
retzels	-14656
ristina	-14657
▁Baiano	-14658
▁calice	-14659
▁humano	-14660
▁labels	-14661
▁pixels	-14662
abeilles	-14663
armagnac	-14664
gyptiens	-14665
hologram	-14666
smeralda	-14667
éningrad	-14668
▁Jacuzzi	-14669
▁contrad	-14670
▁engross	-14671
▁indéfec	-14672
excursion	-14673
influence	-14674
orphelins	-14675
▁Cristina	-14676
▁Marciano	-14677
▁affaibli	-14678
▁bretzels	-14679
▁cajolent	-14680
▁confessé	-14681
▁conservé	-14682
▁consommé	-14683
▁constaté	-14684
▁contacté	-14685
▁convulse	-14686
▁coopérer	-14687
▁corrects	-14688
▁corrompt	-14689
▁couveuse	-14690
▁crachats	-14691
[...]
