<unk>	0
<s>	0
</s>	0
<brk>	0
th	-0
the	-1
</	-2
▁<	-3
▁a	-4
▁w	-5
in	-6
it	-7
re	-8
▁s	-9
▁the	-10
ou	-11
on	-12
▁t	-13
they	-14
▁b	-15
▁h	-16
▁m	-17
nd	-18
at	-19
er	-20
▁c	-21
▁d	-22
ll	-23
en	-24
▁to	-25
▁th	-26
▁f	-27
ing	-28
▁I	-29
is	-30
es	-31
an	-32
▁o	-33
ed	-34
▁l	-35
▁g	-36
▁p	-37
or	-38
▁and	-39
▁y	-40
ow	-41
ar	-42
▁be	-43
▁you	-44
▁wh	-45
ve	-46
as	-47
om	-48
▁n	-49
▁in	-50
us	-51
>'	-52
ut	-53
▁of	-54
▁T	-55
le	-56
ay	-57
▁e	-58
▁Th	-59
ere	-60
▁ha	-61
ld	-62
▁that	-63
ot	-64
▁k	-65
..	-66
et	-67
...	-68
▁is	-69
ho	-70
ic	-71
id	-72
ff	-73
gh	-74
▁on	-75
▁A	-76
▁W	-77
ver	-78
ac	-79
▁re	-80
▁st	-81
ir	-82
hon	-83
ke	-84
ill	-85
al	-86
hoff	-87
><	-88
▁me	-89
▁do	-90
im	-91
if	-92
se	-93
▁The	-94
▁was	-95
▁u	-96
▁kn	-97
out	-98
▁r	-99
ly	-100
ght	-101
ould	-102
▁have	-103
ee	-104
ad	-105
▁are	-106
▁but	-107
▁for	-108
▁li	-109
▁know	-110
▁B	-111
ent	-112
ion	-113
ec	-114
▁go	-115
ome	-116
all	-117
st	-118
op	-119
ell	-120
▁an	-121
▁as	-122
am	-123
▁so	-124
ant	-125
▁Y	-126
▁what	-127
▁And	-128
ur	-129
ust	-130
▁S	-131
▁if	-132
od	-133
▁can	-134
▁when	-135
▁he	-136
use	-137
▁this	-138
▁Wh	-139
▁not	-140
ore	-141
ro	-142
▁j	-143
ight	-144
▁them	-145
▁sh	-146
ther	-147
▁my	-148
ch	-149
▁out	-150
▁your	-151
ce	-152
▁ne	-153
ter	-154
▁will	-155
▁lo	-156
▁we	-157
▁don	-158
▁were	-159
il	-160
ause	-161
▁it	-162
our	-163
▁fr	-164
▁like	-165
▁But	-166
▁all	-167
▁wor	-168
▁their	-169
ink	-170
ea	-171
pp	-172
ain	-173
▁at	-174
▁M	-175
▁want	-176
▁H	-177
▁su	-178
▁up	-179
▁-	-180
▁tr	-181
ok	-182
▁us	-183
▁bec	-184
▁al	-185
▁get	-186
ake	-187
▁see	-188
▁just	-189
▁O	-190
ge	-191
ind	-192
ie	-193
▁would	-194
▁think	-195
▁You	-196
▁They	-197
art	-198
ally	-199
▁did	-200
▁wi	-201
un	-202
ack	-203
ong	-204
ate	-205
very	-206
▁or	-207
▁ex	-208
ol	-209
ig	-210
▁there	-211
ble	-212
▁If	-213
▁some	-214
thing	-215
▁from	-216
▁D	-217
and	-218
▁ch	-219
▁because	-220
▁N	-221
eop	-222
▁with	-223
eople	-224
ive	-225
ess	-226
ven	-227
▁where	-228
one	-229
▁It	-230
▁com	-231
ect	-232
ear	-233
nt	-234
est	-235
▁ab	-236
ers	-237
▁con	-238
▁had	-239
▁no	-240
ul	-241
▁thing	-242
ough	-243
▁has	-244
▁how	-245
▁pl	-246
ap	-247
ame	-248
um	-249
▁v	-250
ays	-251
▁does	-252
lo	-253
ct	-254
▁int	-255
em	-256
ves	-257
ound	-258
ard	-259
▁any	-260
ak	-261
ist	-262
▁people	-263
ation	-264
ies	-265
ck	-266
▁sa	-267
▁could	-268
▁sp	-269
res	-270
▁C	-271
▁one	-272
ast	-273
▁L	-274
▁here	-275
▁"	-276
▁mo	-277
▁got	-278
▁tim	-279
▁back	-280
▁about	-281
▁de	-282
▁look	-283
ace	-284
fore	-285
are	-286
ine	-287
▁work	-288
qu	-289
ra	-290
ide	-291
▁off	-292
▁say	-293
own	-294
ri	-295
ach	-296
▁se	-297
▁come	-298
ous	-299
▁Well	-300
▁now	-301
▁way	-302
▁E	-303
▁co	-304
▁ar	-305
▁into	-306
▁P	-307
▁by	-308
ure	-309
▁time	-310
ort	-311
os	-312
▁pro	-313
▁'	-314
ose	-315
▁then	-316
reat	-317
▁When	-318
▁before	-319
ls	-320
▁right	-321
▁make	-322
▁mean	-323
▁his	-324
▁What	-325
▁our	-326
▁So	-327
▁every	-328
▁who	-329
▁more	-330
▁only	-331
▁G	-332
▁pr	-333
▁things	-334
ice	-335
▁F	-336
▁over	-337
▁le	-338
ick	-339
▁ag	-340
▁We	-341
▁even	-342
urn	-343
▁didn	-344
▁en	-345
na	-346
ry	-347
▁other	-348
▁him	-349
▁man	-350
▁been	-351
▁never	-352
▁down	-353
▁br	-354
act	-355
ag	-356
▁going	-357
sel	-358
tle	-359
▁un	-360
pt	-361
▁than	-362
ab	-363
ew	-364
ife	-365
ought	-366
omen	-367
▁im	-368
▁tell	-369
▁ro	-370
▁may	-371
ment	-372
▁these	-373
ree	-374
▁bo	-375
▁doesn	-376
ue	-377
ish	-378
▁gu	-379
▁di	-380
▁gr	-381
▁gir	-382
▁good	-383
▁take	-384
ody	-385
red	-386
ving	-387
▁need	-388
▁thr	-389
▁bel	-390
nds	-391
be	-392
▁still	-393
way	-394
▁her	-395
▁really	-396
▁should	-397
▁bu	-398
▁long	-399
▁won	-400
▁kill	-401
▁R	-402
ang	-403
▁bet	-404
onna	-405
▁year	-406
ip	-407
nder	-408
▁find	-409
ich	-410
▁mu	-411
ways	-412
eep	-413
▁too	-414
▁gonna	-415
he	-416
▁much	-417
▁always	-418
ass	-419
▁exp	-420
▁That	-421
▁life	-422
▁women	-423
▁girls	-424
able	-425
▁very	-426
ade	-427
▁happ	-428
>,	-429
ict	-430
ved	-431
▁pre	-432
wn	-433
▁How	-434
▁car	-435
▁start	-436
iz	-437
▁qu	-438
▁under	-439
▁J	-440
▁bl	-441
▁comp	-442
▁cont	-443
ys	-444
age	-445
▁He	-446
▁No	-447
▁act	-448
▁On	-449
eah	-450
▁sm	-451
▁dis	-452
▁through	-453
▁This	-454
▁sc	-455
wo	-456
ans	-457
▁dr	-458
oney	-459
▁put	-460
▁said	-461
▁why	-462
▁af	-463
ting	-464
▁app	-465
▁came	-466
▁wat	-467
alk	-468
ign	-469
▁those	-470
eel	-471
▁po	-472
▁rem	-473
▁fl	-474
ile	-475
▁away	-476
▁lea	-477
▁might	-478
▁clo	-479
▁something	-480
▁Do	-481
ress	-482
ud	-483
ber	-484
▁fo	-485
ance	-486
▁must	-487
ens	-488
▁Yeah	-489
▁money	-490
▁cr	-491
▁real	-492
ors	-493
▁unt	-494
ually	-495
▁call	-496
▁sure	-497
ty	-498
▁Now	-499
▁Then	-500
▁again	-501
el	-502
ild	-503
der	-504
▁In	-505
▁Oh	-506
ft	-507
▁imp	-508
▁thought	-509
▁1	-510
ire	-511
iss	-512
▁let	-513
▁two	-514
▁love	-515
▁des	-516
▁turn	-517
uck	-518
▁which	-519
>.	-520
▁give	-521
▁keep	-522
▁until	-523
▁years	-524
ks	-525
▁made	-526
▁sw	-527
ated	-528
▁run	-529
ase	-530
ave	-531
▁per	-532
▁place	-533
ail	-534
▁ac	-535
▁cl	-536
▁feel	-537
lp	-538
ull	-539
▁str	-540
▁went	-541
te	-542
ory	-543
▁seem	-544
▁op	-545
▁stop	-546
selves	-547
so	-548
ark	-549
ying	-550
▁after	-551
▁ho	-552
ence	-553
ever	-554
▁am	-555
irst	-556
▁belie	-557
▁great	-558
ings	-559
▁tak	-560
▁well	-561
."	-562
▁own	-563
▁help	-564
▁world	-565
less	-566
ount	-567
▁Bec	-568
▁old	-569
▁part	-570
00	-571
ci	-572
▁ad	-573
ning	-574
▁Because	-575
ese	-576
▁sl	-577
▁big	-578
▁new	-579
▁res	-580
mer	-581
▁wr	-582
▁ins	-583
▁mat	-584
▁men	-585
>?	-586
ren	-587
ions	-588
ower	-589
▁end	-590
▁far	-591
▁day	-592
▁themselves	-593
ons	-594
orm	-595
▁att	-596
▁body	-597
ange	-598
imes	-599
self	-600
▁Yes	-601
▁frie	-602
▁found	-603
ady	-604
▁doing	-605
▁around	-606
▁U	-607
day	-608
▁My	-609
ered	-610
▁May	-611
▁care	-612
▁used	-613
▁better	-614
als	-615
▁As	-616
here	-617
omet	-618
▁last	-619
▁show	-620
og	-621
ert	-622
▁kind	-623
▁told	-624
▁There	-625
▁heart	-626
int	-627
▁bre	-628
▁anything	-629
ands	-630
ouse	-631
▁live	-632
▁everything	-633
ary	-634
ise	-635
▁All	-636
▁wouldn	-637
▁ask	-638
▁mak	-639
▁she	-640
▁cour	-641
▁head	-642
▁talk	-643
ied	-644
▁wa	-645
▁enough	-646
au	-647
▁em	-648
▁sy	-649
ince	-650
▁dec	-651
▁sho	-652
▁water	-653
ful	-654
ope	-655
▁rep	-656
▁Where	-657
ometimes	-658
ub	-659
▁fa	-660
▁Why	-661
▁lot	-662
▁also	-663
▁fall	-664
▁they	-665
▁light	-666
▁night	-667
▁happen	-668
igh	-669
▁sur	-670
▁knew	-671
▁same	-672
aut	-673
eck	-674
▁hum	-675
▁pos	-676
other	-677
▁goes	-678
▁hard	-679
▁left	-680
▁first	-681
ily	-682
ates	-683
body	-684
ible	-685
▁ever	-686
▁took	-687
▁Maybe	-688
▁comes	-689
▁believe	-690
amp	-691
ite	-692
ity	-693
ord	-694
ious	-695
▁bro	-696
▁mon	-697
▁ey	-698
▁bad	-699
▁open	-700
▁says	-701
▁stay	-702
aw	-703
▁ev	-704
▁blo	-705
▁lit	-706
▁rec	-707
▁each	-708
▁many	-709
▁wanted	-710
▁K	-711
▁die	-712
▁These	-713
▁power	-714
gg	-715
ny	-716
ets	-717
▁ear	-718
▁isn	-719
ank	-720
▁room	-721
gether	-722
▁beaut	-723
▁leave	-724
where	-725
ows	-726
▁te	-727
▁inv	-728
▁war	-729
▁supp	-730
ep	-731
eath	-732
▁ser	-733
▁dead	-734
ations	-735
▁little	-736
▁friends	-737
ob	-738
ook	-739
▁diff	-740
▁mind	-741
▁play	-742
▁house	-743
▁while	-744
▁coming	-745
ash	-746
▁id	-747
▁use	-748
▁hear	-749
▁once	-750
▁exist	-751
▁together	-752
iv	-753
ize	-754
▁Ch	-755
▁few	-756
stand	-757
▁course	-758
▁started	-759
ger	-760
▁gi	-761
iful	-762
▁Are	-763
▁ter	-764
▁being	-765
▁three	-766
▁belong	-767
les	-768
▁Is	-769
cept	-770
▁cle	-771
▁rel	-772
▁most	-773
▁vict	-774
ib	-775
up	-776
▁det	-777
▁mar	-778
▁saw	-779
▁hand	-780
▁actually	-781
--	-782
ss	-783
ical	-784
▁eat	-785
▁ent	-786
▁sec	-787
▁lives	-788
▁means	-789
▁understand	-790
ms	-791
ond	-792
uth	-793
▁el	-794
▁gets	-795
▁move	-796
▁beautiful	-797
lf	-798
ial	-799
▁Your	-800
▁foll	-801
▁hands	-802
▁wants	-803
▁victim	-804
▁another	-805
app	-806
aps	-807
▁St	-808
ures	-809
ward	-810
▁dest	-811
▁plan	-812
▁creat	-813
we	-814
ced	-815
ult	-816
ents	-817
pect	-818
▁comm	-819
▁mother	-820
av	-821
fe	-822
▁,	-823
ike	-824
uct	-825
fect	-826
stem	-827
▁ago	-828
▁gen	-829
▁mom	-830
ating	-831
▁Look	-832
▁miss	-833
▁wrong	-834
▁matter	-835
▁nothing	-836
ia	-837
ush	-838
vern	-839
▁Let	-840
▁beg	-841
▁cut	-842
▁inc	-843
▁guys	-844
▁pass	-845
▁pret	-846
▁sign	-847
▁soon	-848
ertain	-849
▁child	-850
▁longer	-851
▁system	-852
▁though	-853
ost	-854
ped	-855
▁beh	-856
▁fam	-857
▁mor	-858
aught	-859
▁home	-860
▁pers	-861
ey	-862
▁Or	-863
▁fe	-864
▁sk	-865
▁sun	-866
▁hope	-867
▁name	-868
▁break	-869
▁maybe	-870
▁since	-871
▁today	-872
▁contro	-873
▁trying	-874
xt	-875
▁2	-876
▁ret	-877
▁burn	-878
▁fact	-879
▁free	-880
▁count	-881
led	-882
ret	-883
ense	-884
▁acc	-885
▁cho	-886
▁eas	-887
▁min	-888
▁yet	-889
isten	-890
▁star	-891
▁wasn	-892
▁word	-893
ically	-894
▁human	-895
▁follow	-896
▁import	-897
cc	-898
▁gl	-899
▁She	-900
▁dra	-901
arent	-902
ember	-903
ready	-904
▁clos	-905
▁such	-906
▁build	-907
▁inside	-908
▁whatever	-909
ng	-910
ian	-911
ains	-912
form	-913
ling	-914
▁...	-915
▁Did	-916
▁air	-917
ffect	-918
▁grow	-919
▁true	-920
▁looks	-921
▁already	-922
▁differe	-923
uc	-924
▁V	-925
ove	-926
▁Some	-927
▁fore	-928
▁four	-929
▁idea	-930
▁alive	-931
▁bring	-932
▁heard	-933
▁destro	-934
▁pretty	-935
vernment	-936
kay	-937
row	-938
▁aren	-939
▁cons	-940
▁gave	-941
▁next	-942
▁knows	-943
▁small	-944
▁whole	-945
anc	-946
end	-947
ids	-948
lic	-949
lete	-950
▁fig	-951
cause	-952
▁died	-953
▁door	-954
▁hour	-955
▁needs	-956
▁different	-957
ts	-958
air	-959
ath	-960
ten	-961
ably	-962
ason	-963
▁For	-964
▁God	-965
▁ass	-966
▁bus	-967
▁met	-968
▁days	-969
▁face	-970
▁read	-971
▁sort	-972
▁Every	-973
▁works	-974
▁appear	-975
▁couldn	-976
▁person	-977
▁saying	-978
▁getting	-979
ror	-980
ual	-981
ject	-982
▁Don	-983
▁else	-984
▁hold	-985
▁mach	-986
▁death	-987
▁watch	-988
▁killed	-989
▁living	-990
▁strong	-991
gs	-992
ix	-993
▁Of	-994
ters	-995
▁ext	-996
▁fun	-997
▁hot	-998
▁law	-999
▁mur	-1000
▁sou	-1001
▁Even	-1002
▁conf	-1003
▁expl	-1004
▁lead	-1005
▁rest	-1006
▁inter	-1007
▁sound	-1008
▁People	-1009
▁become	-1010
▁proble	-1011
▁certain	-1012
The	-1013
orn	-1014
per	-1015
▁ca	-1016
ines	-1017
ness	-1018
▁fil	-1019
▁fin	-1020
▁flo	-1021
▁pay	-1022
▁farm	-1023
▁lost	-1024
▁meet	-1025
▁nice	-1026
▁walk	-1027
▁wear	-1028
▁exact	-1029
▁point	-1030
▁change	-1031
▁wonder	-1032
▁someone	-1033
▁remember	-1034
▁sometimes	-1035
ock	-1036
ross	-1037
▁set	-1038
ether	-1039
▁Once	-1040
▁coll	-1041
▁high	-1042
▁wait	-1043
▁takes	-1044
▁figure	-1045
▁working	-1046
gr	-1047
▁5	-1048
ier	-1049
med	-1050
▁sn	-1051
iver	-1052
oman	-1053
▁able	-1054
▁case	-1055
▁done	-1056
▁gone	-1057
▁inst	-1058
▁pain	-1059
▁seen	-1060
▁spec	-1061
▁wind	-1062
▁reach	-1063
▁truth	-1064
▁yours	-1065
▁listen	-1066
▁making	-1067
▁moment	-1068
az	-1069
by	-1070
imp	-1071
ins	-1072
uff	-1073
▁Be	-1074
▁One	-1075
▁cra	-1076
▁wee	-1077
ather	-1078
▁blood	-1079
▁close	-1080
▁called	-1081
▁control	-1082
▁important	-1083
▁ph	-1084
▁uh	-1085
▁bab	-1086
▁cat	-1087
▁job	-1088
▁try	-1089
meric	-1090
▁cold	-1091
▁fell	-1092
▁check	-1093
▁makes	-1094
▁story	-1095
▁weren	-1096
▁worth	-1097
▁attack	-1098
▁behind	-1099
dd	-1100
ime	-1101
ote	-1102
ute	-1103
ires	-1104
osed	-1105
part	-1106
ween	-1107
▁cre	-1108
▁dem	-1109
▁hur	-1110
ately	-1111
ouble	-1112
▁dang	-1113
▁fuck	-1114
▁prop	-1115
▁safe	-1116
arents	-1117
▁gener	-1118
▁Americ	-1119
▁father	-1120
▁reason	-1121
▁morning	-1122
▁children	-1123
pr	-1124
rap	-1125
▁To	-1126
▁ob	-1127
ater	-1128
ouch	-1129
▁col	-1130
erest	-1131
ished	-1132
▁Just	-1133
▁best	-1134
▁mine	-1135
▁poss	-1136
▁prob	-1137
▁along	-1138
▁times	-1139
▁between	-1140
▁exactly	-1141
▁machine	-1142
▁complete	-1143
▁i	-1144
any	-1145
erm	-1146
fer	-1147
ont	-1148
▁Go	-1149
ared	-1150
▁Not	-1151
▁ele	-1152
▁eye	-1153
▁guy	-1154
▁pol	-1155
▁Does	-1156
▁bank	-1157
▁dark	-1158
▁pick	-1159
▁pict	-1160
▁disapp	-1161
▁destroy	-1162
▁perfect	-1163
▁interest	-1164
ead	-1165
eak	-1166
enc	-1167
ept	-1168
hip	-1169
ird	-1170
ots	-1171
oun	-1172
ides	-1173
ired	-1174
▁gun	-1175
▁sat	-1176
▁full	-1177
▁late	-1178
▁send	-1179
▁guess	-1180
▁return	-1181
▁terror	-1182
▁against	-1183
▁looking	-1184
▁Sometimes	-1185
▁somewhere	-1186
idd	-1187
▁Fr	-1188
▁es	-1189
outh	-1190
▁gre	-1191
▁sus	-1192
▁boys	-1193
▁cost	-1194
▁disc	-1195
▁draw	-1196
▁eyes	-1197
▁less	-1198
▁mill	-1199
▁woman	-1200
▁danger	-1201
▁unless	-1202
▁without	-1203
mb	-1204
to	-1205
000	-1206
ape	-1207
arm	-1208
▁Mr	-1209
haps	-1210
ized	-1211
more	-1212
rect	-1213
ster	-1214
▁Can	-1215
▁bar	-1216
▁dam	-1217
▁sol	-1218
▁imag	-1219
▁prot	-1220
▁sell	-1221
▁town	-1222
▁drink	-1223
▁quick	-1224
▁looked	-1225
▁brought	-1226
▁realize	-1227
▁government	-1228
hn	-1229
oy	-1230
▁3	-1231
iet	-1232
ned	-1233
hout	-1234
▁cap	-1235
▁pub	-1236
▁sex	-1237
▁Like	-1238
▁half	-1239
▁kids	-1240
▁side	-1241
▁stri	-1242
▁wish	-1243
▁Those	-1244
▁fight	-1245
▁hours	-1246
▁seems	-1247
▁shoot	-1248
▁smell	-1249
▁expect	-1250
▁family	-1251
▁ground	-1252
ps	-1253
get	-1254
iec	-1255
not	-1256
▁An	-1257
▁aw	-1258
ches	-1259
hone	-1260
read	-1261
ream	-1262
▁cor	-1263
▁fly	-1264
▁sit	-1265
▁tor	-1266
▁Only	-1267
▁both	-1268
▁pres	-1269
▁pull	-1270
▁brain	-1271
▁drive	-1272
▁month	-1273
▁stand	-1274
▁thous	-1275
▁trans	-1276
▁threat	-1277
▁anymore	-1278
▁parents	-1279
▁whether	-1280
▁probably	-1281
io	-1282
sw	-1283
omb	-1284
▁av	-1285
ient	-1286
ific	-1287
leep	-1288
▁See	-1289
▁bur	-1290
▁hor	-1291
▁ind	-1292
▁occ	-1293
ained	-1294
ition	-1295
▁baby	-1296
▁easy	-1297
▁hate	-1298
▁lock	-1299
▁test	-1300
though	-1301
▁becom	-1302
▁chang	-1303
▁happy	-1304
▁ready	-1305
▁treat	-1306
▁tried	-1307
▁young	-1308
▁Before	-1309
▁design	-1310
▁turned	-1311
br	-1312
zy	-1313
her	-1314
ops	-1315
und	-1316
ants	-1317
hool	-1318
ried	-1319
rist	-1320
used	-1321
▁adm	-1322
▁ain	-1323
▁gra	-1324
▁num	-1325
▁yes	-1326
ution	-1327
▁bull	-1328
▁deal	-1329
▁land	-1330
▁lear	-1331
▁road	-1332
▁ship	-1333
▁clear	-1334
▁least	-1335
▁affect	-1336
▁country	-1337
▁missing	-1338
▁protect	-1339
▁building	-1340
aid	-1341
ted	-1342
▁At	-1343
▁pe	-1344
fort	-1345
raid	-1346
▁def	-1347
▁mem	-1348
▁pap	-1349
▁pri	-1350
▁ref	-1351
▁sub	-1352
▁tre	-1353
aster	-1354
atter	-1355
ially	-1356
iness	-1357
ograp	-1358
▁Here	-1359
▁Will	-1360
▁cell	-1361
▁kept	-1362
▁line	-1363
▁simp	-1364
ention	-1365
▁order	-1366
▁speak	-1367
▁taken	-1368
▁afraid	-1369
▁thinking	-1370
ax	-1371
gy	-1372
oc	-1373
▁?	-1374
eds	-1375
ode	-1376
ung	-1377
▁Un	-1378
▁ru	-1379
,000	-1380
They	-1381
pped	-1382
ract	-1383
▁Ear	-1384
▁bot	-1385
▁dri	-1386
uring	-1387
▁answ	-1388
▁hell	-1389
▁mess	-1390
▁near	-1391
▁neck	-1392
▁piec	-1393
▁surv	-1394
▁wife	-1395
▁apart	-1396
▁earth	-1397
▁given	-1398
▁mouth	-1399
▁shall	-1400
▁cannot	-1401
▁detect	-1402
▁school	-1403
▁running	-1404
▁stopped	-1405
▁victims	-1406
▁everyone	-1407
▁happened	-1408
▁supposed	-1409
my	-1410
its	-1411
oke	-1412
pec	-1413
ric	-1414
ames	-1415
ched	-1416
ians	-1417
ided	-1418
ular	-1419
vers	-1420
▁Our	-1421
▁mus	-1422
ities	-1423
▁poor	-1424
▁sees	-1425
▁till	-1426
ograph	-1427
▁front	-1428
▁touch	-1429
▁starts	-1430
▁happens	-1431
ator	-1432
land	-1433
utes	-1434
▁buy	-1435
▁dep	-1436
▁med	-1437
▁pop	-1438
▁vir	-1439
ience	-1440
ision	-1441
ister	-1442
▁anim	-1443
▁ball	-1444
▁char	-1445
▁empt	-1446
▁fail	-1447
▁fire	-1448
▁hurt	-1449
▁murd	-1450
▁prod	-1451
▁sent	-1452
▁sold	-1453
▁alone	-1454
▁crazy	-1455
▁stuff	-1456
▁accept	-1457
▁direct	-1458
▁secret	-1459
▁brother	-1460
▁designed	-1461
▁dangerous	-1462
of	-1463
pl	-1464
sh	-1465
aim	-1466
eal	-1467
ilt	-1468
ium	-1469
men	-1470
▁Af	-1471
anna	-1472
ards	-1473
ider	-1474
ield	-1475
ison	-1476
most	-1477
▁cur	-1478
▁dev	-1479
▁nat	-1480
▁swe	-1481
▁win	-1482
▁deep	-1483
▁skin	-1484
▁Earth	-1485
▁empty	-1486
▁later	-1487
▁state	-1488
▁anyone	-1489
▁months	-1490
▁worked	-1491
▁becomes	-1492
▁forever	-1493
▁problem	-1494
ze	-1495
ief	-1496
ith	-1497
vel	-1498
>...	-1499
ages	-1500
alth	-1501
mmer	-1502
olog	-1503
reng	-1504
rest	-1505
side	-1506
▁Per	-1507
▁add	-1508
▁bas	-1509
▁del	-1510
▁dog	-1511
▁fre	-1512
▁led	-1513
▁ran	-1514
▁red	-1515
▁reg	-1516
▁squ	-1517
▁val	-1518
ident	-1519
orrow	-1520
▁Okay	-1521
▁acts	-1522
▁cent	-1523
▁conc	-1524
▁enem	-1525
▁fine	-1526
▁fish	-1527
▁hide	-1528
▁resp	-1529
▁rock	-1530
▁sing	-1531
▁soul	-1532
▁asked	-1533
▁carry	-1534
▁extra	-1535
▁invol	-1536
▁became	-1537
▁having	-1538
▁streng	-1539
▁taking	-1540
▁wherever	-1541
▁completely	-1542
ale	-1543
ats	-1544
oss	-1545
ude	-1546
echn	-1547
ised	-1548
ists	-1549
thes	-1550
▁hop	-1551
▁mag	-1552
▁mil	-1553
▁ple	-1554
▁sir	-1555
▁tur	-1556
▁main	-1557
▁ones	-1558
▁prov	-1559
▁shut	-1560
▁doors	-1561
▁phone	-1562
▁quest	-1563
▁sleep	-1564
▁throw	-1565
▁wanna	-1566
▁bought	-1567
▁daught	-1568
▁passed	-1569
▁proper	-1570
▁spread	-1571
▁belongs	-1572
▁suspect	-1573
▁telling	-1574
▁although	-1575
▁somebody	-1576
aj	-1577
bo	-1578
ru	-1579
yp	-1580
▁.	-1581
hin	-1582
oup	-1583
ton	-1584
ues	-1585
▁..	-1586
aces	-1587
icks	-1588
irls	-1589
nect	-1590
▁Was	-1591
▁equ	-1592
▁fut	-1593
▁hon	-1594
▁opp	-1595
▁ris	-1596
▁arri	-1597
▁bomb	-1598
▁fear	-1599
▁feet	-1600
▁food	-1601
▁form	-1602
▁mist	-1603
▁okay	-1604
▁stud	-1605
▁weap	-1606
▁Women	-1607
▁exper	-1608
▁music	-1609
▁trave	-1610
▁words	-1611
▁worse	-1612
▁almost	-1613
▁chance	-1614
▁friend	-1615
▁inform	-1616
▁moving	-1617
▁needed	-1618
▁company	-1619
▁fucking	-1620
▁respect	-1621
▁support	-1622
arr	-1623
for	-1624
gan	-1625
vie	-1626
▁10	-1627
▁50	-1628
▁Ar	-1629
▁tw	-1630
aged	-1631
ases	-1632
cial	-1633
gram	-1634
tend	-1635
▁bed	-1636
▁bit	-1637
▁box	-1638
▁ord	-1639
eared	-1640
ified	-1641
ories	-1642
wards	-1643
▁dist	-1644
▁fill	-1645
▁girl	-1646
▁spir	-1647
ession	-1648
▁black	-1649
▁cross	-1650
▁green	-1651
▁haven	-1652
▁known	-1653
▁meant	-1654
▁paper	-1655
▁sense	-1656
▁trust	-1657
▁turns	-1658
ression	-1659
▁leaves	-1660
▁number	-1661
▁remain	-1662
▁playing	-1663
▁quickly	-1664
▁shouldn	-1665
▁waiting	-1666
ex	-1667
ene	-1668
ged	-1669
ift	-1670
ony	-1671
ood	-1672
ork	-1673
ighb	-1674
ined	-1675
room	-1676
▁Any	-1677
▁Mar	-1678
▁abs	-1679
▁art	-1680
▁esc	-1681
▁fro	-1682
▁gas	-1683
▁glo	-1684
▁lad	-1685
▁leg	-1686
▁loc	-1687
▁mad	-1688
▁sea	-1689
▁vis	-1690
arket	-1691
ashed	-1692
owers	-1693
▁cool	-1694
▁dear	-1695
▁ener	-1696
▁fast	-1697
▁foot	-1698
▁prom	-1699
▁rich	-1700
▁save	-1701
▁slow	-1702
▁song	-1703
▁tast	-1704
idence	-1705
iously	-1706
people	-1707
▁clean	-1708
▁dream	-1709
▁gives	-1710
▁peace	-1711
▁space	-1712
▁Christ	-1713
▁commun	-1714
▁contin	-1715
▁entire	-1716
▁forget	-1717
▁future	-1718
▁outside	-1719
▁talking	-1720
▁wondering	-1721
ug	-1722
▁4	-1723
ars	-1724
ify	-1725
iny	-1726
ked	-1727
kes	-1728
oid	-1729
ole	-1730
rew	-1731
▁Al	-1732
▁da	-1733
,...	-1734
aced	-1735
dden	-1736
ruct	-1737
unch	-1738
▁eng	-1739
▁key	-1740
▁pat	-1741
▁pur	-1742
▁rad	-1743
▁six	-1744
▁Most	-1745
▁conv	-1746
▁cree	-1747
▁drop	-1748
▁five	-1749
▁race	-1750
▁shot	-1751
▁suff	-1752
ension	-1753
▁After	-1754
▁appro	-1755
▁begin	-1756
▁claim	-1757
▁elect	-1758
▁floor	-1759
▁funny	-1760
▁knock	-1761
▁learn	-1762
▁weeks	-1763
▁Things	-1764
▁arrest	-1765
▁hearts	-1766
▁office	-1767
▁partic	-1768
▁planet	-1769
▁report	-1770
▁second	-1771
▁sudden	-1772
▁summer	-1773
▁window	-1774
pecially	-1775
▁program	-1776
▁special	-1777
▁information	-1778
bs	-1779
lt	-1780
me	-1781
mm	-1782
ta	-1783
ery	-1784
ety	-1785
ner	-1786
par	-1787
unk	-1788
▁Br	-1789
anks	-1790
iced	-1791
ited	-1792
ives	-1793
ully	-1794
▁New	-1795
▁Pro	-1796
▁age	-1797
▁arr	-1798
▁aut	-1799
▁ble	-1800
▁cry	-1801
▁exc	-1802
▁fur	-1803
▁ill	-1804
iddle	-1805
ments	-1806
odies	-1807
rible	-1808
▁blue	-1809
▁dies	-1810
▁hang	-1811
▁phot	-1812
▁ring	-1813
▁stre	-1814
▁wash	-1815
▁above	-1816
▁appre	-1817
▁broke	-1818
▁enemy	-1819
▁marry	-1820
▁often	-1821
▁press	-1822
▁prove	-1823
▁stars	-1824
▁teach	-1825
▁white	-1826
ination	-1827
▁anyway	-1828
▁create	-1829
▁double	-1830
▁during	-1831
▁effect	-1832
▁memory	-1833
▁neighb	-1834
▁prefer	-1835
▁record	-1836
▁changed	-1837
▁clothes	-1838
▁minutes	-1839
▁trouble	-1840
▁usually	-1841
▁evidence	-1842
▁problems	-1843
▁thousand	-1844
▁relations	-1845
,<	-1846
ism	-1847
man	-1848
omp	-1849
rop	-1850
ume	-1851
unt	-1852
▁Sh	-1853
airs	-1854
ceed	-1855
ency	-1856
ened	-1857
eral	-1858
ieve	-1859
lear	-1860
▁div	-1861
▁fle	-1862
▁hit	-1863
▁ice	-1864
▁low	-1865
▁ner	-1866
▁nor	-1867
▁pen	-1868
▁son	-1869
Cause	-1870
ither	-1871
▁cond	-1872
▁dise	-1873
▁feed	-1874
▁gold	-1875
▁lies	-1876
▁past	-1877
▁path	-1878
▁runs	-1879
▁soft	-1880
▁stat	-1881
▁stra	-1882
▁suck	-1883
▁tree	-1884
▁wall	-1885
▁week	-1886
terday	-1887
▁Right	-1888
▁Since	-1889
▁Their	-1890
▁allow	-1891
▁built	-1892
▁cause	-1893
▁deser	-1894
▁event	-1895
▁grand	-1896
▁organ	-1897
▁piece	-1898
▁plant	-1899
▁surpr	-1900
ossible	-1901
▁answer	-1902
▁closed	-1903
▁comput	-1904
▁energy	-1905
▁ladies	-1906
▁market	-1907
▁myself	-1908
▁public	-1909
▁seemed	-1910
▁Perhaps	-1911
▁connect	-1912
▁created	-1913
▁imagine	-1914
▁picture	-1915
▁reaches	-1916
▁strange	-1917
▁pictures	-1918
▁strength	-1919
▁destroyed	-1920
▁relationship	-1921
ne	-1922
▁z	-1923
add	-1924
ane	-1925
cle	-1926
ior	-1927
net	-1928
old	-1929
rie	-1930
ump	-1931
▁By	-1932
▁Ex	-1933
▁Uh	-1934
▁ir	-1935
▁ve	-1936
▁vo	-1937
eels	-1938
ibil	-1939
inch	-1940
ones	-1941
rupt	-1942
▁dig	-1943
▁dry	-1944
▁jud	-1945
▁mis	-1946
▁mod	-1947
▁mot	-1948
▁par	-1949
▁vol	-1950
ample	-1951
ances	-1952
astic	-1953
ative	-1954
ggest	-1955
useby	-1956
▁brok	-1957
▁evil	-1958
▁film	-1959
▁hadn	-1960
▁hasn	-1961
▁held	-1962
▁legs	-1963
▁luck	-1964
▁news	-1965
▁self	-1966
▁sens	-1967
▁upon	-1968
▁vamp	-1969
▁yeah	-1970
atever	-1971
fortun	-1972
overed	-1973
ressed	-1974
▁creep	-1975
▁famil	-1976
▁field	-1977
▁finds	-1978
▁force	-1979
▁glass	-1980
▁gotta	-1981
▁stays	-1982
▁store	-1983
▁Huseby	-1984
▁bigger	-1985
▁bullet	-1986
▁murder	-1987
▁prison	-1988
▁remind	-1989
▁weight	-1990
▁meeting	-1991
▁suggest	-1992
▁American	-1993
▁belonged	-1994
▁computer	-1995
▁consider	-1996
▁possible	-1997
▁question	-1998
▁impossible	-1999
▁disappeared	-2000
,"	-2001
hy	-2002
sy	-2003
acy	-2004
att	-2005
but	-2006
iol	-2007
mun	-2008
uce	-2009
umn	-2010
▁12	-2011
aded	-2012
asts	-2013
augh	-2014
iers	-2015
ills	-2016
ivil	-2017
olks	-2018
ules	-2019
upid	-2020
▁Who	-2021
▁ang	-2022
▁arm	-2023
▁dar	-2024
▁den	-2025
▁est	-2026
▁fix	-2027
▁ign	-2028
▁nuc	-2029
▁pot	-2030
aking	-2031
ients	-2032
inary	-2033
women	-2034
▁beat	-2035
▁blow	-2036
▁book	-2037
▁bott	-2038
▁cook	-2039
▁hair	-2040
▁heav	-2041
▁hist	-2042
▁hund	-2043
▁lose	-2044
▁nine	-2045
▁pray	-2046
▁push	-2047
▁rule	-2048
▁shit	-2049
▁tele	-2050
▁ways	-2051
▁First	-2052
▁avoid	-2053
▁cover	-2054
▁lived	-2055
▁lying	-2056
▁serve	-2057
▁train	-2058
▁worry	-2059
▁burned	-2060
▁closer	-2061
▁diffic	-2062
▁exists	-2063
▁middle	-2064
▁notice	-2065
▁opened	-2066
▁others	-2067
▁rather	-2068
▁showed	-2069
▁simply	-2070
▁stands	-2071
▁appears	-2072
▁appreci	-2073
▁finally	-2074
▁further	-2075
▁hundred	-2076
▁married	-2077
▁nuclear	-2078
▁pretend	-2079
▁respons	-2080
▁survive	-2081
▁tension	-2082
▁daughter	-2083
▁millions	-2084
▁position	-2085
▁stronger	-2086
eg	-2087
ev	-2088
go	-2089
wh	-2090
aff	-2091
elt	-2092
inc	-2093
oub	-2094
por	-2095
▁--	-2096
▁ec	-2097
aven	-2098
ears	-2099
erer	-2100
hood	-2101
ices	-2102
icle	-2103
igin	-2104
imin	-2105
lish	-2106
olen	-2107
ored	-2108
orry	-2109
port	-2110
that	-2111
▁His	-2112
▁Ind	-2113
▁adv	-2114
▁aff	-2115
▁ali	-2116
▁bra	-2117
▁dir	-2118
▁god	-2119
▁inf	-2120
▁mer	-2121
▁sky	-2122
▁tom	-2123
▁ton	-2124
ators	-2125
ction	-2126
fully	-2127
iding	-2128
ipped	-2129
pping	-2130
uthor	-2131
vered	-2132
▁bill	-2133
▁doct	-2134
▁emot	-2135
▁game	-2136
▁oper	-2137
▁priv	-2138
▁prof	-2139
▁serv	-2140
▁trip	-2141
▁weak	-2142
lished	-2143
▁among	-2144
▁began	-2145
▁catch	-2146
▁daily	-2147
▁falls	-2148
▁keeps	-2149
▁quite	-2150
▁react	-2151
▁stick	-2152
▁stone	-2153
▁stops	-2154
▁techn	-2155
ational	-2156
▁across	-2157
▁animal	-2158
▁bright	-2159
▁caught	-2160
▁letter	-2161
▁minute	-2162
▁police	-2163
▁seeing	-2164
▁signal	-2165
▁stolen	-2166
▁stupid	-2167
▁thinks	-2168
▁contact	-2169
▁explode	-2170
▁forward	-2171
▁instead	-2172
▁killing	-2173
▁message	-2174
▁perhaps	-2175
▁Whatever	-2176
▁murderer	-2177
▁powerful	-2178
▁straight	-2179
ah	-2180
And	-2181
acr	-2182
aly	-2183
bed	-2184
how	-2185
irc	-2186
ler	-2187
ogn	-2188
ron	-2189
▁ra	-2190
abil	-2191
aled	-2192
medi	-2193
ming	-2194
over	-2195
reme	-2196
ries	-2197
soci	-2198
tain	-2199
time	-2200
ured	-2201
▁Ben	-2202
▁Dep	-2203
▁Eng	-2204
▁Hey	-2205
▁bag	-2206
▁boy	-2207
▁lab	-2208
▁lie	-2209
▁nec	-2210
▁rev	-2211
▁typ	-2212
apped	-2213
icide	-2214
inger	-2215
ledge	-2216
light	-2217
velop	-2218
▁Tell	-2219
▁area	-2220
▁doll	-2221
▁doub	-2222
▁ends	-2223
▁laws	-2224
▁norm	-2225
▁park	-2226
▁prev	-2227
▁rece	-2228
▁rele	-2229
▁reve	-2230
▁team	-2231
▁vote	-2232
▁cells	-2233
▁dress	-2234
▁ended	-2235
▁glove	-2236
▁horse	-2237
▁kills	-2238
▁laugh	-2239
▁mount	-2240
▁names	-2241
▁occup	-2242
▁quiet	-2243
▁river	-2244
▁seven	-2245
▁steal	-2246
▁voice	-2247
▁amount	-2248
▁associ	-2249
▁bodies	-2250
▁broken	-2251
▁except	-2252
▁honest	-2253
▁immedi	-2254
▁origin	-2255
▁street	-2256
▁suffer	-2257
▁turtle	-2258
▁darling	-2259
▁desires	-2260
▁mothers	-2261
▁business	-2262
▁greatest	-2263
▁personal	-2264
▁tomorrow	-2265
▁certainly	-2266
▁difficult	-2267
▁yesterday	-2268
▁especially	-2269
▁everywhere	-2270
?"	-2271
gn	-2272
ph	-2273
cer	-2274
ces	-2275
egg	-2276
oud	-2277
ray	-2278
udd	-2279
uss	-2280
▁Jo	-2281
▁TV	-2282
▁hu	-2283
▁um	-2284
ajor	-2285
apan	-2286
bers	-2287
iter	-2288
oday	-2289
omed	-2290
rove	-2291
vous	-2292
wise	-2293
▁che	-2294
▁eff	-2295
▁ide	-2296
▁mut	-2297
▁oil	-2298
▁sal	-2299
▁suc	-2300
▁tax	-2301
▁tot	-2302
ement	-2303
icked	-2304
▁defe	-2305
▁earn	-2306
▁exch	-2307
▁guns	-2308
▁mass	-2309
▁nose	-2310
▁proc	-2311
▁snow	-2312
▁wild	-2313
ording	-2314
▁Today	-2315
▁Would	-2316
▁agree	-2317
▁civil	-2318
▁confl	-2319
▁crime	-2320
▁dance	-2321
▁doubt	-2322
▁judge	-2323
▁loved	-2324
▁moved	-2325
▁older	-2326
▁party	-2327
▁print	-2328
▁rough	-2329
▁stuck	-2330
▁super	-2331
▁sweet	-2332
▁table	-2333
▁wives	-2334
▁wound	-2335
ulation	-2336
▁Howard	-2337
▁author	-2338
▁bottom	-2339
▁device	-2340
▁health	-2341
▁infect	-2342
▁repres	-2343
▁scared	-2344
▁anybody	-2345
▁covered	-2346
▁decided	-2347
▁deliver	-2348
▁develop	-2349
▁growing	-2350
▁leaving	-2351
▁million	-2352
▁perform	-2353
▁project	-2354
▁tonight	-2355
▁wearing	-2356
▁exchange	-2357
▁realized	-2358
▁soldiers	-2359
▁yourself	-2360
▁everybody	-2361
▁knowledge	-2362
▁suspected	-2363
▁thousands	-2364
fortunately	-2365
▁Everything	-2366
▁discovered	-2367
▁eventually	-2368
▁particular	-2369
".	-2370
NA	-2371
Th	-2372
oo	-2373
sc	-2374
aze	-2375
eap	-2376
eed	-2377
era	-2378
esh	-2379
gen	-2380
got	-2381
ics	-2382
ina	-2383
ipe	-2384
ley	-2385
nal	-2386
ney	-2387
osp	-2388
sec	-2389
tic	-2390
uel	-2391
urs	-2392
usb	-2393
▁20	-2394
▁30	-2395
▁Bl	-2396
▁ed	-2397
aked	-2398
ased	-2399
atch	-2400
atin	-2401
aves	-2402
empt	-2403
enty	-2404
ibly	-2405
iors	-2406
king	-2407
oles	-2408
umes	-2409
▁100	-2410
▁DNA	-2411
▁Two	-2412
▁ach	-2413
▁bir	-2414
▁cal	-2415
▁enc	-2416
▁fac	-2417
▁fat	-2418
▁inn	-2419
▁its	-2420
▁lay	-2421
▁mas	-2422
▁pun	-2423
▁rid	-2424
▁sil	-2425
▁spl	-2426
▁ten	-2427
asion	-2428
ences	-2429
ently	-2430
girls	-2431
house	-2432
lands	-2433
olute	-2434
stead	-2435
▁Sure	-2436
▁With	-2437
▁bear	-2438
▁camp	-2439
▁cars	-2440
▁caus	-2441
▁circ	-2442
▁cops	-2443
▁coup	-2444
▁damn	-2445
▁felt	-2446
▁harm	-2447
▁hind	-2448
▁husb	-2449
▁kiss	-2450
▁onto	-2451
▁ours	-2452
▁paid	-2453
▁pred	-2454
▁rese	-2455
▁sacr	-2456
▁soci	-2457
▁swim	-2458
▁tort	-2459
▁type	-2460
▁unch	-2461
riends	-2462
▁blind	-2463
▁block	-2464
▁court	-2465
▁crush	-2466
▁eight	-2467
▁exter	-2468
▁guard	-2469
▁ident	-2470
▁offer	-2471
▁pract	-2472
▁relig	-2473
▁rules	-2474
▁separ	-2475
▁sever	-2476
▁shape	-2477
▁smoke	-2478
▁spend	-2479
▁spent	-2480
▁tired	-2481
▁whose	-2482
▁arrive	-2483
▁breaks	-2484
▁caused	-2485
▁decide	-2486
▁either	-2487
▁heaven	-2488
▁helped	-2489
▁hoping	-2490
▁myster	-2491
▁nature	-2492
▁normal	-2493
▁sister	-2494
▁strike	-2495
▁travel	-2496
▁checked	-2497
▁contain	-2498
▁demands	-2499
▁disease	-2500
▁explain	-2501
▁history	-2502
▁knowing	-2503
▁leading	-2504
▁mistake	-2505
▁nervous	-2506
▁noticed	-2507
▁present	-2508
▁product	-2509
▁stories	-2510
▁suicide	-2511
▁trapped	-2512
▁willing	-2513
▁feelings	-2514
▁followed	-2515
▁shooting	-2516
▁terrible	-2517
▁watching	-2518
▁Everybody	-2519
▁attention	-2520
▁perfectly	-2521
▁preferred	-2522
▁Government	-2523
FF	-2524
cri	-2525
ege	-2526
iqu	-2527
key	-2528
lex	-2529
ods	-2530
pic	-2531
ran	-2532
▁Dr	-2533
▁Ev	-2534
▁Me	-2535
▁Pa	-2536
▁ce	-2537
Hang	-2538
acks	-2539
addy	-2540
gged	-2541
head	-2542
ival	-2543
ived	-2544
oint	-2545
pire	-2546
road	-2547
▁Act	-2548
▁Isn	-2549
▁bat	-2550
▁bor	-2551
▁emb	-2552
▁env	-2553
▁fav	-2554
▁kid	-2555
▁lar	-2556
▁rob	-2557
▁rot	-2558
▁tar	-2559
▁unc	-2560
▁und	-2561
▁unf	-2562
earch	-2563
ening	-2564
gress	-2565
idden	-2566
imate	-2567
ising	-2568
ology	-2569
ortun	-2570
ument	-2571
▁Aren	-2572
▁Last	-2573
▁York	-2574
▁appl	-2575
▁band	-2576
▁bird	-2577
▁capt	-2578
▁city	-2579
▁coun	-2580
▁fair	-2581
▁fant	-2582
▁grab	-2583
▁jour	-2584
▁moon	-2585
▁rate	-2586
▁requ	-2587
▁ride	-2588
▁roll	-2589
▁sick	-2590
▁sons	-2591
▁sour	-2592
▁spot	-2593
▁thus	-2594
▁tick	-2595
▁viol	-2596
▁wake	-2597
isters	-2598
uation	-2599
▁Which	-2600
▁admit	-2601
▁avail	-2602
▁birth	-2603
▁chief	-2604
▁chose	-2605
▁color	-2606
▁dirty	-2607
▁enter	-2608
▁folks	-2609
▁grows	-2610
▁heavy	-2611
▁helps	-2612
▁liked	-2613
▁match	-2614
▁natur	-2615
▁offic	-2616
▁reads	-2617
▁scene	-2618
▁shoes	-2619
▁short	-2620
▁shows	-2621
▁smart	-2622
▁storm	-2623
▁stret	-2624
▁swall	-2625
▁tense	-2626
▁value	-2627
▁virus	-2628
olutely	-2629
▁bother	-2630
▁common	-2631
▁compan	-2632
▁couple	-2633
▁handle	-2634
▁humans	-2635
▁invent	-2636
▁killer	-2637
▁necess	-2638
▁places	-2639
▁please	-2640
▁recogn	-2641
▁single	-2642
▁theory	-2643
▁weapon	-2644
▁whiter	-2645
▁America	-2646
▁However	-2647
▁arrived	-2648
▁calling	-2649
▁comfort	-2650
▁islands	-2651
▁private	-2652
▁putting	-2653
▁smaller	-2654
▁station	-2655
▁succeed	-2656
▁vampire	-2657
▁weapons	-2658
▁approach	-2659
▁brothers	-2660
▁conflict	-2661
▁creature	-2662
▁families	-2663
▁involved	-2664
▁whenever	-2665
▁available	-2666
▁direction	-2667
▁disappear	-2668
▁appreciate	-2669
▁photograph	-2670
▁immediately	-2671
!"	-2672
ik	-2673
00-	-2674
aur	-2675
hof	-2676
ocr	-2677
oll	-2678
ued	-2679
ule	-2680
upp	-2681
ury	-2682
yal	-2683
▁la	-2684
aint	-2685
akes	-2686
amed	-2687
ball	-2688
edom	-2689
ests	-2690
ging	-2691
itch	-2692
like	-2693
line	-2694
oded	-2695
olve	-2696
onom	-2697
oses	-2698
otty	-2699
page	-2700
rate	-2701
resh	-2702
sing	-2703
urch	-2704
view	-2705
▁Bet	-2706
▁Com	-2707
▁Get	-2708
▁Yet	-2709
▁ann	-2710
▁caf	-2711
▁cam	-2712
▁cop	-2713
▁dad	-2714
▁fit	-2715
▁flu	-2716
▁inh	-2717
▁lim	-2718
▁mic	-2719
▁mir	-2720
▁nut	-2721
▁obv	-2722
▁psy	-2723
▁scr	-2724
▁ste	-2725
ccess	-2726
erman	-2727
inion	-2728
itive	-2729
izing	-2730
▁Char	-2731
▁Come	-2732
▁Pegg	-2733
▁boun	-2734
▁busy	-2735
▁chem	-2736
▁clue	-2737
▁coff	-2738
▁cult	-2739
▁hole	-2740
▁hook	-2741
▁hung	-2742
▁pack	-2743
▁post	-2744
▁purp	-2745
▁rain	-2746
▁soil	-2747
▁swam	-2748
▁tend	-2749
▁thin	-2750
▁tiny	-2751
▁tiss	-2752
▁yell	-2753
esides	-2754
remely	-2755
▁Japan	-2756
▁blaze	-2757
▁brave	-2758
▁cinch	-2759
▁class	-2760
▁crack	-2761
▁deton	-2762
▁feels	-2763
▁fires	-2764
▁flesh	-2765
▁fresh	-2766
▁heads	-2767
▁innoc	-2768
▁metal	-2769
▁miles	-2770
▁minds	-2771
▁moves	-2772
▁movie	-2773
▁seeks	-2774
▁sweat	-2775
▁threw	-2776
▁tight	-2777
▁track	-2778
▁trees	-2779
▁weird	-2780
▁battle	-2781
▁bottle	-2782
▁charge	-2783
▁choose	-2784
▁concer	-2785
▁damage	-2786
▁detail	-2787
▁doctor	-2788
▁easily	-2789
▁escape	-2790
▁faster	-2791
▁filled	-2792
▁finger	-2793
▁gained	-2794
▁hidden	-2795
▁locked	-2796
▁lovely	-2797
▁nation	-2798
▁occupy	-2799
▁pieces	-2800
▁simple	-2801
▁sounds	-2802
▁Instead	-2803
▁Whether	-2804
▁animals	-2805
▁college	-2806
▁driving	-2807
▁emotion	-2808
▁feeling	-2809
▁figured	-2810
▁flowers	-2811
▁plastic	-2812
▁process	-2813
▁several	-2814
▁sisters	-2815
▁society	-2816
▁success	-2817
▁towards	-2818
▁volumes	-2819
▁accident	-2820
▁neighbor	-2821
▁tortures	-2822
▁basically	-2823
▁happening	-2824
▁listening	-2825
▁ourselves	-2826
▁published	-2827
▁absolutely	-2828
▁associates	-2829
Wh	-2830
co	-2831
ma	-2832
:00	-2833
cks	-2834
ees	-2835
gar	-2836
ges	-2837
iew	-2838
iff	-2839
irt	-2840
loy	-2841
ral	-2842
rog	-2843
umb	-2844
▁15	-2845
▁24	-2846
▁Gr	-2847
▁Sc	-2848
▁Sp	-2849
▁lt	-2850
ancy	-2851
arch	-2852
athe	-2853
come	-2854
eter	-2855
face	-2856
gest	-2857
host	-2858
iber	-2859
iron	-2860
ital	-2861
lect	-2862
mbol	-2863
ores	-2864
ping	-2865
pper	-2866
rent	-2867
sion	-2868
zing	-2869
▁Bel	-2870
▁Eur	-2871
▁Her	-2872
▁Man	-2873
▁Mon	-2874
▁Tom	-2875
▁cab	-2876
▁due	-2877
▁egg	-2878
▁fem	-2879
▁gar	-2880
▁imm	-2881
▁net	-2882
▁pal	-2883
▁pet	-2884
▁rat	-2885
▁rub	-2886
▁saf	-2887
▁san	-2888
▁top	-2889
▁ups	-2890
▁van	-2891
▁var	-2892
▁wed	-2893
Would	-2894
ading	-2895
apole	-2896
ature	-2897
cious	-2898
enced	-2899
inate	-2900
neath	-2901
rench	-2902
riage	-2903
verse	-2904
▁Evil	-2905
▁From	-2906
▁Miss	-2907
▁bare	-2908
▁blew	-2909
▁boat	-2910
▁card	-2911
▁craw	-2912
▁dogs	-2913
▁flat	-2914
▁loss	-2915
▁meth	-2916
▁prim	-2917
▁quit	-2918
▁risk	-2919
▁roof	-2920
▁rout	-2921
▁sale	-2922
▁shop	-2923
▁tide	-2924
▁view	-2925
▁warm	-2926
▁whom	-2927
atinum	-2928
ensive	-2929
ential	-2930
things	-2931
▁Could	-2932
▁aware	-2933
▁awful	-2934
▁banks	-2935
▁below	-2936
▁brush	-2937
▁const	-2938
▁crash	-2939
▁demon	-2940
▁explo	-2941
▁films	-2942
▁frost	-2943
▁honey	-2944
▁incre	-2945
▁insur	-2946
▁leads	-2947
▁noise	-2948
▁north	-2949
▁occur	-2950
▁pregn	-2951
▁price	-2952
▁rains	-2953
▁revol	-2954
▁share	-2955
▁shots	-2956
▁sorry	-2957
▁stock	-2958
▁tells	-2959
apoleon	-2960
arently	-2961
ristian	-2962
▁Anyway	-2963
▁Except	-2964
▁Father	-2965
▁access	-2966
▁autumn	-2967
▁begins	-2968
▁brings	-2969
▁buried	-2970
▁confir	-2971
▁desire	-2972
▁effort	-2973
▁engine	-2974
▁fright	-2975
▁incred	-2976
▁intell	-2977
▁manage	-2978
▁nobody	-2979
▁resist	-2980
▁reveal	-2981
▁search	-2982
▁slowly	-2983
▁social	-2984
▁stayed	-2985
▁symbol	-2986
▁tissue	-2987
▁univer	-2988
ironment	-2989
▁Beneath	-2990
▁arrives	-2991
▁attract	-2992
▁changes	-2993
▁collaps	-2994
▁crashed	-2995
▁existed	-2996
▁heading	-2997
▁lighted	-2998
▁meaning	-2999
▁mention	-3000
▁provide	-3001
▁records	-3002
▁serious	-3003
▁sitting	-3004
▁species	-3005
▁Peggotty	-3006
▁anywhere	-3007
▁communic	-3008
▁contract	-3009
▁expected	-3010
▁function	-3011
▁generals	-3012
▁innocent	-3013
▁marriage	-3014
▁platinum	-3015
▁properly	-3016
▁property	-3017
▁suddenly	-3018
▁Americans	-3019
▁companies	-3020
▁exteriors	-3021
▁extremely	-3022
▁following	-3023
▁monograph	-3024
▁necessary	-3025
▁otherwise	-3026
▁treatment	-3027
▁delivering	-3028
▁considering	-3029
▁environment	-3030
▁responsibil	-3031
▁unchristian	-3032
It	-3033
ef	-3034
gu	-3035
ha	-3036
kn	-3037
li	-3038
ns	-3039
You	-3040
ama	-3041
amn	-3042
ann	-3043
asc	-3044
een	-3045
isf	-3046
nes	-3047
reg	-3048
rib	-3049
ugs	-3050
you	-3051
zes	-3052
▁11	-3053
▁Ab	-3054
▁Am	-3055
▁Ma	-3056
▁Mm	-3057
▁Mo	-3058
▁Pl	-3059
▁Pr	-3060
▁Wa	-3061
▁jo	-3062
▁ox	-3063
▁ur	-3064
▁ut	-3065
angu	-3066
atic	-3067
bing	-3068
chem	-3069
eech	-3070
oned	-3071
ooth	-3072
rees	-3073
vies	-3074
▁Con	-3075
▁Jes	-3076
▁Mom	-3077
▁deg	-3078
▁doc	-3079
▁hom	-3080
▁hun	-3081
▁jum	-3082
▁map	-3083
▁mel	-3084
▁mid	-3085
▁sin	-3086
▁tem	-3087
▁ven	-3088
▁wet	-3089
board	-3090
entle	-3091
igger	-3092
iment	-3093
iring	-3094
iving	-3095
ounds	-3096
uries	-3097
▁Good	-3098
▁Keep	-3099
▁Many	-3100
▁army	-3101
▁cart	-3102
▁code	-3103
▁cure	-3104
▁cust	-3105
▁cute	-3106
▁dick	-3107
▁emer	-3108
▁exec	-3109
▁fort	-3110
▁glad	-3111
▁godd	-3112
▁heat	-3113
▁incl	-3114
▁isol	-3115
▁jail	-3116
▁kick	-3117
▁lots	-3118
▁mail	-3119
▁melt	-3120
▁milk	-3121
▁phys	-3122
▁repl	-3123
▁sand	-3124
▁size	-3125
▁slam	-3126
▁tong	-3127
▁virt	-3128
▁wedd	-3129
▁wine	-3130
▁wond	-3131
▁wood	-3132
arrass	-3133
ederal	-3134
erable	-3135
iation	-3136
▁Girls	-3137
▁While	-3138
▁activ	-3139
▁angry	-3140
▁badly	-3141
▁bless	-3142
▁board	-3143
▁brand	-3144
▁chick	-3145
▁early	-3146
▁escap	-3147
▁facil	-3148
▁fired	-3149
▁frequ	-3150
▁group	-3151
▁langu	-3152
▁lines	-3153
▁model	-3154
▁oppos	-3155
▁parts	-3156
▁radio	-3157
▁raise	-3158
▁secur	-3159
▁souls	-3160
▁spell	-3161
▁taste	-3162
▁trade	-3163
▁truck	-3164
▁upset	-3165
▁visit	-3166
▁worst	-3167
ruction	-3168
▁French	-3169
▁Unless	-3170
▁afford	-3171
▁beauty	-3172
▁belief	-3173
▁cancer	-3174
▁church	-3175
▁claims	-3176
▁closes	-3177
▁coffee	-3178
▁crimin	-3179
▁depart	-3180
▁desper	-3181
▁determ	-3182
▁econom	-3183
▁flight	-3184
▁forest	-3185
▁giving	-3186
▁gotten	-3187
▁hiding	-3188
▁intend	-3189
▁invest	-3190
▁movies	-3191
▁object	-3192
▁powers	-3193
▁pulled	-3194
▁punish	-3195
▁remote	-3196
▁safety	-3197
▁satisf	-3198
▁solved	-3199
▁source	-3200
▁spirit	-3201
▁strang	-3202
▁talked	-3203
▁wealth	-3204
▁within	-3205
atically	-3206
▁address	-3207
▁affects	-3208
▁answers	-3209
▁attempt	-3210
▁example	-3211
▁finding	-3212
▁freedom	-3213
▁holding	-3214
▁justice	-3215
▁keeping	-3216
▁monster	-3217
▁nowhere	-3218
▁predict	-3219
▁prevent	-3220
▁somehow	-3221
▁strikes	-3222
▁swallow	-3223
▁walking	-3224
▁Actually	-3225
▁Napoleon	-3226
▁affected	-3227
▁believed	-3228
▁continue	-3229
▁hundreds	-3230
▁mountain	-3231
▁painting	-3232
▁returned	-3233
▁specific	-3234
▁starting	-3235
▁according	-3236
▁apartment	-3237
▁centuries	-3238
▁collapsed	-3239
▁embarrass	-3240
▁interests	-3241
▁Depression	-3242
▁experience	-3243
▁interested	-3244
▁population	-3245
▁threatened	-3246
▁interesting	-3247
▁understanding	-3248
50	-3249
He	-3250
cl	-3251
ox	-3252
sp	-3253
abb	-3254
asy	-3255
ata	-3256
bre	-3257
cus	-3258
ero	-3259
etr	-3260
gue	-3261
ica	-3262
ius	-3263
let	-3264
lie	-3265
mon	-3266
oph	-3267
ses	-3268
she	-3269
ube	-3270
ugg	-3271
ula	-3272
une	-3273
▁Ad	-3274
▁Cl	-3275
▁Em	-3276
▁Gu	-3277
▁Re	-3278
▁Sm	-3279
▁Tr	-3280
▁Um	-3281
▁er	-3282
▁hy	-3283
▁oh	-3284
ades	-3285
cend	-3286
cent	-3287
eeth	-3288
hole	-3289
iday	-3290
inks	-3291
ique	-3292
ises	-3293
izes	-3294
load	-3295
lock	-3296
mend	-3297
miss	-3298
orld	-3299
ploy	-3300
reen	-3301
vert	-3302
▁Bar	-3303
▁Luc	-3304
▁Nor	-3305
▁Rem	-3306
▁Unt	-3307
▁War	-3308
▁ant	-3309
▁aud	-3310
▁bon	-3311
▁bow	-3312
▁bug	-3313
▁cow	-3314
▁cup	-3315
▁enj	-3316
▁lap	-3317
▁lif	-3318
▁nav	-3319
▁sad	-3320
▁sim	-3321
▁spr	-3322
▁tie	-3323
▁tra	-3324
acter	-3325
arter	-3326
asing	-3327
asons	-3328
cient	-3329
ering	-3330
ifice	-3331
inced	-3332
istic	-3333
ively	-3334
lling	-3335
night	-3336
ption	-3337
usion	-3338
▁Have	-3339
▁John	-3340
▁Over	-3341
▁Were	-3342
▁arms	-3343
▁base	-3344
▁beer	-3345
▁bind	-3346
▁butt	-3347
▁clim	-3348
▁cock	-3349
▁corn	-3350
▁crew	-3351
▁dare	-3352
▁diss	-3353
▁drug	-3354
▁eats	-3355
▁embr	-3356
▁fans	-3357
▁fasc	-3358
▁file	-3359
▁flew	-3360
▁gang	-3361
▁host	-3362
▁huge	-3363
▁jobs	-3364
▁jump	-3365
▁lake	-3366
▁lege	-3367
▁merc	-3368
▁pock	-3369
▁qual	-3370
▁sect	-3371
▁sets	-3372
▁shad	-3373
▁shel	-3374
▁slip	-3375
▁stir	-3376
▁stom	-3377
▁tape	-3378
▁tear	-3379
▁terr	-3380
▁torn	-3381
▁vent	-3382
ground	-3383
ipment	-3384
▁About	-3385
▁Black	-3386
▁Other	-3387
▁armed	-3388
▁balls	-3389
▁begun	-3390
▁blame	-3391
▁brief	-3392
▁burns	-3393
▁cards	-3394
▁cases	-3395
▁chain	-3396
▁cloud	-3397
▁colon	-3398
▁contr	-3399
▁defin	-3400
▁divor	-3401
▁drove	-3402
▁drugs	-3403
▁estab	-3404
▁favor	-3405
▁fixed	-3406
▁ghost	-3407
▁guide	-3408
▁ideas	-3409
▁liber	-3410
▁magaz	-3411
▁magic	-3412
▁major	-3413
▁mater	-3414
▁moral	-3415
▁motor	-3416
▁paint	-3417
▁plans	-3418
▁polic	-3419
▁round	-3420
▁schem	-3421
▁seeds	-3422
▁shine	-3423
▁shock	-3424
▁shown	-3425
▁spark	-3426
▁study	-3427
▁tears	-3428
▁teeth	-3429
▁telev	-3430
▁thank	-3431
▁thick	-3432
▁using	-3433
▁weigh	-3434
▁write	-3435
ization	-3436
theless	-3437
▁Listen	-3438
▁Mother	-3439
▁aliens	-3440
▁attach	-3441
▁batter	-3442
▁bloody	-3443
▁camera	-3444
▁career	-3445
▁compet	-3446
▁corpor	-3447
▁crimes	-3448
▁desert	-3449
▁easier	-3450
▁electr	-3451
▁experi	-3452
▁failed	-3453
▁flower	-3454
▁forgot	-3455
▁former	-3456
▁island	-3457
▁nearly	-3458
▁orders	-3459
▁picked	-3460
▁sample	-3461
▁satell	-3462
▁scient	-3463
▁sexual	-3464
▁smooth	-3465
▁tongue	-3466
▁traged	-3467
▁Besides	-3468
▁England	-3469
▁bedroom	-3470
▁biggest	-3471
▁bullets	-3472
▁burning	-3473
▁clearly	-3474
▁collect	-3475
▁complex	-3476
▁correct	-3477
▁creates	-3478
▁current	-3479
▁deserve	-3480
▁express	-3481
▁falling	-3482
▁foreign	-3483
▁general	-3484
▁hanging	-3485
▁hearing	-3486
▁learned	-3487
▁natural	-3488
▁organis	-3489
▁produce	-3490
▁purpose	-3491
▁remains	-3492
▁science	-3493
▁selling	-3494
▁staring	-3495
▁suppose	-3496
▁surface	-3497
▁systems	-3498
▁totally	-3499
▁turning	-3500
▁breaking	-3501
▁carrying	-3502
▁contains	-3503
▁criminal	-3504
▁decision	-3505
▁drinking	-3506
▁exploded	-3507
▁intellig	-3508
▁investig	-3509
▁language	-3510
▁murdered	-3511
▁opportun	-3512
▁ordinary	-3513
▁pregnant	-3514
▁religion	-3515
▁wondered	-3516
▁beginning	-3517
▁concerned	-3518
▁convinced	-3519
▁creatures	-3520
▁daughters	-3521
▁equipment	-3522
▁existence	-3523
▁explosion	-3524
▁insurance	-3525
▁represent	-3526
▁importance	-3527
▁impression	-3528
▁revolution	-3529
▁authorities	-3530
▁relationships	-3531
▁unfortunately	-3532
30	-3533
>!	-3534
af	-3535
bl	-3536
do	-3537
mo	-3538
no	-3539
She	-3540
ald	-3541
alf	-3542
ana	-3543
aud	-3544
ews	-3545
gin	-3546
gly	-3547
iar	-3548
ino	-3549
lin	-3550
mag	-3551
nce	-3552
nel	-3553
off	-3554
oms	-3555
ool	-3556
rip	-3557
rod	-3558
sho	-3559
sue	-3560
uly	-3561
ums	-3562
zed	-3563
zen	-3564
▁40	-3565
▁<<	-3566
▁Ah	-3567
▁Bo	-3568
▁Cr	-3569
▁El	-3570
▁Es	-3571
▁Le	-3572
▁Ne	-3573
▁OK	-3574
▁Se	-3575
▁ap	-3576
▁lf	-3577
▁ri	-3578
..."	-3579
ache	-3580
ales	-3581
eaks	-3582
etic	-3583
gery	-3584
hold	-3585
ials	-3586
kind	-3587
lebr	-3588
ners	-3589
oard	-3590
onel	-3591
otic	-3592
ship	-3593
uals	-3594
ucky	-3595
udes	-3596
vere	-3597
ware	-3598
ycle	-3599
yond	-3600
▁200	-3601
▁App	-3602
▁Cap	-3603
▁Dad	-3604
▁Gen	-3605
▁Mrs	-3606
▁Pol	-3607
▁amb	-3608
▁ast	-3609
▁cas	-3610
▁cos	-3611
▁ess	-3612
▁gal	-3613
▁gay	-3614
▁hab	-3615
▁har	-3616
▁ink	-3617
▁log	-3618
▁neg	-3619
▁oxy	-3620
▁pul	-3621
▁rap	-3622
▁sen	-3623
▁shr	-3624
▁tox	-3625
▁ult	-3626
▁vac	-3627
▁veh	-3628
▁ver	-3629
▁vul	-3630
▁wel	-3631
▁wit	-3632
amond	-3633
anced	-3634
educt	-3635
epend	-3636
force	-3637
iling	-3638
illed	-3639
inent	-3640
ining	-3641
iting	-3642
known	-3643
omers	-3644
oring	-3645
orney	-3646
ously	-3647
phone	-3648
ropri	-3649
round	-3650
▁Hope	-3651
▁Lord	-3652
▁Make	-3653
▁Star	-3654
▁Take	-3655
▁bail	-3656
▁born	-3657
▁cand	-3658
▁carb	-3659
▁cash	-3660
▁cere	-3661
▁club	-3662
▁corp	-3663
▁decl	-3664
▁dish	-3665
▁ears	-3666
▁exam	-3667
▁fake	-3668
▁flow	-3669
▁fool	-3670
▁gods	-3671
▁grav	-3672
▁hoff	-3673
▁hosp	-3674
▁hunt	-3675
▁inev	-3676
▁jeal	-3677
▁king	-3678
▁lack	-3679
▁mere	-3680
▁mult	-3681
▁nail	-3682
▁none	-3683
▁note	-3684
▁peri	-3685
▁pool	-3686
▁prep	-3687
▁pure	-3688
▁remo	-3689
▁root	-3690
▁sill	-3691
▁sink	-3692
▁step	-3693
▁thro	-3694
▁uses	-3695
▁vers	-3696
▁vide	-3697
▁vill	-3698
▁wave	-3699
▁wide	-3700
▁worm	-3701
athing	-3702
aurant	-3703
idered	-3704
ifying	-3705
illing	-3706
ration	-3707
ulated	-3708
▁Italy	-3709
▁Peter	-3710
▁South	-3711
▁Techn	-3712
▁Until	-3713
▁alarm	-3714
▁alien	-3715
▁anger	-3716
▁autom	-3717
▁beach	-3718
▁beast	-3719
▁behav	-3720
▁bleed	-3721
▁boxes	-3722
▁bread	-3723
▁broad	-3724
▁bunch	-3725
▁burst	-3726
▁calls	-3727
▁decay	-3728
▁dying	-3729
▁equal	-3730
▁faith	-3731
▁girlf	-3732
▁holds	-3733
▁hoped	-3734
▁image	-3735
▁immun	-3736
▁indic	-3737
▁invis	-3738
▁likes	-3739
▁loose	-3740
▁loyal	-3741
▁medic	-3742
▁naked	-3743
▁noble	-3744
▁ought	-3745
▁plane	-3746
▁pride	-3747
▁reset	-3748
▁shame	-3749
▁sight	-3750
▁slave	-3751
▁songs	-3752
▁spoke	-3753
▁swear	-3754
▁trail	-3755
▁trick	-3756
▁union	-3757
▁waste	-3758
aughter	-3759
friends	-3760
parents	-3761
▁Better	-3762
▁Europe	-3763
▁France	-3764
▁German	-3765
▁States	-3766
▁Thanks	-3767
▁United	-3768
▁aboard	-3769
▁asking	-3770
▁assure	-3771
▁babies	-3772
▁beyond	-3773
▁border	-3774
▁brains	-3775
▁buying	-3776
▁celebr	-3777
▁choice	-3778
▁client	-3779
▁commit	-3780
▁deeper	-3781
▁defend	-3782
▁democr	-3783
▁descri	-3784
▁digest	-3785
▁flames	-3786
▁forces	-3787
▁freeze	-3788
▁hungry	-3789
▁impact	-3790
▁landed	-3791
▁lasted	-3792
▁legend	-3793
▁played	-3794
▁poison	-3795
▁produc	-3796
▁prosec	-3797
▁pushed	-3798
▁remark	-3799
▁served	-3800
▁signed	-3801
▁speech	-3802
▁statue	-3803
▁stones	-3804
▁supply	-3805
▁suspic	-3806
▁unique	-3807
▁useful	-3808
▁wishes	-3809
▁yellow	-3810
entlemen	-3811
ordinary	-3812
▁English	-3813
▁achieve	-3814
▁allowed	-3815
▁capable	-3816
▁careful	-3817
▁complic	-3818
▁crosses	-3819
▁crushed	-3820
▁culture	-3821
▁decides	-3822
▁defense	-3823
▁degrees	-3824
▁diamond	-3825
▁discuss	-3826
▁dollars	-3827
▁entered	-3828
▁follows	-3829
▁goddamn	-3830
▁helping	-3831
▁himself	-3832
▁husband	-3833
▁jealous	-3834
▁journey	-3835
▁managed	-3836
▁mission	-3837
▁numbers	-3838
▁opinion	-3839
▁ordered	-3840
▁parking	-3841
▁parties	-3842
▁reached	-3843
▁reasons	-3844
▁receive	-3845
▁stomach	-3846
▁subject	-3847
▁torment	-3848
▁tragedy	-3849
▁wedding	-3850
▁Although	-3851
▁Japanese	-3852
▁chemical	-3853
▁creating	-3854
▁darkness	-3855
▁discover	-3856
▁fighting	-3857
▁floating	-3858
▁horrible	-3859
▁intended	-3860
▁officers	-3861
▁patients	-3862
▁pressure	-3863
▁protects	-3864
▁provided	-3865
▁sleeping	-3866
▁solution	-3867
▁standing	-3868
▁thoughts	-3869
▁countries	-3870
▁expensive	-3871
▁miserable	-3872
▁obviously	-3873
▁prisoners	-3874
▁questions	-3875
▁recognize	-3876
▁sacrifice	-3877
▁surprised	-3878
▁transform	-3879
▁considered	-3880
▁department	-3881
▁incredible	-3882
▁profession	-3883
▁restaurant	-3884
▁television	-3885
▁comfortable	-3886
▁destruction	-3887
▁responsible	-3888
▁technically	-3889
▁neighborhood	-3890
▁extraordinary	-3891
"?	-3892
.'	-3893
.,	-3894
.<	-3895
ai	-3896
fo	-3897
oh	-3898
ov	-3899
pe	-3900
sl	-3901
uh	-3902
▁0	-3903
How	-3904
ada	-3905
adr	-3906
bec	-3907
bye	-3908
cho	-3909
dom	-3910
ema	-3911
eng	-3912
gel	-3913
hel	-3914
lig	-3915
mas	-3916
olf	-3917
owd	-3918
raz	-3919
rel	-3920
thy	-3921
tte	-3922
uit	-3923
uma	-3924
yle	-3925
▁Ag	-3926
▁De	-3927
▁En	-3928
▁Mc	-3929
▁Ob	-3930
▁Ph	-3931
▁US	-3932
▁ic	-3933
▁ty	-3934
...<	-3935
When	-3936
aine	-3937
aker	-3938
alse	-3939
alys	-3940
anch	-3941
atto	-3942
ault	-3943
aved	-3944
cing	-3945
ends	-3946
enef	-3947
erts	-3948
fall	-3949
ican	-3950
idge	-3951
irts	-3952
just	-3953
lead	-3954
lets	-3955
lier	-3956
llen	-3957
look	-3958
odes	-3959
olly	-3960
orge	-3961
sect	-3962
teen	-3963
thal	-3964
uced	-3965
wear	-3966
wood	-3967
work	-3968
xual	-3969
▁Ant	-3970
▁Car	-3971
▁Col	-3972
▁Cor	-3973
▁Dav	-3974
▁Hon	-3975
▁Jan	-3976
▁Mer	-3977
▁Mil	-3978
▁Min	-3979
▁Off	-3980
▁Thr	-3981
▁Try	-3982
▁alt	-3983
▁bee	-3984
▁bud	-3985
▁fab	-3986
▁fan	-3987
▁gut	-3988
▁hol	-3989
▁hyp	-3990
▁jew	-3991
▁joy	-3992
▁kil	-3993
▁orb	-3994
▁pil	-3995
▁pin	-3996
▁por	-3997
▁pow	-3998
▁ree	-3999
▁spo	-4000
▁sym	-4001
▁syn	-4002
▁tea	-4003
▁tum	-4004
▁vot	-4005
ables	-4006
acket	-4007
ament	-4008
ancis	-4009
ankly	-4010
anted	-4011
antly	-4012
arant	-4013
arily	-4014
astle	-4015
azing	-4016
holes	-4017
iable	-4018
inema	-4019
ional	-4020
itude	-4021
mbled	-4022
olves	-4023
ranny	-4024
uable	-4025
uming	-4026
while	-4027
▁Gree	-4028
▁Iran	-4029
▁Jack	-4030
▁Paul	-4031
▁Rome	-4032
▁Supp	-4033
▁Turn	-4034
▁abil	-4035
▁bath	-4036
▁boil	-4037
▁bone	-4038
▁bust	-4039
▁cave	-4040
▁chip	-4041
▁danc	-4042
▁deny	-4043
▁eggs	-4044
▁elev	-4045
▁fade	-4046
▁flag	-4047
▁fuel	-4048
▁gard	-4049
▁gate	-4050
▁grew	-4051
▁hack	-4052
▁heal	-4053
▁hero	-4054
▁hers	-4055
▁insp	-4056
▁lift	-4057
▁list	-4058
▁mate	-4059
▁mile	-4060
▁pipe	-4061
▁piss	-4062
▁rabb	-4063
▁repe	-4064
▁rise	-4065
▁rust	-4066
▁tail	-4067
▁ugly	-4068
▁wand	-4069
▁west	-4070
▁wore	-4071
▁zone	-4072
ancial	-4073
ashing	-4074
atives	-4075
father	-4076
forced	-4077
itical	-4078
lessly	-4079
magine	-4080
omeday	-4081
ourish	-4082
resses	-4083
stairs	-4084
▁Afric	-4085
▁Grand	-4086
▁Inter	-4087
▁Jesus	-4088
▁Sorry	-4089
▁ahead	-4090
▁alley	-4091
▁arrow	-4092
▁benef	-4093
▁blank	-4094
▁bored	-4095
▁cared	-4096
▁charm	-4097
▁chase	-4098
▁cheap	-4099
▁cheer	-4100
▁costs	-4101
▁cream	-4102
▁crowd	-4103
▁dated	-4104
▁drunk	-4105
▁enjoy	-4106
▁faces	-4107
▁false	-4108
▁forms	-4109
▁forth	-4110
▁fully	-4111
▁galax	-4112
▁games	-4113
▁grown	-4114
▁holes	-4115
▁hotel	-4116
▁hurts	-4117
▁impro	-4118
▁knife	-4119
▁lands	-4120
▁large	-4121
▁lucky	-4122
▁owner	-4123
▁pleas	-4124
▁proof	-4125
▁psych	-4126
▁remem	-4127
▁rooms	-4128
▁route	-4129
▁screw	-4130
▁solid	-4131
▁spray	-4132
▁squee	-4133
▁stood	-4134
▁strip	-4135
▁style	-4136
▁sucks	-4137
▁swell	-4138
▁tatto	-4139
▁teams	-4140
▁tests	-4141
▁third	-4142
▁tough	-4143
▁tries	-4144
▁truly	-4145
▁twice	-4146
▁usual	-4147
▁wrote	-4148
▁Should	-4149
▁Wouldn	-4150
▁asleep	-4151
▁beings	-4152
▁borrow	-4153
▁button	-4154
▁causes	-4155
▁cooked	-4156
▁corpse	-4157
▁deadly	-4158
▁employ	-4159
▁estate	-4160
▁fallen	-4161
▁fields	-4162
▁finish	-4163
▁firing	-4164
▁forced	-4165
▁fought	-4166
▁frozen	-4167
▁harder	-4168
▁hardly	-4169
▁higher	-4170
▁immune	-4171
▁incomp	-4172
▁invite	-4173
▁losing	-4174
▁loving	-4175
▁mirror	-4176
▁mostly	-4177
▁oxygen	-4178
▁papers	-4179
▁patter	-4180
▁period	-4181
▁photos	-4182
▁reject	-4183
▁remove	-4184
▁repair	-4185
▁replic	-4186
▁reward	-4187
▁rocket	-4188
▁scheme	-4189
▁scream	-4190
▁shadow	-4191
▁smells	-4192
▁speaks	-4193
▁stable	-4194
▁sticks	-4195
▁struct	-4196
▁strugg	-4197
▁tastes	-4198
▁taught	-4199
▁toward	-4200
▁transm	-4201
▁twenty	-4202
▁unlike	-4203
▁washed	-4204
▁winter	-4205
arehouse	-4206
ropriate	-4207
▁Believe	-4208
▁aggress	-4209
▁ancient	-4210
▁article	-4211
▁battery	-4212
▁billion	-4213
▁breasts	-4214
▁carried	-4215
▁causing	-4216
▁command	-4217
▁consume	-4218
▁convict	-4219
▁corrupt	-4220
▁counter	-4221
▁dropped	-4222
▁economy	-4223
▁element	-4224
▁embrace	-4225
▁enemies	-4226
▁escaped	-4227
▁evening	-4228
▁factory	-4229
▁glasses	-4230
▁healthy	-4231
▁letters	-4232
▁medical	-4233
▁methods	-4234
▁nations	-4235
▁patient	-4236
▁possess	-4237
▁refused	-4238
▁release	-4239
▁respond	-4240
▁reverse	-4241
▁shelter	-4242
▁showing	-4243
▁spreads	-4244
▁staying	-4245
▁stretch	-4246
▁tickets	-4247
▁trigger	-4248
▁unknown	-4249
▁village	-4250
▁welcome	-4251
asionally	-4252
▁Remember	-4253
▁attached	-4254
▁becoming	-4255
▁colonies	-4256
▁destroys	-4257
▁distance	-4258
▁document	-4259
▁husbands	-4260
▁independ	-4261
▁invasion	-4262
▁location	-4263
▁magazine	-4264
▁material	-4265
▁movement	-4266
▁precious	-4267
▁presence	-4268
▁research	-4269
▁sacrific	-4270
▁security	-4271
▁separate	-4272
▁services	-4273
▁signific	-4274
▁students	-4275
▁surround	-4276
▁universe	-4277
▁Something	-4278
▁continued	-4279
▁democracy	-4280
▁elsewhere	-4281
▁entertain	-4282
▁financial	-4283
▁happiness	-4284
▁invisible	-4285
▁neighbour	-4286
▁potential	-4287
▁strengthe	-4288
▁suffering	-4289
▁terrorist	-4290
▁traveling	-4291
▁wonderful	-4292
▁Especially	-4293
▁afterwards	-4294
▁destroying	-4295
▁experiment	-4296
▁frightened	-4297
▁generation	-4298
▁represents	-4299
▁successful	-4300
▁underneath	-4301
▁communicate	-4302
▁connections	-4303
▁controlling	-4304
▁girlfriends	-4305
▁imagination	-4306
▁Unfortunately	-4307
'.	-4308
2,	-4309
20	-4310
Oh	-4311
ba	-4312
ky	-4313
lu	-4314
uz	-4315
wr	-4316
yl	-4317
But	-4318
Why	-4319
apa	-4320
aph	-4321
ara	-4322
ari	-4323
arp	-4324
bil	-4325
bro	-4326
bur	-4327
cal	-4328
dro	-4329
ece	-4330
eek	-4331
elv	-4332
hey	-4333
hmm	-4334
igr	-4335
isc	-4336
lec	-4337
lor	-4338
nda	-4339
new	-4340
now	-4341
obb	-4342
olt	-4343
oul	-4344
put	-4345
rad	-4346
raq	-4347
ris	-4348
rom	-4349
sen	-4350
uge	-4351
urb	-4352
war	-4353
xim	-4354
▁Ge	-4355
▁ba	-4356
▁bi	-4357
▁eh	-4358
▁ju	-4359
▁ls	-4360
▁lu	-4361
▁ya	-4362
"...	-4363
....	-4364
:00.	-4365
Well	-4366
Your	-4367
abor	-4368
acle	-4369
acts	-4370
aper	-4371
apse	-4372
bble	-4373
bear	-4374
born	-4375
boys	-4376
cast	-4377
cest	-4378
chen	-4379
cise	-4380
emon	-4381
ener	-4382
erge	-4383
fish	-4384
gets	-4385
gypt	-4386
iant	-4387
icer	-4388
iest	-4389
iety	-4390
ifts	-4391
iger	-4392
ilty	-4393
inct	-4394
ints	-4395
itor	-4396
ivid	-4397
mble	-4398
mony	-4399
odge	-4400
okes	-4401
olds	-4402
olic	-4403
oped	-4404
ords	-4405
otch	-4406
outs	-4407
rich	-4408
rict	-4409
ripp	-4410
sequ	-4411
uary	-4412
uate	-4413
uman	-4414
unny	-4415
uous	-4416
uted	-4417
vant	-4418
viet	-4419
▁500	-4420
▁Acc	-4421
▁Bad	-4422
▁Big	-4423
▁Bro	-4424
▁Cal	-4425
▁Dan	-4426
▁Del	-4427
▁Dom	-4428
▁Gre	-4429
▁Has	-4430
▁Jer	-4431
▁Jon	-4432
▁Mex	-4433
▁Pal	-4434
▁Par	-4435
▁Pat	-4436
▁Put	-4437
▁Raj	-4438
▁Red	-4439
▁Res	-4440
▁Rob	-4441
▁Sam	-4442
▁Sat	-4443
▁anx	-4444
▁ash	-4445
▁ate	-4446
▁ban	-4447
▁bes	-4448
▁cha	-4449
▁cig	-4450
▁cit	-4451
▁cru	-4452
▁cub	-4453
▁din	-4454
▁dom	-4455
▁dum	-4456
▁fif	-4457
▁jam	-4458
▁lat	-4459
▁lob	-4460
▁obe	-4461
▁pan	-4462
▁rac	-4463
▁row	-4464
▁rum	-4465
▁sle	-4466
▁sof	-4467
▁tow	-4468
▁tun	-4469
▁unp	-4470
▁uns	-4471
▁wax	-4472
adays	-4473
agger	-4474
aries	-4475
athan	-4476
atory	-4477
aving	-4478
erved	-4479
icals	-4480
icles	-4481
ieved	-4482
inese	-4483
olved	-4484
ouses	-4485
place	-4486
razil	-4487
sters	-4488
stone	-4489
these	-4490
ulate	-4491
ulous	-4492
ungle	-4493
▁...<	-4494
▁Army	-4495
▁Aust	-4496
▁Brit	-4497
▁Card	-4498
▁Dead	-4499
▁Didn	-4500
▁Four	-4501
▁Gold	-4502
▁Half	-4503
▁Hell	-4504
▁Iraq	-4505
▁Jews	-4506
▁King	-4507
▁Lang	-4508
▁Mart	-4509
▁Mean	-4510
▁Mike	-4511
▁Soon	-4512
▁Spec	-4513
▁acqu	-4514
▁adap	-4515
▁agre	-4516
▁ants	-4517
▁bell	-4518
▁calc	-4519
▁cows	-4520
▁cred	-4521
▁data	-4522
▁date	-4523
▁desp	-4524
▁drag	-4525
▁dude	-4526
▁dump	-4527
▁dust	-4528
▁flaw	-4529
▁fund	-4530
▁gift	-4531
▁goal	-4532
▁hall	-4533
▁hire	-4534
▁horn	-4535
▁irre	-4536
▁laid	-4537
▁lamp	-4538
▁lawy	-4539
▁lays	-4540
▁leak	-4541
▁link	-4542
▁liqu	-4543
▁meal	-4544
▁meas	-4545
▁meat	-4546
▁migr	-4547
▁mort	-4548
▁muse	-4549
▁nurs	-4550
▁nuts	-4551
▁pair	-4552
▁pans	-4553
▁port	-4554
▁pour	-4555
▁puts	-4556
▁rein	-4557
▁seed	-4558
▁seek	-4559
▁shoe	-4560
▁spin	-4561
▁suit	-4562
▁suns	-4563
▁sust	-4564
▁tall	-4565
▁term	-4566
▁tool	-4567
▁tour	-4568
▁unst	-4569
▁vast	-4570
▁warn	-4571
▁womb	-4572
▁worn	-4573
▁zero	-4574
erally	-4575
ferred	-4576
inated	-4577
ingers	-4578
isions	-4579
itions	-4580
itting	-4581
lected	-4582
onnect	-4583
thered	-4584
▁Bajor	-4585
▁Check	-4586
▁Doesn	-4587
▁Holly	-4588
▁India	-4589
▁Never	-4590
▁North	-4591
▁Saint	-4592
▁State	-4593
▁Still	-4594
▁Think	-4595
▁Turns	-4596
▁Under	-4597
▁abuse	-4598
▁accom	-4599
▁ammun	-4600
▁blade	-4601
▁blast	-4602
▁bloom	-4603
▁blows	-4604
▁bones	-4605
▁bonus	-4606
▁bound	-4607
▁cabin	-4608
▁cargo	-4609
▁champ	-4610
▁daddy	-4611
▁decre	-4612
▁delic	-4613
▁drops	-4614
▁drown	-4615
▁eaten	-4616
▁facts	-4617
▁fancy	-4618
▁feeds	-4619
▁float	-4620
▁gates	-4621
▁giant	-4622
▁gifts	-4623
▁grass	-4624
▁grate	-4625
▁hatch	-4626
▁hears	-4627
▁hills	-4628
▁homes	-4629
▁hydro	-4630
▁ignor	-4631
▁illeg	-4632
▁jumps	-4633
▁lasts	-4634
▁legal	-4635
▁loans	-4636
▁local	-4637
▁loves	-4638
▁lower	-4639
▁media	-4640
▁molec	-4641
▁navig	-4642
▁nerve	-4643
▁opens	-4644
▁penis	-4645
▁prost	-4646
▁range	-4647
▁roads	-4648
▁rocks	-4649
▁safer	-4650
▁sanct	-4651
▁saved	-4652
▁sends	-4653
▁sheep	-4654
▁sheet	-4655
▁shiny	-4656
▁ships	-4657
▁shirt	-4658
▁silly	-4659
▁snake	-4660
▁south	-4661
▁staff	-4662
▁stage	-4663
▁sugar	-4664
▁total	-4665
▁trace	-4666
▁trash	-4667
▁trunk	-4668
▁uncle	-4669
▁upper	-4670
▁video	-4671
▁walks	-4672
▁warri	-4673
▁wheel	-4674
ability	-4675
artment	-4676
attered	-4677
inating	-4678
mendous	-4679
nerable	-4680
roduced	-4681
stances	-4682
▁Africa	-4683
▁Brazil	-4684
▁Commun	-4685
▁Soviet	-4686
▁active	-4687
▁actual	-4688
▁ancest	-4689
▁assume	-4690
▁barely	-4691
▁beasts	-4692
▁behave	-4693
▁betray	-4694
▁carbon	-4695
▁cattle	-4696
▁colour	-4697
▁column	-4698
▁commer	-4699
▁contam	-4700
▁demand	-4701
▁driver	-4702
▁elimin	-4703
▁fading	-4704
▁fairly	-4705
▁famous	-4706
▁fellow	-4707
▁female	-4708
▁flying	-4709
▁formed	-4710
▁galaxy	-4711
▁garage	-4712
▁gather	-4713
▁glands	-4714
▁govern	-4715
▁guilty	-4716
▁hammer	-4717
▁houses	-4718
▁ignore	-4719
▁indeed	-4720
▁insist	-4721
▁larger	-4722
▁launch	-4723
▁lethal	-4724
▁lights	-4725
▁makeup	-4726
▁merely	-4727
▁microw	-4728
▁missed	-4729
▁monkey	-4730
▁palace	-4731
▁paying	-4732
▁perman	-4733
▁placed	-4734
▁plants	-4735
▁plenty	-4736
▁pounds	-4737
▁powder	-4738
▁prints	-4739
▁psycho	-4740
▁raised	-4741
▁refuse	-4742
▁result	-4743
▁review	-4744
▁ripped	-4745
▁robber	-4746
▁sealed	-4747
▁season	-4748
▁senses	-4749
▁serves	-4750
▁settle	-4751
▁shirts	-4752
▁sooner	-4753
▁square	-4754
▁states	-4755
▁status	-4756
▁studio	-4757
▁target	-4758
▁tested	-4759
▁theirs	-4760
▁throat	-4761
▁ticket	-4762
▁trauma	-4763
▁tricks	-4764
▁vision	-4765
▁waited	-4766
▁waters	-4767
▁worlds	-4768
ological	-4769
▁Captain	-4770
▁Cardass	-4771
▁Chinese	-4772
▁Federal	-4773
▁General	-4774
▁Imagine	-4775
▁Somehow	-4776
▁Through	-4777
▁Without	-4778
▁airport	-4779
▁amounts	-4780
▁artific	-4781
▁ashamed	-4782
▁attacks	-4783
▁beliefs	-4784
▁bounced	-4785
▁chicken	-4786
▁claimed	-4787
▁cleared	-4788
▁comprom	-4789
▁conduct	-4790
▁confirm	-4791
▁dealing	-4792
▁declare	-4793
▁descend	-4794
▁divorce	-4795
▁doctors	-4796
▁drawing	-4797
▁dreamed	-4798
▁failure	-4799
▁guarant	-4800
▁hideous	-4801
▁however	-4802
▁individ	-4803
▁involve	-4804
▁knocked	-4805
▁mankind	-4806
▁massive	-4807
▁mystery	-4808
▁network	-4809
▁opening	-4810
▁organic	-4811
▁painful	-4812
▁passage	-4813
▁percent	-4814
▁popular	-4815
▁promise	-4816
▁reading	-4817
▁realise	-4818
▁recover	-4819
▁removed	-4820
▁returns	-4821
▁scratch	-4822
▁seconds	-4823
▁service	-4824
▁snowing	-4825
▁streets	-4826
▁surgery	-4827
▁threats	-4828
▁treated	-4829
▁various	-4830
▁vehicle	-4831
▁visible	-4832
▁warning	-4833
▁windows	-4834
▁workers	-4835
▁worship	-4836
▁Internet	-4837
▁Tomorrow	-4838
▁Wherever	-4839
▁achieved	-4840
▁advanced	-4841
▁arrested	-4842
▁attorney	-4843
▁audience	-4844
▁bankrupt	-4845
▁behavior	-4846
▁clothing	-4847
▁collapse	-4848
▁confused	-4849
▁controls	-4850
▁deserved	-4851
▁deserves	-4852
▁detailed	-4853
▁detonate	-4854
▁disaster	-4855
▁dissolve	-4856
▁electric	-4857
▁emotions	-4858
▁entirely	-4859
▁familiar	-4860
▁freezing	-4861
▁infected	-4862
▁internet	-4863
▁invented	-4864
▁isolated	-4865
▁machines	-4866
▁memories	-4867
▁negative	-4868
▁possibly	-4869
▁practice	-4870
▁prepared	-4871
▁progress	-4872
▁promised	-4873
▁requires	-4874
▁secretly	-4875
▁struggle	-4876
▁surprise	-4877
▁suspects	-4878
▁swimming	-4879
▁valuable	-4880
▁vampires	-4881
▁vanished	-4882
▁violence	-4883
▁wormhole	-4884
▁According	-4885
▁Christmas	-4886
▁affection	-4887
▁breathing	-4888
▁carefully	-4889
▁confident	-4890
▁corporate	-4891
▁customers	-4892
▁effective	-4893
▁expecting	-4894
▁fantastic	-4895
▁forgotten	-4896
▁intercept	-4897
▁interview	-4898
▁involving	-4899
▁organisms	-4900
▁personnel	-4901
▁president	-4902
▁religious	-4903
▁separated	-4904
▁seriously	-4905
▁situation	-4906
▁spreading	-4907
▁structure	-4908
▁suggested	-4909
▁therefore	-4910
▁threatens	-4911
▁warehouse	-4912
▁Apparently	-4913
▁apparently	-4914
▁attractive	-4915
▁electrical	-4916
▁originated	-4917
▁remarkable	-4918
▁resistance	-4919
▁scientists	-4920
▁surprising	-4921
▁technology	-4922
▁tremendous	-4923
▁vulnerable	-4924
▁appropriate	-4925
▁intelligent	-4926
▁particularly	-4927
▁automatically	-4928
",	-4929
',	-4930
/<	-4931
10	-4932
11	-4933
15	-4934
>-	-4935
BI	-4936
Do	-4937
If	-4938
No	-4939
We	-4940
ae	-4941
cH	-4942
de	-4943
fl	-4944
ju	-4945
ki	-4946
oe	-4947
rs	-4948
tr	-4949
va	-4950
yr	-4951
za	-4952
▁!	-4953
:30	-4954
Are	-4955
Men	-4956
ael	-4957
aks	-4958
ano	-4959
ato	-4960
cil	-4961
egr	-4962
els	-4963
enn	-4964
ern	-4965
eys	-4966
his	-4967
hol	-4968
iac	-4969
ibs	-4970
ims	-4971
lar	-4972
lem	-4973
lob	-4974
log	-4975
lph	-4976
opt	-4977
pos	-4978
pro	-4979
roy	-4980
rum	-4981
tes	-4982
urf	-4983
urt	-4984
val	-4985
yps	-4986
▁14	-4987
▁Ap	-4988
▁Co	-4989
▁Lu	-4990
▁Ro	-4991
▁Sw	-4992
▁Tw	-4993
▁Us	-4994
▁au	-4995
▁ff	-4996
▁ok	-4997
...?	-4998
FFFF	-4999
This	-5000
agen	-5001
ager	-5002
ague	-5003
aign	-5004
aken	-5005
alib	-5006
alla	-5007
apor	-5008
ares	-5009
aver	-5010
bert	-5011
bird	-5012
ctor	-5013
down	-5014
drop	-5015
ecks	-5016
erry	-5017
erve	-5018
esty	-5019
fast	-5020
fire	-5021
foot	-5022
gain	-5023
gate	-5024
geon	-5025
gies	-5026
hers	-5027
hets	-5028
ifle	-5029
iled	-5030
ille	-5031
imon	-5032
imum	-5033
iple	-5034
isis	-5035
ites	-5036
keys	-5037
laim	-5038
lled	-5039
mand	-5040
nail	-5041
nded	-5042
ntic	-5043
oral	-5044
orks	-5045
osis	-5046
oust	-5047
pace	-5048
path	-5049
raft	-5050
ring	-5051
rous	-5052
ssom	-5053
them	-5054
tier	-5055
uine	-5056
unge	-5057
uper	-5058
well	-5059
whel	-5060
wing	-5061
zard	-5062
▁Add	-5063
▁Air	-5064
▁Ber	-5065
▁Boy	-5066
▁Bur	-5067
▁Dem	-5068
▁FBI	-5069
▁Hmm	-5070
▁Ice	-5071
▁Int	-5072
▁Its	-5073
▁Jac	-5074
▁Lit	-5075
▁Men	-5076
▁Old	-5077
▁Out	-5078
▁Rad	-5079
▁Ray	-5080
▁Rec	-5081
▁Reg	-5082
▁Run	-5083
▁Sal	-5084
▁Sea	-5085
▁Str	-5086
▁Tim	-5087
▁Val	-5088
▁Win	-5089
▁Wow	-5090
▁bal	-5091
▁bul	-5092
▁cul	-5093
▁deb	-5094
▁eth	-5095
▁fea	-5096
▁fee	-5097
▁fet	-5098
▁hat	-5099
▁huh	-5100
▁ing	-5101
▁jer	-5102
▁mix	-5103
▁odd	-5104
▁ped	-5105
▁pok	-5106
▁que	-5107
▁rig	-5108
▁rip	-5109
▁sed	-5110
▁sem	-5111
▁sli	-5112
▁tag	-5113
▁tro	-5114
▁unh	-5115
▁wid	-5116
▁wis	-5117
,000.	-5118
about	-5119
aches	-5120
addle	-5121
affic	-5122
alled	-5123
allen	-5124
anded	-5125
anged	-5126
arted	-5127
bably	-5128
bered	-5129
berry	-5130
brary	-5131
celer	-5132
elled	-5133
erous	-5134
ester	-5135
etect	-5136
gency	-5137
going	-5138
halla	-5139
ician	-5140
inkle	-5141
itary	-5142
itely	-5143
izens	-5144
mbers	-5145
netic	-5146
ondon	-5147
ontro	-5148
opped	-5149
order	-5150
osing	-5151
ounce	-5152
oured	-5153
ousin	-5154
overy	-5155
paper	-5156
power	-5157
ppers	-5158
tends	-5159
thern	-5160
uaded	-5161
uffed	-5162
ulent	-5163
under	-5164
urate	-5165
using	-5166
world	-5167
▁"...	-5168
▁Anim	-5169
▁Aven	-5170
▁Budd	-5171
▁Cons	-5172
▁Cour	-5173
▁Each	-5174
▁Ever	-5175
▁Find	-5176
▁Fred	-5177
▁Germ	-5178
▁Hall	-5179
▁Hear	-5180
▁Hill	-5181
▁Long	-5182
▁Mach	-5183
▁Mama	-5184
▁Mick	-5185
▁More	-5186
▁Norm	-5187
▁Papa	-5188
▁Pres	-5189
▁Span	-5190
▁Sund	-5191
▁Them	-5192
▁Thir	-5193
▁Thus	-5194
▁Very	-5195
▁Wait	-5196
▁West	-5197
▁alco	-5198
▁arch	-5199
▁aver	-5200
▁bast	-5201
▁belt	-5202
▁bond	-5203
▁brid	-5204
▁bury	-5205
▁buys	-5206
▁cage	-5207
▁cake	-5208
▁caps	-5209
▁cham	-5210
▁chat	-5211
▁chew	-5212
▁claw	-5213
▁core	-5214
▁cudd	-5215
▁dign	-5216
▁dirt	-5217
▁ensl	-5218
▁eter	-5219
▁fate	-5220
▁feds	-5221
▁forg	-5222
▁fuse	-5223
▁gain	-5224
▁glow	-5225
▁grad	-5226
▁grey	-5227
▁holy	-5228
▁iris	-5229
▁jury	-5230
▁lady	-5231
▁leaf	-5232
▁lied	-5233
▁loan	-5234
▁lust	-5235
▁mask	-5236
▁ment	-5237
▁neat	-5238
▁obey	-5239
▁obsc	-5240
▁outl	-5241
▁page	-5242
▁panc	-5243
▁pays	-5244
▁perm	-5245
▁pier	-5246
▁pill	-5247
▁poll	-5248
▁porn	-5249
▁prem	-5250
▁pros	-5251
▁rage	-5252
▁rail	-5253
▁reck	-5254
▁ribs	-5255
▁rope	-5256
▁salt	-5257
▁salv	-5258
▁scan	-5259
▁scar	-5260
▁sett	-5261
▁sigh	-5262
▁slap	-5263
▁smok	-5264
▁stab	-5265
▁stem	-5266
▁subm	-5267
▁sway	-5268
▁thri	-5269
▁tits	-5270
▁tomb	-5271
▁trad	-5272
▁util	-5273
▁whis	-5274
▁wing	-5275
▁wire	-5276
▁wise	-5277
▁woke	-5278
FFFFFF	-5279
action	-5280
adrant	-5281
alysis	-5282
anding	-5283
antage	-5284
arched	-5285
arding	-5286
arters	-5287
ashion	-5288
ending	-5289
erties	-5290
ichael	-5291
icians	-5292
icient	-5293
ightly	-5294
ission	-5295
itutes	-5296
loaded	-5297
mother	-5298
nesses	-5299
ointed	-5300
orical	-5301
ormous	-5302
ounced	-5303
porary	-5304
prints	-5305
ptions	-5306
strate	-5307
ulting	-5308
unting	-5309
urable	-5310
▁Agent	-5311
▁Anton	-5312
▁China	-5313
▁Daddy	-5314
▁David	-5315
▁Drink	-5316
▁Egypt	-5317
▁Honor	-5318
▁Looks	-5319
▁Mount	-5320
▁Paris	-5321
▁Roman	-5322
▁Seems	-5323
▁Small	-5324
▁World	-5325
▁aband	-5326
▁absor	-5327
▁adult	-5328
▁agent	-5329
▁alike	-5330
▁analy	-5331
▁angle	-5332
▁antib	-5333
▁apple	-5334
▁apply	-5335
▁aside	-5336
▁authe	-5337
▁backs	-5338
▁basis	-5339
▁books	-5340
▁boots	-5341
▁brace	-5342
▁chair	-5343
▁chaos	-5344
▁climb	-5345
▁crawl	-5346
▁cruel	-5347
▁cycle	-5348
▁dates	-5349
▁displ	-5350
▁drain	-5351
▁drift	-5352
▁dryer	-5353
▁exped	-5354
▁fails	-5355
▁faint	-5356
▁fault	-5357
▁filed	-5358
▁files	-5359
▁final	-5360
▁flame	-5361
▁flash	-5362
▁flies	-5363
▁fluid	-5364
▁focus	-5365
▁frame	-5366
▁fruit	-5367
▁gorge	-5368
▁grabs	-5369
▁grave	-5370
▁groom	-5371
▁hated	-5372
▁heals	-5373
▁hoist	-5374
▁humil	-5375
▁inhib	-5376
▁jewel	-5377
▁juice	-5378
▁kicks	-5379
▁kidna	-5380
▁lonel	-5381
▁lunch	-5382
▁masks	-5383
▁micro	-5384
▁motiv	-5385
▁named	-5386
▁nicer	-5387
▁oblig	-5388
▁outer	-5389
▁overd	-5390
▁pages	-5391
▁pants	-5392
▁pills	-5393
▁pinch	-5394
▁plate	-5395
▁polit	-5396
▁pound	-5397
▁prior	-5398
▁proud	-5399
▁pulls	-5400
▁punch	-5401
▁queen	-5402
▁rapid	-5403
▁resid	-5404
▁rings	-5405
▁rises	-5406
▁roots	-5407
▁royal	-5408
▁rusty	-5409
▁sched	-5410
▁scrap	-5411
▁sells	-5412
▁shell	-5413
▁slide	-5414
▁solve	-5415
▁spect	-5416
▁speed	-5417
▁split	-5418
▁stare	-5419
▁steam	-5420
▁stink	-5421
▁stole	-5422
▁surre	-5423
▁swept	-5424
▁swing	-5425
▁swore	-5426
▁sympt	-5427
▁tempt	-5428
▁tooth	-5429
▁torch	-5430
▁venom	-5431
▁wings	-5432
aborate	-5433
eration	-5434
estines	-5435
istered	-5436
ivalent	-5437
mission	-5438
ography	-5439
ologize	-5440
▁Castle	-5441
▁Empire	-5442
▁Fortun	-5443
▁Friday	-5444
▁Little	-5445
▁London	-5446
▁Master	-5447
▁Monday	-5448
▁action	-5449
▁actors	-5450
▁agency	-5451
▁allows	-5452
▁appeal	-5453
▁assass	-5454
▁bacter	-5455
▁barbec	-5456
▁beside	-5457
▁branch	-5458
▁breach	-5459
▁breath	-5460
▁center	-5461
▁checks	-5462
▁cigare	-5463
▁cinema	-5464
▁closet	-5465
▁clouds	-5466
▁consci	-5467
▁conven	-5468
▁crisis	-5469
▁crying	-5470
▁dating	-5471
▁decent	-5472
▁decomp	-5473
▁demons	-5474
▁denied	-5475
▁dreams	-5476
▁drinks	-5477
▁encour	-5478
▁enters	-5479
▁evapor	-5480
▁evolve	-5481
▁excell	-5482
▁favour	-5483
▁floods	-5484
▁guards	-5485
▁hotter	-5486
▁ideals	-5487
▁images	-5488
▁inches	-5489
▁income	-5490
▁inevit	-5491
▁inject	-5492
▁insect	-5493
▁interp	-5494
▁jacket	-5495
▁joined	-5496
▁jumped	-5497
▁jungle	-5498
▁latest	-5499
▁lifted	-5500
▁likely	-5501
▁loaded	-5502
▁locker	-5503
▁master	-5504
▁medium	-5505
▁member	-5506
▁mouths	-5507
▁museum	-5508
▁online	-5509
▁orange	-5510
▁pocket	-5511
▁points	-5512
▁prayed	-5513
▁prepar	-5514
▁pursue	-5515
▁rained	-5516
▁reform	-5517
▁refuge	-5518
▁relate	-5519
▁rising	-5520
▁ruined	-5521
▁saving	-5522
▁sector	-5523
▁secure	-5524
▁senior	-5525
▁severe	-5526
▁shared	-5527
▁shield	-5528
▁skinny	-5529
▁stairs	-5530
▁starve	-5531
▁stinks	-5532
▁struck	-5533
▁subtle	-5534
▁sucked	-5535
▁superm	-5536
▁surely	-5537
▁switch	-5538
▁tasted	-5539
▁tattoo	-5540
▁temper	-5541
▁thirst	-5542
▁thrown	-5543
▁unfair	-5544
▁values	-5545
▁virgin	-5546
▁walked	-5547
▁whence	-5548
▁whores	-5549
▁wicked	-5550
▁worthy	-5551
▁wounds	-5552
cHFFFFFF	-5553
etically	-5554
national	-5555
▁Austral	-5556
▁Certain	-5557
▁Charlie	-5558
▁Francis	-5559
▁Special	-5560
▁Suppose	-5561
▁Thought	-5562
▁Usually	-5563
▁acceler	-5564
▁account	-5565
▁amazing	-5566
▁anytime	-5567
▁applaud	-5568
▁applies	-5569
▁banking	-5570
▁beating	-5571
▁binding	-5572
▁bitches	-5573
▁blocked	-5574
▁blossom	-5575
▁borough	-5576
▁breathe	-5577
▁capture	-5578
▁central	-5579
▁choices	-5580
▁clients	-5581
▁closely	-5582
▁columns	-5583
▁compass	-5584
▁concent	-5585
▁concert	-5586
▁consequ	-5587
▁convers	-5588
▁cooking	-5589
▁corners	-5590
▁creativ	-5591
▁curtain	-5592
▁drivers	-5593
▁earlier	-5594
▁efforts	-5595
▁excited	-5596
▁fantasy	-5597
▁fathers	-5598
▁feather	-5599
▁federal	-5600
▁feeding	-5601
▁finance	-5602
▁genuine	-5603
▁greater	-5604
▁holiday	-5605
▁humming	-5606
▁hunters	-5607
▁illegal	-5608
▁immoral	-5609
▁inspect	-5610
▁inspire	-5611
▁journal	-5612
▁letting	-5613
▁library	-5614
▁located	-5615
▁loyalty	-5616
▁matches	-5617
▁members	-5618
▁mutated	-5619
▁nursery	-5620
▁obvious	-5621
▁officer	-5622
▁outcome	-5623
▁passion	-5624
▁pattern	-5625
▁picking	-5626
▁planned	-5627
▁pockets	-5628
▁priests	-5629
▁proceed	-5630
▁pulling	-5631
▁reacted	-5632
▁regular	-5633
▁reminds	-5634
▁ringing	-5635
▁rotting	-5636
▁sending	-5637
▁shaking	-5638
▁shatter	-5639
▁shuttle	-5640
▁silence	-5641
▁someday	-5642
▁sounded	-5643
▁spirits	-5644
▁teaches	-5645
▁testify	-5646
▁touched	-5647
▁touches	-5648
▁traffic	-5649
▁tyranny	-5650
▁underst	-5651
▁univers	-5652
▁useless	-5653
▁version	-5654
▁watched	-5655
▁witches	-5656
umstances	-5657
▁Dominion	-5658
▁Everyone	-5659
▁Probably	-5660
▁Stargate	-5661
▁Together	-5662
▁Whenever	-5663
▁accepted	-5664
▁accurate	-5665
▁attacked	-5666
▁basement	-5667
▁bastards	-5668
▁believes	-5669
▁bleeding	-5670
▁campaign	-5671
▁captured	-5672
▁ceremony	-5673
▁charming	-5674
▁checking	-5675
▁citizens	-5676
▁convince	-5677
▁diseases	-5678
▁fabulous	-5679
▁finished	-5680
▁generate	-5681
▁generous	-5682
▁gorgeous	-5683
▁grateful	-5684
▁hospital	-5685
▁imagined	-5686
▁instruct	-5687
▁interrog	-5688
▁involves	-5689
▁listened	-5690
▁midnight	-5691
▁mistakes	-5692
▁occurred	-5693
▁original	-5694
▁overwhel	-5695
▁particip	-5696
▁peaceful	-5697
▁physical	-5698
▁planning	-5699
▁possibil	-5700
▁prettier	-5701
▁reaction	-5702
▁received	-5703
▁recently	-5704
▁remained	-5705
▁revealed	-5706
▁schedule	-5707
▁shopping	-5708
▁starving	-5709
▁stopping	-5710
▁suggests	-5711
▁sunlight	-5712
▁survived	-5713
▁threaten	-5714
▁thriving	-5715
▁undetect	-5716
▁unstable	-5717
▁warriors	-5718
▁Hollywood	-5719
▁Meanwhile	-5720
▁Otherwise	-5721
▁Therefore	-5722
▁Yesterday	-5723
▁abandoned	-5724
▁advantage	-5725
▁agreement	-5726
▁ancestors	-5727
▁authentic	-5728
▁character	-5729
▁cheerlead	-5730
▁chemicals	-5731
▁childhood	-5732
▁condition	-5733
▁conscious	-5734
▁contained	-5735
▁countless	-5736
▁depressed	-5737
▁desperate	-5738
▁developed	-5739
▁elaborate	-5740
▁emergency	-5741
▁emotional	-5742
▁essential	-5743
▁establish	-5744
▁frequency	-5745
▁gentlemen	-5746
▁identical	-5747
▁justified	-5748
▁mentioned	-5749
▁mountains	-5750
▁movements	-5751
▁naturally	-5752
▁operation	-5753
▁persuaded	-5754
▁psycholog	-5755
▁revealing	-5756
▁sanctuary	-5757
▁statement	-5758
▁strangers	-5759
▁suspicion	-5760
▁temporary	-5761
▁transport	-5762
▁underwear	-5763
▁virtually	-5764
▁Department	-5765
▁aggressive	-5766
▁antibodies	-5767
▁background	-5768
▁commercial	-5769
▁compromise	-5770
▁connection	-5771
▁developing	-5772
▁equivalent	-5773
▁increasing	-5774
▁intestines	-5775
▁introduced	-5776
▁loneliness	-5777
▁navigation	-5778
▁possession	-5779
▁productive	-5780
▁programmed	-5781
▁properties	-5782
▁remembered	-5783
▁sacrificed	-5784
▁strengthen	-5785
▁Technically	-5786
▁celebrities	-5787
▁complicated	-5788
▁descendants	-5789
▁established	-5790
▁experienced	-5791
▁functioning	-5792
▁generations	-5793
▁grandmother	-5794
▁individuals	-5795
▁photographs	-5796
▁practically	-5797
▁prosecution	-5798
▁significant	-5799
▁surrounding	-5800
▁temperature	-5801
▁underground	-5802
▁civilization	-5803
▁consequences	-5804
▁mysteriously	-5805
▁occasionally	-5806
▁professional	-5807
▁environmental	-5808
5.	-5809
>>	-5810
AL	-5811
RE	-5812
So	-5813
bb	-5814
ca	-5815
eh	-5816
ek	-5817
uk	-5818
ym	-5819
20,	-5820
500	-5821
>--	-5822
Hey	-5823
ags	-5824
amb	-5825
amm	-5826
ava	-5827
awk	-5828
bal	-5829
bel	-5830
bes	-5831
bra	-5832
cap	-5833
car	-5834
dog	-5835
eag	-5836
ech	-5837
gun	-5838
ham	-5839
hib	-5840
iam	-5841
ila	-5842
ips	-5843
ket	-5844
nic	-5845
oly	-5846
oop	-5847
orr	-5848
pol	-5849
pst	-5850
que	-5851
ros	-5852
sey	-5853
son	-5854
thm	-5855
tor	-5856
ulf	-5857
uum	-5858
uzz	-5859
van	-5860
vey	-5861
zag	-5862
▁"'	-5863
▁2,	-5864
▁21	-5865
▁Ac	-5866
▁Fl	-5867
▁Je	-5868
▁Kl	-5869
▁LA	-5870
▁La	-5871
▁Ok	-5872
▁Ol	-5873
▁Pe	-5874
▁Po	-5875
▁om	-5876
That	-5877
Yeah	-5878
ador	-5879
affe	-5880
agin	-5881
agne	-5882
agon	-5883
alia	-5884
alie	-5885
arks	-5886
arts	-5887
asty	-5888
away	-5889
blem	-5890
book	-5891
cean	-5892
char	-5893
cles	-5894
comp	-5895
eeks	-5896
elve	-5897
enry	-5898
esse	-5899
40	-5900
..<	-5901
:15	-5902
arn	-5903
asp	-5904
bag	-5905
box	-5906
boy	-5907
ico	-5908
irm	-5909
isa	-5910
low	-5911
pet	-5912
pow	-5913
rab	-5914
rin	-5915
ugh	-5916
umm	-5917
uns	-5918
▁et	-5919
▁ge	-5920
acho	-5921
aser	-5922
dors	-5923
etes	-5924
evin	-5925
frie	-5926
fted	-5927
game	-5928
gels	-5929
gers	-5930
gium	-5931
gust	-5932
guys	-5933
hatt	-5934
iege	-5935
iker	-5936
ikes	-5937
ilar	-5938
ilet	-5939
illa	-5940
inic	-5941
ivia	-5942
keep	-5943
kins	-5944
lant	-5945
lend	-5946
lers	-5947
love	-5948
mart	-5949
mbur	-5950
mosp	-5951
nels	-5952
noon	-5953
ocal	-5954
ocky	-5955
oken	-5956
onic	-5957
onin	-5958
onse	-5959
onym	-5960
onze	-5961
oret	-5962
pass	-5963
phon	-5964
pton	-5965
quet	-5966
reet	-5967
rial	-5968
ride	-5969
rier	-5970
rock	-5971
ryan	-5972
ston	-5973
this	-5974
uded	-5975
uinc	-5976
uits	-5977
urer	-5978
ussy	-5979
uten	-5980
weet	-5981
what	-5982
when	-5983
ylon	-5984
▁..<	-5985
▁10,	-5986
▁50,	-5987
▁Ass	-5988
▁Bab	-5989
▁Bon	-5990
▁Cam	-5991
▁Den	-5992
▁Des	-5993
▁Die	-5994
▁Dun	-5995
▁Eve	-5996
▁Got	-5997
▁Had	-5998
▁Har	-5999
AR	-6000
gl	-6001
ban	-6002
can	-6003
ded	-6004
den	-6005
err	-6006
lam	-6007
nie	-6008
oro	-6009
rep	-6010
ths	-6011
▁Ly	-6012
▁Op	-6013
aire	-6014
anim	-6015
ayed	-6016
mark	-6017
olis	-6018
roke	-6019
stal	-6020
tery	-6021
ucks	-6022
uild	-6023
uing	-6024
uish	-6025
word	-6026
▁Bob	-6027
▁Cub	-6028
▁Day	-6029
▁Hol	-6030
▁Hum	-6031
▁Inv	-6032
▁Jen	-6033
▁Kir	-6034
▁Lab	-6035
▁Lan	-6036
▁Lea	-6037
▁Lex	-6038
▁Maj	-6039
▁McG	-6040
▁Met	-6041
▁Mic	-6042
▁Mus	-6043
▁Naz	-6044
▁Obv	-6045
▁Ple	-6046
▁Ret	-6047
▁Sar	-6048
▁Say	-6049
▁Sch	-6050
▁Sen	-6051
▁Sil	-6052
▁Sun	-6053
▁Tex	-6054
▁Tur	-6055
▁Way	-6056
▁Wed	-6057
▁abd	-6058
▁aqu	-6059
▁awe	-6060
▁bay	-6061
▁ben	-6062
▁bid	-6063
▁coc	-6064
▁cot	-6065
▁cun	-6066
▁dut	-6067
▁fed	-6068
▁gap	-6069
▁gle	-6070
▁gro	-6071
▁gum	-6072
▁hem	-6073
▁hes	-6074
▁hmm	-6075
▁irr	-6076
▁jaz	-6077
▁lic	-6078
▁lux	-6079
▁moo	-6080
▁nod	-6081
▁non	-6082
▁obs	-6083
▁phr	-6084
▁pig	-6085
▁pip	-6086
▁plu	-6087
▁reh	-6088
▁ren	-6089
▁rhy	-6090
▁rom	-6091
▁rul	-6092
▁ske	-6093
▁sna	-6094
▁sod	-6095
▁spy	-6096
▁sue	-6097
▁swo	-6098
▁tas	-6099
-2	-6100
ID	-6101
ja	-6102
rt	-6103
si	-6104
gor	-6105
mes	-6106
oma	-6107
ple	-6108
rol	-6109
appy	-6110
arma	-6111
iate	-6112
iven	-6113
name	-6114
ogue	-6115
prod	-6116
shot	-6117
umin	-6118
urry	-6119
yson	-6120
▁Rit	-6121
▁aid	-6122
▁una	-6123
▁unw	-6124
▁vib	-6125
▁vou	-6126
▁wre	-6127
Never	-6128
adows	-6129
aging	-6130
aired	-6131
ardon	-6132
aring	-6133
being	-6134
borne	-6135
break	-6136
brows	-6137
class	-6138
clock	-6139
craft	-6140
eapot	-6141
econd	-6142
eethe	-6143
erson	-6144
esome	-6145
esses	-6146
ested	-6147
gging	-6148
hands	-6149
iance	-6150
icing	-6151
iders	-6152
ieves	-6153
ifies	-6154
ighty	-6155
igzag	-6156
ilton	-6157
imony	-6158
ishes	-6159
isons	-6160
istan	-6161
itate	-6162
ivors	-6163
lders	-6164
loads	-6165
odels	-6166
oglob	-6167
onder	-6168
onely	-6169
onent	-6170
orers	-6171
orses	-6172
oxide	-6173
plish	-6174
pound	-6175
prise	-6176
racks	-6177
retty	-6178
rient	-6179
rings	-6180
ronic	-6181
rooms	-6182
secur	-6183
shine	-6184
tered	-6185
uated	-6186
ucked	-6187
ucker	-6188
uding	-6189
unate	-6190
usual	-6191
vable	-6192
▁Arct	-6193
▁Back	-6194
▁Carr	-6195
▁Coll	-6196
▁Dean	-6197
▁Dest	-6198
▁Dude	-6199
▁Fall	-6200
▁Feel	-6201
▁Fort	-6202
▁Give	-6203
▁Gyps	-6204
▁Hosp	-6205
▁Jess	-6206
▁Laur	-6207
▁Life	-6208
▁Lock	-6209
▁Lucy	-6210
▁Marg	-6211
▁Mary	-6212
▁Moro	-6213
▁Part	-6214
▁Phil	-6215
▁Play	-6216
▁Prop	-6217
▁Regg	-6218
▁Rich	-6219
▁Russ	-6220
▁Sant	-6221
▁Sect	-6222
▁Sher	-6223
▁Shin	-6224
▁Thom	-6225
▁Tony	-6226
▁Vall	-6227
▁Viet	-6228
▁Viol	-6229
▁Wild	-6230
▁abom	-6231
▁abst	-6232
▁aged	-6233
▁bars	-6234
▁batt	-6235
▁beds	-6236
▁bled	-6237
▁bold	-6238
▁bolt	-6239
▁boob	-6240
▁boom	-6241
▁boot	-6242
▁bore	-6243
▁boss	-6244
▁bree	-6245
▁buff	-6246
▁bugg	-6247
▁bulk	-6248
▁cans	-6249
▁caut	-6250
▁cher	-6251
▁clar	-6252
▁clav	-6253
▁coat	-6254
▁coin	-6255
▁cong	-6256
▁copy	-6257
▁dawn	-6258
▁deer	-6259
▁desk	-6260
▁disp	-6261
▁dock	-6262
▁drip	-6263
▁dull	-6264
▁duty	-6265
▁echo	-6266
▁edge	-6267
▁educ	-6268
▁eleg	-6269
▁evac	-6270
▁exer	-6271
▁flap	-6272
▁forb	-6273
▁fork	-6274
▁furn	-6275
▁gale	-6276
▁gall	-6277
▁goin	-6278
▁golf	-6279
▁grat	-6280
▁gray	-6281
▁hats	-6282
▁heed	-6283
▁inch	-6284
▁iron	-6285
▁join	-6286
▁lapt	-6287
▁laun	-6288
▁lect	-6289
▁lips	-6290
▁lung	-6291
▁mark	-6292
▁mast	-6293
▁math	-6294
▁mini	-6295
▁mint	-6296
▁mirr	-6297
▁mood	-6298
▁navy	-6299
▁nest	-6300
▁neur	-6301
▁obso	-6302
▁obst	-6303
▁orch	-6304
▁peel	-6305
▁pent	-6306
▁pink	-6307
▁pity	-6308
▁plus	-6309
▁poem	-6310
▁poly	-6311
▁poop	-6312
▁pots	-6313
▁prec	-6314
▁prey	-6315
▁pupp	-6316
▁quot	-6317
▁rand	-6318
▁rang	-6319
▁rare	-6320
▁ratt	-6321
▁rent	-6322
▁reop	-6323
▁rewr	-6324
▁riot	-6325
▁ripe	-6326
▁role	-6327
▁rose	-6328
▁ruin	-6329
▁rush	-6330
▁sail	-6331
▁sake	-6332
▁sang	-6333
▁seat	-6334
▁silk	-6335
▁site	-6336
▁situ	-6337
▁sole	-6338
▁soph	-6339
▁soup	-6340
▁stor	-6341
▁sunk	-6342
▁susp	-6343
▁task	-6344
▁ties	-6345
▁tons	-6346
▁tore	-6347
▁trib	-6348
▁tube	-6349
▁tune	-6350
▁turb	-6351
▁unle	-6352
▁unto	-6353
▁vain	-6354
▁wars	-6355
▁webs	-6356
▁weep	-6357
▁whip	-6358
▁wins	-6359
▁wipe	-6360
▁wobb	-6361
▁wolf	-6362
▁wrap	-6363
People	-6364
acking	-6365
acters	-6366
ainted	-6367
andson	-6368
asants	-6369
atures	-6370
ceived	-6371
eapons	-6372
efense	-6373
encies	-6374
erence	-6375
erican	-6376
estine	-6377
giving	-6378
hattan	-6379
icious	-6380
icking	-6381
iences	-6382
illion	-6383
inting	-6384
irable	-6385
lement	-6386
mbling	-6387
mighty	-6388
ommend	-6389
orable	-6390
orious	-6391
phones	-6392
rating	-6393
regard	-6394
ricate	-6395
rument	-6396
thetic	-6397
uments	-6398
▁Being	-6399
▁Brand	-6400
▁Civil	-6401
▁Emper	-6402
▁Fight	-6403
▁Found	-6404
▁Frank	-6405
▁Greek	-6406
▁Green	-6407
▁Henry	-6408
▁Honey	-6409
▁House	-6410
▁Kevin	-6411
▁Lucas	-6412
▁Might	-6413
▁Money	-6414
▁Obama	-6415
▁Riker	-6416
▁Serge	-6417
▁Three	-6418
▁Throw	-6419
▁Union	-6420
▁Water	-6421
▁added	-6422
▁adopt	-6423
▁adore	-6424
▁aller	-6425
▁amput	-6426
▁angel	-6427
▁annoy	-6428
▁appet	-6429
▁areas	-6430
▁armor	-6431
▁arrog	-6432
▁aster	-6433
▁baker	-6434
▁basic	-6435
▁beats	-6436
▁begat	-6437
▁birds	-6438
▁bitch	-6439
▁blunt	-6440
▁bombs	-6441
▁broom	-6442
▁brown	-6443
▁capac	-6444
▁chart	-6445
▁chest	-6446
▁cling	-6447
▁clock	-6448
▁coast	-6449
▁codes	-6450
▁coins	-6451
▁concl	-6452
▁coord	-6453
▁crews	-6454
▁cried	-6455
▁cripp	-6456
▁culpr	-6457
▁curse	-6458
▁decor	-6459
▁depos	-6460
▁devil	-6461
▁drawn	-6462
▁estim	-6463
▁fears	-6464
▁fence	-6465
▁fifty	-6466
▁fleet	-6467
▁flick	-6468
▁flood	-6469
▁flows	-6470
▁flush	-6471
▁fraud	-6472
▁freez	-6473
▁froze	-6474
▁genie	-6475
▁glimp	-6476
▁goods	-6477
▁grade	-6478
▁grant	-6479
▁handy	-6480
▁heels	-6481
▁helic	-6482
▁honor	-6483
▁hopes	-6484
▁hover	-6485
▁hurry	-6486
▁hyper	-6487
▁incub	-6488
▁infin	-6489
▁influ	-6490
▁inhab	-6491
▁intim	-6492
▁issue	-6493
▁jokes	-6494
▁karma	-6495
▁kinda	-6496
▁kneel	-6497
▁liver	-6498
▁lobby	-6499
▁locks	-6500
▁logic	-6501
▁macho	-6502
▁manip	-6503
▁marks	-6504
▁marsh	-6505
▁mates	-6506
▁mayor	-6507
▁meets	-6508
▁melts	-6509
▁mercy	-6510
▁metab	-6511
▁mixed	-6512
▁moist	-6513
▁moles	-6514
▁mortg	-6515
▁mould	-6516
▁nasty	-6517
▁noses	-6518
▁ocean	-6519
▁parad	-6520
▁pause	-6521
▁picks	-6522
▁plain	-6523
▁poker	-6524
▁poles	-6525
▁porch	-6526
▁princ	-6527
▁prize	-6528
▁pulse	-6529
▁recip	-6530
▁recru	-6531
▁refer	-6532
▁reign	-6533
▁relax	-6534
▁reput	-6535
▁rests	-6536
▁retal	-6537
▁rever	-6538
▁risks	-6539
▁rival	-6540
▁roses	-6541
▁shore	-6542
▁sides	-6543
▁siege	-6544
▁skirt	-6545
▁skull	-6546
▁slept	-6547
▁slice	-6548
▁smack	-6549
▁smile	-6550
▁solar	-6551
▁sorts	-6552
▁sperm	-6553
▁spoil	-6554
▁spots	-6555
▁squir	-6556
▁stain	-6557
▁stake	-6558
▁stall	-6559
▁stamp	-6560
▁steel	-6561
▁steps	-6562
▁subst	-6563
▁suits	-6564
▁tasty	-6565
▁taxes	-6566
▁taxis	-6567
▁tends	-6568
▁theat	-6569
▁thumb	-6570
▁tiger	-6571
▁tools	-6572
▁toxic	-6573
▁treas	-6574
▁twist	-6575
▁uncon	-6576
▁utter	-6577
▁venue	-6578
▁whale	-6579
▁winds	-6580
▁wires	-6581
▁woods	-6582
▁yield	-6583
▁youth	-6584
acement	-6585
athetic	-6586
chester	-6587
fathers	-6588
heating	-6589
iations	-6590
isation	-6591
istance	-6592
istence	-6593
osexual	-6594
oughing	-6595
product	-6596
rations	-6597
ressive	-6598
uadrant	-6599
utenant	-6600
vention	-6601
▁10,000	-6602
▁11:00.	-6603
▁Berlin	-6604
▁Doctor	-6605
▁During	-6606
▁Easter	-6607
▁Indeed	-6608
▁Indian	-6609
▁Island	-6610
▁Mexico	-6611
▁Middle	-6612
▁Please	-6613
▁Police	-6614
▁Pretty	-6615
▁Scotch	-6616
▁Silver	-6617
▁Sister	-6618
▁Street	-6619
▁Sunday	-6620
▁Surely	-6621
▁Wednes	-6622
▁abroad	-6623
▁addict	-6624
▁adjust	-6625
▁admire	-6626
▁advert	-6627
▁affair	-6628
▁agenda	-6629
▁ambass	-6630
▁atmosp	-6631
▁attend	-6632
▁barrel	-6633
▁basket	-6634
▁breast	-6635
▁burden	-6636
▁burrow	-6637
▁candle	-6638
▁casino	-6639
▁casual	-6640
▁centre	-6641
▁cheese	-6642
▁cleans	-6643
▁climbs	-6644
▁clings	-6645
▁clinic	-6646
▁colder	-6647
▁colors	-6648
▁conver	-6649
▁copper	-6650
▁cotton	-6651
▁counts	-6652
▁cousin	-6653
▁cuddle	-6654
▁deeply	-6655
▁defeat	-6656
▁defect	-6657
▁dinner	-6658
▁divide	-6659
▁divine	-6660
▁drives	-6661
▁eating	-6662
▁encoun	-6663
▁ending	-6664
▁exceed	-6665
▁excuse	-6666
▁expert	-6667
▁extend	-6668
▁facing	-6669
▁fantas	-6670
▁farmer	-6671
▁feeble	-6672
▁filthy	-6673
▁flawed	-6674
▁garden	-6675
▁ghosts	-6676
▁gobble	-6677
▁golden	-6678
▁growth	-6679
▁guests	-6680
▁hambur	-6681
▁handed	-6682
▁healed	-6683
▁horror	-6684
▁horses	-6685
▁illust	-6686
▁indust	-6687
▁integr	-6688
▁intens	-6689
▁interf	-6690
▁invade	-6691
▁itself	-6692
▁kicked	-6693
▁lawyer	-6694
▁leader	-6695
▁liquid	-6696
▁lizard	-6697
▁locate	-6698
▁lonely	-6699
▁marble	-6700
▁masses	-6701
▁mature	-6702
▁menace	-6703
▁metaph	-6704
▁meters	-6705
▁metres	-6706
▁mining	-6707
▁modest	-6708
▁mopped	-6709
▁morgue	-6710
▁motion	-6711
▁motorc	-6712
▁mutate	-6713
▁nailed	-6714
▁nights	-6715
▁option	-6716
▁owners	-6717
▁pardon	-6718
▁passes	-6719
▁pedoph	-6720
▁penetr	-6721
▁petals	-6722
▁plunge	-6723
▁policy	-6724
▁popped	-6725
▁poured	-6726
▁proced	-6727
▁promot	-6728
▁proved	-6729
▁proven	-6730
▁proves	-6731
▁recent	-6732
▁reckon	-6733
▁regard	-6734
▁repeat	-6735
▁retard	-6736
▁revive	-6737
▁rotten	-6738
▁screen	-6739
▁seduce	-6740
▁series	-6741
▁sheets	-6742
▁shrimp	-6743
▁silent	-6744
▁slides	-6745
▁sorted	-6746
▁sought	-6747
▁spaces	-6748
▁spoken	-6749
▁spring	-6750
▁stores	-6751
▁strict	-6752
▁stroke	-6753
▁tables	-6754
▁teapot	-6755
▁thanks	-6756
▁toilet	-6757
▁traced	-6758
▁transl	-6759
▁transp	-6760
▁troops	-6761
▁unbear	-6762
▁unlock	-6763
▁weaker	-6764
▁weighs	-6765
▁wheels	-6766
▁widows	-6767
▁wisdom	-6768
▁wished	-6769
ashioned	-6770
entially	-6771
ointment	-6772
ourished	-6773
regation	-6774
ulations	-6775
▁Animals	-6776
▁Another	-6777
▁Anytime	-6778
▁Belgium	-6779
▁Colonel	-6780
▁Frankly	-6781
▁Indians	-6782
▁Justice	-6783
▁Majesty	-6784
▁Michael	-6785
▁Nations	-6786
▁Perfect	-6787
▁Project	-6788
▁Richard	-6789
▁Someone	-6790
▁Spanish	-6791
▁Washing	-6792
▁alcohol	-6793
▁anxiety	-6794
▁approve	-6795
▁average	-6796
▁awfully	-6797
▁bargain	-6798
▁besides	-6799
▁betting	-6800
▁blowing	-6801
▁bottles	-6802
▁bowling	-6803
▁capital	-6804
▁capsule	-6805
▁careers	-6806
▁challen	-6807
▁chances	-6808
▁charged	-6809
▁charges	-6810
▁chasing	-6811
▁chooses	-6812
▁chopped	-6813
▁chopper	-6814
▁clogged	-6815
▁closing	-6816
▁cocaine	-6817
▁colored	-6818
▁confess	-6819
▁contrib	-6820
▁costume	-6821
▁counsel	-6822
▁courage	-6823
▁crawled	-6824
▁cunning	-6825
▁cutting	-6826
▁damaged	-6827
▁dancing	-6828
▁deliber	-6829
▁depends	-6830
▁details	-6831
▁dignity	-6832
▁disgust	-6833
▁dismiss	-6834
▁disrupt	-6835
▁dragged	-6836
▁eternal	-6837
▁execute	-6838
▁extends	-6839
▁extinct	-6840
▁fairies	-6841
▁farmers	-6842
▁fellows	-6843
▁figures	-6844
▁fingers	-6845
▁fishing	-6846
▁flashed	-6847
▁frankly	-6848
▁funeral	-6849
▁granted	-6850
▁happier	-6851
▁happily	-6852
▁heavier	-6853
▁helpful	-6854
▁ignores	-6855
▁imposed	-6856
▁install	-6857
▁isolate	-6858
▁jewelry	-6859
▁kilomet	-6860
▁kingdom	-6861
▁lasting	-6862
▁laughed	-6863
▁matched	-6864
▁minimum	-6865
▁murders	-6866
▁muscles	-6867
▁neither	-6868
▁nourish	-6869
▁objects	-6870
▁offered	-6871
▁operate	-6872
▁packing	-6873
▁pancake	-6874
▁partner	-6875
▁planted	-6876
▁pleases	-6877
▁plugged	-6878
▁policem	-6879
▁postage	-6880
▁prescri	-6881
▁presume	-6882
▁primary	-6883
▁printed	-6884
▁privacy	-6885
▁promote	-6886
▁protest	-6887
▁publish	-6888
▁quarter	-6889
▁quicker	-6890
▁rapidly	-6891
▁ratings	-6892
▁regener	-6893
▁relieve	-6894
▁repairs	-6895
▁resting	-6896
▁retreat	-6897
▁roaches	-6898
▁robbery	-6899
▁rockets	-6900
▁scatter	-6901
▁seeking	-6902
▁session	-6903
▁shipped	-6904
▁shooter	-6905
▁signals	-6906
▁slammed	-6907
▁slipped	-6908
▁smarter	-6909
▁smashed	-6910
▁smoking	-6911
▁squeeze	-6912
▁stabbed	-6913
▁sucking	-6914
▁sustain	-6915
▁swollen	-6916
▁synthes	-6917
▁targets	-6918
▁thieves	-6919
▁trading	-6920
▁trained	-6921
▁tremble	-6922
▁tricked	-6923
▁tunnels	-6924
▁unhappy	-6925
▁unusual	-6926
▁victory	-6927
▁wasting	-6928
▁wealthy	-6929
▁weather	-6930
▁whatnot	-6931
▁whoever	-6932
▁worried	-6933
▁writing	-6934
fortunate	-6935
isticated	-6936
▁Anything	-6937
▁Assuming	-6938
▁Jonathan	-6939
▁Martians	-6940
▁National	-6941
▁Nowadays	-6942
▁Prophets	-6943
▁Sergeant	-6944
▁absorbed	-6945
▁abstract	-6946
▁activate	-6947
▁addition	-6948
▁airborne	-6949
▁analysis	-6950
▁appeared	-6951
▁approxim	-6952
▁aqueduct	-6953
▁backward	-6954
▁bacteria	-6955
▁barracks	-6956
▁billions	-6957
▁blessing	-6958
▁bringing	-6959
▁builders	-6960
▁canister	-6961
▁changing	-6962
▁chickens	-6963
▁chilling	-6964
▁choosing	-6965
▁clavicle	-6966
▁commands	-6967
▁compared	-6968
▁contrary	-6969
▁crashing	-6970
▁crawling	-6971
▁decaying	-6972
▁decrease	-6973
▁defeated	-6974
▁describe	-6975
▁distract	-6976
▁divorced	-6977
▁election	-6978
▁elevator	-6979
▁enforced	-6980
▁enormous	-6981
▁evacuate	-6982
▁existing	-6983
▁explodes	-6984
▁eyebrows	-6985
▁flourish	-6986
▁friendly	-6987
▁gangster	-6988
▁grandson	-6989
▁handsome	-6990
▁harmless	-6991
▁hostages	-6992
▁hydrogen	-6993
▁ignorant	-6994
▁imported	-6995
▁improves	-6996
▁includes	-6997
▁incompet	-6998
▁indicate	-6999
▁internal	-7000
▁knocking	-7001
▁laughter	-7002
▁maintain	-7003
▁measures	-7004
▁medicine	-7005
▁meetings	-7006
▁military	-7007
▁molester	-7008
▁obsolete	-7009
▁passport	-7010
▁patience	-7011
▁pleasure	-7012
▁positive	-7013
▁predator	-7014
▁pressing	-7015
▁previous	-7016
▁producer	-7017
▁recorded	-7018
▁refugees	-7019
▁released	-7020
▁reliable	-7021
▁reminded	-7022
▁repaired	-7023
▁replaced	-7024
▁rewarded	-7025
▁sentence	-7026
▁servants	-7027
▁slightly	-7028
▁software	-7029
▁spilling	-7030
▁stranded	-7031
▁strangle	-7032
▁stressed	-7033
▁stripped	-7034
▁suffered	-7035
▁sunshine	-7036
▁swallows	-7037
▁swelling	-7038
▁symptoms	-7039
▁tracking	-7040
▁ultimate	-7041
▁upstairs	-7042
▁valhalla	-7043
▁ventures	-7044
entionally	-7045
oretically	-7046
▁Australia	-7047
▁Certainly	-7048
▁Christian	-7049
▁Manhattan	-7050
▁Obviously	-7051
▁afternoon	-7052
▁apologize	-7053
▁backwards	-7054
▁breakfast	-7055
▁champagne	-7056
▁cigarette	-7057
▁committed	-7058
▁competing	-7059
▁component	-7060
▁confirmed	-7061
▁connected	-7062
▁construct	-7063
▁continues	-7064
▁correctly	-7065
▁counterfe	-7066
▁determine	-7067
▁detonated	-7068
▁disregard	-7069
▁dissolves	-7070
▁divisions	-7071
▁elevators	-7072
▁employees	-7073
▁excellent	-7074
▁execution	-7075
▁expanding	-7076
▁fortunate	-7077
▁generally	-7078
▁guarantee	-7079
▁immediate	-7080
▁impressed	-7081
▁including	-7082
▁indicates	-7083
▁instantly	-7084
▁interpret	-7085
▁microwave	-7086
▁molecules	-7087
▁neighbors	-7088
▁operating	-7089
▁overnight	-7090
▁perfected	-7091
▁permanent	-7092
▁preparing	-7093
▁pretended	-7094
▁qualities	-7095
▁radiation	-7096
▁recession	-7097
▁recommend	-7098
▁reflected	-7099
▁reinforce	-7100
▁relatives	-7101
▁repeating	-7102
▁resembled	-7103
▁searching	-7104
▁sensitive	-7105
▁sentenced	-7106
▁shattered	-7107
▁spiritual	-7108
▁strangely	-7109
▁stretched	-7110
▁stretches	-7111
▁strippers	-7112
▁succeeded	-7113
▁surrender	-7114
▁survivors	-7115
▁telephone	-7116
▁testimony	-7117
▁worthless	-7118
▁Underneath	-7119
▁Washington	-7120
▁accomplish	-7121
▁appearance	-7122
▁artificial	-7123
▁atmosphere	-7124
▁characters	-7125
▁commitment	-7126
▁confession	-7127
▁conscience	-7128
▁determined	-7129
▁difference	-7130
▁directions	-7131
▁disappears	-7132
▁disconnect	-7133
▁downstairs	-7134
▁evaporates	-7135
▁fingernail	-7136
▁foreigners	-7137
▁fraudulent	-7138
▁friendship	-7139
▁incredibly	-7140
▁instrument	-7141
▁medication	-7142
▁mysterious	-7143
▁originally	-7144
▁production	-7145
▁protection	-7146
▁punishment	-7147
▁questioned	-7148
▁reputation	-7149
▁scientific	-7150
▁situations	-7151
▁unbearable	-7152
▁Fortunately	-7153
▁appointment	-7154
▁convictions	-7155
▁demonstrate	-7156
▁desperately	-7157
▁development	-7158
▁embarrassed	-7159
▁experiences	-7160
▁fascinating	-7161
▁forefathers	-7162
▁frequencies	-7163
▁genetically	-7164
▁governments	-7165
▁intercepted	-7166
▁nonetheless	-7167
▁overheating	-7168
▁performance	-7169
▁prostitutes	-7170
▁supermarket	-7171
▁threatening	-7172
▁transferred	-7173
▁transformed	-7174
▁unfortunate	-7175
▁Thanksgiving	-7176
▁appreciation	-7177
▁civilisation	-7178
▁corporations	-7179
▁difficulties	-7180
▁disappointed	-7181
▁fingerprints	-7182
▁instructions	-7183
▁intelligence	-7184
▁organisation	-7185
▁photographed	-7186
▁circumstances	-7187
▁concentration	-7188
▁entertainment	-7189
▁international	-7190
▁investigation	-7191
▁neighbourhood	-7192
▁psychological	-7193
▁revolutionary	-7194
▁sophisticated	-7195
▁systematically	-7196
45.	-7197
ARP	-7198
One	-7199
jah	-7200
▁45	-7201
:30.	-7202
:45.	-7203
Tube	-7204
What	-7205
aldi	-7206
alem	-7207
ammo	-7208
awai	-7209
cats	-7210
circ	-7211
door	-7212
educ	-7213
eeze	-7214
egas	-7215
egro	-7216
enne	-7217
ewey	-7218
exam	-7219
gars	-7220
grim	-7221
hops	-7222
iacs	-7223
iano	-7224
iums	-7225
jury	-7226
know	-7227
lars	-7228
lpha	-7229
mbre	-7230
mpic	-7231
opsy	-7232
orky	-7233
oyal	-7234
petr	-7235
shit	-7236
spec	-7237
ubby	-7238
ucer	-7239
uffy	-7240
ujah	-7241
urfs	-7242
with	-7243
▁10-	-7244
▁Adm	-7245
▁Amy	-7246
▁Att	-7247
▁Dev	-7248
▁Ide	-7249
▁Ign	-7250
▁LAP	-7251
▁Mmm	-7252
▁Nik	-7253
▁Occ	-7254
▁Ooh	-7255
▁Six	-7256
▁Spr	-7257
▁Woe	-7258
▁eru	-7259
▁icy	-7260
▁max	-7261
▁pyr	-7262
▁raz	-7263
▁vio	-7264
These	-7265
archy	-7266
asked	-7267
atoes	-7268
avana	-7269
balls	-7270
belie	-7271
berts	-7272
brand	-7273
bster	-7274
build	-7275
comed	-7276
cused	-7277
eclar	-7278
elvin	-7279
elvis	-7280
ercus	-7281
eroke	-7282
falls	-7283
folks	-7284
gener	-7285
grims	-7286
haust	-7287
idote	-7288
iforn	-7289
iques	-7290
ircle	-7291
itled	-7292
letic	-7293
level	-7294
lines	-7295
lpool	-7296
mmetr	-7297
omeda	-7298
onald	-7299
cup	-7300
hav	-7301
job	-7302
oby	-7303
avin	-7304
rett	-7305
▁Rep	-7306
cedes	-7307
etles	-7308
gents	-7309
odles	-7310
pects	-7311
ppery	-7312
proof	-7313
radio	-7314
reads	-7315
ripol	-7316
rophy	-7317
sided	-7318
spots	-7319
tains	-7320
tenna	-7321
ublic	-7322
udden	-7323
udged	-7324
uincy	-7325
ulted	-7326
vette	-7327
ville	-7328
which	-7329
works	-7330
▁Adam	-7331
▁Anna	-7332
▁Answ	-7333
▁Boys	-7334
▁Carl	-7335
▁Chlo	-7336
▁Damn	-7337
▁Fair	-7338
▁Hung	-7339
▁Iron	-7340
▁Jeff	-7341
▁Know	-7342
▁LAPD	-7343
▁Lisa	-7344
▁Musl	-7345
▁Next	-7346
▁Phot	-7347
▁Prof	-7348
▁Prov	-7349
▁Raja	-7350
▁Reid	-7351
▁Said	-7352
▁Sean	-7353
▁Stan	-7354
▁Stay	-7355
▁Time	-7356
▁Told	-7357
▁Took	-7358
▁True	-7359
▁Tues	-7360
▁airs	-7361
▁ampl	-7362
▁bags	-7363
▁barn	-7364
▁beef	-7365
▁beeh	-7366
▁bobb	-7367
▁bunk	-7368
▁calf	-7369
▁calm	-7370
▁cats	-7371
▁corr	-7372
▁curs	-7373
▁cuts	-7374
▁ecst	-7375
▁enjo	-7376
▁extr	-7377
▁flex	-7378
▁foul	-7379
▁frog	-7380
▁garb	-7381
▁germ	-7382
▁glac	-7383
▁harv	-7384
▁horr	-7385
▁icon	-7386
▁idle	-7387
▁lava	-7388
▁lawn	-7389
▁logs	-7390
▁maid	-7391
▁male	-7392
▁masc	-7393
▁meek	-7394
▁merm	-7395
▁mete	-7396
▁narr	-7397
▁neph	-7398
▁purs	-7399
aws	-7400
law	-7401
ubs	-7402
▁Kh	-7403
▁Kn	-7404
amph	-7405
rary	-7406
▁Eli	-7407
▁Kat	-7408
▁Kos	-7409
▁Vul	-7410
▁lau	-7411
▁raw	-7412
check	-7413
dened	-7414
ertil	-7415
ieces	-7416
isite	-7417
large	-7418
odily	-7419
ribly	-7420
uates	-7421
▁3:00	-7422
▁Kare	-7423
▁Kill	-7424
▁Maid	-7425
▁Suff	-7426
▁cope	-7427
▁evol	-7428
▁eyew	-7429
▁infr	-7430
▁jazz	-7431
▁nets	-7432
▁raid	-7433
▁reek	-7434
▁ridd	-7435
▁rift	-7436
▁sank	-7437
▁seag	-7438
▁sexy	-7439
▁sket	-7440
▁smug	-7441
▁snap	-7442
▁sque	-7443
▁tale	-7444
▁tamp	-7445
▁tank	-7446
▁taut	-7447
▁tech	-7448
▁text	-7449
▁toss	-7450
▁twin	-7451
▁undo	-7452
▁unex	-7453
▁vult	-7454
▁wilt	-7455
10,000	-7456
50,000	-7457
Things	-7458
actics	-7459
ainees	-7460
aliban	-7461
alized	-7462
alysed	-7463
ampion	-7464
ampled	-7465
anches	-7466
angled	-7467
apters	-7468
artial	-7469
asible	-7470
astity	-7471
atched	-7472
ceries	-7473
charge	-7474
eagues	-7475
elujah	-7476
engine	-7477
etrate	-7478
fering	-7479
finger	-7480
friend	-7481
idding	-7482
idents	-7483
ienced	-7484
ifteen	-7485
ifully	-7486
igator	-7487
ilians	-7488
ilient	-7489
imagin	-7490
inates	-7491
incarn	-7492
ington	-7493
inists	-7494
inkets	-7495
itrary	-7496
jacket	-7497
levant	-7498
lingon	-7499
00.	-7500
tef	-7501
who	-7502
▁Gl	-7503
ails	-7504
cond	-7505
mail	-7506
oons	-7507
rene	-7508
sole	-7509
▁Goa	-7510
▁Mos	-7511
▁Sus	-7512
Where	-7513
demon	-7514
erals	-7515
geons	-7516
gered	-7517
iated	-7518
iform	-7519
itals	-7520
ounty	-7521
space	-7522
urday	-7523
water	-7524
▁Both	-7525
▁Fuck	-7526
▁Mosc	-7527
▁clot	-7528
▁deed	-7529
▁firm	-7530
▁gren	-7531
▁guts	-7532
▁holl	-7533
▁horm	-7534
▁pail	-7535
▁pert	-7536
▁perv	-7537
▁plea	-7538
▁prox	-7539
▁ranc	-7540
▁summ	-7541
▁tire	-7542
asions	-7543
ellets	-7544
itated	-7545
lphins	-7546
lympic	-7547
marked	-7548
omatic	-7549
ormant	-7550
otonin	-7551
ouncil	-7552
oustea	-7553
owards	-7554
rapped	-7555
reedom	-7556
reland	-7557
ripoli	-7558
risten	-7559
rypton	-7560
shores	-7561
siders	-7562
uckles	-7563
uddled	-7564
udents	-7565
ullets	-7566
usages	-7567
usalem	-7568
ussing	-7569
utiful	-7570
utions	-7571
velops	-7572
wealth	-7573
▁Alpha	-7574
▁Anank	-7575
▁Angel	-7576
▁Bryan	-7577
▁Buddh	-7578
▁Canad	-7579
▁Carry	-7580
▁Charl	-7581
▁Child	-7582
▁Class	-7583
▁Coast	-7584
▁Dewey	-7585
▁Dread	-7586
▁Enter	-7587
▁Euros	-7588
▁Force	-7589
▁Frann	-7590
▁Fredd	-7591
▁Funny	-7592
▁Guard	-7593
▁Hands	-7594
▁Hurry	-7595
▁Intel	-7596
▁Islam	-7597
▁Jacks	-7598
▁Janet	-7599
eu	-7600
jo	-7601
aft	-7602
agu	-7603
awn	-7604
elf	-7605
hoe	-7606
tin	-7607
bile	-7608
dark	-7609
ften	-7610
izar	-7611
mile	-7612
ophy	-7613
orrh	-7614
reak	-7615
ulty	-7616
▁Aud	-7617
▁Cel	-7618
▁Gay	-7619
▁Jim	-7620
▁Mal	-7621
▁Rel	-7622
▁dat	-7623
▁lum	-7624
adors	-7625
hagen	-7626
igned	-7627
nders	-7628
omber	-7629
ompan	-7630
raign	-7631
rived	-7632
roach	-7633
▁1000	-7634
▁Poor	-7635
▁bile	-7636
▁cors	-7637
▁fold	-7638
▁infl	-7639
▁pale	-7640
▁pole	-7641
▁recy	-7642
▁rejo	-7643
▁scen	-7644
▁scri	-7645
▁scum	-7646
▁sinc	-7647
ensate	-7648
idated	-7649
izarre	-7650
redict	-7651
terans	-7652
uished	-7653
▁Event	-7654
▁Gonna	-7655
▁Jenna	-7656
▁Jesse	-7657
▁Latin	-7658
▁Lodge	-7659
▁Marci	-7660
▁Maria	-7661
▁Mayor	-7662
▁McGee	-7663
▁Milan	-7664
▁Negro	-7665
▁Often	-7666
▁Order	-7667
▁Robin	-7668
▁Rocky	-7669
▁Satan	-7670
▁Simon	-7671
▁Start	-7672
▁Thing	-7673
▁Timmy	-7674
▁Touch	-7675
▁Trust	-7676
▁Using	-7677
▁Wayne	-7678
▁Wheel	-7679
▁Whose	-7680
▁Wives	-7681
▁acids	-7682
▁adapt	-7683
▁alleg	-7684
▁altar	-7685
▁argue	-7686
▁asses	-7687
▁asset	-7688
▁baked	-7689
▁belly	-7690
▁binds	-7691
▁blink	-7692
▁blush	-7693
▁boobs	-7694
▁boost	-7695
▁brows	-7696
▁bucks	-7697
▁burnt	-7698
▁camer	-7699
>-<	-7700
nip	-7701
oum	-7702
▁RP	-7703
amil	-7704
heel	-7705
inci	-7706
iply	-7707
ptic	-7708
tent	-7709
▁RPG	-7710
▁Sue	-7711
▁buz	-7712
▁mud	-7713
▁whe	-7714
aboum	-7715
angle	-7716
anked	-7717
assed	-7718
cable	-7719
eping	-7720
essel	-7721
field	-7722
irgin	-7723
leton	-7724
oping	-7725
▁Gene	-7726
▁Luke	-7727
▁Mass	-7728
▁cass	-7729
▁diab	-7730
▁dire	-7731
▁frag	-7732
▁grim	-7733
▁haul	-7734
▁lids	-7735
▁mack	-7736
▁magn	-7737
▁refr	-7738
▁reun	-7739
▁roar	-7740
▁stew	-7741
▁unem	-7742
▁vile	-7743
arrick	-7744
idable	-7745
ishing	-7746
istics	-7747
romeda	-7748
uckily	-7749
utable	-7750
vation	-7751
▁Famil	-7752
▁Round	-7753
▁Seven	-7754
▁cable	-7755
▁caper	-7756
▁carib	-7757
▁cents	-7758
▁cheek	-7759
▁chlor	-7760
▁chron	-7761
▁cloth	-7762
▁compl	-7763
▁compo	-7764
▁confr	-7765
▁cords	-7766
▁crate	-7767
▁crops	-7768
▁crown	-7769
▁crude	-7770
▁cruis	-7771
▁cubic	-7772
▁dared	-7773
▁datab	-7774
▁deals	-7775
▁depth	-7776
▁dicks	-7777
▁dinos	-7778
▁discr	-7779
▁ditch	-7780
▁dorky	-7781
▁drank	-7782
▁dread	-7783
▁dried	-7784
▁dwell	-7785
▁eleph	-7786
▁email	-7787
▁embed	-7788
▁encry	-7789
▁erupt	-7790
▁faced	-7791
▁ferry	-7792
▁fetus	-7793
▁fifth	-7794
▁fleas	-7795
▁focal	-7796
▁glean	-7797
▁globe	-7798
▁guerr	-7799
Er	-7800
UM	-7801
100	-7802
Cos	-7803
iag	-7804
ios	-7805
lso	-7806
nam	-7807
osh	-7808
rix	-7809
▁'"	-7810
▁ow	-7811
aybe	-7812
ayer	-7813
erel	-7814
fact	-7815
ousy	-7816
wife	-7817
▁Ele	-7818
▁Fin	-7819
▁Mag	-7820
▁Pan	-7821
▁Ped	-7822
▁Pee	-7823
▁Ros	-7824
▁arc	-7825
▁bog	-7826
▁enh	-7827
▁ens	-7828
▁hip	-7829
▁roa	-7830
▁yen	-7831
orthy	-7832
plane	-7833
their	-7834
those	-7835
ufact	-7836
▁Also	-7837
▁Dick	-7838
▁Face	-7839
▁Fell	-7840
▁Five	-7841
▁Gill	-7842
▁Port	-7843
▁Wade	-7844
▁cler	-7845
▁crap	-7846
▁lean	-7847
▁leve	-7848
▁lick	-7849
▁unac	-7850
▁vine	-7851
ibious	-7852
mbrell	-7853
namese	-7854
▁Pedro	-7855
▁Sound	-7856
▁Young	-7857
▁airst	-7858
▁bogus	-7859
▁brill	-7860
▁conce	-7861
▁cries	-7862
▁feast	-7863
▁goose	-7864
▁guest	-7865
▁guilt	-7866
▁guine	-7867
▁habit	-7868
▁haunt	-7869
▁hides	-7870
▁horiz	-7871
▁ideal	-7872
▁incon	-7873
▁infer	-7874
▁input	-7875
▁kimon	-7876
▁kinds	-7877
▁labor	-7878
▁laser	-7879
▁leans	-7880
▁leaps	-7881
▁leech	-7882
▁level	-7883
▁loses	-7884
▁lousy	-7885
▁luxur	-7886
▁maneu	-7887
▁maple	-7888
▁marve	-7889
▁meals	-7890
▁messy	-7891
▁mobil	-7892
▁monit	-7893
▁moust	-7894
▁neckl	-7895
▁negot	-7896
▁nobil	-7897
▁odors	-7898
▁opium	-7899
0'	-7900
▁Ca	-7901
▁Lo	-7902
▁Sa	-7903
acht	-7904
aret	-7905
cock	-7906
fare	-7907
ilia	-7908
inqu	-7909
izza	-7910
mach	-7911
rael	-7912
rave	-7913
uren	-7914
▁Bol	-7915
▁Cat	-7916
▁Cra	-7917
▁Dra	-7918
▁Lib	-7919
▁Low	-7920
▁Wra	-7921
▁ack	-7922
▁rif	-7923
▁sip	-7924
eties	-7925
isure	-7926
omies	-7927
right	-7928
river	-7929
▁Caes	-7930
▁Call	-7931
▁Care	-7932
▁Golf	-7933
▁Lana	-7934
▁blad	-7935
▁cada	-7936
▁dram	-7937
▁dumb	-7938
▁east	-7939
▁hull	-7940
▁mock	-7941
▁mold	-7942
▁rept	-7943
▁seal	-7944
▁tang	-7945
acious	-7946
anties	-7947
pected	-7948
▁Vince	-7949
▁backp	-7950
▁backy	-7951
▁cland	-7952
▁fever	-7953
▁innov	-7954
▁neare	-7955
▁outdo	-7956
▁outra	-7957
▁paras	-7958
▁penal	-7959
▁penny	-7960
▁phant	-7961
▁pharm	-7962
▁photo	-7963
▁pilot	-7964
▁pizza	-7965
▁plast	-7966
▁poems	-7967
▁proph	-7968
▁pyram	-7969
▁radar	-7970
▁ranks	-7971
▁reapp	-7972
▁rebel	-7973
▁recon	-7974
▁reeks	-7975
▁relay	-7976
▁revel	-7977
▁ridic	-7978
▁riots	-7979
▁risky	-7980
▁robes	-7981
▁rumor	-7982
▁saves	-7983
▁scram	-7984
▁scrub	-7985
▁seats	-7986
▁shaft	-7987
▁shark	-7988
▁sharp	-7989
▁shelt	-7990
▁shuts	-7991
▁slams	-7992
▁slips	-7993
▁sneak	-7994
▁spare	-7995
▁stiff	-7996
▁stung	-7997
▁succe	-7998
▁surve	-7999
1,	-8000
erp	-8001
hem	-8002
nap	-8003
rys	-8004
tee	-8005
▁Ed	-8006
▁Rh	-8007
dest	-8008
ocks	-8009
pres	-8010
pson	-8011
ulin	-8012
▁300	-8013
▁Ask	-8014
▁Sem	-8015
▁Tem	-8016
▁jet	-8017
▁mum	-8018
▁nap	-8019
▁shy	-8020
aping	-8021
idays	-8022
igued	-8023
istle	-8024
ordid	-8025
rysan	-8026
▁Love	-8027
▁aunt	-8028
▁beak	-8029
▁fame	-8030
▁grid	-8031
▁heap	-8032
▁herd	-8033
▁intr	-8034
▁lend	-8035
▁nick	-8036
▁plot	-8037
▁pron	-8038
▁rect	-8039
▁seas	-8040
▁shak	-8041
▁trap	-8042
▁unse	-8043
▁vour	-8044
eopard	-8045
ieving	-8046
imeter	-8047
▁Corps	-8048
▁Liber	-8049
▁admin	-8050
▁circu	-8051
▁dough	-8052
▁swung	-8053
▁terms	-8054
▁timer	-8055
▁tower	-8056
▁traps	-8057
▁trial	-8058
▁truce	-8059
▁tumor	-8060
▁ultim	-8061
▁uncom	-8062
▁unden	-8063
▁unsub	-8064
▁veget	-8065
▁volun	-8066
▁voted	-8067
▁voter	-8068
▁wages	-8069
▁weeke	-8070
▁wider	-8071
▁worms	-8072
▁wreck	-8073
▁wrist	-8074
akistan	-8075
anation	-8076
animous	-8077
apanese	-8078
arklars	-8079
astruct	-8080
bitrary	-8081
brother	-8082
ception	-8083
enhagen	-8084
entials	-8085
entions	-8086
entious	-8087
erspace	-8088
estival	-8089
ibility	-8090
ication	-8091
idering	-8092
ifornia	-8093
imental	-8094
incible	-8095
irlpool	-8096
istrate	-8097
istrict	-8098
itution	-8099
nto	-8100
andy	-8101
anny	-8102
date	-8103
leng	-8104
mers	-8105
olan	-8106
rabs	-8107
rook	-8108
sers	-8109
viol	-8110
year	-8111
▁400	-8112
▁Blo	-8113
▁Det	-8114
▁Dur	-8115
▁Inc	-8116
▁Jee	-8117
▁Use	-8118
▁awa	-8119
▁iss	-8120
eaper	-8121
ectar	-8122
eless	-8123
ilian	-8124
olate	-8125
ridge	-8126
▁Flor	-8127
▁Ital	-8128
▁None	-8129
▁Test	-8130
▁Wear	-8131
▁cast	-8132
▁chir	-8133
▁cort	-8134
▁gene	-8135
▁junk	-8136
▁lest	-8137
▁loud	-8138
▁noon	-8139
▁oath	-8140
▁phil	-8141
▁spam	-8142
▁trig	-8143
sexual	-8144
uminol	-8145
▁Blood	-8146
▁chant	-8147
▁crook	-8148
▁eaves	-8149
▁label	-8150
▁noose	-8151
▁prest	-8152
▁prime	-8153
▁reven	-8154
▁trips	-8155
▁tweet	-8156
▁withd	-8157
Luminol	-8158
atholic	-8159
atively	-8160
elessly	-8161
itation	-8162
lection	-8163
looking	-8164
ndering	-8165
oglobin	-8166
ointing	-8167
ometric	-8168
onymous	-8169
orously	-8170
parable	-8171
pective	-8172
psticks	-8173
quisite	-8174
ributes	-8175
shadows	-8176
thletic	-8177
uddenly	-8178
ulously	-8179
wearing	-8180
▁12:45.	-8181
▁30,000	-8182
▁Across	-8183
▁Ananka	-8184
▁Answer	-8185
▁Apache	-8186
▁Arctic	-8187
▁Atlant	-8188
▁Author	-8189
▁Avenue	-8190
▁Barack	-8191
▁Bronze	-8192
▁Caesar	-8193
▁Church	-8194
▁Cinema	-8195
▁Common	-8196
▁Corpor	-8197
▁Couldn	-8198
▁Democr	-8199
-5	-8200
DA	-8201
WA	-8202
iel	-8203
ige	-8204
iot	-8205
non	-8206
olk	-8207
sun	-8208
udy	-8209
veh	-8210
▁Ha	-8211
▁Ms	-8212
amie	-8213
dain	-8214
iles	-8215
▁Ham	-8216
▁Hea	-8217
▁Him	-8218
▁Lad	-8219
▁Oil	-8220
▁Pel	-8221
▁hog	-8222
▁owe	-8223
▁pie	-8224
▁rug	-8225
▁sup	-8226
▁tri	-8227
▁wig	-8228
acked	-8229
indow	-8230
odate	-8231
pable	-8232
urely	-8233
▁Hart	-8234
▁Home	-8235
▁Kane	-8236
▁Mull	-8237
▁arse	-8238
▁bart	-8239
▁beck	-8240
▁cram	-8241
▁fart	-8242
▁folk	-8243
▁gear	-8244
▁keen	-8245
▁limp	-8246
▁mend	-8247
▁oven	-8248
▁sack	-8249
▁shag	-8250
alogue	-8251
aments	-8252
angers	-8253
minate	-8254
urbing	-8255
▁Great	-8256
▁Jamie	-8257
▁Somet	-8258
▁Years	-8259
▁cocks	-8260
▁orbit	-8261
▁ratio	-8262
▁scold	-8263
▁shake	-8264
▁sieve	-8265
▁stray	-8266
▁toler	-8267
▁views	-8268
▁wagon	-8269
entment	-8270
powered	-8271
▁Daniel	-8272
▁Demons	-8273
▁Either	-8274
▁Elders	-8275
▁Eleven	-8276
▁George	-8277
▁Golden	-8278
▁Granny	-8279
▁Harold	-8280
▁Havana	-8281
▁Heaven	-8282
▁Israel	-8283
▁Jersey	-8284
▁Kelvin	-8285
▁Lately	-8286
▁Lauren	-8287
▁Laurie	-8288
▁Marine	-8289
▁Masked	-8290
▁Moscow	-8291
▁Mostly	-8292
▁Nathan	-8293
▁Nature	-8294
▁Nobody	-8295
▁Norman	-8296
▁Office	-8297
▁Orient	-8298
▁Poland	-8299
Hi	-8300
pm	-8301
ilm	-8302
nis	-8303
▁25	-8304
anes	-8305
cher	-8306
enic	-8307
hour	-8308
inea	-8309
odle	-8310
pple	-8311
▁Bea	-8312
▁Hel	-8313
▁Pot	-8314
▁Rio	-8315
▁Sir	-8316
▁Sis	-8317
▁aim	-8318
▁dea	-8319
▁fru	-8320
▁hey	-8321
▁sew	-8322
block	-8323
inter	-8324
quets	-8325
shots	-8326
think	-8327
uster	-8328
▁Ages	-8329
▁Ally	-8330
▁Gera	-8331
▁Sire	-8332
▁bugs	-8333
▁cozy	-8334
▁deaf	-8335
▁hust	-8336
▁load	-8337
▁lure	-8338
▁outf	-8339
▁pies	-8340
▁rice	-8341
▁turf	-8342
anites	-8343
planes	-8344
ronaut	-8345
uercus	-8346
▁Folks	-8347
▁andro	-8348
▁cages	-8349
▁carot	-8350
▁coron	-8351
▁disse	-8352
▁lease	-8353
▁moons	-8354
▁rally	-8355
▁shift	-8356
▁shout	-8357
▁vague	-8358
▁vault	-8359
▁walls	-8360
▁wears	-8361
pecting	-8362
▁Canada	-8363
▁Gerald	-8364
▁Really	-8365
▁Reggae	-8366
▁Remove	-8367
▁Robert	-8368
▁Ronald	-8369
▁Senate	-8370
▁Smurfs	-8371
▁Thirty	-8372
▁Trophy	-8373
▁Trying	-8374
▁Twenty	-8375
▁Valent	-8376
▁Vision	-8377
▁Wester	-8378
▁abduct	-8379
▁absent	-8380
▁accent	-8381
▁acknow	-8382
▁acting	-8383
▁adults	-8384
▁advent	-8385
▁alight	-8386
▁angels	-8387
▁applic	-8388
▁badass	-8389
▁bagged	-8390
▁barren	-8391
▁beaten	-8392
▁begged	-8393
▁blasts	-8394
▁blight	-8395
▁bodily	-8396
▁boiler	-8397
▁bomber	-8398
▁bosses	-8399
▁>	-8400
ads	-8401
alo	-8402
amy	-8403
aus	-8404
eee	-8405
lad	-8406
ram	-8407
▁fu	-8408
atom	-8409
best	-8410
ella	-8411
ello	-8412
five	-8413
iffs	-8414
mine	-8415
nose	-8416
oper	-8417
orns	-8418
uiet	-8419
▁30.	-8420
▁Bal	-8421
▁Bay	-8422
▁Cec	-8423
▁Sid	-8424
▁bou	-8425
▁fec	-8426
▁pee	-8427
▁rit	-8428
alter	-8429
atomy	-8430
ellar	-8431
heads	-8432
inged	-8433
oming	-8434
ucing	-8435
utter	-8436
waves	-8437
▁Cuba	-8438
▁Jose	-8439
▁Nazi	-8440
▁Thor	-8441
▁amph	-8442
▁buck	-8443
▁impr	-8444
▁mech	-8445
▁nuns	-8446
▁nurt	-8447
▁sore	-8448
▁tips	-8449
▁ward	-8450
thouse	-8451
ucking	-8452
▁Bobby	-8453
▁Chloe	-8454
▁Super	-8455
▁horny	-8456
▁knees	-8457
▁leapt	-8458
▁legit	-8459
▁param	-8460
▁scarf	-8461
▁stove	-8462
▁yacht	-8463
▁bounce	-8464
▁braves	-8465
▁breeze	-8466
▁bridge	-8467
▁broads	-8468
▁bubble	-8469
▁budget	-8470
▁builds	-8471
▁buyers	-8472
▁campus	-8473
▁carats	-8474
▁carved	-8475
▁castle	-8476
▁chatty	-8477
▁chicks	-8478
▁circle	-8479
▁classm	-8480
▁clever	-8481
▁cloudy	-8482
▁coffin	-8483
▁collar	-8484
▁colony	-8485
▁convey	-8486
▁cooler	-8487
▁corned	-8488
▁credit	-8489
▁cultiv	-8490
▁custom	-8491
▁dagger	-8492
▁dances	-8493
▁darker	-8494
▁deduct	-8495
▁defies	-8496
▁degree	-8497
▁delete	-8498
▁depend	-8499
vy	-8500
▁:	-8501
Did	-8502
Jim	-8503
Mom	-8504
Not	-8505
aco	-8506
alm	-8507
cid	-8508
cin	-8509
him	-8510
ifl	-8511
imm	-8512
kel	-8513
▁CT	-8514
▁mm	-8515
idal	-8516
irac	-8517
rant	-8518
urse	-8519
usse	-8520
▁Aff	-8521
▁Han	-8522
▁Lou	-8523
▁ade	-8524
▁ham	-8525
▁jar	-8526
▁lee	-8527
▁les	-8528
▁mal	-8529
▁mmm	-8530
▁sid	-8531
essor	-8532
illas	-8533
inous	-8534
overs	-8535
reate	-8536
techn	-8537
umble	-8538
uting	-8539
▁Down	-8540
▁Gets	-8541
▁acid	-8542
▁bang	-8543
▁bark	-8544
▁belo	-8545
▁dece	-8546
▁entr	-8547
▁lesb	-8548
▁sewn	-8549
alyzes	-8550
ivered	-8551
ousing	-8552
▁incap	-8553
▁sheds	-8554
▁shelf	-8555
▁sting	-8556
avering	-8557
billion	-8558
weapons	-8559
▁Declar	-8560
▁Second	-8561
▁barric	-8562
▁blocks	-8563
▁condem	-8564
▁deploy	-8565
▁deport	-8566
▁devast	-8567
▁devour	-8568
▁dishes	-8569
▁divers	-8570
▁docile	-8571
▁dollar	-8572
▁domest	-8573
▁downst	-8574
▁drains	-8575
▁dumped	-8576
▁emerge	-8577
▁empire	-8578
▁endure	-8579
▁engage	-8580
▁engulf	-8581
▁ensure	-8582
▁equals	-8583
▁erotic	-8584
▁ethnic	-8585
▁excess	-8586
▁fabric	-8587
▁factor	-8588
▁feared	-8589
▁fester	-8590
▁fluffy	-8591
▁freely	-8592
▁fucked	-8593
▁genius	-8594
▁gentle	-8595
▁gladly	-8596
▁global	-8597
▁gloves	-8598
▁grandd	-8599
Is	-8600
St	-8601
God	-8602
Let	-8603
bet	-8604
bly	-8605
hop	-8606
huh	-8607
mus	-8608
pot	-8609
sal	-8610
yan	-8611
▁Ak	-8612
▁Ts	-8613
▁nu	-8614
▁ye	-8615
omic	-8616
onal	-8617
▁Cut	-8618
▁Hom	-8619
▁Joe	-8620
▁bic	-8621
▁dil	-8622
▁inj	-8623
▁nar	-8624
▁pod	-8625
▁sav	-8626
▁sla	-8627
aming	-8628
appro	-8629
ented	-8630
▁Bill	-8631
▁Fine	-8632
▁asse	-8633
▁bent	-8634
▁fier	-8635
▁flee	-8636
▁palm	-8637
▁pean	-8638
▁slut	-8639
▁thou	-8640
diving	-8641
ipping	-8642
▁Death	-8643
▁Guess	-8644
▁Shinj	-8645
▁alter	-8646
▁award	-8647
▁blown	-8648
▁blues	-8649
▁click	-8650
▁freak	-8651
▁links	-8652
▁probe	-8653
▁quant	-8654
iration	-8655
jectory	-8656
mbrella	-8657
▁Shinji	-8658
▁carpet	-8659
▁county	-8660
▁graves	-8661
▁grease	-8662
▁guides	-8663
▁hacked	-8664
▁halluc	-8665
▁handwr	-8666
▁harass	-8667
▁hatred	-8668
▁headqu	-8669
▁heated	-8670
▁highly	-8671
▁histor	-8672
▁honour	-8673
▁horned	-8674
▁hostel	-8675
▁hounds	-8676
▁hunger	-8677
▁hurric	-8678
▁hypocr	-8679
▁implic	-8680
▁incons	-8681
▁ingred	-8682
▁inhale	-8683
▁insane	-8684
▁intact	-8685
▁interm	-8686
▁kimono	-8687
▁kissed	-8688
▁kisses	-8689
▁knives	-8690
▁knocks	-8691
▁ladder	-8692
▁laptop	-8693
▁layers	-8694
▁legacy	-8695
▁levels	-8696
▁lookin	-8697
▁losers	-8698
▁manner	-8699
-4	-8700
1.	-8701
II	-8702
cs	-8703
ht	-8704
>'<	-8705
ala	-8706
edy	-8707
uld	-8708
ura	-8709
▁eg	-8710
▁ep	-8711
▁ln	-8712
days	-8713
mill	-8714
orse	-8715
rain	-8716
reas	-8717
thin	-8718
▁Che	-8719
▁Hit	-8720
▁Jul	-8721
▁Rom	-8722
▁ded	-8723
▁hed	-8724
▁ore	-8725
▁ray	-8726
▁web	-8727
achel	-8728
eable	-8729
iably	-8730
llous	-8731
point	-8732
usive	-8733
▁Conc	-8734
▁Geor	-8735
▁Show	-8736
▁Tomb	-8737
▁knee	-8738
▁semi	-8739
▁sire	-8740
▁thee	-8741
▁toes	-8742
ateurs	-8743
▁1,000	-8744
▁Betty	-8745
▁Jonah	-8746
▁aired	-8747
▁annex	-8748
▁beans	-8749
▁bully	-8750
▁butch	-8751
▁chuck	-8752
▁minor	-8753
▁misch	-8754
▁phase	-8755
▁reson	-8756
▁ultra	-8757
▁yearn	-8758
athered	-8759
illance	-8760
improve	-8761
oration	-8762
▁Andrew	-8763
▁cartel	-8764
▁ceased	-8765
▁cellar	-8766
▁crouch	-8767
▁earned	-8768
▁egoman	-8769
▁filter	-8770
▁lapdog	-8771
▁mating	-8772
▁mechan	-8773
▁melody	-8774
▁melted	-8775
▁mental	-8776
▁mercen	-8777
▁messes	-8778
▁metals	-8779
▁misery	-8780
▁mobile	-8781
▁models	-8782
▁modern	-8783
▁motive	-8784
▁muscle	-8785
▁narrow	-8786
▁nearby	-8787
▁nectar	-8788
▁needle	-8789
▁nicely	-8790
▁nieces	-8791
▁nightm	-8792
▁offers	-8793
▁oppose	-8794
▁orient	-8795
▁overse	-8796
▁palate	-8797
▁parked	-8798
▁peanut	-8799
0-	-8800
5,	-8801
dr	-8802
hm	-8803
atr	-8804
ely	-8805
min	-8806
nak	-8807
ois	-8808
▁AB	-8809
▁Bi	-8810
▁II	-8811
▁ax	-8812
▁cm	-8813
arin	-8814
ette	-8815
icky	-8816
iner	-8817
made	-8818
nger	-8819
uest	-8820
▁Agg	-8821
▁Doc	-8822
▁Fed	-8823
▁Set	-8824
▁Son	-8825
▁alb	-8826
▁bac	-8827
▁bef	-8828
▁cer	-8829
▁der	-8830
▁hen	-8831
▁lin	-8832
▁sam	-8833
▁une	-8834
ching	-8835
ilius	-8836
itter	-8837
▁Hank	-8838
▁Park	-8839
▁Prot	-8840
▁Stop	-8841
▁bend	-8842
▁budd	-8843
▁dele	-8844
▁fees	-8845
▁mour	-8846
▁nova	-8847
▁orph	-8848
▁toll	-8849
ctions	-8850
▁Coury	-8851
▁alloy	-8852
▁arter	-8853
▁butts	-8854
▁fades	-8855
▁sarin	-8856
▁sweep	-8857
▁toxin	-8858
▁urban	-8859
▁Buddha	-8860
▁cheeks	-8861
▁evenly	-8862
▁insuff	-8863
▁judged	-8864
▁pelvis	-8865
▁phrase	-8866
▁pierce	-8867
▁pillow	-8868
▁pissed	-8869
▁plague	-8870
▁planes	-8871
▁plates	-8872
▁pollen	-8873
▁possum	-8874
▁poster	-8875
▁priest	-8876
▁prizes	-8877
▁proxim	-8878
▁purple	-8879
▁queens	-8880
▁quotes	-8881
▁racism	-8882
▁radius	-8883
▁rancid	-8884
▁random	-8885
▁reacts	-8886
▁recall	-8887
▁refere	-8888
▁reflex	-8889
▁region	-8890
▁relays	-8891
▁relent	-8892
▁retire	-8893
▁rhythm	-8894
▁rigged	-8895
▁risked	-8896
▁rivers	-8897
▁rolled	-8898
▁rooted	-8899
3,	-8900
IN	-8901
My	-8902
Sc	-8903
UD	-8904
ka	-8905
uv	-8906
yn	-8907
Her	-8908
don	-8909
ias	-8910
rey	-8911
▁33	-8912
▁CD	-8913
▁tv	-8914
:15,	-8915
hill	-8916
ivan	-8917
oled	-8918
▁vig	-8919
eters	-8920
etime	-8921
ships	-8922
would	-8923
▁Bang	-8924
▁Book	-8925
▁Ford	-8926
▁damp	-8927
▁dict	-8928
▁ease	-8929
▁impl	-8930
▁myst	-8931
▁peop	-8932
▁phon	-8933
▁puzz	-8934
▁rear	-8935
▁sofa	-8936
▁taxi	-8937
lendid	-8938
▁Based	-8939
▁candy	-8940
▁sauce	-8941
▁scoop	-8942
▁snows	-8943
▁spawn	-8944
▁spoon	-8945
▁stalk	-8946
▁takin	-8947
▁theme	-8948
onsense	-8949
▁booked	-8950
▁cities	-8951
▁enrich	-8952
▁folded	-8953
▁hollow	-8954
▁ironed	-8955
▁liquor	-8956
▁lowest	-8957
▁mighty	-8958
▁nigger	-8959
▁regret	-8960
▁replen	-8961
▁rotate	-8962
▁router	-8963
▁rubber	-8964
▁ruling	-8965
▁rumors	-8966
▁scrape	-8967
▁script	-8968
▁select	-8969
▁sensed	-8970
▁sharks	-8971
▁shaved	-8972
▁shines	-8973
▁shiver	-8974
▁shores	-8975
▁shower	-8976
▁shrunk	-8977
▁silver	-8978
▁sketch	-8979
▁sliced	-8980
▁slough	-8981
▁snakes	-8982
▁sneeze	-8983
▁sodium	-8984
▁softer	-8985
▁solves	-8986
▁sordid	-8987
▁specif	-8988
▁spider	-8989
▁spikes	-8990
▁splint	-8991
▁squawk	-8992
▁stabil	-8993
▁stated	-8994
▁stifle	-8995
▁stocks	-8996
▁straps	-8997
▁strate	-8998
▁stream	-8999
32	-9000
Go	-9001
Te	-9002
Un	-9003
cy	-9004
hi	-9005
py	-9006
Sic	-9007
aso	-9008
isy	-9009
sub	-9010
tha	-9011
yes	-9012
▁Yo	-9013
▁cy	-9014
▁ub	-9015
izer	-9016
ouri	-9017
roop	-9018
your	-9019
▁Job	-9020
▁Sad	-9021
▁Ten	-9022
▁arg	-9023
▁mol	-9024
▁oak	-9025
▁yer	-9026
erion	-9027
ermen	-9028
imist	-9029
▁Cong	-9030
▁Dale	-9031
▁Dear	-9032
▁Fear	-9033
▁Left	-9034
▁Mine	-9035
▁anom	-9036
▁arts	-9037
▁duck	-9038
▁gest	-9039
▁peak	-9040
▁rats	-9041
▁rubb	-9042
▁ther	-9043
ishops	-9044
▁Texas	-9045
▁accum	-9046
▁couch	-9047
▁dealt	-9048
▁mustn	-9049
▁plead	-9050
▁roofs	-9051
▁ruins	-9052
▁shade	-9053
▁swims	-9054
▁urged	-9055
▁Greece	-9056
▁Though	-9057
▁agents	-9058
▁assets	-9059
▁eluded	-9060
▁laying	-9061
▁propos	-9062
▁safely	-9063
▁stings	-9064
▁stress	-9065
▁sugars	-9066
▁tailor	-9067
▁tender	-9068
▁thrive	-9069
▁thrust	-9070
▁timing	-9071
▁tinkle	-9072
▁traded	-9073
▁trains	-9074
▁treats	-9075
▁tribes	-9076
▁trucks	-9077
▁truths	-9078
▁tucked	-9079
▁tumble	-9080
▁turkey	-9081
▁twelve	-9082
▁unfold	-9083
▁vacuum	-9084
▁vanish	-9085
▁versus	-9086
▁vessel	-9087
▁videos	-9088
▁virtue	-9089
▁voices	-9090
▁volunt	-9091
▁vulgar	-9092
▁waking	-9093
▁wallet	-9094
▁wander	-9095
▁warmth	-9096
▁warned	-9097
▁waving	-9098
▁weekly	-9099
did	-9100
case	-9101
▁Hawai	-9102
▁whales	-9103
▁whomps	-9104
▁wither	-9105
▁wolves	-9106
▁zigzag	-9107
aterrest	-9108
atherine	-9109
atorship	-9110
breaking	-9111
brothers	-9112
ceptible	-9113
destruct	-9114
engineer	-9115
lessness	-9116
ographer	-9117
ouchable	-9118
ployment	-9119
ristened	-9120
searched	-9121
▁10,000-	-9122
▁Amazing	-9123
▁Avenger	-9124
▁Babylon	-9125
▁Bajoran	-9126
▁Britain	-9127
▁British	-9128
▁Brother	-9129
▁Charley	-9130
▁Cheroke	-9131
▁Command	-9132
▁Council	-9133
▁Defense	-9134
▁Destiny	-9135
▁Earlier	-9136
▁Eastern	-9137
▁Emperor	-9138
▁Fathers	-9139
▁Fifteen	-9140
▁Finally	-9141
▁Germans	-9142
▁Germany	-9143
▁Grandma	-9144
▁Gypsies	-9145
▁Hungary	-9146
▁Iceland	-9147
▁Iranian	-9148
▁Ireland	-9149
▁Jackals	-9150
▁Jackson	-9151
▁Jessica	-9152
▁Klingon	-9153
▁Knowing	-9154
▁Langley	-9155
▁Lanning	-9156
▁Luckily	-9157
▁Machine	-9158
▁Mexican	-9159
▁Muslims	-9160
▁Nowhere	-9161
▁Olympic	-9162
▁Playboy	-9163
▁Problem	-9164
▁Reserve	-9165
▁Roberts	-9166
▁Russian	-9167
▁Section	-9168
▁Someday	-9169
▁Strange	-9170
▁Suffice	-9171
▁Taliban	-9172
▁Tripoli	-9173
▁Tuesday	-9174
▁Violent	-9175
▁Webster	-9176
▁William	-9177
▁Winston	-9178
▁YouTube	-9179
▁absence	-9180
▁accused	-9181
▁acquire	-9182
▁actions	-9183
▁admired	-9184
▁affairs	-9185
▁altered	-9186
▁amongst	-9187
▁anatomy	-9188
▁android	-9189
▁anguish	-9190
▁antenna	-9191
▁applied	-9192
▁apprehe	-9193
▁arraign	-9194
▁arrange	-9195
▁aspects	-9196
▁assault	-9197
▁awesome	-9198
▁bailing	-9199
▁balance	-9200
▁bedrock	-9201
▁beehive	-9202
▁beeping	-9203
▁beetles	-9204
▁begging	-9205
▁behaved	-9206
▁beneath	-9207
▁benefit	-9208
▁biology	-9209
▁bizarre	-9210
▁bladder	-9211
▁blanket	-9212
▁blended	-9213
▁blessed	-9214
▁bloomed	-9215
▁bombing	-9216
▁bonuses	-9217
▁botched	-9218
▁bothers	-9219
▁bottoms	-9220
▁bravely	-9221
▁bravery	-9222
▁briefly	-9223
▁brokers	-9224
▁buggies	-9225
▁burners	-9226
▁cabinet	-9227
▁caliber	-9228
▁captain	-9229
▁caribou	-9230
▁carrier	-9231
▁catches	-9232
▁ceiling	-9233
▁century	-9234
▁chamber	-9235
▁chewing	-9236
▁circles	-9237
▁clarify	-9238
▁clawing	-9239
▁cleaned	-9240
▁cleaves	-9241
▁climate	-9242
▁collide	-9243
▁compare	-9244
▁complet	-9245
▁concept	-9246
▁console	-9247
▁consort	-9248
▁convert	-9249
▁cooling	-9250
▁council	-9251
▁cracked	-9252
▁crossed	-9253
▁crucial	-9254
▁crystal	-9255
▁cussing	-9256
▁dancers	-9257
▁dangers	-9258
▁decades	-9259
▁decline	-9260
▁defines	-9261
▁deflect	-9262
▁degener	-9263
▁delayed	-9264
▁delight	-9265
▁desired	-9266
▁despite	-9267
▁destiny	-9268
▁detects	-9269
▁deviant	-9270
▁digital	-9271
▁dioxide	-9272
▁disdain	-9273
▁display	-9274
▁distant	-9275
▁disting	-9276
▁dormant	-9277
▁drafted	-9278
▁dressed	-9279
▁drowned	-9280
▁effects	-9281
▁elastic	-9282
▁elegant	-9283
▁eminent	-9284
▁endless	-9285
▁engaged	-9286
▁engines	-9287
▁enlarge	-9288
▁equator	-9289
▁escapes	-9290
▁evolved	-9291
▁exagger	-9292
▁examine	-9293
▁expires	-9294
▁exposed	-9295
▁extract	-9296
▁failing	-9297
▁females	-9298
▁filters	-9299
▁flatter	-9300
▁floated	-9301
▁focused	-9302
▁foolish	-9303
▁footage	-9304
▁forcing	-9305
▁forgery	-9306
▁forgive	-9307
▁formula	-9308
▁fortune	-9309
▁freeing	-9310
▁freezer	-9311
▁freezes	-9312
▁fuckers	-9313
▁garbage	-9314
▁genetic	-9315
▁giraffe	-9316
▁glimpse	-9317
▁goodbye	-9318
▁grandma	-9319
▁gravity	-9320
▁grilled	-9321
▁guineas	-9322
▁handbag	-9323
▁harmony	-9324
▁heating	-9325
▁heavily	-9326
▁helicop	-9327
▁herself	-9328
▁highway	-9329
▁hunting	-9330
▁illness	-9331
▁impress	-9332
▁insects	-9333
▁instant	-9334
▁intense	-9335
▁jeopard	-9336
▁jerking	-9337
▁kicking	-9338
▁krypton	-9339
▁landing	-9340
▁lawyers	-9341
▁leaking	-9342
▁leather	-9343
▁lecture	-9344
▁leeches	-9345
▁legally	-9346
▁liberal	-9347
▁liberty	-9348
▁lifting	-9349
▁limited	-9350
▁mailbox	-9351
▁manager	-9352
▁masters	-9353
▁masturb	-9354
▁methane	-9355
▁microsc	-9356
▁mineral	-9357
▁miracle	-9358
▁mirrors	-9359
▁mistook	-9360
▁moments	-9361
▁mustard	-9362
▁mutates	-9363
▁nanites	-9364
▁needles	-9365
▁oneself	-9366
▁ongoing	-9367
▁options	-9368
▁outrage	-9369
▁overall	-9370
▁partial	-9371
▁pellets	-9372
▁perpetr	-9373
▁persons	-9374
▁pissing	-9375
▁players	-9376
▁pointed	-9377
▁poisons	-9378
▁poodles	-9379
▁popping	-9380
▁precise	-9381
▁prepare	-9382
▁profile	-9383
▁prosper	-9384
▁psychic	-9385
▁pushing	-9386
▁quietly	-9387
▁rabbits	-9388
▁raining	-9389
▁rations	-9390
▁reclaim	-9391
▁rehears	-9392
▁related	-9393
▁replied	-9394
▁request	-9395
▁resides	-9396
▁restore	-9397
▁results	-9398
▁retired	-9399
▁revenge	-9400
▁richest	-9401
▁romance	-9402
▁ruining	-9403
▁sailing	-9404
▁salvage	-9405
▁sampled	-9406
▁screwed	-9407
▁seagull	-9408
▁secrets	-9409
▁section	-9410
▁selfish	-9411
▁sensors	-9412
▁servers	-9413
▁shadows	-9414
▁shocked	-9415
▁shortly	-9416
▁shoving	-9417
▁sighing	-9418
▁similar	-9419
▁sincere	-9420
▁smelled	-9421
▁soaking	-9422
▁soldier	-9423
▁sources	-9424
▁sparkle	-9425
▁spotted	-9426
▁sprouts	-9427
▁squeals	-9428
▁stamped	-9429
▁starter	-9430
▁stating	-9431
▁statues	-9432
▁stepped	-9433
▁storage	-9434
▁storing	-9435
▁stripes	-9436
▁student	-9437
▁stuffed	-9438
▁surgeon	-9439
▁sweater	-9440
▁sweeter	-9441
▁sweethe	-9442
▁swerved	-9443
▁symbols	-9444
▁tactics	-9445
▁tattoos	-9446
▁testing	-9447
▁thereby	-9448
▁thinner	-9449
▁thunder	-9450
▁tighter	-9451
▁tightly	-9452
▁torture	-9453
▁tougher	-9454
▁tracked	-9455
▁tripled	-9456
▁triples	-9457
▁tripped	-9458
▁trusted	-9459
▁turkeys	-9460
▁unaware	-9461
▁unbelie	-9462
▁unbreak	-9463
▁unfolds	-9464
▁uniform	-9465
▁upriver	-9466
▁venture	-9467
▁vicious	-9468
▁viewers	-9469
▁vinegar	-9470
▁violent	-9471
▁violets	-9472
▁visions	-9473
▁volunte	-9474
▁warfare	-9475
▁washing	-9476
▁watches	-9477
▁weekend	-9478
▁whistle	-9479
▁winters	-9480
▁wounded	-9481
▁wrapped	-9482
▁yelling	-9483
▁yielded	-9484
▁younger	-9485
Sicilians	-9486
fashioned	-9487
mmetrical	-9488
ontrolled	-9489
perienced	-9490
rysanthem	-9491
▁Almighty	-9492
▁Attorney	-9493
▁Bajorans	-9494
▁Catholic	-9495
▁District	-9496
▁Families	-9497
▁Fighting	-9498
▁Goodness	-9499
▁Hamilton	-9500
▁Iranians	-9501
▁Margaret	-9502
▁Marklars	-9503
▁Mercedes	-9504
▁Minister	-9505
▁Missouri	-9506
▁Normally	-9507
▁Pakistan	-9508
▁Patients	-9509
▁Saturday	-9510
▁Sometime	-9511
▁Suddenly	-9512
▁Thirteen	-9513
▁Thompson	-9514
▁abducted	-9515
▁accessed	-9516
▁adapting	-9517
▁admitted	-9518
▁adorable	-9519
▁advances	-9520
▁aircraft	-9521
▁airstrip	-9522
▁alliance	-9523
▁american	-9524
▁annually	-9525
▁answered	-9526
▁antidote	-9527
▁antiques	-9528
▁anyplace	-9529
▁approval	-9530
▁arranged	-9531
▁arteries	-9532
▁assholes	-9533
▁asteroid	-9534
▁barbecue	-9535
▁barefoot	-9536
▁baseball	-9537
▁bathroom	-9538
▁birthday	-9539
▁blinding	-9540
▁blocking	-9541
▁borrowed	-9542
▁bouncing	-9543
▁boundary	-9544
▁bullshit	-9545
▁chambers	-9546
▁chapters	-9547
▁charging	-9548
▁cheating	-9549
▁circling	-9550
▁cleaning	-9551
▁clueless	-9552
▁collects	-9553
▁collided	-9554
▁complain	-9555
▁compound	-9556
▁concerns	-9557
▁confirms	-9558
▁confront	-9559
▁constant	-9560
▁contrast	-9561
▁costumes	-9562
▁coughing	-9563
▁counting	-9564
▁covering	-9565
▁creative	-9566
▁crippled	-9567
▁cupboard	-9568
▁curtains	-9569
▁database	-9570
▁definite	-9571
▁delicate	-9572
▁delivers	-9573
▁designer	-9574
▁diamonds	-9575
▁digested	-9576
▁director	-9577
▁diseased	-9578
▁distress	-9579
▁dolphins	-9580
▁domestic	-9581
▁downfall	-9582
▁drainers	-9583
▁drawings	-9584
▁dressing	-9585
▁dropping	-9586
▁earrings	-9587
▁economic	-9588
▁embedded	-9589
▁embraced	-9590
▁enjoying	-9591
▁exercise	-9592
▁extended	-9593
▁eyeballs	-9594
▁eyesight	-9595
▁fascists	-9596
▁favorite	-9597
▁feasible	-9598
▁flexible	-9599
▁forgiven	-9600
▁fraction	-9601
▁gathered	-9602
▁glorious	-9603
▁goldfish	-9604
▁governed	-9605
▁governor	-9606
▁grabbing	-9607
▁guarding	-9608
▁heavenly	-9609
▁honestly	-9610
▁humanity	-9611
▁hustlers	-9612
▁identify	-9613
▁illusion	-9614
▁inclined	-9615
▁inconven	-9616
▁increase	-9617
▁inspires	-9618
▁instance	-9619
▁interven	-9620
▁killings	-9621
▁kindness	-9622
▁laborers	-9623
▁landfall	-9624
▁laughing	-9625
▁launched	-9626
▁learning	-9627
▁lowering	-9628
▁machetes	-9629
▁mackerel	-9630
▁magnetic	-9631
▁majority	-9632
▁manpower	-9633
▁manufact	-9634
▁measured	-9635
▁messages	-9636
▁microbes	-9637
▁migrated	-9638
▁missiles	-9639
▁mistaken	-9640
▁modified	-9641
▁moisture	-9642
▁monument	-9643
▁mortgage	-9644
▁multiple	-9645
▁multiply	-9646
▁national	-9647
▁necklace	-9648
▁nickname	-9649
▁nobility	-9650
▁normally	-9651
▁noticing	-9652
▁nowadays	-9653
▁numerous	-9654
▁obstacle	-9655
▁opposite	-9656
▁outdoors	-9657
▁outgoing	-9658
▁overdone	-9659
▁overload	-9660
▁overlook	-9661
▁override	-9662
▁paradise	-9663
▁partners	-9664
▁pathways	-9665
▁patterns	-9666
▁payments	-9667
▁peasants	-9668
▁pharmacy	-9669
▁policies	-9670
▁polished	-9671
▁pounding	-9672
▁probabil	-9673
▁produces	-9674
▁products	-9675
▁projects	-9676
▁promises	-9677
▁proposed	-9678
▁provides	-9679
▁punching	-9680
▁quarters	-9681
▁reaching	-9682
▁realised	-9683
▁recovery	-9684
▁referred	-9685
▁refriger	-9686
▁reincarn	-9687
▁rejected	-9688
▁releases	-9689
▁relevant	-9690
▁removing	-9691
▁reported	-9692
▁required	-9693
▁resemble	-9694
▁resisted	-9695
▁resolved	-9696
▁respects	-9697
▁response	-9698
▁restless	-9699
▁restored	-9700
▁resulted	-9701
▁retarded	-9702
▁sausages	-9703
▁secretes	-9704
▁selected	-9705
▁senators	-9706
▁settling	-9707
▁sexually	-9708
▁shoulder	-9709
▁skeleton	-9710
▁slacking	-9711
▁slippery	-9712
▁slipping	-9713
▁smoothly	-9714
▁snapping	-9715
▁southern	-9716
▁speakers	-9717
▁splendid	-9718
▁squashed	-9719
▁subspace	-9720
▁succeeds	-9721
▁sunspots	-9722
▁suppress	-9723
▁survival	-9724
▁survives	-9725
▁swimmers	-9726
▁telepath	-9727
▁terribly	-9728
▁throwing	-9729
▁traveled	-9730
▁trembled	-9731
▁tricking	-9732
▁trinkets	-9733
▁umbrella	-9734
▁underage	-9735
▁unimagin	-9736
▁unlikely	-9737
▁unmarked	-9738
▁vacation	-9739
▁venomous	-9740
▁veterans	-9741
▁virtuous	-9742
▁vultures	-9743
▁weakness	-9744
▁weddings	-9745
▁weighing	-9746
▁wildfire	-9747
▁withered	-9748
Government	-9749
astructure	-9750
lightening	-9751
redictable	-9752
understand	-9753
▁Andromeda	-9754
▁Beautiful	-9755
▁Biography	-9756
▁Cardassia	-9757
▁Communist	-9758
▁Francisco	-9759
▁Gentlemen	-9760
▁Hopefully	-9761
▁Jerusalem	-9762
▁Mountains	-9763
▁Perfectly	-9764
▁President	-9765
▁Regarding	-9766
▁Strangers	-9767
▁Tombstone	-9768
▁Valentine	-9769
▁Wednesday	-9770
▁abilities	-9771
▁accepting	-9772
▁admirable	-9773
▁affecting	-9774
▁allergies	-9775
▁alligator	-9776
▁alongside	-9777
▁amputated	-9778
▁announced	-9779
▁arbitrary	-9780
▁assassins	-9781
▁astronaut	-9782
▁attacking	-9783
▁attracted	-9784
▁authority	-9785
▁barbecues	-9786
▁batteries	-9787
▁believing	-9788
▁boyfriend	-9789
▁bracelets	-9790
▁brilliant	-9791
▁broadcast	-9792
▁campaigns	-9793
▁cartridge	-9794
▁cellphone	-9795
▁challenge	-9796
▁civilized	-9797
▁collected	-9798
▁companion	-9799
▁competent	-9800
▁contacted	-9801
▁crossword	-9802
▁currently	-9803
▁defective	-9804
▁delicious	-9805
▁depending	-9806
▁detainees	-9807
▁detonates	-9808
▁digestive	-9809
▁discharge	-9810
▁discovery	-9811
▁eavesdrop	-9812
▁education	-9813
▁efficient	-9814
▁eliminate	-9815
▁encounter	-9816
▁encourage	-9817
▁enslaving	-9818
▁entangled	-9819
▁exploring	-9820
▁exquisite	-9821
▁fantasies	-9822
▁favourite	-9823
▁finishing	-9824
▁followers	-9825
▁fundament	-9826
▁gathering	-9827
▁gentleman	-9828
▁germinate	-9829
▁gratitude	-9830
▁groceries	-9831
▁hamburger	-9832
▁hardships	-9833
▁heartless	-9834
▁housekeep	-9835
▁hurricane	-9836
▁ignorance	-9837
▁implement	-9838
▁increased	-9839
▁increases	-9840
▁infecting	-9841
▁infection	-9842
▁inhibited	-9843
▁injection	-9844
▁inspector	-9845
▁intellect	-9846
▁interacts	-9847
▁interrupt	-9848
▁intersect	-9849
▁intricate	-9850
▁intrigued	-9851
▁judgement	-9852
▁kidnapped	-9853
▁lightning	-9854
▁literally	-9855
▁magazines	-9856
▁materials	-9857
▁motivated	-9858
▁moustache	-9859
▁newspaper	-9860
▁nightmare	-9861
▁offensive	-9862
▁oppressed	-9863
▁outsiders	-9864
▁paralyzes	-9865
▁particles	-9866
▁pedophile	-9867
▁penetrate	-9868
▁perceived	-9869
▁performed	-9870
▁pertinent	-9871
▁physician	-9872
▁plastered	-9873
▁policeman	-9874
▁powerless	-9875
▁practiced	-9876
▁precision	-9877
▁predicted	-9878
▁pregnancy	-9879
▁presented	-9880
▁preserved	-9881
▁primitive	-9882
▁principle	-9883
▁probation	-9884
▁procedure	-9885
▁providing	-9886
▁receiving	-9887
▁recording	-9888
▁recovered	-9889
▁remaining	-9890
▁reopening	-9891
▁replicate	-9892
▁reptilian	-9893
▁resilient	-9894
▁respected	-9895
▁returning	-9896
▁salvation	-9897
▁satellite	-9898
▁satisfact	-9899
▁satisfied	-9900
▁serotonin	-9901
▁sheltered	-9902
▁shoulders	-9903
▁signature	-9904
▁societies	-9905
▁someplace	-9906
▁spectator	-9907
▁squeezing	-9908
▁superiors	-9909
▁supported	-9910
▁surprises	-9911
▁surviving	-9912
▁sustained	-9913
▁swallowed	-9914
▁synthetic	-9915
▁terrified	-9916
▁terrorism	-9917
▁testicles	-9918
▁tormented	-9919
▁transcend	-9920
▁translate	-9921
▁treasures	-9922
▁trembling	-9923
▁unanimous	-9924
▁utilizing	-9925
▁violently	-9926
▁virginity	-9927
▁wandering	-9928
▁whichever	-9929
▁whirlpool	-9930
▁witnesses	-9931
▁wormholes	-9932
improvement	-9933
▁Brazilians	-9934
▁California	-9935
▁Communists	-9936
▁Eventually	-9937
▁Homosexual	-9938
▁Technology	-9939
▁accelerate	-9940
▁acceptance	-9941
▁additional	-9942
▁ammunition	-9943
▁amphibious	-9944
▁approached	-9945
▁assistance	-9946
▁ballistics	-9947
▁biological	-9948
▁brightness	-9949
▁calculated	-9950
▁chopsticks	-9951
▁christened	-9952
▁colleagues	-9953
▁commission	-9954
▁communists	-9955
▁compassion	-9956
▁constantly	-9957
▁continuing	-9958
▁contribute	-9959
▁controlled	-9960
▁decomposed	-9961
▁dedication	-9962
▁definitely	-9963
▁difficulty	-9964
▁disturbing	-9965
▁downloaded	-9966
▁egomaniacs	-9967
▁electronic	-9968
▁eliminated	-9969
▁employment	-9970
▁encourages	-9971
▁enterprise	-9972
▁expression	-9973
▁forefinger	-9974
▁formidable	-9975
▁frequently	-9976
▁harmlessly	-9977
▁hemoglobin	-9978
▁historical	-9979
▁hopelessly	-9980
▁humiliated	-9981
▁hyperspace	-9982
▁identified	-9983
▁incomplete	-9984
▁inevitably	-9985
▁insurgents	-9986
▁invincible	-9987
▁irrelevant	-9988
▁journalism	-9989
▁kilometers	-9990
▁lieutenant	-9991
▁manipulate	-9992
▁marvellous	-9993
▁microwaves	-9994
▁motorcycle	-9995
▁narratives	-9996
▁neighbours	-9997
▁occupation	-9998
▁opposition	-9999
▁penetrates	-10000
▁perfection	-10001
▁performing	-10002
▁physically	-10003
▁pretending	-10004
▁preventing	-10005
▁protecting	-10006
▁recipients	-10007
▁recognized	-10008
▁regardless	-10009
▁regenerate	-10010
▁registered	-10011
▁regulation	-10012
▁reinforced	-10013
▁relatively	-10014
▁remarkably	-10015
▁replicates	-10016
▁researched	-10017
▁satisfying	-10018
▁settlement	-10019
▁signatures	-10020
▁simulation	-10021
▁supposedly	-10022
▁surrounded	-10023
▁suspension	-10024
▁suspicious	-10025
▁terrorized	-10026
▁throughout	-10027
▁trajectory	-10028
▁transforms	-10029
▁ultimately	-10030
▁understood	-10031
▁undetected	-10032
▁unexpected	-10033
▁variations	-10034
▁vegetation	-10035
▁wealthiest	-10036
▁winchester	-10037
▁worthwhile	-10038
▁Cardassians	-10039
▁Considering	-10040
▁Declaration	-10041
▁abomination	-10042
▁accountable	-10043
▁ambassadors	-10044
▁appreciated	-10045
▁approaching	-10046
▁battlefield	-10047
▁beautifully	-10048
▁celebration	-10049
▁cheerleader	-10050
▁clandestine	-10051
▁competitive	-10052
▁convenience	-10053
▁dangerously	-10054
▁description	-10055
▁desperation	-10056
▁effectively	-10057
▁emotionally	-10058
▁examination	-10059
▁exceptional	-10060
▁explanation	-10061
▁fingernails	-10062
▁grandfather	-10063
▁humiliation	-10064
▁hummingbird	-10065
▁identifying	-10066
▁importantly	-10067
▁incompetent	-10068
▁independent	-10069
▁integration	-10070
▁interrogate	-10071
▁meaningless	-10072
▁obligations	-10073
▁operational	-10074
▁opportunity	-10075
▁overshadows	-10076
▁participate	-10077
▁permanently	-10078
▁personality	-10079
▁pleasurable	-10080
▁politicians	-10081
▁predictable	-10082
▁pretentious	-10083
▁proceedings	-10084
▁publication	-10085
▁questioning	-10086
▁replicators	-10087
▁retaliation	-10088
▁sentimental	-10089
▁susceptible	-10090
▁sweethearts	-10091
▁unbreakable	-10092
▁untouchable	-10093
▁voluntarily	-10094
▁Commonwealth	-10095
▁Nevertheless	-10096
▁Occasionally	-10097
▁accidentally	-10098
▁aggressively	-10099
▁artificially	-10100
▁cheerleaders	-10101
▁congregation	-10102
▁construction	-10103
▁conversation	-10104
▁disconnected	-10105
▁embarrassing	-10106
▁experimental	-10107
▁extraterrest	-10108
▁hypocritical	-10109
▁independence	-10110
▁interference	-10111
▁intervention	-10112
▁organization	-10113
▁overwhelming	-10114
▁satisfaction	-10115
▁significance	-10116
▁specifically	-10117
▁strengthened	-10118
▁surveillance	-10119
▁transmission	-10120
▁unbelievable	-10121
▁undetectable	-10122
▁unemployment	-10123
▁unimaginable	-10124
▁Theoretically	-10125
▁approximately	-10126
▁communication	-10127
▁consciousness	-10128
▁contamination	-10129
▁determination	-10130
▁disappearance	-10131
▁disappointing	-10132
▁granddaughter	-10133
▁independently	-10134
▁intentionally	-10135
▁investigative	-10136
▁personalities	-10137
▁professionals	-10138
▁unpredictable	-10139
▁infrastructure	-10140
▁reinforcements	-10141
▁responsibility	-10142
-54	-10143
05,	-10144
ALE	-10145
ALI	-10146
ARD	-10147
ErE	-10148
ING	-10149
INH	-10150
REA	-10151
RES	-10152
Reh	-10153
UDs	-10154
mdr	-10155
rpm	-10156
uja	-10157
uko	-10158
-232	-10159
ALES	-10160
ARDI	-10161
ARPL	-10162
CALI	-10163
ErEn	-10164
HREA	-10165
RESC	-10166
Viag	-10167
anja	-10168
didn	-10169
dogs	-10170
esuv	-10171
htly	-10172
iago	-10173
icca	-10174
lvan	-10175
rams	-10176
rija	-10177
sunr	-10178
uvok	-10179
uzzi	-10180
▁ABA	-10181
▁AID	-10182
▁Akb	-10183
▁III	-10184
▁JUD	-10185
▁Psi	-10186
▁RWA	-10187
▁SWA	-10188
▁TRE	-10189
▁cyt	-10190
▁ugl	-10191
ARDIS	-10192
ARPLY	-10193
Apple	-10194
Arabs	-10195
HREAT	-10196
Jimmy	-10197
OCALI	-10198
RESCO	-10199
bbat	-10200
brae	-10201
muum	-10202
Scors	-10203
agram	-10204
aiano	-10205
ammad	-10206
aptor	-10207
artha	-10208
bucks	-10209
cibly	-10210
clubs	-10211
drown	-10212
eched	-10213
ensyn	-10214
essex	-10215
freak	-10216
glass	-10217
hoebe	-10218
hoeff	-10219
horse	-10220
hythm	-10221
ianca	-10222
ickel	-10223
icnic	-10224
ienne	-10225
keeps	-10226
loisa	-10227
music	-10228
muumu	-10229
nipes	-10230
nurse	-10231
oledo	-10232
rabic	-10233
ranty	-10234
remes	-10235
repus	-10236
rique	-10237
roopy	-10238
rosis	-10239
stalg	-10240
tails	-10241
tocin	-10242
treas	-10243
udson	-10244
ughes	-10245
ulder	-10246
ummel	-10247
ussya	-10248
utrin	-10249
▁'05,	-10250
▁5:15	-10251
▁AIDS	-10252
▁Balt	-10253
▁Casp	-10254
▁Cmdr	-10255
▁Deny	-10256
▁Desk	-10257
▁Drah	-10258
▁Grab	-10259
▁Hawk	-10260
▁Holy	-10261
▁IUDs	-10262
▁Igor	-10263
▁Ivan	-10264
▁Jagu	-10265
▁Juli	-10266
▁Khar	-10267
▁Kira	-10268
▁Loop	-10269
▁Loos	-10270
▁Lorr	-10271
▁Lyon	-10272
▁Metz	-10273
▁Moby	-10274
▁Onto	-10275
▁Paso	-10276
▁Poet	-10277
▁Prix	-10278
▁SWAT	-10279
▁Schm	-10280
▁Sete	-10281
▁Tagu	-10282
▁Tsag	-10283
▁Tsar	-10284
▁Vulc	-10285
▁asym	-10286
▁aura	-10287
▁gulf	-10288
▁lamb	-10289
▁malt	-10290
▁mamm	-10291
▁nuis	-10292
▁omit	-10293
▁owed	-10294
▁pigs	-10295
▁psal	-10296
▁puja	-10297
100...	-10298
HARPLY	-10299
werp	-10300
duper	-10301
▁Runy	-10302
▁Salt	-10303
▁jerk	-10304
VOCALI	-10305
Viagra	-10306
ackham	-10307
ahrain	-10308
ammoth	-10309
atalie	-10310
ategor	-10311
atrice	-10312
ausner	-10313
bypass	-10314
called	-10315
compos	-10316
cupine	-10317
ebrand	-10318
ecraft	-10319
enneth	-10320
ensync	-10321
essala	-10322
esseth	-10323
gernon	-10324
havior	-10325
hiking	-10326
iggers	-10327
irring	-10328
kinson	-10329
ladhav	-10330
laimed	-10331
lusive	-10332
modate	-10333
naknak	-10334
nipres	-10335
obrija	-10336
ogenic	-10337
olayer	-10338
olisms	-10339
omicon	-10340
osophy	-10341
pstick	-10342
raints	-10343
righte	-10344
ryonic	-10345
stocks	-10346
strous	-10347
sylvan	-10348
themic	-10349
whores	-10350
wonder	-10351
▁2,500	-10352
▁5:30.	-10353
▁Adams	-10354
▁Addar	-10355
▁Admir	-10356
▁Akbar	-10357
▁Aryan	-10358
▁Bayes	-10359
▁Berth	-10360
▁Break	-10361
▁Bubby	-10362
▁Build	-10363
▁Camar	-10364
▁Carey	-10365
▁Catan	-10366
▁Cheju	-10367
▁Congo	-10368
▁Congr	-10369
▁Court	-10370
▁Craig	-10371
▁Crais	-10372
▁Cylon	-10373
▁Detro	-10374
▁Deval	-10375
▁Drahv	-10376
▁Florr	-10377
▁Flush	-10378
▁Gavin	-10379
▁Given	-10380
▁Glass	-10381
▁Heads	-10382
▁Humus	-10383
▁Husse	-10384
▁Ideas	-10385
▁Ignat	-10386
▁Incas	-10387
▁Jacar	-10388
▁Jacob	-10389
▁Jaffe	-10390
▁Josef	-10391
▁Kammo	-10392
▁Katar	-10393
▁Katie	-10394
▁Klara	-10395
▁Larks	-10396
▁Laura	-10397
▁Local	-10398
▁Longm	-10399
cano	-10400
enza	-10401
ggae	-10402
hode	-10403
nano	-10404
royo	-10405
trak	-10406
yrus	-10407
▁Urs	-10408
▁woe	-10409
ennis	-10410
ewels	-10411
flats	-10412
flush	-10413
ieval	-10414
juana	-10415
lphur	-10416
optra	-10417
posse	-10418
saken	-10419
truth	-10420
ungju	-10421
▁4:30	-10422
▁Curt	-10423
▁Gato	-10424
▁Luis	-10425
▁Nurt	-10426
▁Swed	-10427
▁Toby	-10428
▁keys	-10429
▁reju	-10430
ardrum	-10431
aville	-10432
herson	-10433
iflard	-10434
ijuana	-10435
illenn	-10436
jewels	-10437
lemish	-10438
shares	-10439
ypsies	-10440
▁Apoll	-10441
▁Cyrus	-10442
▁Maida	-10443
▁Malom	-10444
▁Mirac	-10445
▁Nanny	-10446
▁Nazis	-10447
▁Nolan	-10448
▁Nonse	-10449
▁Ophel	-10450
▁Party	-10451
▁Peace	-10452
▁Peach	-10453
▁Potom	-10454
▁Radha	-10455
▁Radio	-10456
▁Relax	-10457
▁Rhode	-10458
▁Rivan	-10459
▁Romul	-10460
▁Sadly	-10461
▁Salim	-10462
▁Sarah	-10463
▁Semin	-10464
▁Seteb	-10465
▁Spanx	-10466
▁Stamm	-10467
▁Tidal	-10468
▁Vegas	-10469
▁Vesuv	-10470
▁Vietc	-10471
▁Works	-10472
▁Worse	-10473
▁Wrath	-10474
▁Yavin	-10475
▁Ypres	-10476
▁Yusse	-10477
▁aimed	-10478
▁algor	-10479
▁arcad	-10480
▁artef	-10481
▁bacon	-10482
▁bayou	-10483
▁bicar	-10484
▁chewy	-10485
▁clasp	-10486
▁cytok	-10487
▁dandy	-10488
▁delhi	-10489
▁deriv	-10490
▁dispo	-10491
▁dunge	-10492
▁duper	-10493
▁eager	-10494
▁epile	-10495
▁etern	-10496
▁exhib	-10497
▁feces	-10498
▁fiery	-10499
/11	-10500
11,	-10501
/11.	-10502
Does	-10503
▁310	-10504
15,000	-10505
ineveh	-10506
▁Britt	-10507
▁folkl	-10508
▁fusel	-10509
▁ganja	-10510
▁geese	-10511
▁ghtly	-10512
▁grasp	-10513
▁irref	-10514
▁lamps	-10515
▁lawns	-10516
▁merma	-10517
▁moldy	-10518
▁mooed	-10519
▁nepot	-10520
▁noisy	-10521
▁ounce	-10522
▁phony	-10523
▁piano	-10524
▁pipel	-10525
▁plaus	-10526
▁polyp	-10527
▁porno	-10528
▁proxy	-10529
▁rugby	-10530
▁semen	-10531
▁shaky	-10532
▁shimm	-10533
▁solem	-10534
▁storv	-10535
▁suitc	-10536
▁texts	-10537
▁thalm	-10538
▁tribe	-10539
▁ubiqu	-10540
▁unhar	-10541
▁vesse	-10542
Iingers	-10543
Pherson	-10544
Rehabil	-10545
aculate	-10546
amphlet	-10547
arnates	-10548
aulting	-10549
awesome	-10550
benders	-10551
bullets	-10552
burgers	-10553
challen	-10554
compass	-10555
eccable	-10556
edaddle	-10557
edskins	-10558
ellosis	-10559
erillas	-10560
examine	-10561
flushed	-10562
freedom	-10563
glasses	-10564
hausted	-10565
hoeffer	-10566
hunting	-10567
ilgrims	-10568
imeters	-10569
keepsie	-10570
lendars	-10571
lucking	-10572
minated	-10573
mitting	-10574
operate	-10575
oppable	-10576
ousteau	-10577
posable	-10578
rasions	-10579
respass	-10580
roached	-10581
ruments	-10582
sirring	-10583
strings	-10584
subject	-10585
uestion	-10586
ulinity	-10587
ummeled	-10588
urfaced	-10589
utrinos	-10590
vanises	-10591
vehicle	-10592
▁12:15,	-10593
▁25,000	-10594
▁Affirm	-10595
▁Albert	-10596
▁Amtrak	-10597
▁Arabic	-10598
▁Arctur	-10599
bolic	-10600
human	-10601
▁Grey	-10602
▁besm	-10603
▁cuba	-10604
▁lobb	-10605
▁slee	-10606
arrett	-10607
gemony	-10608
naries	-10609
oriety	-10610
thoped	-10611
▁Brett	-10612
▁Bunny	-10613
▁Calig	-10614
▁Calyp	-10615
▁Delaw	-10616
▁Domin	-10617
▁Hodge	-10618
▁Jeric	-10619
▁Micro	-10620
▁Parks	-10621
▁Thorw	-10622
▁domin	-10623
▁laund	-10624
▁sleaz	-10625
▁towel	-10626
▁unple	-10627
▁unsus	-10628
ellenic	-10629
erstone	-10630
hearted	-10631
ilatory	-10632
iratory	-10633
itorial	-10634
okesman	-10635
ontroll	-10636
otching	-10637
rippled	-10638
vantage	-10639
▁Armand	-10640
▁Audrey	-10641
▁Austin	-10642
▁Babies	-10643
▁Baltim	-10644
▁Bolsho	-10645
▁Bonnet	-10646
▁Bounty	-10647
▁Burger	-10648
▁Carrie	-10649
▁Celest	-10650
▁County	-10651
▁Cousin	-10652
▁Cubang	-10653
▁Daleks	-10654
▁Dennis	-10655
▁Denver	-10656
▁Devlin	-10657
▁Donnie	-10658
▁Duncan	-10659
▁Durant	-10660
▁Edward	-10661
▁Fallst	-10662
▁Flower	-10663
▁Freddy	-10664
▁Guinea	-10665
▁Hallow	-10666
▁Hansel	-10667
▁Having	-10668
▁Hawaii	-10669
▁Hawkin	-10670
▁Holman	-10671
▁Holmes	-10672
▁Humans	-10673
▁Jagger	-10674
▁Jeeves	-10675
▁Jessie	-10676
▁Joseph	-10677
▁Kosher	-10678
▁Ladies	-10679
▁Latino	-10680
▁Marcia	-10681
▁Martha	-10682
▁Martin	-10683
▁Merrin	-10684
▁Metcal	-10685
▁Mickey	-10686
▁Milton	-10687
▁Monaco	-10688
▁Mulder	-10689
▁Palmer	-10690
▁Parker	-10691
▁Patric	-10692
▁Patrol	-10693
▁Pelias	-10694
▁Pelion	-10695
▁Perrin	-10696
▁Person	-10697
▁Phoebe	-10698
▁Portug	-10699
burg	-10700
isky	-10701
risk	-10702
warf	-10703
▁Cyl	-10704
▁Slu	-10705
▁cuz	-10706
▁fuz	-10707
arios	-10708
burgh	-10709
burst	-10710
ecarp	-10711
inisc	-10712
loria	-10713
ndaes	-10714
obbie	-10715
oulon	-10716
radak	-10717
rador	-10718
renda	-10719
senal	-10720
warfs	-10721
▁Burj	-10722
▁Durb	-10723
▁Week	-10724
▁baat	-10725
▁jolt	-10726
▁peek	-10727
anssen	-10728
eceive	-10729
elvana	-10730
emerge	-10731
letari	-10732
obbits	-10733
orcise	-10734
risome	-10735
▁Chris	-10736
▁Excal	-10737
▁Slugh	-10738
▁fuzzy	-10739
▁rents	-10740
andemon	-10741
angebro	-10742
ariably	-10743
atecarp	-10744
newable	-10745
tsburgh	-10746
▁12:00.	-10747
▁Bobbie	-10748
▁Brenda	-10749
▁Cylons	-10750
▁Durbin	-10751
▁Dwarfs	-10752
▁Gloria	-10753
▁Makeba	-10754
▁Norris	-10755
▁Oracle	-10756
▁Rachel	-10757
▁Radley	-10758
▁Raptor	-10759
▁Romant	-10760
▁Runyon	-10761
▁Russia	-10762
▁Salima	-10763
▁Satars	-10764
▁Semple	-10765
▁Sherri	-10766
▁Sidney	-10767
▁Spring	-10768
▁Suspic	-10769
▁TARDIS	-10770
▁THREAT	-10771
▁Taguan	-10772
▁Thomas	-10773
▁Toledo	-10774
▁Toulon	-10775
▁Truman	-10776
▁Ursula	-10777
▁Valois	-10778
▁Virgin	-10779
▁Vulcan	-10780
▁Westph	-10781
▁Window	-10782
▁Yvette	-10783
▁abomin	-10784
▁albino	-10785
▁alcoho	-10786
▁altarp	-10787
▁anomal	-10788
▁apocal	-10789
▁arcade	-10790
▁archet	-10791
▁archit	-10792
▁assemb	-10793
▁astero	-10794
▁asympt	-10795
▁atomic	-10796
▁baatar	-10797
▁bacill	-10798
▁beaver	-10799
HUM	-10800
▁etc	-10801
birds	-10802
▁112,	-10803
▁CHUM	-10804
bestos	-10805
buried	-10806
xholes	-10807
▁axons	-10808
▁baths	-10809
▁batht	-10810
▁boils	-10811
▁budge	-10812
▁busts	-10813
▁chips	-10814
▁hypos	-10815
▁kilos	-10816
▁pinea	-10817
▁woree	-10818
ancisco	-10819
llables	-10820
mailing	-10821
napolis	-10822
sembled	-10823
uthbert	-10824
▁Greeks	-10825
▁Jackie	-10826
▁Wanted	-10827
▁besmir	-10828
▁bicarb	-10829
▁boldly	-10830
▁bridal	-10831
▁bronze	-10832
▁buggin	-10833
▁bunker	-10834
▁buzzed	-10835
▁buzzes	-10836
▁calcul	-10837
▁cannto	-10838
▁cassio	-10839
▁caterp	-10840
▁cauter	-10841
▁cherry	-10842
▁chosen	-10843
▁chubby	-10844
▁cigars	-10845
▁clergy	-10846
▁clingy	-10847
▁comedy	-10848
▁cooped	-10849
▁corona	-10850
▁corrid	-10851
▁cortex	-10852
▁cortic	-10853
▁creaks	-10854
▁crowds	-10855
▁cruise	-10856
▁curios	-10857
▁cybers	-10858
▁dancer	-10859
▁debate	-10860
▁decrep	-10861
▁dennis	-10862
▁diaper	-10863
▁docket	-10864
▁domain	-10865
▁droopy	-10866
▁elders	-10867
▁empath	-10868
▁etched	-10869
▁etches	-10870
▁ethics	-10871
▁fecund	-10872
▁freaks	-10873
▁furnit	-10874
▁galler	-10875
▁gelled	-10876
▁gettin	-10877
▁guinea	-10878
▁gunpow	-10879
▁hauled	-10880
▁hedger	-10881
▁herbal	-10882
▁heroes	-10883
▁hinged	-10884
▁inspir	-10885
▁issues	-10886
▁jammer	-10887
▁jazzed	-10888
▁kidnap	-10889
▁labels	-10890
▁lament	-10891
▁licens	-10892
▁liners	-10893
▁locksm	-10894
▁malign	-10895
▁maniac	-10896
▁marked	-10897
▁marnie	-10898
▁marshm	-10899
240	-10900
aiho	-10901
oppy	-10902
ovar	-10903
urai	-10904
zuma	-10905
▁Enj	-10906
▁Huh	-10907
▁McM	-10908
▁Roh	-10909
2,240	-10910
arrel	-10911
erefo	-10912
icada	-10913
maker	-10914
othal	-10915
sjust	-10916
▁Corr	-10917
▁Feng	-10918
▁Madr	-10919
▁Milo	-10920
▁Mini	-10921
▁Thai	-10922
▁fags	-10923
▁leng	-10924
▁odds	-10925
▁padr	-10926
bridge	-10927
estraz	-10928
imethy	-10929
tezuma	-10930
▁Again	-10931
▁Antar	-10932
▁Arabs	-10933
▁Clara	-10934
▁Colby	-10935
▁Colch	-10936
▁Daiho	-10937
▁Deach	-10938
▁Deird	-10939
▁Enjoy	-10940
▁Janie	-10941
▁Merry	-10942
▁Miles	-10943
▁Minih	-10944
▁Rohan	-10945
▁Saved	-10946
▁altru	-10947
▁hedge	-10948
▁sewed	-10949
because	-10950
esserts	-10951
leaders	-10952
othalam	-10953
slaught	-10954
tlewood	-10955
▁Colour	-10956
▁Honest	-10957
▁Honour	-10958
▁Madrid	-10959
▁McMart	-10960
▁Minist	-10961
▁amends	-10962
▁canada	-10963
▁cicada	-10964
▁floppy	-10965
▁franch	-10966
▁length	-10967
▁mayhem	-10968
▁meteor	-10969
▁metrol	-10970
▁molest	-10971
▁negoti	-10972
▁nephew	-10973
▁neural	-10974
▁noodle	-10975
▁nothin	-10976
▁obsess	-10977
▁obstac	-10978
▁outfit	-10979
▁phoned	-10980
▁picnic	-10981
▁portal	-10982
▁potato	-10983
▁precip	-10984
▁puppet	-10985
▁queues	-10986
▁quotas	-10987
▁racist	-10988
▁raging	-10989
▁ranked	-10990
▁rechar	-10991
▁recycl	-10992
▁reopen	-10993
▁reverb	-10994
▁rhymes	-10995
▁rifles	-10996
▁ritual	-10997
▁sabbat	-10998
▁sailed	-10999
▁pulp	-11000
▁puls	-11001
▁rapt	-11002
▁vacc	-11003
▁2:00.	-11004
▁clubs	-11005
▁funds	-11006
▁multi	-11007
▁shrub	-11008
▁throb	-11009
▁verte	-11010
omerset	-11011
▁Deduct	-11012
▁Lining	-11013
▁broadc	-11014
▁carbun	-11015
▁cuddly	-11016
▁dining	-11017
▁flowed	-11018
▁purely	-11019
▁shafts	-11020
▁shekel	-11021
▁shells	-11022
▁sidetr	-11023
▁sights	-11024
▁skirts	-11025
▁sleazy	-11026
▁smiled	-11027
▁softhe	-11028
▁spoilt	-11029
▁stares	-11030
▁temple	-11031
▁tennis	-11032
▁throbs	-11033
▁titled	-11034
▁tonsil	-11035
▁toothp	-11036
▁toxins	-11037
▁tumour	-11038
▁turbot	-11039
▁ultrav	-11040
▁unseem	-11041
▁unsure	-11042
▁update	-11043
▁vaults	-11044
▁versat	-11045
▁volcan	-11046
▁werert	-11047
▁whisky	-11048
▁whites	-11049
▁widely	-11050
▁wiener	-11051
▁winkle	-11052
▁worsen	-11053
▁wreath	-11054
▁yanked	-11055
Japanese	-11056
aborated	-11057
acecraft	-11058
acherous	-11059
acitated	-11060
alanches	-11061
andatory	-11062
anderson	-11063
aneously	-11064
arantine	-11065
aritions	-11066
chhiking	-11067
elivered	-11068
eningrad	-11069
estrazza	-11070
hausting	-11071
hellenic	-11072
iecutter	-11073
igration	-11074
imethyld	-11075
iometric	-11076
itchcock	-11077
itnesses	-11078
ittering	-11079
ladhavns	-11080
machines	-11081
martians	-11082
olobrija	-11083
ominated	-11084
ompanied	-11085
onytails	-11086
orrhages	-11087
oyalists	-11088
restrict	-11089
rialists	-11090
riptions	-11091
security	-11092
secuting	-11093
students	-11094
thopedic	-11095
treasure	-11096
unctions	-11097
viations	-11098
violence	-11099
iara	-11100
ozed	-11101
shod	-11102
▁40.	-11103
▁Seb	-11104
offer	-11105
oulin	-11106
rosho	-11107
shoot	-11108
shops	-11109
uliar	-11110
▁Ahem	-11111
▁Boar	-11112
▁Else	-11113
▁Neil	-11114
▁cask	-11115
▁cosm	-11116
▁grip	-11117
▁gums	-11118
▁harb	-11119
▁wool	-11120
itudes	-11121
offery	-11122
omsday	-11123
rapnel	-11124
roduct	-11125
▁Armag	-11126
▁Baden	-11127
▁Bucky	-11128
▁Crane	-11129
▁Genes	-11130
▁Lanie	-11131
▁Leung	-11132
▁Stool	-11133
▁Tucky	-11134
▁Wales	-11135
▁ahold	-11136
▁aston	-11137
▁cache	-11138
▁drums	-11139
▁dudes	-11140
▁harsh	-11141
▁oozed	-11142
▁overe	-11143
▁spool	-11144
▁tiara	-11145
▁uneat	-11146
▁yucky	-11147
eculiar	-11148
roshock	-11149
▁Armagn	-11150
▁Capone	-11151
▁Capote	-11152
▁Revere	-11153
▁Sebast	-11154
▁ambush	-11155
▁exudes	-11156
▁harbor	-11157
▁marlin	-11158
▁moulin	-11159
▁overex	-11160
▁poetic	-11161
▁ripper	-11162
▁spools	-11163
shooting	-11164
▁250,000	-11165
▁400,000	-11166
▁Admiral	-11167
▁Affairs	-11168
▁Angelus	-11169
▁Antonio	-11170
▁Antwerp	-11171
▁Atlanta	-11172
▁Badenov	-11173
▁Bolivia	-11174
▁Bullets	-11175
▁Calypso	-11176
▁Carlton	-11177
▁Carrion	-11178
▁Charlot	-11179
▁Checked	-11180
▁Clement	-11181
▁Collect	-11182
▁Colleen	-11183
▁College	-11184
▁Concord	-11185
▁Consort	-11186
▁Cubango	-11187
▁Destroy	-11188
▁Devalos	-11189
▁Edwards	-11190
▁Excalib	-11191
▁Fallope	-11192
▁Flemish	-11193
▁Flowers	-11194
▁Fortune	-11195
▁Frannie	-11196
▁Genesis	-11197
▁Geraldo	-11198
▁Goldman	-11199
,20	-11200
.30	-11201
Ooh	-11202
fbl	-11203
nov	-11204
.30.	-11205
afes	-11206
does	-11207
leaf	-11208
moon	-11209
▁CTU	-11210
▁oaf	-11211
afing	-11212
after	-11213
arfbl	-11214
blade	-11215
blast	-11216
blond	-11217
brosp	-11218
iggly	-11219
novas	-11220
▁1,20	-11221
▁gobl	-11222
ername	-11223
iscuit	-11224
merald	-11225
▁Jacqu	-11226
▁Shana	-11227
▁album	-11228
▁cockt	-11229
▁dumps	-11230
▁simul	-11231
brospin	-11232
meralda	-11233
species	-11234
usioned	-11235
▁Knight	-11236
▁gangst	-11237
▁giggly	-11238
▁progun	-11239
▁sprung	-11240
arfblatt	-11241
blasting	-11242
inkering	-11243
▁Consequ	-11244
▁Hallows	-11245
▁Hartman	-11246
▁Himself	-11247
▁Hitting	-11248
▁Hobbits	-11249
▁Housing	-11250
▁Hunting	-11251
▁Jacarut	-11252
▁Jacques	-11253
▁Janssen	-11254
▁Jarrett	-11255
▁Jericho	-11256
▁Leaving	-11257
▁Maidens	-11258
▁Martins	-11259
▁Massach	-11260
▁Meaning	-11261
▁Millenn	-11262
▁Minihan	-11263
▁Mothers	-11264
▁Nelvana	-11265
▁Officer	-11266
▁Ophelia	-11267
▁Peeking	-11268
▁Photost	-11269
▁Portugu	-11270
▁Potomac	-11271
▁Protest	-11272
▁Rampion	-11273
▁Receive	-11274
▁Reconna	-11275
▁Regents	-11276
▁Repairs	-11277
▁Robbers	-11278
▁Rosalie	-11279
▁Roswell	-11280
▁Santerm	-11281
▁Sheriff	-11282
▁Shining	-11283
▁Sitting	-11284
▁Smaller	-11285
▁Sounded	-11286
▁Springs	-11287
▁Stanley	-11288
▁Swedish	-11289
▁Vallois	-11290
▁Vulcans	-11291
▁Western	-11292
▁abdomen	-11293
▁aground	-11294
▁amplify	-11295
▁analyst	-11296
▁apology	-11297
▁archive	-11298
▁asexual	-11299
Once	-11300
bugg	-11301
iata	-11302
oxic	-11303
span	-11304
▁Box	-11305
▁Cla	-11306
agula	-11307
buggy	-11308
cades	-11309
eague	-11310
elsey	-11311
ophie	-11312
sheet	-11313
unlie	-11314
▁Adop	-11315
▁Barb	-11316
▁Clar	-11317
▁Easy	-11318
▁Gosh	-11319
▁Rabb	-11320
▁Tube	-11321
▁bowl	-11322
▁dune	-11323
▁pica	-11324
▁vert	-11325
chiata	-11326
eroids	-11327
letion	-11328
letter	-11329
monial	-11330
ophren	-11331
prises	-11332
▁Concl	-11333
▁Demon	-11334
▁Emily	-11335
▁Paula	-11336
▁ammon	-11337
▁audio	-11338
▁error	-11339
▁lifts	-11340
▁recyc	-11341
ibsheet	-11342
missive	-11343
▁Clarke	-11344
▁Claude	-11345
▁Guards	-11346
▁Junlie	-11347
▁Kelsey	-11348
▁Monica	-11349
▁Sophie	-11350
▁bowler	-11351
▁doreen	-11352
▁league	-11353
▁outbre	-11354
▁reload	-11355
abilizes	-11356
centered	-11357
ifyingly	-11358
izophren	-11359
ucchiata	-11360
▁Barbary	-11361
▁Coagula	-11362
▁ability	-11363
▁asserts	-11364
▁astound	-11365
▁auditor	-11366
▁baboons	-11367
▁bacilli	-11368
▁barrier	-11369
▁basilar	-11370
▁bathing	-11371
▁beckons	-11372
▁befalls	-11373
▁benefic	-11374
▁bicycle	-11375
▁biscuit	-11376
▁bishops	-11377
▁blaming	-11378
▁bobbles	-11379
▁boobies	-11380
▁boosted	-11381
▁bouquet	-11382
▁bridges	-11383
▁bridled	-11384
▁browses	-11385
▁bunting	-11386
▁buttins	-11387
▁cameram	-11388
▁caution	-11389
▁chassed	-11390
▁chatted	-11391
▁chilled	-11392
▁contrab	-11393
▁contrad	-11394
▁corpore	-11395
▁corsica	-11396
▁cripple	-11397
▁cropped	-11398
▁crowded	-11399
blow	-11400
regl	-11401
▁114	-11402
▁urg	-11403
Polic	-11404
dorsc	-11405
nesot	-11406
▁Conn	-11407
▁Conv	-11408
▁Plaz	-11409
▁crib	-11410
▁oxid	-11411
▁urch	-11412
▁urge	-11413
nesota	-11414
obbing	-11415
▁11:00	-11416
▁Above	-11417
▁Keeps	-11418
▁Maure	-11419
▁Moors	-11420
▁Place	-11421
▁Plaza	-11422
▁Prome	-11423
▁buddy	-11424
▁ifyou	-11425
▁kicky	-11426
▁linen	-11427
▁melod	-11428
▁scrib	-11429
▁synes	-11430
▁thugs	-11431
▁unreg	-11432
▁venal	-11433
Policem	-11434
Sobbing	-11435
atician	-11436
blowing	-11437
reglart	-11438
▁11:00,	-11439
▁Amount	-11440
▁Connor	-11441
▁Kanebo	-11442
▁Keeper	-11443
▁Odorsc	-11444
▁Plates	-11445
▁Sounds	-11446
▁Stella	-11447
▁Wonder	-11448
▁alchem	-11449
▁bootst	-11450
▁dicker	-11451
▁execut	-11452
▁hunter	-11453
▁letyou	-11454
▁magnes	-11455
▁midair	-11456
▁scribb	-11457
▁sinful	-11458
▁turbol	-11459
▁urchin	-11460
▁urgent	-11461
▁wooden	-11462
iserable	-11463
matician	-11464
▁Maureen	-11465
▁anxious	-11466
▁bootstr	-11467
▁boredom	-11468
▁cartany	-11469
▁crudely	-11470
▁cruiser	-11471
▁dashing	-11472
▁declass	-11473
▁deleter	-11474
▁deposit	-11475
▁despair	-11476
▁diction	-11477
▁diesels	-11478
▁disturb	-11479
▁dumping	-11480
▁earshot	-11481
▁enables	-11482
▁encrypt	-11483
▁essence	-11484
▁experts	-11485
▁flashes	-11486
▁forbade	-11487
▁furnace	-11488
▁gesture	-11489
▁goblins	-11490
▁grassro	-11491
▁gravest	-11492
▁gunfire	-11493
▁habitat	-11494
▁hailing	-11495
▁hallway	-11496
▁helicon	-11497
▁horizon	-11498
▁hotshot	-11499
gli	-11500
▁Agu	-11501
▁Aha	-11502
ahara	-11503
annel	-11504
annig	-11505
efies	-11506
liven	-11507
owgli	-11508
thens	-11509
zilla	-11510
▁Boat	-11511
▁Vann	-11512
▁argu	-11513
▁casc	-11514
▁mama	-11515
▁obli	-11516
annies	-11517
liance	-11518
▁Brann	-11519
▁Ferry	-11520
▁Guate	-11521
▁Libby	-11522
▁Swiss	-11523
▁Tyson	-11524
▁earli	-11525
▁idiot	-11526
▁misgu	-11527
▁warns	-11528
annigan	-11529
▁Aguila	-11530
▁Athens	-11531
▁Guatem	-11532
▁Mowgli	-11533
▁Sahara	-11534
▁cursed	-11535
▁likeli	-11536
▁method	-11537
▁nurses	-11538
▁oblige	-11539
▁pinged	-11540
▁primed	-11541
▁safegu	-11542
▁sullen	-11543
▁trench	-11544
asurable	-11545
iquefies	-11546
reliance	-11547
▁Brannis	-11548
▁Detroit	-11549
▁Johnson	-11550
▁Mississ	-11551
▁arguing	-11552
▁cascade	-11553
▁channel	-11554
▁demonic	-11555
▁diverse	-11556
▁enliven	-11557
▁feature	-11558
▁flatten	-11559
▁illustr	-11560
▁imitate	-11561
▁include	-11562
▁incubus	-11563
▁inferno	-11564
▁inflict	-11565
▁injects	-11566
▁inserts	-11567
▁kidding	-11568
▁lacking	-11569
▁laundry	-11570
▁leisure	-11571
▁licence	-11572
▁license	-11573
▁lnstead	-11574
▁loosely	-11575
▁lumines	-11576
▁mammoth	-11577
▁manners	-11578
▁martial	-11579
▁mascara	-11580
▁melodic	-11581
▁metabol	-11582
▁michael	-11583
▁midwife	-11584
▁millenn	-11585
▁minivan	-11586
▁mocking	-11587
▁monitor	-11588
▁monkeys	-11589
▁motorbo	-11590
▁mourned	-11591
▁museums	-11592
▁nannies	-11593
▁nebuild	-11594
▁nephews	-11595
▁neurons	-11596
▁niggers	-11597
▁notjust	-11598
▁observe	-11599
Whis	-11600
niff	-11601
rogl	-11602
Whisp	-11603
eriff	-11604
garit	-11605
glary	-11606
lects	-11607
locks	-11608
meter	-11609
rogra	-11610
sniff	-11611
sunam	-11612
▁Alma	-11613
▁Burb	-11614
▁Diff	-11615
▁Scar	-11616
▁femi	-11617
eezing	-11618
garita	-11619
irstyl	-11620
sunami	-11621
umbles	-11622
winter	-11623
▁10:00	-11624
▁Euras	-11625
▁Ghost	-11626
▁Grace	-11627
▁Grave	-11628
▁Grish	-11629
▁Manny	-11630
▁Scand	-11631
▁Siber	-11632
▁Speak	-11633
▁Tomas	-11634
▁docks	-11635
▁edges	-11636
▁femin	-11637
▁fiber	-11638
▁magma	-11639
▁mathe	-11640
▁mocks	-11641
▁momma	-11642
▁plumb	-11643
▁trogl	-11644
▁vanqu	-11645
gesture	-11646
rential	-11647
rograpp	-11648
umbered	-11649
umbling	-11650
▁Grisha	-11651
▁Scully	-11652
▁Spider	-11653
▁anxiet	-11654
▁cooper	-11655
▁scores	-11656
▁shocks	-11657
▁sweaty	-11658
Whatever	-11659
Whispers	-11660
numbered	-11661
sniffing	-11662
▁Burbank	-11663
▁Differe	-11664
▁Gravely	-11665
▁Nineveh	-11666
▁Scandin	-11667
▁Siberia	-11668
▁immense	-11669
▁loading	-11670
▁monarch	-11671
▁offunny	-11672
▁ominous	-11673
▁orchest	-11674
▁orifice	-11675
▁overdra	-11676
▁overexp	-11677
▁penalty	-11678
▁peoples	-11679
▁periods	-11680
▁pilgrim	-11681
▁premium	-11682
▁prisons	-11683
▁prophec	-11684
▁proxies	-11685
▁puppets	-11686
▁puppies	-11687
▁pursuit	-11688
▁puzzled	-11689
▁puzzles	-11690
▁pyramid	-11691
▁qualify	-11692
▁quality	-11693
▁quarrel	-11694
▁quitted	-11695
▁rangers	-11696
▁rattles	-11697
▁rebuild	-11698
▁recipro	-11699
coat	-11700
beard	-11701
study	-11702
▁flux	-11703
▁malf	-11704
igrate	-11705
kerman	-11706
sizing	-11707
ueball	-11708
▁Solve	-11709
▁Witch	-11710
▁camou	-11711
▁limbs	-11712
▁limit	-11713
▁nests	-11714
▁nutri	-11715
▁pervs	-11716
▁pitch	-11717
▁rande	-11718
▁tunes	-11719
▁vocal	-11720
▁yella	-11721
onomous	-11722
orizing	-11723
▁annals	-11724
▁announ	-11725
▁copies	-11726
▁sneaky	-11727
▁stakes	-11728
▁steady	-11729
▁steins	-11730
▁tendon	-11731
▁upsets	-11732
▁wastes	-11733
ilkerman	-11734
inquency	-11735
▁Between	-11736
▁Charmed	-11737
▁Charter	-11738
▁bathtub	-11739
▁bounces	-11740
▁camoufl	-11741
▁cueball	-11742
▁cursing	-11743
▁digests	-11744
▁hissing	-11745
▁offline	-11746
▁packets	-11747
▁plotted	-11748
▁posters	-11749
▁posture	-11750
▁rectang	-11751
▁refuted	-11752
▁regrets	-11753
▁relaxed	-11754
▁relinqu	-11755
▁remembr	-11756
▁replace	-11757
▁reputed	-11758
▁reverts	-11759
▁reviews	-11760
▁rewrote	-11761
▁riddled	-11762
▁riddles	-11763
▁rioters	-11764
▁roaming	-11765
▁roofing	-11766
▁sadness	-11767
▁samurai	-11768
▁savages	-11769
▁scarier	-11770
▁schemat	-11771
▁settled	-11772
▁shakers	-11773
▁shaping	-11774
▁sharing	-11775
▁sheriff	-11776
▁shining	-11777
▁shouted	-11778
▁shrines	-11779
▁sinking	-11780
▁slavers	-11781
▁smiling	-11782
▁smokest	-11783
▁spacesu	-11784
▁sparked	-11785
▁spawned	-11786
▁spectac	-11787
▁spilled	-11788
▁spyware	-11789
▁squares	-11790
▁squeaks	-11791
▁steamed	-11792
▁stirred	-11793
▁sundaes	-11794
▁supreme	-11795
▁swaying	-11796
▁sweeper	-11797
▁sympath	-11798
▁tampons	-11799
iky	-11800
supp	-11801
ulee	-11802
weik	-11803
▁Ade	-11804
ifuge	-11805
ladiv	-11806
lexig	-11807
orica	-11808
takes	-11809
ulean	-11810
ulets	-11811
▁Foll	-11812
▁Grim	-11813
▁Pawn	-11814
▁envy	-11815
▁tarp	-11816
augame	-11817
ggedly	-11818
lexigl	-11819
limate	-11820
rifuge	-11821
ximate	-11822
▁Adele	-11823
▁Crime	-11824
▁Drunk	-11825
▁Megan	-11826
▁Point	-11827
▁cakes	-11828
▁embod	-11829
▁lacks	-11830
▁spiky	-11831
▁tarot	-11832
▁uncut	-11833
▁undec	-11834
aluable	-11835
augamel	-11836
ligarch	-11837
support	-11838
weikart	-11839
▁Danube	-11840
▁Follow	-11841
▁Pawnee	-11842
▁Vladiv	-11843
▁admitt	-11844
▁behavi	-11845
▁birdie	-11846
▁brulee	-11847
▁envied	-11848
▁explos	-11849
▁immort	-11850
▁plaint	-11851
▁sicken	-11852
▁storms	-11853
▁tracks	-11854
▁uncomp	-11855
▁undoub	-11856
andorica	-11857
augamela	-11858
lexiglas	-11859
▁Drunken	-11860
▁Yorkers	-11861
▁adapted	-11862
▁amulets	-11863
▁captive	-11864
▁comeupp	-11865
▁kneecap	-11866
▁moulded	-11867
▁redhead	-11868
▁renters	-11869
▁require	-11870
▁terrace	-11871
▁terrify	-11872
▁terrors	-11873
▁thalmic	-11874
▁theatre	-11875
▁threads	-11876
▁toolbox	-11877
▁touring	-11878
▁tourism	-11879
▁traders	-11880
▁trailer	-11881
▁trudged	-11882
▁turbine	-11883
▁tweeted	-11884
▁unclean	-11885
▁undoing	-11886
▁undress	-11887
▁uneaten	-11888
▁uninter	-11889
▁unpleas	-11890
▁uttered	-11891
▁utterly	-11892
▁vaccine	-11893
▁variety	-11894
▁viroxic	-11895
▁volcano	-11896
▁warrior	-11897
▁weighed	-11898
▁whiskey	-11899
112,	-11900
ckey	-11901
dney	-11902
wolf	-11903
▁20,	-11904
▁20-	-11905
▁30,	-11906
cribe	-11907
escri	-11908
lytic	-11909
ticip	-11910
ydney	-11911
▁100,	-11912
▁duel	-11913
▁edna	-11914
▁encl	-11915
▁tenf	-11916
1,112,	-11917
escrib	-11918
oulins	-11919
ursive	-11920
▁Bligh	-11921
▁birch	-11922
▁ducks	-11923
▁layer	-11924
▁layup	-11925
▁ridge	-11926
atching	-11927
molytic	-11928
olesome	-11929
olstead	-11930
▁20,000	-11931
▁Sydney	-11932
▁Within	-11933
▁awaked	-11934
▁chased	-11935
▁circul	-11936
▁eighty	-11937
▁harmon	-11938
▁hockey	-11939
▁loaves	-11940
▁occurs	-11941
▁primal	-11942
▁simult	-11943
▁slaves	-11944
▁soaked	-11945
ticipate	-11946
▁100,000	-11947
▁blindly	-11948
▁evolves	-11949
▁moulins	-11950
▁paroles	-11951
▁punched	-11952
▁punches	-11953
▁symptom	-11954
▁tenfold	-11955
▁whisper	-11956
▁withdra	-11957
▁wobbled	-11958
▁wobbles	-11959
▁wrinkle	-11960
actresses	-11961
advantage	-11962
arrington	-11963
assembled	-11964
atecarpus	-11965
cientists	-11966
composers	-11967
fishermen	-11968
iculously	-11969
igibility	-11970
intensive	-11971
irstylist	-11972
iscovered	-11973
istorical	-11974
metically	-11975
mucchiata	-11976
musicians	-11977
nipresent	-11978
nourished	-11979
ompkinson	-11980
ontrovert	-11981
openhagen	-11982
osteroids	-11983
prescribe	-11984
rapanties	-11985
reglartel	-11986
righteous	-11987
roductive	-11988
scattered	-11989
slaughter	-11990
tersnipes	-11991
ucellosis	-11992
ventional	-11993
▁Algernon	-11994
▁Armagnac	-11995
▁Athletic	-11996
▁Atlantic	-11997
▁Bayesian	-11998
▁Buddhist	-11999
>".	-12000
Asc	-12001
aroo	-12002
gley	-12003
ooze	-12004
scar	-12005
Ascoy	-12006
Thats	-12007
abney	-12008
asley	-12009
idley	-12010
ipper	-12011
irley	-12012
month	-12013
odney	-12014
owley	-12015
▁chef	-12016
▁smoo	-12017
eraire	-12018
school	-12019
▁Cheap	-12020
▁Dunne	-12021
▁Oscar	-12022
▁dummy	-12023
▁salam	-12024
▁sales	-12025
▁swipe	-12026
▁taxid	-12027
▁Dabney	-12028
▁Margot	-12029
▁Picked	-12030
▁Ridley	-12031
▁Rodney	-12032
▁Rowley	-12033
▁Scotty	-12034
▁cement	-12035
▁kipper	-12036
▁mutant	-12037
▁mutiny	-12038
▁recipe	-12039
▁retina	-12040
▁robots	-12041
▁salary	-12042
▁snooze	-12043
▁snowed	-12044
▁superv	-12045
▁tablec	-12046
▁ticked	-12047
▁wilder	-12048
Ascoynes	-12049
▁Badgley	-12050
▁Corrine	-12051
▁Shirley	-12052
▁Weasley	-12053
▁bonaroo	-12054
▁cardiac	-12055
▁civiliz	-12056
▁conflag	-12057
▁effaced	-12058
▁flowing	-12059
▁massage	-12060
▁roughly	-12061
▁sweetie	-12062
ipulation	-12063
schooling	-12064
▁Building	-12065
▁Canadian	-12066
▁Carrying	-12067
▁Charlest	-12068
▁Chastity	-12069
▁Concello	-12070
▁Convince	-12071
▁Cuthbert	-12072
▁Delaware	-12073
▁Deprived	-12074
▁Drahvins	-12075
▁Dreadful	-12076
▁Drinking	-12077
▁Egyptian	-12078
▁European	-12079
▁Fallstag	-12080
▁Festival	-12081
▁Godzilla	-12082
▁Goodrich	-12083
▁Hartmann	-12084
▁Honestly	-12085
▁Ignoring	-12086
▁Independ	-12087
▁Katarina	-12088
▁Labrador	-12089
▁Langebro	-12090
▁Lorraine	-12091
▁Lucilius	-12092
▁Machines	-12093
▁Magnetic	-12094
▁McMartin	-12095
▁Metcalfe	-12096
▁Mississi	-12097
▁Mullucks	-12098
▁Patricia	-12099
pha	-12100
budd	-12101
nces	-12102
odox	-12103
regn	-12104
▁Joh	-12105
arcer	-12106
buddy	-12107
iapan	-12108
iterr	-12109
phate	-12110
phion	-12111
pregn	-12112
▁Joey	-12113
▁Stef	-12114
cerned	-12115
cester	-12116
ievous	-12117
ounces	-12118
ources	-12119
phaest	-12120
sphate	-12121
thodox	-12122
uicide	-12123
urtain	-12124
ussion	-12125
▁Creme	-12126
▁greyh	-12127
▁grove	-12128
▁lawsu	-12129
▁necks	-12130
▁recei	-12131
▁teamm	-12132
connect	-12133
econdly	-12134
editerr	-12135
rthodox	-12136
velopes	-12137
▁Camaro	-12138
▁Flight	-12139
▁Invent	-12140
▁Stefan	-12141
▁doomed	-12142
▁laughs	-12143
▁ounces	-12144
▁sabers	-12145
▁tapped	-12146
▁typing	-12147
Secondly	-12148
angiapan	-12149
arcerate	-12150
connects	-12151
hosphate	-12152
oucester	-12153
phaestus	-12154
pregnant	-12155
rrthodox	-12156
ushlight	-12157
utionnal	-12158
▁Amphion	-12159
▁Curtain	-12160
▁Johanna	-12161
▁Microso	-12162
▁Suicide	-12163
▁arcadia	-12164
▁crafted	-12165
▁dialled	-12166
▁endured	-12167
▁fanatic	-12168
▁freaked	-12169
▁grabbed	-12170
▁improve	-12171
▁insured	-12172
▁marries	-12173
▁prevail	-12174
▁receipt	-12175
▁reveals	-12176
▁revives	-12177
▁secured	-12178
▁uncanny	-12179
Orrthodox	-12180
▁Mediterr	-12181
▁Promethe	-12182
▁Provided	-12183
▁Redskins	-12184
▁Republic	-12185
▁Reverend	-12186
▁Romulans	-12187
▁Santiago	-12188
▁Slughorn	-12189
▁Somerset	-12190
▁Sticking	-12191
▁Sundance	-12192
▁Superior	-12193
▁Thinking	-12194
▁Thorough	-12195
▁Thorwald	-12196
▁Vesuvius	-12197
▁Volstead	-12198
▁Wheeling	-12199
ahl	-12200
ahar	-12201
cogn	-12202
inah	-12203
▁Kah	-12204
▁Nah	-12205
▁gym	-12206
Steag	-12207
alyst	-12208
awler	-12209
exron	-12210
ldron	-12211
▁Rahl	-12212
▁Sacr	-12213
▁TARP	-12214
▁macr	-12215
cogniz	-12216
ognise	-12217
▁Dinah	-12218
▁Mahar	-12219
▁exerc	-12220
auldron	-12221
ripping	-12222
severed	-12223
▁Dexron	-12224
▁Johnny	-12225
▁Regens	-12226
▁inaled	-12227
▁kidney	-12228
▁macrom	-12229
▁patron	-12230
▁submit	-12231
▁triple	-12232
▁weaken	-12233
Steagall	-12234
recogniz	-12235
▁Addario	-12236
▁Kahless	-12237
▁Stuffed	-12238
▁billing	-12239
▁capabil	-12240
▁dipping	-12241
▁reconst	-12242
▁revered	-12243
▁simpler	-12244
▁trawler	-12245
▁absolute	-12246
▁accusing	-12247
▁actively	-12248
▁administ	-12249
▁adoption	-12250
▁airwaves	-12251
▁altruism	-12252
▁ammonium	-12253
▁analysed	-12254
▁analyzed	-12255
▁analyzes	-12256
▁anthemic	-12257
▁appetite	-12258
▁applause	-12259
▁archetyp	-12260
▁argument	-12261
▁aromatic	-12262
▁assigned	-12263
▁assuming	-12264
▁attempts	-12265
▁attitude	-12266
▁attracts	-12267
▁backyard	-12268
▁bailouts	-12269
▁balances	-12270
▁banished	-12271
▁banquets	-12272
▁barricad	-12273
▁bartered	-12274
▁battling	-12275
▁beckoned	-12276
▁bedrooms	-12277
▁behaving	-12278
▁betrayal	-12279
▁betrayed	-12280
▁blesseth	-12281
▁bouquets	-12282
▁bracelet	-12283
▁breathed	-12284
▁brighter	-12285
▁brocades	-12286
▁burglary	-12287
▁buttinsk	-12288
▁cadavers	-12289
▁capacity	-12290
▁captives	-12291
▁caresses	-12292
▁carotide	-12293
▁catalyst	-12294
▁cauldron	-12295
▁cerulean	-12296
▁chanteys	-12297
▁charting	-12298
▁chirping	-12299
!".	-12300
evy	-12301
argo	-12302
evol	-12303
▁Seg	-12304
▁Sev	-12305
▁ego	-12306
affet	-12307
affin	-12308
ctica	-12309
lucky	-12310
princ	-12311
wheel	-12312
▁Bayl	-12313
▁Froy	-12314
▁Levy	-12315
▁Vinc	-12316
▁ecch	-12317
▁logo	-12318
▁necr	-12319
▁raff	-12320
affeta	-12321
animal	-12322
hfully	-12323
making	-12324
oction	-12325
▁Daven	-12326
▁Fargo	-12327
▁Genev	-12328
▁Georg	-12329
▁Olive	-12330
▁Revol	-12331
▁affin	-12332
▁alias	-12333
▁dimin	-12334
▁godaw	-12335
▁hairy	-12336
▁infat	-12337
▁medev	-12338
▁pport	-12339
Unlucky	-12340
inction	-12341
lishmen	-12342
porated	-12343
wheeler	-12344
▁Genevi	-12345
▁Making	-12346
▁Sevent	-12347
▁baking	-12348
▁bookst	-12349
▁candid	-12350
▁ecchym	-12351
▁infant	-12352
▁negate	-12353
▁prayer	-12354
▁prayin	-12355
▁ratios	-12356
▁slayer	-12357
▁swears	-12358
iginated	-12359
iminated	-12360
whatever	-12361
▁Bayliss	-12362
▁Indones	-12363
▁Vincent	-12364
▁advance	-12365
▁coaches	-12366
▁devices	-12367
▁ignored	-12368
▁intends	-12369
▁medevac	-12370
▁offices	-12371
▁raffled	-12372
▁taffeta	-12373
▁worries	-12374
ittsburgh	-12375
nglishmen	-12376
orporated	-12377
▁Georgine	-12378
▁affinity	-12379
▁chlorine	-12380
▁circuits	-12381
▁citation	-12382
▁clicking	-12383
▁clipping	-12384
▁cloaking	-12385
▁clubbing	-12386
▁comforts	-12387
▁commerci	-12388
▁contacts	-12389
▁contests	-12390
▁converse	-12391
▁corroded	-12392
▁corvette	-12393
▁crackpot	-12394
▁critical	-12395
▁cruisers	-12396
▁crumbles	-12397
▁customer	-12398
▁daylight	-12399
syri	-12400
▁12?	-12401
▁Exc	-12402
▁McK	-12403
olksw	-12404
olumn	-12405
riend	-12406
utumn	-12407
▁1200	-12408
▁Dump	-12409
▁Matt	-12410
▁angi	-12411
▁darn	-12412
▁digs	-12413
▁pump	-12414
▁vein	-12415
▁veto	-12416
augham	-12417
column	-12418
errace	-12419
inchis	-12420
isrupt	-12421
riever	-12422
▁Bills	-12423
▁Bones	-12424
▁Exter	-12425
▁Feels	-12426
▁Golem	-12427
▁Laugh	-12428
▁McKay	-12429
▁clump	-12430
▁digit	-12431
▁faded	-12432
▁parch	-12433
▁potty	-12434
▁satyr	-12435
attract	-12436
fortune	-12437
syrians	-12438
▁Excuse	-12439
▁Merlin	-12440
▁Stupid	-12441
▁Volksw	-12442
▁angers	-12443
▁angiom	-12444
▁armies	-12445
▁bushel	-12446
▁daring	-12447
▁denial	-12448
▁fleece	-12449
▁fliers	-12450
▁parish	-12451
▁potass	-12452
▁potion	-12453
eathered	-12454
▁Disrupt	-12455
▁Hinchis	-12456
▁Maugham	-12457
▁Sending	-12458
▁Terrace	-12459
▁glances	-12460
▁sensual	-12461
feathered	-12462
operation	-12463
▁Dumpster	-12464
▁External	-12465
▁Islamist	-12466
▁Laughing	-12467
▁analysts	-12468
▁angiomas	-12469
▁creepier	-12470
▁creeping	-12471
▁deafness	-12472
▁deathbed	-12473
▁debating	-12474
▁deceived	-12475
▁deciding	-12476
▁declared	-12477
▁decompos	-12478
▁deletion	-12479
▁denounce	-12480
▁departed	-12481
▁deployed	-12482
▁deprived	-12483
▁deranged	-12484
▁deserted	-12485
▁develops	-12486
▁diabetes	-12487
▁dinosaur	-12488
▁displays	-12489
▁distinct	-12490
▁dividing	-12491
▁doggedly	-12492
▁dominant	-12493
▁dramatic	-12494
▁dripping	-12495
▁ecstatic	-12496
▁elegance	-12497
▁elephant	-12498
▁employee	-12499
bury	-12500
gold	-12501
isma	-12502
nold	-12503
▁zub	-12504
anean	-12505
erior	-12506
erism	-12507
iency	-12508
nette	-12509
throp	-12510
▁Aunt	-12511
▁Hold	-12512
▁Madd	-12513
▁Ryan	-12514
▁Sadd	-12515
▁Shad	-12516
▁Shav	-12517
▁cunt	-12518
▁mutt	-12519
adelph	-12520
agency	-12521
aneous	-12522
idency	-12523
length	-12524
merman	-12525
neighb	-12526
ompany	-12527
▁Bened	-12528
▁Shady	-12529
▁Shank	-12530
▁Shavu	-12531
▁Shell	-12532
▁ambig	-12533
▁jacks	-12534
▁ruled	-12535
▁sonny	-12536
▁sucky	-12537
▁unman	-12538
▁zubri	-12539
anthrop	-12540
arkened	-12541
drowned	-12542
heriffs	-12543
iciency	-12544
learned	-12545
ropical	-12546
umerism	-12547
▁Arnold	-12548
▁Kareem	-12549
▁Maddox	-12550
▁Prince	-12551
▁Saddam	-12552
▁Shadow	-12553
▁cartil	-12554
▁grandk	-12555
▁iceber	-12556
▁incubi	-12557
▁nerves	-12558
▁staten	-12559
Sheriffs	-12560
adelphia	-12561
immerman	-12562
possible	-12563
tropical	-12564
▁Lynette	-12565
▁Newbury	-12566
▁Shankar	-12567
▁Shavuot	-12568
▁decency	-12569
▁iceberg	-12570
▁pasture	-12571
▁pathway	-12572
▁privile	-12573
▁squirre	-12574
▁statute	-12575
▁zubrium	-12576
mpossible	-12577
neighbors	-12578
▁Benedick	-12579
▁buttoned	-12580
▁charisma	-12581
▁concieve	-12582
▁deterior	-12583
▁educated	-12584
▁engaging	-12585
▁enslaved	-12586
▁entitled	-12587
▁entrance	-12588
▁envelops	-12589
▁equality	-12590
▁equipped	-12591
▁escaping	-12592
▁examiner	-12593
▁exceeded	-12594
▁exciting	-12595
▁expanded	-12596
▁external	-12597
▁extremes	-12598
▁faithful	-12599
hyx	-12600
mma	-12601
lobs	-12602
ltra	-12603
phyx	-12604
zyme	-12605
▁Shh	-12606
Hanks	-12607
breed	-12608
elunk	-12609
germe	-12610
olina	-12611
parin	-12612
umann	-12613
▁Bray	-12614
▁Emma	-12615
▁Pros	-12616
▁halt	-12617
▁ills	-12618
▁imme	-12619
▁juic	-12620
ardner	-12621
haping	-12622
rgerme	-12623
▁Brick	-12624
▁Prost	-12625
▁Starf	-12626
▁Ultra	-12627
▁crabs	-12628
▁creme	-12629
▁excav	-12630
▁excus	-12631
▁hangs	-12632
▁inner	-12633
▁juicy	-12634
▁slobs	-12635
Gardner	-12636
▁Molina	-12637
▁Proved	-12638
▁arrang	-12639
▁asphyx	-12640
▁bypass	-12641
▁diesel	-12642
▁enzyme	-12643
▁excret	-12644
▁spiced	-12645
elunking	-12646
uralized	-12647
▁Congrat	-12648
▁Freddie	-12649
▁Prosper	-12650
▁Rhumann	-12651
▁Starfle	-12652
▁apprent	-12653
▁budgets	-12654
▁coustea	-12655
▁endgame	-12656
▁excuses	-12657
▁hangers	-12658
▁heparin	-12659
▁natives	-12660
▁portion	-12661
▁teacher	-12662
▁uniting	-12663
▁comments	-12664
▁evolving	-12665
▁excretes	-12666
▁feathers	-12667
▁ferrying	-12668
▁ferrymen	-12669
▁folklore	-12670
▁forcibly	-12671
▁forsaken	-12672
▁fragment	-12673
▁freakish	-12674
▁freezers	-12675
▁frelling	-12676
▁gangrene	-12677
▁gestates	-12678
▁gleaning	-12679
▁glimpses	-12680
▁glooming	-12681
▁gracious	-12682
▁grandmas	-12683
▁grenades	-12684
▁grooming	-12685
▁gunshots	-12686
▁hallucin	-12687
▁haunting	-12688
▁hegemony	-12689
▁historic	-12690
▁hoarding	-12691
▁hoisting	-12692
▁homesick	-12693
▁homicide	-12694
▁horizont	-12695
▁hormonal	-12696
▁hothouse	-12697
▁hotshots	-12698
▁humoured	-12699
ugo	-12700
coid	-12701
eked	-12702
iked	-12703
▁Bug	-12704
amole	-12705
dolly	-12706
faced	-12707
riole	-12708
rokes	-12709
ucify	-12710
▁Halo	-12711
▁Hugo	-12712
▁drew	-12713
arcoid	-12714
ischer	-12715
powers	-12716
riolet	-12717
rucify	-12718
uaries	-12719
ullify	-12720
▁Asked	-12721
▁Bunch	-12722
▁Stars	-12723
▁aeked	-12724
▁bears	-12725
▁fraks	-12726
▁lager	-12727
▁liars	-12728
▁madam	-12729
▁paddy	-12730
▁patch	-12731
▁sixth	-12732
▁totin	-12733
▁visas	-12734
Crucify	-12735
acamole	-12736
sarcoid	-12737
▁Mashed	-12738
▁chokes	-12739
▁cooled	-12740
▁dearly	-12741
▁labour	-12742
▁losses	-12743
▁patent	-12744
▁peaced	-12745
▁richer	-12746
▁riches	-12747
▁slowed	-12748
▁spiked	-12749
▁Already	-12750
▁Fischer	-12751
▁Neither	-12752
▁Runners	-12753
▁Strokes	-12754
▁cleanly	-12755
▁energet	-12756
▁justify	-12757
▁locator	-12758
▁madness	-12759
▁nullify	-12760
▁profits	-12761
▁radical	-12762
▁signify	-12763
▁stormed	-12764
bsolutely	-12765
▁Holiness	-12766
▁approved	-12767
▁benefact	-12768
▁claiming	-12769
▁emission	-12770
▁footings	-12771
▁hydrocar	-12772
▁hydrogel	-12773
▁imminent	-12774
▁immortal	-12775
▁implants	-12776
▁improved	-12777
▁incompat	-12778
▁inducing	-12779
▁infantry	-12780
▁infectiv	-12781
▁inflamed	-12782
▁insanely	-12783
▁instills	-12784
▁insulted	-12785
▁intimate	-12786
▁irrevers	-12787
▁jeopardy	-12788
▁jibsheet	-12789
▁landmark	-12790
▁latitude	-12791
▁launches	-12792
▁lawsuits	-12793
▁leafless	-12794
▁learners	-12795
▁lecturer	-12796
▁lesbians	-12797
▁liberate	-12798
▁licensed	-12799
Abra	-12800
cony	-12801
drip	-12802
food	-12803
forg	-12804
rift	-12805
▁10.	-12806
▁50.	-12807
enegg	-12808
grams	-12809
lined	-12810
odern	-12811
▁Arms	-12812
▁Work	-12813
▁pork	-12814
belief	-12815
forgiv	-12816
ileged	-12817
lemond	-12818
oodbye	-12819
udding	-12820
zenegg	-12821
▁Armer	-12822
▁Arrow	-12823
▁Denis	-12824
▁Marge	-12825
▁Marie	-12826
▁artis	-12827
▁spinn	-12828
▁swift	-12829
▁tweak	-12830
▁twins	-12831
▁twits	-12832
Abraham	-12833
Goodbye	-12834
alified	-12835
forward	-12836
lemonds	-12837
vileged	-12838
▁Around	-12839
▁Awards	-12840
▁Deadly	-12841
▁Modern	-12842
▁Social	-12843
▁adrift	-12844
▁biting	-12845
▁bitter	-12846
▁bobbin	-12847
▁distri	-12848
▁merged	-12849
▁orchid	-12850
▁shined	-12851
▁trustw	-12852
▁twists	-12853
▁voting	-12854
essional	-12855
ompanies	-12856
zenegger	-12857
▁Armeror	-12858
▁Workers	-12859
▁balcony	-12860
▁creases	-12861
▁deified	-12862
▁filling	-12863
▁legible	-12864
▁legions	-12865
▁locally	-12866
▁napkins	-12867
▁pudding	-12868
▁swiftly	-12869
▁trustee	-12870
epression	-12871
fessional	-12872
qualified	-12873
rivileged	-12874
▁Clemonds	-12875
▁artisans	-12876
▁lifetime	-12877
▁loathing	-12878
▁lobbying	-12879
▁lobsters	-12880
▁madhouse	-12881
▁massages	-12882
▁milliona	-12883
▁minerals	-12884
▁mobilize	-12885
▁molecule	-12886
▁monarchy	-12887
▁monitors	-12888
▁monoxide	-12889
▁monsters	-12890
▁morality	-12891
▁mudflats	-12892
▁necrosis	-12893
▁newscast	-12894
▁noblemen	-12895
▁nuisance	-12896
▁nurtured	-12897
▁nutrient	-12898
▁occasion	-12899
boi	-12900
boo	-12901
amaj	-12902
erde	-12903
ypse	-12904
▁Bru	-12905
▁Eco	-12906
▁Kaj	-12907
Cosmo	-12908
Girls	-12909
Teach	-12910
amboo	-12911
arrin	-12912
arris	-12913
faces	-12914
hinos	-12915
roboi	-12916
utton	-12917
vetic	-12918
▁Narr	-12919
▁Parr	-12920
▁cues	-12921
▁irls	-12922
amajig	-12923
forget	-12924
holder	-12925
ichton	-12926
varies	-12927
vetica	-12928
▁Brule	-12929
▁Verde	-12930
▁rearr	-12931
▁ticks	-12932
▁Brulee	-12933
▁Darrin	-12934
▁Kajava	-12935
▁Karris	-12936
▁Valley	-12937
▁awards	-12938
▁bamboo	-12939
▁boston	-12940
▁futile	-12941
▁graces	-12942
▁honors	-12943
▁improv	-12944
▁rhinos	-12945
▁sleepy	-12946
▁unseat	-12947
▁Parrish	-12948
▁choking	-12949
▁experim	-12950
▁forming	-12951
▁glutton	-12952
▁goodfor	-12953
▁magical	-12954
▁opposed	-12955
▁ovaries	-12956
▁penance	-12957
▁reapply	-12958
▁tissues	-12959
▁utility	-12960
▁Crichton	-12961
▁astroboi	-12962
▁chastity	-12963
▁disrupts	-12964
▁fortress	-12965
▁gunsling	-12966
▁occurand	-12967
▁operated	-12968
▁operates	-12969
▁organism	-12970
▁outbreak	-12971
▁outlasts	-12972
▁overcoat	-12973
▁overcomp	-12974
▁overtime	-12975
▁palpable	-12976
▁pancreas	-12977
▁panicked	-12978
▁paraffin	-12979
▁parishes	-12980
▁particle	-12981
▁password	-12982
▁peculiar	-12983
▁pentagon	-12984
▁performs	-12985
▁petition	-12986
▁piercing	-12987
▁pilgrims	-12988
▁politely	-12989
▁politics	-12990
▁polluted	-12991
▁portions	-12992
▁premiums	-12993
▁prevents	-12994
▁primates	-12995
▁printout	-12996
▁prisoner	-12997
▁procurer	-12998
▁profound	-12999
aith	-13000
oats	-13001
▁Ark	-13002
▁Gae	-13003
▁vel	-13004
aphic	-13005
cakes	-13006
oised	-13007
ossil	-13008
▁Loss	-13009
▁Pern	-13010
▁Peru	-13011
▁Pole	-13012
avages	-13013
fident	-13014
flower	-13015
omised	-13016
orries	-13017
ossils	-13018
poised	-13019
restle	-13020
thesis	-13021
velope	-13022
verest	-13023
▁Chief	-13024
▁Monom	-13025
▁Nikki	-13026
▁boats	-13027
▁dolls	-13028
▁dozen	-13029
▁elude	-13030
▁freer	-13031
▁grief	-13032
▁holog	-13033
▁joint	-13034
▁novel	-13035
▁pipes	-13036
▁progn	-13037
▁ranch	-13038
▁redee	-13039
▁regul	-13040
▁rocky	-13041
▁squat	-13042
▁velve	-13043
aithful	-13044
idently	-13045
ologies	-13046
retonin	-13047
savages	-13048
ticoats	-13049
▁Arkans	-13050
▁Claire	-13051
▁Inside	-13052
▁Pernod	-13053
▁Yussef	-13054
▁adding	-13055
▁bodygu	-13056
▁floats	-13057
▁regime	-13058
▁regrow	-13059
▁relief	-13060
▁singer	-13061
▁stewed	-13062
▁upside	-13063
▁velvet	-13064
▁Compton	-13065
▁Monomoy	-13066
▁Theolog	-13067
▁damages	-13068
▁flipped	-13069
▁fossils	-13070
▁garages	-13071
▁graphic	-13072
▁hungers	-13073
▁lorries	-13074
▁physics	-13075
▁quieter	-13076
▁regions	-13077
▁singing	-13078
▁wrestle	-13079
▁Arkansas	-13080
▁Champion	-13081
▁Promised	-13082
▁Theologi	-13083
▁arrogant	-13084
▁brightly	-13085
▁cupcakes	-13086
▁envelope	-13087
▁lustrous	-13088
▁persists	-13089
▁prophecy	-13090
▁prosecut	-13091
▁province	-13092
▁pummeled	-13093
▁punishes	-13094
▁purified	-13095
▁pyramids	-13096
▁quantity	-13097
▁quitting	-13098
▁radicals	-13099
hyl	-13100
bari	-13101
chek	-13102
empl	-13103
erof	-13104
play	-13105
plen	-13106
shap	-13107
zels	-13108
▁rpm	-13109
shell	-13110
shire	-13111
zards	-13112
▁Ansh	-13113
▁Rhyl	-13114
▁devi	-13115
▁maim	-13116
▁popc	-13117
▁virg	-13118
flight	-13119
isoned	-13120
plains	-13121
plated	-13122
shaped	-13123
▁Aerof	-13124
▁Anshu	-13125
▁Hanna	-13126
▁Hidal	-13127
▁Lucky	-13128
▁Music	-13129
▁Splen	-13130
▁curve	-13131
▁devot	-13132
▁evils	-13133
▁foods	-13134
▁popul	-13135
▁purch	-13136
▁whisk	-13137
andards	-13138
emplary	-13139
isoners	-13140
▁Hannah	-13141
▁blindf	-13142
▁causal	-13143
▁curren	-13144
▁curric	-13145
▁curves	-13146
▁devout	-13147
▁sickly	-13148
▁sleepw	-13149
▁volume	-13150
ampshire	-13151
ormously	-13152
▁African	-13153
▁Hidalgo	-13154
▁Marchek	-13155
▁Minbari	-13156
▁ballast	-13157
▁blister	-13158
▁boister	-13159
▁buffalo	-13160
▁chafing	-13161
▁curious	-13162
▁deepest	-13163
▁dislike	-13164
▁emptied	-13165
▁excused	-13166
▁gunplay	-13167
▁insider	-13168
▁lizards	-13169
▁popcorn	-13170
▁virgins	-13171
▁Aeroflex	-13172
▁Explains	-13173
▁Marciano	-13174
▁Splenect	-13175
▁blockers	-13176
▁creaming	-13177
▁currency	-13178
▁curricul	-13179
▁deviants	-13180
▁devotion	-13181
▁devoutly	-13182
▁nutshell	-13183
▁populace	-13184
▁pretzels	-13185
▁purchase	-13186
▁railroad	-13187
▁railways	-13188
▁rattlesn	-13189
▁rattling	-13190
▁receives	-13191
▁recesses	-13192
▁reckless	-13193
▁recorder	-13194
▁recycled	-13195
▁redeemed	-13196
▁redlines	-13197
▁refilled	-13198
▁reflects	-13199
aurs	-13200
Maybe	-13201
cules	-13202
iator	-13203
▁Troy	-13204
▁joke	-13205
anched	-13206
astric	-13207
atroop	-13208
llians	-13209
ricide	-13210
▁Merri	-13211
▁Seoul	-13212
▁deplo	-13213
▁evoke	-13214
▁gator	-13215
▁hello	-13216
▁ripen	-13217
▁units	-13218
earched	-13219
ellular	-13220
iguring	-13221
isional	-13222
landish	-13223
ographs	-13224
version	-13225
▁Arroyo	-13226
▁Merrik	-13227
▁cabins	-13228
▁chutes	-13229
▁covers	-13230
▁depict	-13231
▁driest	-13232
▁frames	-13233
▁guided	-13234
▁inland	-13235
▁lovers	-13236
▁messed	-13237
▁movers	-13238
▁respec	-13239
▁sleeve	-13240
▁touchy	-13241
figuring	-13242
olecules	-13243
▁categor	-13244
▁earthqu	-13245
▁gastric	-13246
▁messier	-13247
▁messing	-13248
▁nearing	-13249
▁timbers	-13250
arellians	-13251
atroopers	-13252
▁Cellular	-13253
▁branched	-13254
▁depicted	-13255
▁detected	-13256
▁mattered	-13257
▁melodies	-13258
▁perverse	-13259
▁radiator	-13260
▁realizes	-13261
▁reminisc	-13262
▁requests	-13263
▁reserved	-13264
▁residual	-13265
▁resigned	-13266
▁restrict	-13267
▁reunions	-13268
▁revolver	-13269
▁rubbings	-13270
▁runabout	-13271
▁salamand	-13272
▁sanitary	-13273
▁sciences	-13274
▁scramble	-13275
▁searched	-13276
▁sections	-13277
▁seedling	-13278
▁seminary	-13279
▁shipping	-13280
▁shouting	-13281
▁shutting	-13282
▁sighting	-13283
▁sinister	-13284
▁slamming	-13285
▁slashing	-13286
▁softball	-13287
▁spacious	-13288
▁spawning	-13289
▁squirrel	-13290
▁stalking	-13291
▁stallion	-13292
▁starfish	-13293
▁starship	-13294
▁stealing	-13295
▁stirring	-13296
▁stocking	-13297
▁strapped	-13298
▁strategy	-13299
noc	-13300
code	-13301
eeds	-13302
emoc	-13303
lery	-13304
ocol	-13305
ocus	-13306
rode	-13307
▁Bax	-13308
▁Max	-13309
▁voc	-13310
1,000	-13311
ipeds	-13312
lliot	-13313
racts	-13314
▁Earl	-13315
▁Feds	-13316
▁Herb	-13317
▁Keds	-13318
▁coax	-13319
▁judg	-13320
▁papa	-13321
▁pepp	-13322
▁rags	-13323
▁subs	-13324
aginas	-13325
attern	-13326
ermaid	-13327
liness	-13328
▁Byron	-13329
▁Focus	-13330
▁Human	-13331
▁Innoc	-13332
▁Iraqi	-13333
▁Maxim	-13334
▁batch	-13335
▁defic	-13336
▁defro	-13337
▁drama	-13338
▁kemoc	-13339
▁plaid	-13340
▁refin	-13341
▁subur	-13342
▁trell	-13343
▁tremb	-13344
staking	-13345
sunrise	-13346
▁Baxter	-13347
▁Elliot	-13348
▁Faster	-13349
▁Herbie	-13350
▁aching	-13351
▁bipeds	-13352
▁chairs	-13353
▁clanks	-13354
▁dragon	-13355
▁papier	-13356
▁repaid	-13357
▁speeds	-13358
▁strung	-13359
▁tricky	-13360
▁vocals	-13361
▁yatter	-13362
fortable	-13363
sylvania	-13364
▁Mermaid	-13365
▁Pattern	-13366
▁coaxing	-13367
▁cutlery	-13368
▁defence	-13369
▁defrost	-13370
▁defused	-13371
▁painted	-13372
▁plaster	-13373
▁simplic	-13374
▁spatter	-13375
▁suburbs	-13376
▁travels	-13377
▁treason	-13378
▁trellis	-13379
▁vacated	-13380
▁vaginas	-13381
iveliness	-13382
▁Christop	-13383
▁cleverly	-13384
▁judgment	-13385
▁kemocite	-13386
▁monaster	-13387
▁ordering	-13388
▁overrode	-13389
▁peppered	-13390
▁protocol	-13391
▁retracts	-13392
▁suitable	-13393
▁supports	-13394
▁taxiderm	-13395
▁teaching	-13396
▁tempting	-13397
▁thatched	-13398
▁theories	-13399
Cher	-13400
bomb	-13401
bral	-13402
cops	-13403
hero	-13404
plug	-13405
▁Rei	-13406
▁bio	-13407
brain	-13408
brout	-13409
ombay	-13410
▁Cops	-13411
▁Echo	-13412
▁Into	-13413
▁Penn	-13414
▁Safe	-13415
▁burk	-13416
▁horl	-13417
▁pops	-13418
Cherry	-13419
brainw	-13420
itched	-13421
tables	-13422
tained	-13423
ummify	-13424
▁Carab	-13425
▁abund	-13426
▁avows	-13427
▁blund	-13428
▁indel	-13429
▁indig	-13430
▁inher	-13431
▁kilow	-13432
▁locom	-13433
▁newsw	-13434
ignific	-13435
istants	-13436
pitched	-13437
▁Anyone	-13438
▁Bombay	-13439
▁Seeing	-13440
▁buries	-13441
▁burkas	-13442
▁clears	-13443
▁clerks	-13444
▁giants	-13445
▁humbly	-13446
▁learnt	-13447
▁presum	-13448
▁treaty	-13449
▁unders	-13450
▁unplug	-13451
although	-13452
▁Carabin	-13453
▁Scaring	-13454
▁designs	-13455
▁enhance	-13456
▁enslave	-13457
▁kilowat	-13458
▁locomot	-13459
▁monthly	-13460
▁mummify	-13461
▁subrout	-13462
▁undersc	-13463
brainwash	-13464
ification	-13465
▁Safehold	-13466
▁assembly	-13467
▁blunders	-13468
▁cerebral	-13469
▁desserts	-13470
▁detained	-13471
▁horlicks	-13472
▁indigest	-13473
▁obtained	-13474
▁standard	-13475
▁thermost	-13476
▁tolerate	-13477
▁tomatoes	-13478
▁torments	-13479
▁training	-13480
▁transluc	-13481
▁transpor	-13482
▁treasure	-13483
▁trespass	-13484
▁tretonin	-13485
▁trickery	-13486
▁trusting	-13487
▁ugliness	-13488
▁unburied	-13489
▁unfairly	-13490
▁unforgiv	-13491
▁unharmed	-13492
▁unseemly	-13493
▁utilized	-13494
▁variance	-13495
▁violated	-13496
▁violates	-13497
▁virulent	-13498
▁warnings	-13499
▁3,	-13500
Viet	-13501
hnat	-13502
iece	-13503
oups	-13504
psom	-13505
▁Ivy	-13506
caste	-13507
enned	-13508
ietch	-13509
maybe	-13510
ploma	-13511
quiet	-13512
tedly	-13513
unned	-13514
▁Anci	-13515
▁tops	-13516
bserve	-13517
ennedy	-13518
hnaton	-13519
readed	-13520
rupted	-13521
▁Cream	-13522
▁Epsom	-13523
▁Peggy	-13524
▁awash	-13525
▁cagey	-13526
▁grail	-13527
▁pubes	-13528
▁pubic	-13529
▁shops	-13530
othered	-13531
ropolis	-13532
▁Warlow	-13533
▁canned	-13534
▁conflu	-13535
▁embass	-13536
▁fights	-13537
▁flyers	-13538
▁groups	-13539
▁incogn	-13540
▁luxury	-13541
▁pedest	-13542
▁quicks	-13543
▁sexist	-13544
▁sietch	-13545
isitions	-13546
quieting	-13547
▁Airport	-13548
▁Kennedy	-13549
▁Lycaste	-13550
▁Observe	-13551
▁custody	-13552
▁diploma	-13553
▁embassy	-13554
▁enforce	-13555
▁fuelled	-13556
▁scented	-13557
▁shunned	-13558
▁stickin	-13559
▁wishing	-13560
▁Akhnaton	-13561
▁Ancients	-13562
▁flashing	-13563
▁incognit	-13564
▁informed	-13565
▁pedestal	-13566
▁smelling	-13567
▁threaded	-13568
▁warranty	-13569
▁waveleng	-13570
▁welcomed	-13571
▁wheezing	-13572
▁withdraw	-13573
▁withdrew	-13574
▁wondrous	-13575
▁workload	-13576
▁worldcup	-13577
▁zigzaggy	-13578
Depression	-13579
Vietnamese	-13580
andemonium	-13581
anthropist	-13582
ashionable	-13583
aturalized	-13584
challenged	-13585
chizophren	-13586
escribable	-13587
government	-13588
illusioned	-13589
latecarpus	-13590
millimeter	-13591
omandatory	-13592
ophosphate	-13593
osexuality	-13594
privileged	-13595
rospective	-13596
scientists	-13597
scriptions	-13598
tinguished	-13599
tox	-13600
bots	-13601
otto	-13602
warm	-13603
▁103	-13604
Sweet	-13605
armac	-13606
armon	-13607
berto	-13608
ccino	-13609
gized	-13610
icole	-13611
irdly	-13612
nized	-13613
nster	-13614
sharp	-13615
sterd	-13616
toxic	-13617
▁103.	-13618
▁Fran	-13619
▁alto	-13620
▁barb	-13621
▁dots	-13622
▁owls	-13623
▁rape	-13624
arming	-13625
icized	-13626
izards	-13627
kewarm	-13628
omized	-13629
robots	-13630
uccino	-13631
▁Ducky	-13632
▁Franz	-13633
▁Lotto	-13634
▁barri	-13635
▁barry	-13636
▁dames	-13637
▁disco	-13638
▁drape	-13639
▁greed	-13640
▁latex	-13641
▁rides	-13642
▁satin	-13643
orching	-13644
spitals	-13645
sterdam	-13646
▁Franzi	-13647
▁Fright	-13648
▁Harmon	-13649
▁Nicole	-13650
▁Temple	-13651
▁bigots	-13652
▁brides	-13653
▁broker	-13654
▁lesser	-13655
▁outlaw	-13656
▁seized	-13657
▁serums	-13658
▁shoots	-13659
▁snores	-13660
▁tarmac	-13661
▁tipped	-13662
▁Alberto	-13663
▁Weirdly	-13664
▁Wizards	-13665
▁barbell	-13666
▁damning	-13667
▁permits	-13668
▁sinners	-13669
▁transce	-13670
appuccino	-13671
hospitals	-13672
▁Badaboum	-13673
▁Charming	-13674
▁Eurasian	-13675
▁Romantic	-13676
▁arriving	-13677
▁barriers	-13678
▁guessing	-13679
▁homeland	-13680
▁lukewarm	-13681
▁metaphor	-13682
▁outlawed	-13683
▁returnee	-13684
▁Airplanes	-13685
▁Amazingly	-13686
▁Amsterdam	-13687
▁Annapolis	-13688
▁Apologize	-13689
▁Assyrians	-13690
▁Authority	-13691
▁Baltimore	-13692
▁Believing	-13693
▁Berthiers	-13694
▁Canadians	-13695
▁Catalogue	-13696
▁Christine	-13697
▁Commander	-13698
▁Communism	-13699
Loy	-13700
▁iP	-13701
Head	-13702
dead	-13703
irds	-13704
pray	-13705
zler	-13706
accid	-13707
anyon	-13708
bikes	-13709
ottes	-13710
ouche	-13711
pract	-13712
rapes	-13713
zzler	-13714
▁Film	-13715
▁Goth	-13716
▁Read	-13717
▁Sept	-13718
▁Toys	-13719
▁Verm	-13720
▁derm	-13721
▁font	-13722
▁shpr	-13723
Headqu	-13724
anship	-13725
asized	-13726
cierge	-13727
cloped	-13728
ermite	-13729
orship	-13730
thirds	-13731
▁Brook	-13732
▁DeLoy	-13733
▁Third	-13734
▁fucky	-13735
▁stead	-13736
ledging	-13737
manship	-13738
ycloped	-13739
▁Canyon	-13740
▁Cottes	-13741
▁Elaine	-13742
▁Gotham	-13743
▁Govern	-13744
▁Grapes	-13745
▁Greend	-13746
▁bankro	-13747
▁colise	-13748
▁decept	-13749
▁dermat	-13750
▁douche	-13751
▁fucker	-13752
▁iPhone	-13753
▁jacked	-13754
▁linger	-13755
▁posses	-13756
▁propul	-13757
▁shprit	-13758
▁stared	-13759
▁unable	-13760
▁voters	-13761
▁wedged	-13762
imension	-13763
interest	-13764
oncierge	-13765
▁Brookly	-13766
▁Vermont	-13767
▁bankers	-13768
▁convinc	-13769
▁flaccid	-13770
▁guzzler	-13771
▁inished	-13772
▁pickers	-13773
▁shpritz	-13774
▁theater	-13775
▁unpract	-13776
astasized	-13777
concierge	-13778
dimension	-13779
onsorship	-13780
▁Brooklyn	-13781
▁Governor	-13782
▁Thermite	-13783
▁activity	-13784
▁bankroll	-13785
▁coliseum	-13786
▁dangling	-13787
▁galaxies	-13788
▁pickings	-13789
▁probable	-13790
▁refusing	-13791
▁steadily	-13792
▁symbolic	-13793
yclopedias	-13794
▁Companies	-13795
▁Confident	-13796
▁Consuming	-13797
▁Deducting	-13798
▁Democrats	-13799
▁4-	-13800
azes	-13801
muff	-13802
odka	-13803
rins	-13804
ruff	-13805
▁Haz	-13806
▁Saz	-13807
▁Vaz	-13808
▁laz	-13809
ashop	-13810
kland	-13811
parta	-13812
polar	-13813
▁Bean	-13814
▁crab	-13815
▁craf	-13816
▁crem	-13817
▁demo	-13818
▁pimp	-13819
▁pins	-13820
Americ	-13821
ikazes	-13822
reader	-13823
rinski	-13824
▁babes	-13825
▁peopl	-13826
▁prote	-13827
▁quote	-13828
▁slime	-13829
▁studs	-13830
▁vodka	-13831
andruff	-13832
artians	-13833
muffins	-13834
▁Conver	-13835
▁Hazard	-13836
▁Moving	-13837
▁Sparta	-13838
▁Vazque	-13839
▁blades	-13840
▁bloodb	-13841
▁bloodh	-13842
▁chills	-13843
▁crafty	-13844
▁fellas	-13845
▁lazily	-13846
▁packet	-13847
▁specim	-13848
▁spinal	-13849
▁storyt	-13850
▁supern	-13851
amikazes	-13852
gyptians	-13853
▁Thereby	-13854
▁Vazquez	-13855
▁blooded	-13856
▁catered	-13857
▁craving	-13858
▁depress	-13859
▁hornier	-13860
▁teashop	-13861
Americans	-13862
Egyptians	-13863
ostrinski	-13864
▁Kirkland	-13865
▁coverage	-13866
▁cravings	-13867
▁cremated	-13868
▁dandruff	-13869
▁martians	-13870
▁proteins	-13871
▁Converted	-13872
▁Detention	-13873
▁Different	-13874
▁Dominican	-13875
▁Everytime	-13876
▁Excalibur	-13877
▁Gaugamela	-13878
▁Greendale	-13879
▁Guatemala	-13880
▁Halloween	-13881
▁Hampshire	-13882
▁Hawaiians	-13883
▁Helvetica	-13884
▁Hitchcock	-13885
▁Iiquefies	-13886
▁Innocence	-13887
▁Inventors	-13888
▁Knightley	-13889
▁Leningrad	-13890
▁Loyalists	-13891
▁Mangiapan	-13892
▁Massachus	-13893
▁McPherson	-13894
▁Microsoft	-13895
▁Millennia	-13896
▁Narrating	-13897
▁Neutrinos	-13898
▁Nonsexual	-13899
mbr	-13900
▁5,	-13901
▁5.	-13902
▁54	-13903
Lock	-13904
dock	-13905
ieri	-13906
kier	-13907
Locka	-13908
edges	-13909
fancy	-13910
grown	-13911
ierry	-13912
iolet	-13913
ocked	-13914
ornet	-13915
vines	-13916
wines	-13917
woman	-13918
▁cups	-13919
▁regr	-13920
▁snob	-13921
Bornet	-13922
health	-13923
itiled	-13924
nessed	-13925
▁Armbr	-13926
▁Broms	-13927
▁Corny	-13928
▁Docks	-13929
▁Eness	-13930
▁Major	-13931
▁River	-13932
▁await	-13933
▁cathe	-13934
▁caves	-13935
▁collo	-13936
▁disgr	-13937
▁filth	-13938
▁pines	-13939
▁snide	-13940
▁snuck	-13941
▁unacc	-13942
▁vines	-13943
▁wines	-13944
healthy	-13945
uincumb	-13946
▁Barnes	-13947
▁Bromsg	-13948
▁Doolan	-13949
▁caress	-13950
▁cavern	-13951
▁filmed	-13952
▁imposs	-13953
▁shorts	-13954
▁waiter	-13955
▁Enesser	-13956
▁Thierry	-13957
▁colloqu	-13958
▁farming	-13959
▁haddock	-13960
▁highest	-13961
▁lateral	-13962
▁murkier	-13963
▁pledges	-13964
▁regroup	-13965
▁setting	-13966
▁assassin	-13967
▁cherries	-13968
▁disgrace	-13969
▁downhill	-13970
▁hallways	-13971
▁hesitate	-13972
▁madwoman	-13973
▁sellable	-13974
▁traveler	-13975
uincumbent	-13976
▁Pakistani	-13977
▁Palestine	-13978
▁Pandorica	-13979
▁Peterburg	-13980
▁Photostat	-13981
▁Pinterest	-13982
▁Political	-13983
▁Prisoners	-13984
▁Professor	-13985
▁Recognise	-13986
▁Residents	-13987
▁Robertson	-13988
▁Rushlight	-13989
▁Sacrament	-13990
▁Sanderson	-13991
▁Sebastian	-13992
▁September	-13993
▁Seventeen	-13994
▁Standards	-13995
▁Starbucks	-13996
▁Starfleet	-13997
▁Stripping	-13998
▁Superhero	-13999
Sof	-14000
ixo	-14001
▁ii	-14002
athy	-14003
ifix	-14004
lair	-14005
regs	-14006
▁Coh	-14007
Sofia	-14008
alloy	-14009
perts	-14010
▁Been	-14011
▁Dogs	-14012
▁Gods	-14013
▁Proz	-14014
▁hogs	-14015
Italie	-14016
better	-14017
edient	-14018
ucifix	-14019
▁Cohen	-14020
▁Donny	-14021
▁Durst	-14022
▁Jason	-14023
▁Kathy	-14024
▁Mason	-14025
▁drags	-14026
▁dregs	-14027
▁flair	-14028
▁loath	-14029
▁meter	-14030
▁samba	-14031
▁scorn	-14032
▁sworn	-14033
gaments	-14034
inclair	-14035
tenance	-14036
▁Greely	-14037
▁Malloy	-14038
▁Prozac	-14039
▁alters	-14040
▁andiet	-14041
▁assign	-14042
▁biopsy	-14043
▁dealer	-14044
▁hostil	-14045
▁manual	-14046
▁metall	-14047
▁moored	-14048
▁mutual	-14049
▁saucer	-14050
▁servos	-14051
ffectual	-14052
obedient	-14053
▁Experts	-14054
▁Forward	-14055
▁assigns	-14056
▁chatter	-14057
▁circled	-14058
▁distast	-14059
▁hurting	-14060
▁interst	-14061
▁lapwing	-14062
▁readies	-14063
▁rituals	-14064
▁scorned	-14065
▁shotgun	-14066
effectual	-14067
ucifixion	-14068
▁Anderson	-14069
▁Sinclair	-14070
▁blinking	-14071
▁distaste	-14072
▁exposing	-14073
▁gleaners	-14074
▁metallic	-14075
▁raptures	-14076
▁thinness	-14077
▁transgen	-14078
▁watchful	-14079
▁Testament	-14080
▁Vladivost	-14081
▁Warehouse	-14082
▁abundance	-14083
▁acclaimed	-14084
▁accompany	-14085
▁activated	-14086
▁addiction	-14087
▁addictive	-14088
▁advertise	-14089
▁alcoholic	-14090
▁allowance	-14091
▁anomalies	-14092
▁anonymous	-14093
▁answering	-14094
▁anxieties	-14095
▁apathetic	-14096
▁apprehend	-14097
▁architect	-14098
▁arranging	-14099
tuc	-14100
Okay	-14101
ancs	-14102
drow	-14103
enda	-14104
etts	-14105
onts	-14106
rowe	-14107
yman	-14108
▁Guc	-14109
▁SID	-14110
▁Vac	-14111
▁Van	-14112
▁Vee	-14113
▁Von	-14114
▁Vos	-14115
encer	-14116
ganic	-14117
throw	-14118
tuces	-14119
▁Kids	-14120
▁Rita	-14121
▁Shaw	-14122
▁Vian	-14123
▁Vict	-14124
▁Vill	-14125
▁Vosk	-14126
▁Warn	-14127
▁airt	-14128
etries	-14129
geyman	-14130
ggling	-14131
ikings	-14132
irling	-14133
rowers	-14134
thlete	-14135
udenda	-14136
▁Crowe	-14137
▁Gucci	-14138
▁Marys	-14139
▁consp	-14140
▁grids	-14141
▁merch	-14142
▁urine	-14143
Vikings	-14144
angelic	-14145
dresses	-14146
endment	-14147
monella	-14148
organic	-14149
▁Vanity	-14150
▁Vianne	-14151
▁Victor	-14152
▁catchy	-14153
▁doorst	-14154
▁fourth	-14155
▁francs	-14156
▁fronts	-14157
▁furthe	-14158
▁growls	-14159
▁massac	-14160
▁penins	-14161
▁reborn	-14162
Napoleon	-14163
▁Growers	-14164
▁Petries	-14165
▁Spencer	-14166
▁Vacancy	-14167
▁Village	-14168
▁athlete	-14169
▁consist	-14170
▁conspir	-14171
▁consult	-14172
▁destrov	-14173
▁pudenda	-14174
▁replete	-14175
▁Cherokee	-14176
▁Somebody	-14177
▁airtight	-14178
▁bogeyman	-14179
▁doorstep	-14180
▁furthest	-14181
▁lettuces	-14182
▁lipstick	-14183
▁massacre	-14184
▁merchand	-14185
▁serviced	-14186
▁swirling	-14187
▁theirjob	-14188
▁wiggling	-14189
▁Somewhere	-14190
▁amendment	-14191
▁assaulted	-14192
▁asteroids	-14193
▁automatic	-14194
▁awareness	-14195
▁backpacks	-14196
▁bathrooms	-14197
▁befuddled	-14198
▁behaviors	-14199
31.	-14200
maf	-14201
ccan	-14202
oung	-14203
runk	-14204
affir	-14205
anian	-14206
isian	-14207
mafia	-14208
retel	-14209
rette	-14210
▁Crap	-14211
▁Fann	-14212
▁Shel	-14213
▁Shep	-14214
▁choc	-14215
▁chop	-14216
▁drau	-14217
▁glue	-14218
enches	-14219
gerian	-14220
isiana	-14221
member	-14222
reform	-14223
shrunk	-14224
veling	-14225
▁Gypsy	-14226
▁Shelb	-14227
▁choos	-14228
▁draft	-14229
▁eases	-14230
▁glows	-14231
▁mines	-14232
▁minus	-14233
▁retro	-14234
cerning	-14235
sisters	-14236
▁Choung	-14237
▁Fannie	-14238
▁Gretel	-14239
▁Nutter	-14240
▁Tancis	-14241
▁accuse	-14242
▁choosy	-14243
▁chores	-14244
▁parent	-14245
▁propag	-14246
▁rented	-14247
▁uneduc	-14248
omaville	-14249
remember	-14250
▁Shepher	-14251
▁atomies	-14252
▁builder	-14253
▁closest	-14254
▁closets	-14255
▁counted	-14256
▁draught	-14257
▁flooded	-14258
▁harvest	-14259
▁imports	-14260
▁incense	-14261
▁maximum	-14262
▁nearest	-14263
▁offense	-14264
affirming	-14265
▁Buranian	-14266
▁Craphead	-14267
▁Jacarutu	-14268
▁Moroccan	-14269
▁Shelburn	-14270
▁Shepherd	-14271
▁algerian	-14272
▁apparent	-14273
▁beveling	-14274
▁draughts	-14275
▁quenches	-14276
▁retroact	-14277
▁sympathy	-14278
▁Louisiana	-14279
▁Shelburne	-14280
▁behaviour	-14281
▁billboard	-14282
▁birthdays	-14283
▁bloodbath	-14284
▁bodyguard	-14285
▁bookstore	-14286
▁bothering	-14287
▁breakdown	-14288
▁buildings	-14289
▁bulkheads	-14290
▁burrowing	-14291
▁byproduct	-14292
▁candidate	-14293
▁carbuncle	-14294
▁catalogue	-14295
▁caterpill	-14296
▁catheters	-14297
▁certainty	-14298
▁checkbook	-14299
zia	-14300
▁22	-14301
▁23	-14302
acia	-14303
frog	-14304
gots	-14305
post	-14306
umbs	-14307
▁Mia	-14308
▁Tru	-14309
▁ski	-14310
adzia	-14311
eyond	-14312
imped	-14313
onnie	-14314
oster	-14315
oston	-14316
posts	-14317
umped	-14318
usher	-14319
▁Mush	-14320
▁feud	-14321
▁hoof	-14322
▁morb	-14323
▁morn	-14324
▁mush	-14325
▁sext	-14326
▁sush	-14327
aggots	-14328
heacia	-14329
refect	-14330
▁Means	-14331
▁Micky	-14332
▁doped	-14333
▁genre	-14334
▁moron	-14335
▁pours	-14336
▁skint	-14337
▁sunny	-14338
▁sushi	-14339
certain	-14340
idating	-14341
ivating	-14342
latched	-14343
petuate	-14344
ullfrog	-14345
▁Beyond	-14346
▁Boston	-14347
▁Foster	-14348
▁Herman	-14349
▁Jadzia	-14350
▁Konnie	-14351
▁childm	-14352
▁crumbs	-14353
▁hooked	-14354
▁imagin	-14355
▁misske	-14356
▁morbid	-14357
▁passen	-14358
▁pimped	-14359
▁pumped	-14360
▁rating	-14361
▁routef	-14362
▁saddle	-14363
▁seeped	-14364
▁warped	-14365
▁wrongs	-14366
aughting	-14367
bullfrog	-14368
▁Careful	-14369
▁Crusher	-14370
▁Letting	-14371
▁Pheacia	-14372
▁Prefect	-14373
▁Wheeler	-14374
▁faggots	-14375
▁missile	-14376
▁seating	-14377
▁sextant	-14378
▁signing	-14379
▁slaught	-14380
certained	-14381
▁Mushroom	-14382
▁Starting	-14383
▁backpack	-14384
▁hangnail	-14385
▁misskell	-14386
▁mornings	-14387
▁nothingn	-14388
▁outposts	-14389
▁programs	-14390
▁recreate	-14391
▁cherished	-14392
▁childlike	-14393
▁childmind	-14394
▁chocolate	-14395
▁classical	-14396
▁cleverest	-14397
▁colleague	-14398
▁community	-14399
300.	-14400
avor	-14401
cape	-14402
cede	-14403
uctu	-14404
wels	-14405
▁Moz	-14406
▁axe	-14407
alina	-14408
avant	-14409
kward	-14410
paint	-14411
weets	-14412
▁Bike	-14413
▁Stas	-14414
▁bike	-14415
▁buds	-14416
▁payw	-14417
▁penc	-14418
▁pike	-14419
izures	-14420
onents	-14421
ulties	-14422
▁Dyson	-14423
▁Stall	-14424
▁Stasi	-14425
▁Stone	-14426
▁Storm	-14427
▁chews	-14428
▁emanc	-14429
▁finer	-14430
▁vents	-14431
-232...	-14432
betters	-14433
▁Mozart	-14434
▁Sweets	-14435
▁commod	-14436
▁danced	-14437
▁flavor	-14438
▁fluctu	-14439
▁overwe	-14440
▁pencil	-14441
▁pikeys	-14442
▁scents	-14443
▁towels	-14444
imillion	-14445
uminator	-14446
▁Jeffrey	-14447
▁anomaly	-14448
▁awkward	-14449
▁creator	-14450
▁emancip	-14451
▁mercury	-14452
▁motherf	-14453
▁paywall	-14454
▁planets	-14455
▁precede	-14456
▁Menoptra	-14457
▁catalina	-14458
▁commence	-14459
▁contents	-14460
▁creators	-14461
▁seizures	-14462
▁sentries	-14463
▁supervis	-14464
▁tampered	-14465
▁Stallings	-14466
▁addressed	-14467
▁afterward	-14468
▁associate	-14469
▁commodity	-14470
▁compasses	-14471
▁compelled	-14472
▁concealed	-14473
▁conceived	-14474
▁concluded	-14475
▁conducted	-14476
▁confessed	-14477
▁confiding	-14478
▁confluent	-14479
▁consulted	-14480
▁container	-14481
▁continent	-14482
▁corrupted	-14483
▁cousteaus	-14484
▁criminals	-14485
▁crouching	-14486
▁cultivate	-14487
▁curiously	-14488
▁deafening	-14489
▁deception	-14490
▁decisions	-14491
▁decreased	-14492
▁defending	-14493
▁denigrate	-14494
▁denounced	-14495
▁deploying	-14496
▁deportees	-14497
▁deposited	-14498
▁describes	-14499
--<	-14500
ibi	-14501
rup	-14502
ssa	-14503
ups	-14504
arib	-14505
arms	-14506
sson	-14507
unts	-14508
▁24.	-14509
▁Arr	-14510
▁Cup	-14511
▁Ess	-14512
▁Sup	-14513
agina	-14514
gical	-14515
hello	-14516
lyssa	-14517
odian	-14518
ondas	-14519
orial	-14520
▁Banc	-14521
▁Cupc	-14522
▁gaps	-14523
▁kron	-14524
▁laps	-14525
▁naps	-14526
▁pond	-14527
▁pups	-14528
▁raps	-14529
▁ruth	-14530
▁secl	-14531
▁veal	-14532
iviner	-14533
▁5,000	-14534
▁Compl	-14535
▁Deser	-14536
▁Garib	-14537
▁alibi	-14538
▁aunts	-14539
▁eatin	-14540
▁elite	-14541
▁frees	-14542
▁handi	-14543
▁herds	-14544
▁lumps	-14545
▁minks	-14546
▁perms	-14547
▁sects	-14548
▁syrup	-14549
▁wraps	-14550
istical	-14551
ondered	-14552
ricsson	-14553
▁Alyssa	-14554
▁Bancro	-14555
▁Mondas	-14556
▁Walter	-14557
▁alarms	-14558
▁detach	-14559
▁entail	-14560
▁handiw	-14561
▁kroner	-14562
▁vagina	-14563
▁Arrange	-14564
▁Cupcake	-14565
▁Diviner	-14566
▁Supreme	-14567
▁chronic	-14568
▁despond	-14569
▁entreat	-14570
▁fightin	-14571
▁handful	-14572
▁handles	-14573
▁handout	-14574
▁plucked	-14575
▁preview	-14576
▁rehabil	-14577
ronomicon	-14578
▁Bancroft	-14579
▁Complain	-14580
▁Deserves	-14581
▁Ericsson	-14582
▁Wondered	-14583
▁allowing	-14584
▁almighty	-14585
▁impacted	-14586
▁medieval	-14587
▁radishes	-14588
▁ruthless	-14589
▁surgical	-14590
▁tangibly	-14591
▁transfer	-14592
▁Garibaldi	-14593
▁corporeal	-14594
▁corridors	-14595
▁custodian	-14596
▁designing	-14597
▁detective	-14598
▁diffusion	-14599
▁Vo	-14600
bles	-14601
dles	-14602
germ	-14603
lize	-14604
size	-14605
▁Ish	-14606
▁awh	-14607
▁gib	-14608
▁vet	-14609
ashes	-14610
geles	-14611
ggles	-14612
imics	-14613
imize	-14614
iples	-14615
lords	-14616
udges	-14617
urize	-14618
▁Cats	-14619
▁Chic	-14620
▁Cook	-14621
▁Iook	-14622
▁Stag	-14623
▁bash	-14624
▁dash	-14625
▁gash	-14626
▁rash	-14627
ablize	-14628
aubles	-14629
judges	-14630
placed	-14631
▁Baron	-14632
▁Chang	-14633
▁Chile	-14634
▁Chuck	-14635
▁Ishma	-14636
▁Perri	-14637
▁Voila	-14638
▁fewer	-14639
▁leash	-14640
▁relic	-14641
▁slash	-14642
uablize	-14643
▁Chicag	-14644
▁Stagec	-14645
▁awhile	-14646
▁gibber	-14647
▁lashes	-14648
▁mimics	-14649
▁nuance	-14650
▁pooped	-14651
▁rabbit	-14652
▁soiled	-14653
▁surger	-14654
▁therap	-14655
ceptable	-14656
ceptions	-14657
ologetic	-14658
ountiful	-14659
utations	-14660
▁Angeles	-14661
▁Chicago	-14662
▁Chuckie	-14663
▁Ishmael	-14664
▁Stageco	-14665
▁Winters	-14666
▁baubles	-14667
▁caskets	-14668
▁doubled	-14669
▁expense	-14670
▁goggles	-14671
▁hurdles	-14672
▁inducer	-14673
▁mystify	-14674
▁phrases	-14675
▁retains	-14676
▁therapy	-14677
berations	-14678
ressurize	-14679
▁Violence	-14680
▁incident	-14681
▁insisted	-14682
▁jewelled	-14683
▁maximize	-14684
▁somethin	-14685
▁vehement	-14686
▁warlords	-14687
▁Depending	-14688
▁Mutations	-14689
▁bountiful	-14690
▁directing	-14691
▁directory	-14692
▁distracts	-14693
▁diversity	-14694
▁documents	-14695
▁downloads	-14696
▁downstage	-14697
▁economies	-14698
▁electrons	-14699
Any	-14700
ggy	-14701
▁Ko	-14702
▁Kr	-14703
▁Ky	-14704
epad	-14705
ikin	-14706
nyth	-14707
tank	-14708
▁Kim	-14709
▁Kul	-14710
ankou	-14711
graph	-14712
nythi	-14713
phine	-14714
▁Cows	-14715
▁Dogg	-14716
▁Kind	-14717
▁Koon	-14718
▁Kyot	-14719
▁Spir	-14720
▁Wasn	-14721
▁jets	-14722
▁pets	-14723
▁rows	-14724
▁wets	-14725
ikinis	-14726
▁Krish	-14727
▁Kulok	-14728
▁Kyoto	-14729
▁Monty	-14730
▁doggy	-14731
▁frank	-14732
▁invas	-14733
▁poets	-14734
▁slows	-14735
▁tides	-14736
nations	-14737
▁Jungle	-14738
▁Kindon	-14739
▁Return	-14740
▁Spirit	-14741
▁agreed	-14742
▁comets	-14743
▁dashed	-14744
▁medull	-14745
▁mercil	-14746
▁supper	-14747
approved	-14748
jacketed	-14749
opulated	-14750
▁Krishna	-14751
▁bikinis	-14752
▁changel	-14753
▁deplete	-14754
▁earning	-14755
▁meteors	-14756
▁notepad	-14757
▁paradox	-14758
▁pineapp	-14759
▁presses	-14760
▁seasons	-14761
▁serving	-14762
▁whiting	-14763
mandatory	-14764
▁Malomars	-14765
▁delicacy	-14766
▁invasive	-14767
▁knuckles	-14768
▁morphine	-14769
▁vehicles	-14770
▁Returning	-14771
▁elephants	-14772
▁embryonic	-14773
▁empathize	-14774
▁encrypted	-14775
▁energetic	-14776
▁entitiled	-14777
▁envelopes	-14778
▁epileptic	-14779
▁everytime	-14780
▁evidently	-14781
▁examining	-14782
▁exceeding	-14783
▁exclusive	-14784
▁exemplary	-14785
▁exercised	-14786
▁exhausted	-14787
[...]
